{
  "version": "1.0",
  "truncation": null,
  "padding": null,
  "added_tokens": [],
  "normalizer": {
    "type": "Sequence",
    "normalizers": [
      {
        "type": "NFD"
      },
      {
        "type": "StripAccents"
      }
    ]
  },
  "pre_tokenizer": {
    "type": "Sequence",
    "pretokenizers": [
      {
        "type": "Metaspace",
        "replacement": "▁",
        "add_prefix_space": true
      },
      {
        "type": "Punctuation",
        "behavior": "Isolated"
      }
    ]
  },
  "post_processor": null,
  "decoder": {
    "type": "Metaspace",
    "replacement": "▁",
    "add_prefix_space": true
  },
  "model": {
    "type": "BPE",
    "dropout": null,
    "unk_token": null,
    "continuing_subword_prefix": null,
    "end_of_word_suffix": null,
    "fuse_unk": false,
    "vocab": {
      "\n": 0,
      "!": 1,
      "\"": 2,
      "#": 3,
      "$": 4,
      "%": 5,
      "&": 6,
      "'": 7,
      "(": 8,
      ")": 9,
      "*": 10,
      "+": 11,
      ",": 12,
      "-": 13,
      ".": 14,
      "/": 15,
      "0": 16,
      "1": 17,
      "2": 18,
      "3": 19,
      "4": 20,
      "5": 21,
      "6": 22,
      "7": 23,
      "8": 24,
      "9": 25,
      ":": 26,
      ";": 27,
      "<": 28,
      "=": 29,
      ">": 30,
      "?": 31,
      "@": 32,
      "A": 33,
      "B": 34,
      "C": 35,
      "D": 36,
      "E": 37,
      "F": 38,
      "G": 39,
      "H": 40,
      "I": 41,
      "J": 42,
      "K": 43,
      "L": 44,
      "M": 45,
      "N": 46,
      "O": 47,
      "P": 48,
      "Q": 49,
      "R": 50,
      "S": 51,
      "T": 52,
      "U": 53,
      "V": 54,
      "W": 55,
      "X": 56,
      "Y": 57,
      "Z": 58,
      "[": 59,
      "\\": 60,
      "]": 61,
      "^": 62,
      "_": 63,
      "a": 64,
      "b": 65,
      "c": 66,
      "d": 67,
      "e": 68,
      "f": 69,
      "g": 70,
      "h": 71,
      "i": 72,
      "j": 73,
      "k": 74,
      "l": 75,
      "m": 76,
      "n": 77,
      "o": 78,
      "p": 79,
      "q": 80,
      "r": 81,
      "s": 82,
      "t": 83,
      "u": 84,
      "v": 85,
      "w": 86,
      "x": 87,
      "y": 88,
      "z": 89,
      "{": 90,
      "|": 91,
      "}": 92,
      "▁": 93,
      "▁t": 94,
      "he": 95,
      "▁a": 96,
      "in": 97,
      "an": 98,
      "ou": 99,
      "▁s": 100,
      "▁the": 101,
      "re": 102,
      "▁w": 103,
      "er": 104,
      "on": 105,
      "ar": 106,
      "is": 107,
      "▁b": 108,
      "nd": 109,
      "at": 110,
      "le": 111,
      "▁h": 112,
      "it": 113,
      "▁c": 114,
      "ing": 115,
      "ll": 116,
      "▁d": 117,
      "▁to": 118,
      "▁f": 119,
      "▁m": 120,
      "▁g": 121,
      "es": 122,
      "en": 123,
      "▁o": 124,
      "▁y": 125,
      "▁and": 126,
      "or": 127,
      "▁p": 128,
      "▁you": 129,
      "▁C": 130,
      "om": 131,
      "ow": 132,
      "▁S": 133,
      "▁th": 134,
      "▁I": 135,
      "▁l": 136,
      "▁n": 137,
      "ay": 138,
      "art": 139,
      "▁of": 140,
      "ic": 141,
      "▁in": 142,
      "us": 143,
      "et": 144,
      "▁T": 145,
      "ed": 146,
      "▁M": 147,
      "oo": 148,
      "as": 149,
      "ve": 150,
      "al": 151,
      "ot": 152,
      "▁he": 153,
      "ut": 154,
      "id": 155,
      "ac": 156,
      "man": 157,
      "▁on": 158,
      "▁K": 159,
      "gh": 160,
      "▁is": 161,
      "im": 162,
      "artman": 163,
      "▁it": 164,
      "tan": 165,
      "▁Cartman": 166,
      "ad": 167,
      "out": 168,
      "▁B": 169,
      "▁be": 170,
      "ke": 171,
      "ter": 172,
      "▁r": 173,
      "hat": 174,
      "▁u": 175,
      "▁we": 176,
      "yle": 177,
      "▁e": 178,
      "▁st": 179,
      "ver": 180,
      "▁do": 181,
      "ght": 182,
      "▁Kyle": 183,
      "▁Stan": 184,
      "ld": 185,
      "ks": 186,
      "▁W": 187,
      "▁that": 188,
      "▁P": 189,
      "and": 190,
      "am": 191,
      "▁re": 192,
      "▁A": 193,
      "▁G": 194,
      "ight": 195,
      "▁k": 196,
      "▁his": 197,
      "ir": 198,
      "▁H": 199,
      "op": 200,
      "▁ha": 201,
      "ith": 202,
      "se": 203,
      "ome": 204,
      "▁R": 205,
      "▁with": 206,
      "ur": 207,
      "all": 208,
      "ly": 209,
      "▁for": 210,
      "▁up": 211,
      "▁are": 212,
      "ent": 213,
      "ch": 214,
      "▁j": 215,
      "▁sh": 216,
      "▁The": 217,
      "ee": 218,
      "▁at": 219,
      "ust": 220,
      "her": 221,
      "▁out": 222,
      "▁me": 223,
      "You": 224,
      "ie": 225,
      "st": 226,
      "▁go": 227,
      "▁an": 228,
      "ro": 229,
      "ters": 230,
      "▁J": 231,
      "ell": 232,
      "▁D": 233,
      "▁have": 234,
      "un": 235,
      "ack": 236,
      "ill": 237,
      "ion": 238,
      "▁le": 239,
      "▁fr": 240,
      "ah": 241,
      "ys": 242,
      "ho": 243,
      "▁ne": 244,
      "▁li": 245,
      "▁all": 246,
      "▁this": 247,
      "▁him": 248,
      "Oh": 249,
      "▁can": 250,
      "▁But": 251,
      "pp": 252,
      "rou": 253,
      "ra": 254,
      "▁get": 255,
      "▁L": 256,
      "▁as": 257,
      "▁Mr": 258,
      "one": 259,
      "▁just": 260,
      "ers": 261,
      "The": 262,
      "▁bo": 263,
      "ce": 264,
      "▁your": 265,
      "▁my": 266,
      "ck": 267,
      "andy": 268,
      "ak": 269,
      "▁Butters": 270,
      "▁what": 271,
      "▁loo": 272,
      "▁kn": 273,
      "ri": 274,
      "own": 275,
      "ard": 276,
      "▁N": 277,
      "ry": 278,
      "ris": 279,
      "ide": 280,
      "ig": 281,
      "ind": 282,
      "our": 283,
      "▁not": 284,
      "il": 285,
      "ore": 286,
      "ant": 287,
      "▁Randy": 288,
      "the": 289,
      "▁so": 290,
      "ud": 291,
      "ain": 292,
      "ny": 293,
      "ec": 294,
      "od": 295,
      "ake": 296,
      "▁off": 297,
      "ould": 298,
      "ol": 299,
      "ag": 300,
      "▁We": 301,
      "very": 302,
      "na": 303,
      "▁right": 304,
      "▁E": 305,
      "eah": 306,
      "▁don": 307,
      "▁know": 308,
      "▁He": 309,
      "▁back": 310,
      "ep": 311,
      "to": 312,
      "way": 313,
      "ip": 314,
      "▁ab": 315,
      "▁F": 316,
      "if": 317,
      "um": 318,
      "▁ch": 319,
      "ally": 320,
      "▁but": 321,
      "▁pl": 322,
      "▁was": 323,
      "▁then": 324,
      "ts": 325,
      "▁from": 326,
      "▁gu": 327,
      "hing": 328,
      "▁You": 329,
      "os": 330,
      "▁like": 331,
      "res": 332,
      "▁now": 333,
      "urn": 334,
      "▁O": 335,
      "enny": 336,
      "el": 337,
      "▁some": 338,
      "He": 339,
      "round": 340,
      "ves": 341,
      "ab": 342,
      "ink": 343,
      "What": 344,
      "ood": 345,
      "ice": 346,
      "ark": 347,
      "ick": 348,
      "▁here": 349,
      "▁about": 350,
      "▁us": 351,
      "Yeah": 352,
      "▁them": 353,
      "▁down": 354,
      "▁her": 355,
      "▁they": 356,
      "▁St": 357,
      "ong": 358,
      "▁see": 359,
      "▁su": 360,
      "▁cl": 361,
      "alks": 362,
      "▁over": 363,
      "ff": 364,
      "▁got": 365,
      "▁com": 366,
      "▁wor": 367,
      "ap": 368,
      "ars": 369,
      "kay": 370,
      "▁there": 371,
      "▁boys": 372,
      "eop": 373,
      "▁v": 374,
      "▁se": 375,
      "▁ag": 376,
      "eople": 377,
      "▁ro": 378,
      "▁Kenny": 379,
      "▁wh": 380,
      "ct": 381,
      "itt": 382,
      "are": 383,
      "hes": 384,
      "ther": 385,
      "hen": 386,
      "onna": 387,
      "▁al": 388,
      "▁no": 389,
      "▁into": 390,
      "alk": 391,
      "arris": 392,
      "qu": 393,
      "▁gonna": 394,
      "▁look": 395,
      "▁sp": 396,
      "my": 397,
      "▁away": 398,
      "est": 399,
      "▁door": 400,
      "les": 401,
      "▁our": 402,
      "▁one": 403,
      "ime": 404,
      "ul": 405,
      "em": 406,
      "▁who": 407,
      "▁around": 408,
      "arrison": 409,
      "ass": 410,
      "▁think": 411,
      "▁other": 412,
      "ace": 413,
      "▁people": 414,
      "▁Ch": 415,
      "▁Garrison": 416,
      "ont": 417,
      "Well": 418,
      "▁has": 419,
      "▁day": 420,
      "ool": 421,
      "nt": 422,
      "ive": 423,
      "▁want": 424,
      "We": 425,
      "▁kid": 426,
      "ast": 427,
      "No": 428,
      "▁any": 429,
      "use": 430,
      "ess": 431,
      "▁every": 432,
      "urns": 433,
      "ist": 434,
      "row": 435,
      "uck": 436,
      "▁did": 437,
      "ine": 438,
      "ate": 439,
      "▁their": 440,
      "here": 441,
      "outh": 442,
      "▁It": 443,
      "▁by": 444,
      "▁man": 445,
      "▁again": 446,
      "ge": 447,
      "key": 448,
      "▁sc": 449,
      "ile": 450,
      "ian": 451,
      "▁mo": 452,
      "ouse": 453,
      "ew": 454,
      "his": 455,
      "be": 456,
      "▁time": 457,
      "▁Jim": 458,
      "▁guys": 459,
      "ven": 460,
      "▁lo": 461,
      "akes": 462,
      "▁looks": 463,
      "ins": 464,
      "▁say": 465,
      "ude": 466,
      "th": 467,
      "ien": 468,
      "ond": 469,
      "ame": 470,
      "ure": 471,
      "ation": 472,
      "wo": 473,
      "ittle": 474,
      "▁walks": 475,
      "▁Sh": 476,
      "ies": 477,
      "tand": 478,
      "ause": 479,
      "uh": 480,
      "ving": 481,
      "up": 482,
      "▁bl": 483,
      "ops": 484,
      "▁need": 485,
      "▁sa": 486,
      "ree": 487,
      "▁hand": 488,
      "ft": 489,
      "▁app": 490,
      "It": 491,
      "▁tow": 492,
      "▁play": 493,
      "▁going": 494,
      "ous": 495,
      "▁little": 496,
      "Hey": 497,
      "▁fl": 498,
      "ull": 499,
      "▁She": 500,
      "▁Park": 501,
      "aa": 502,
      "▁room": 503,
      "▁de": 504,
      "side": 505,
      "other": 506,
      "ran": 507,
      "ook": 508,
      "▁come": 509,
      "ber": 510,
      "▁ex": 511,
      "▁if": 512,
      "▁head": 513,
      "ach": 514,
      "ild": 515,
      "▁1": 516,
      "▁house": 517,
      "ens": 518,
      "ait": 519,
      "ase": 520,
      "ings": 521,
      "But": 522,
      "▁en": 523,
      "rin": 524,
      "▁really": 525,
      "ich": 526,
      "▁make": 527,
      "▁let": 528,
      "▁will": 529,
      "hh": 530,
      "eral": 531,
      "ble": 532,
      "omet": 533,
      "ting": 534,
      "▁more": 535,
      "▁kids": 536,
      "age": 537,
      "ady": 538,
      "▁op": 539,
      "▁God": 540,
      "▁show": 541,
      "ave": 542,
      "▁take": 543,
      "▁way": 544,
      "ment": 545,
      "aron": 546,
      "hef": 547,
      "ity": 548,
      "▁pro": 549,
      "▁too": 550,
      "▁qu": 551,
      "▁start": 552,
      "▁sm": 553,
      "xt": 554,
      "ire": 555,
      "▁ar": 556,
      "▁new": 557,
      "▁how": 558,
      "ang": 559,
      "sel": 560,
      "▁tr": 561,
      "chool": 562,
      "reat": 563,
      "led": 564,
      "▁or": 565,
      "iend": 566,
      "That": 567,
      "▁been": 568,
      "▁somet": 569,
      "▁V": 570,
      "▁2": 571,
      "ater": 572,
      "AA": 573,
      "▁she": 574,
      "▁ho": 575,
      "ody": 576,
      "au": 577,
      "irl": 578,
      "And": 579,
      "ict": 580,
      "ary": 581,
      "▁And": 582,
      "▁Sharon": 583,
      "▁te": 584,
      "body": 585,
      "Uh": 586,
      "▁two": 587,
      "ound": 588,
      "▁co": 589,
      "ndy": 590,
      "▁does": 591,
      "▁good": 592,
      "▁Chef": 593,
      "ss": 594,
      "▁should": 595,
      "▁Mac": 596,
      "ren": 597,
      "Yes": 598,
      "fe": 599,
      "▁school": 600,
      "we": 601,
      "erald": 602,
      "ose": 603,
      "▁br": 604,
      "Stan": 605,
      "bo": 606,
      "▁would": 607,
      "air": 608,
      "ite": 609,
      "▁Mackey": 610,
      "▁try": 611,
      "▁talk": 612,
      "▁What": 613,
      "▁work": 614,
      "ue": 615,
      "oman": 616,
      "ps": 617,
      "ric": 618,
      "iss": 619,
      "▁mean": 620,
      "oll": 621,
      "▁put": 622,
      "▁Man": 623,
      "its": 624,
      "Cartman": 625,
      "de": 626,
      "thing": 627,
      "▁run": 628,
      "▁left": 629,
      "rough": 630,
      "get": 631,
      "▁could": 632,
      "▁night": 633,
      "rinc": 634,
      "oin": 635,
      "te": 636,
      "turns": 637,
      "mer": 638,
      "▁Jimmy": 639,
      "▁hel": 640,
      "hy": 641,
      "▁che": 642,
      "ial": 643,
      "▁when": 644,
      "▁dr": 645,
      "atch": 646,
      "ress": 647,
      "▁am": 648,
      "▁Gerald": 649,
      "able": 650,
      "ob": 651,
      "Okay": 652,
      "▁beg": 653,
      "▁through": 654,
      "▁bec": 655,
      "▁something": 656,
      "▁tell": 657,
      "▁An": 658,
      "▁They": 659,
      "red": 660,
      "ort": 661,
      "ank": 662,
      "right": 663,
      "▁cou": 664,
      "esus": 665,
      "▁Chris": 666,
      "▁und": 667,
      "ect": 668,
      "per": 669,
      "▁ass": 670,
      "▁bet": 671,
      "▁happ": 672,
      "olk": 673,
      "ade": 674,
      "▁stop": 675,
      "▁Wendy": 676,
      "ne": 677,
      "▁stand": 678,
      "ards": 679,
      "▁girl": 680,
      "▁were": 681,
      "▁friend": 682,
      "ents": 683,
      "rincip": 684,
      "ty": 685,
      "▁hell": 686,
      "Kyle": 687,
      "rincipal": 688,
      "▁walk": 689,
      "hind": 690,
      "aking": 691,
      "ear": 692,
      "▁doing": 693,
      "ears": 694,
      "iz": 695,
      "▁Cra": 696,
      "▁con": 697,
      "▁dis": 698,
      "br": 699,
      "▁front": 700,
      "▁mom": 701,
      "augh": 702,
      "▁next": 703,
      "self": 704,
      "ather": 705,
      "ta": 706,
      "lease": 707,
      "ms": 708,
      "▁turns": 709,
      "anna": 710,
      "▁ad": 711,
      "▁child": 712,
      "▁help": 713,
      "▁Y": 714,
      "▁where": 715,
      "▁car": 716,
      "ub": 717,
      "walks": 718,
      "▁face": 719,
      "olkien": 720,
      "▁had": 721,
      "alls": 722,
      "ish": 723,
      "ath": 724,
      "cer": 725,
      "▁wait": 726,
      "▁goes": 727,
      "▁wanna": 728,
      "▁That": 729,
      "▁cam": 730,
      "ger": 731,
      "▁still": 732,
      "▁comp": 733,
      "All": 734,
      "▁fuck": 735,
      "▁sec": 736,
      "▁bit": 737,
      "ident": 738,
      "▁big": 739,
      "▁wr": 740,
      "ord": 741,
      "orry": 742,
      "▁behind": 743,
      "ock": 744,
      "▁only": 745,
      "fore": 746,
      "ows": 747,
      "aw": 748,
      "ning": 749,
      "▁everyone": 750,
      "lie": 751,
      "▁okay": 752,
      "▁cont": 753,
      "▁uh": 754,
      "ches": 755,
      "▁sure": 756,
      "ia": 757,
      "▁im": 758,
      "▁bu": 759,
      "▁dude": 760,
      "▁May": 761,
      "eel": 762,
      "oy": 763,
      "▁pr": 764,
      "irst": 765,
      "ates": 766,
      "mo": 767,
      "Dude": 768,
      "ctor": 769,
      "▁ph": 770,
      "▁pre": 771,
      "▁In": 772,
      "▁Principal": 773,
      "▁sl": 774,
      "▁home": 775,
      "▁town": 776,
      "▁U": 777,
      "ott": 778,
      "oney": 779,
      "▁boy": 780,
      "▁Craig": 781,
      "▁Tolkien": 782,
      "act": 783,
      "▁Do": 784,
      "aves": 785,
      "rance": 786,
      "icer": 787,
      "ans": 788,
      "▁Sc": 789,
      "cks": 790,
      "lyde": 791,
      "▁gets": 792,
      "▁find": 793,
      "▁thing": 794,
      "This": 795,
      "av": 796,
      "igh": 797,
      "▁ke": 798,
      "▁af": 799,
      "▁said": 800,
      "sh": 801,
      "▁even": 802,
      "▁takes": 803,
      "South": 804,
      "pl": 805,
      "▁gr": 806,
      "ious": 807,
      "▁didn": 808,
      "▁South": 809,
      "▁Th": 810,
      "oh": 811,
      "▁Jesus": 812,
      "rowd": 813,
      "uff": 814,
      "▁well": 815,
      "bs": 816,
      "ough": 817,
      "iane": 818,
      "▁because": 819,
      "▁very": 820,
      "ephen": 821,
      "▁watch": 822,
      "ila": 823,
      "▁ey": 824,
      "▁Oh": 825,
      "▁another": 826,
      "upid": 827,
      "wee": 828,
      "era": 829,
      "ope": 830,
      "ons": 831,
      "▁than": 832,
      "aches": 833,
      "▁being": 834,
      "So": 835,
      "▁Christ": 836,
      "▁Be": 837,
      "▁un": 838,
      "▁scre": 839,
      "orm": 840,
      "oun": 841,
      "▁each": 842,
      "▁act": 843,
      "ug": 844,
      "▁later": 845,
      "▁Stephen": 846,
      "▁Ph": 847,
      "▁res": 848,
      "Al": 849,
      "▁Eric": 850,
      "immy": 851,
      "▁Liane": 852,
      "▁ac": 853,
      "▁hold": 854,
      "ily": 855,
      "▁before": 856,
      "▁Mrs": 857,
      "aren": 858,
      "▁first": 859,
      "▁why": 860,
      "uch": 861,
      "▁This": 862,
      "eps": 863,
      "▁Off": 864,
      "▁side": 865,
      "resident": 866,
      "Who": 867,
      "ated": 868,
      "▁part": 869,
      "▁bus": 870,
      "ign": 871,
      "Mr": 872,
      "▁Sheila": 873,
      "room": 874,
      "▁Jimbo": 875,
      "rap": 876,
      "▁wind": 877,
      "ooks": 878,
      "oor": 879,
      "▁Clyde": 880,
      "▁never": 881,
      "week": 882,
      "dam": 883,
      "▁great": 884,
      "▁lot": 885,
      "▁real": 886,
      "day": 887,
      "▁des": 888,
      "▁bed": 889,
      "▁shot": 890,
      "▁cr": 891,
      "▁give": 892,
      "▁Bar": 893,
      "▁sorry": 894,
      "▁laugh": 895,
      "▁these": 896,
      "▁feel": 897,
      "Butters": 898,
      "▁table": 899,
      "▁fun": 900,
      "icks": 901,
      "Come": 902,
      "ner": 903,
      "▁turn": 904,
      "ulls": 905,
      "oth": 906,
      "ating": 907,
      "▁love": 908,
      "▁open": 909,
      "▁much": 910,
      "ember": 911,
      "app": 912,
      "▁Dr": 913,
      "▁gl": 914,
      "▁camera": 915,
      "▁crowd": 916,
      "▁begins": 917,
      "▁while": 918,
      "ash": 919,
      "▁long": 920,
      "▁children": 921,
      "▁foll": 922,
      "hed": 923,
      "▁opens": 924,
      "▁better": 925,
      "▁class": 926,
      "ise": 927,
      "▁doesn": 928,
      "▁yeah": 929,
      "▁Can": 930,
      "ross": 931,
      "▁clos": 932,
      "▁fin": 933,
      "▁inside": 934,
      "▁isn": 935,
      "Alright": 936,
      "▁second": 937,
      "arents": 938,
      "▁belie": 939,
      "▁dri": 940,
      "▁call": 941,
      "▁comes": 942,
      "▁Bl": 943,
      "▁hands": 944,
      "ought": 945,
      "▁No": 946,
      "ww": 947,
      "They": 948,
      "▁Ike": 949,
      "▁towards": 950,
      "vin": 951,
      "ads": 952,
      "▁Mc": 953,
      "▁gotta": 954,
      "▁Mayor": 955,
      "▁tri": 956,
      "▁those": 957,
      "▁few": 958,
      "▁Tweek": 959,
      "gr": 960,
      "ned": 961,
      "▁may": 962,
      "dy": 963,
      "▁money": 964,
      "oot": 965,
      "idi": 966,
      "▁shown": 967,
      "▁3": 968,
      "▁parents": 969,
      "▁phone": 970,
      "How": 971,
      "▁made": 972,
      "errance": 973,
      "▁Ms": 974,
      "▁Br": 975,
      "▁kind": 976,
      "ale": 977,
      "▁three": 978,
      "▁ow": 979,
      "anc": 980,
      "▁happen": 981,
      "▁Officer": 982,
      "Hell": 983,
      "Now": 984,
      "ved": 985,
      "▁son": 986,
      "▁after": 987,
      "▁bre": 988,
      "ets": 989,
      "unch": 990,
      "ance": 991,
      "▁things": 992,
      "▁All": 993,
      "▁leave": 994,
      "▁PC": 995,
      "oon": 996,
      "▁place": 997,
      "▁Now": 998,
      "▁looking": 999,
      "▁men": 1000,
      "ions": 1001,
      "▁world": 1002,
      "uts": 1003,
      "▁stud": 1004,
      "▁Cl": 1005,
      "▁must": 1006,
      "▁heard": 1007,
      "▁end": 1008,
      "▁How": 1009,
      "▁sw": 1010,
      "aring": 1011,
      "▁President": 1012,
      "imes": 1013,
      "▁believe": 1014,
      "▁eyes": 1015,
      "pt": 1016,
      "▁kill": 1017,
      "▁woman": 1018,
      "▁window": 1019,
      "ats": 1020,
      "usic": 1021,
      "▁stupid": 1022,
      "There": 1023,
      "erson": 1024,
      "▁ever": 1025,
      "▁There": 1026,
      "▁keep": 1027,
      "▁bad": 1028,
      "▁gi": 1029,
      "▁list": 1030,
      "▁which": 1031,
      "▁getting": 1032,
      "▁pict": 1033,
      "▁rep": 1034,
      "ute": 1035,
      "Th": 1036,
      "illip": 1037,
      "▁rem": 1038,
      "ator": 1039,
      "▁stops": 1040,
      "▁Sp": 1041,
      "▁Mars": 1042,
      "▁last": 1043,
      "ple": 1044,
      "▁min": 1045,
      "▁outside": 1046,
      "lo": 1047,
      "▁att": 1048,
      "▁appears": 1049,
      "erstand": 1050,
      "▁appro": 1051,
      "▁thought": 1052,
      "umb": 1053,
      "ls": 1054,
      "aces": 1055,
      "▁Timmy": 1056,
      "▁fam": 1057,
      "▁rest": 1058,
      "▁Let": 1059,
      "meric": 1060,
      "▁Ste": 1061,
      "ok": 1062,
      "eter": 1063,
      "▁anything": 1064,
      "▁trying": 1065,
      "▁understand": 1066,
      "▁ser": 1067,
      "Look": 1068,
      "brady": 1069,
      "ually": 1070,
      "acks": 1071,
      "▁el": 1072,
      "▁supp": 1073,
      "▁Phillip": 1074,
      "▁stre": 1075,
      "▁per": 1076,
      "ward": 1077,
      "▁please": 1078,
      "▁care": 1079,
      "▁own": 1080,
      "▁Terrance": 1081,
      "veryone": 1082,
      "az": 1083,
      "ex": 1084,
      "▁girls": 1085,
      "Don": 1086,
      "tain": 1087,
      "lly": 1088,
      "mentary": 1089,
      "oice": 1090,
      "so": 1091,
      "more": 1092,
      "▁four": 1093,
      "less": 1094,
      "▁4": 1095,
      "▁friends": 1096,
      "by": 1097,
      "▁hu": 1098,
      "noun": 1099,
      "St": 1100,
      "▁Barbrady": 1101,
      "lementary": 1102,
      "ory": 1103,
      "▁Heidi": 1104,
      "cl": 1105,
      "▁Woman": 1106,
      "son": 1107,
      "▁If": 1108,
      "ips": 1109,
      "hole": 1110,
      "Hello": 1111,
      "▁cal": 1112,
      "ax": 1113,
      "▁bab": 1114,
      "▁seen": 1115,
      "ike": 1116,
      "ley": 1117,
      "▁spe": 1118,
      "ount": 1119,
      "they": 1120,
      "og": 1121,
      "uns": 1122,
      "▁guy": 1123,
      "ik": 1124,
      "Why": 1125,
      "▁runs": 1126,
      "▁So": 1127,
      "ants": 1128,
      "sw": 1129,
      "▁Tom": 1130,
      "▁life": 1131,
      "inger": 1132,
      "▁Elementary": 1133,
      "▁cle": 1134,
      "▁under": 1135,
      "gether": 1136,
      "der": 1137,
      "ience": 1138,
      "▁starts": 1139,
      "mm": 1140,
      "▁Te": 1141,
      "▁light": 1142,
      "ail": 1143,
      "▁wrong": 1144,
      "▁told": 1145,
      "▁music": 1146,
      "▁fight": 1147,
      "▁himself": 1148,
      "▁Scott": 1149,
      "▁sk": 1150,
      "ork": 1151,
      "▁Americ": 1152,
      "▁plan": 1153,
      "▁Al": 1154,
      "00": 1155,
      "Do": 1156,
      "▁fat": 1157,
      "▁talking": 1158,
      "Sh": 1159,
      "▁hard": 1160,
      "Kenny": 1161,
      "▁sn": 1162,
      "olice": 1163,
      "aps": 1164,
      "ever": 1165,
      "▁pulls": 1166,
      "▁name": 1167,
      "▁shit": 1168,
      "inda": 1169,
      "looks": 1170,
      "▁stuff": 1171,
      "▁everything": 1172,
      "▁won": 1173,
      "arm": 1174,
      "▁guess": 1175,
      "▁playing": 1176,
      "▁TV": 1177,
      "ling": 1178,
      "ese": 1179,
      "▁move": 1180,
      "▁cool": 1181,
      "▁Marsh": 1182,
      "▁its": 1183,
      "ton": 1184,
      "▁proble": 1185,
      "vers": 1186,
      "▁old": 1187,
      "▁Re": 1188,
      "▁else": 1189,
      "▁together": 1190,
      "▁pass": 1191,
      "▁might": 1192,
      "▁Dad": 1193,
      "ises": 1194,
      "atter": 1195,
      "▁sign": 1196,
      "amp": 1197,
      "ix": 1198,
      "mas": 1199,
      "▁ent": 1200,
      "ream": 1201,
      "ecial": 1202,
      "roup": 1203,
      "iv": 1204,
      "▁news": 1205,
      "AAAA": 1206,
      "▁huh": 1207,
      "▁pos": 1208,
      "iew": 1209,
      "▁office": 1210,
      "▁quick": 1211,
      "▁ide": 1212,
      "ands": 1213,
      "elie": 1214,
      "ler": 1215,
      "▁sits": 1216,
      "▁rec": 1217,
      "▁follow": 1218,
      "▁set": 1219,
      "ng": 1220,
      "▁done": 1221,
      "▁Linda": 1222,
      "▁Canad": 1223,
      "orn": 1224,
      "▁leaves": 1225,
      "▁living": 1226,
      "▁box": 1227,
      "▁doll": 1228,
      "weet": 1229,
      "ha": 1230,
      "rr": 1231,
      "ower": 1232,
      "ier": 1233,
      "▁Sat": 1234,
      "▁nice": 1235,
      "tty": 1236,
      "ways": 1237,
      "▁sound": 1238,
      "▁best": 1239,
      "▁listen": 1240,
      "ful": 1241,
      "▁aw": 1242,
      "▁sur": 1243,
      "My": 1244,
      "ues": 1245,
      "▁sit": 1246,
      "▁Come": 1247,
      "▁coming": 1248,
      "inks": 1249,
      "iles": 1250,
      "▁lead": 1251,
      "▁Bebe": 1252,
      "▁poin": 1253,
      "▁ask": 1254,
      "rows": 1255,
      "▁bro": 1256,
      "itc": 1257,
      "▁Han": 1258,
      "▁nothing": 1259,
      "▁family": 1260,
      "ield": 1261,
      "She": 1262,
      "mb": 1263,
      "▁person": 1264,
      "▁Mom": 1265,
      "ump": 1266,
      "ange": 1267,
      "▁floor": 1268,
      "nouncer": 1269,
      "ices": 1270,
      "▁stay": 1271,
      "▁hall": 1272,
      "▁imp": 1273,
      "head": 1274,
      "ors": 1275,
      "▁picture": 1276,
      "raw": 1277,
      "▁Vict": 1278,
      "Wow": 1279,
      "▁tra": 1280,
      "▁New": 1281,
      "▁count": 1282,
      "▁stands": 1283,
      "▁today": 1284,
      "oria": 1285,
      "▁enough": 1286,
      "Randy": 1287,
      "ove": 1288,
      "▁Bill": 1289,
      "ohn": 1290,
      "▁answ": 1291,
      "▁maybe": 1292,
      "Let": 1293,
      "als": 1294,
      "▁Fr": 1295,
      "ipp": 1296,
      "ama": 1297,
      "▁Red": 1298,
      "osed": 1299,
      "go": 1300,
      "where": 1301,
      "ush": 1302,
      "▁ready": 1303,
      "OO": 1304,
      "▁fire": 1305,
      "▁small": 1306,
      "In": 1307,
      "▁dam": 1308,
      "▁bitch": 1309,
      "▁Victoria": 1310,
      "▁makes": 1311,
      "ene": 1312,
      "▁pretty": 1313,
      "▁Don": 1314,
      "▁dead": 1315,
      "▁Announcer": 1316,
      "▁whole": 1317,
      "▁actually": 1318,
      "ael": 1319,
      "▁most": 1320,
      "▁says": 1321,
      "anks": 1322,
      "arts": 1323,
      "▁hear": 1324,
      "▁Well": 1325,
      "▁ang": 1326,
      "▁game": 1327,
      "▁Hankey": 1328,
      "▁song": 1329,
      "du": 1330,
      "ides": 1331,
      "▁Chin": 1332,
      "ichael": 1333,
      "▁begin": 1334,
      "▁contin": 1335,
      "▁cour": 1336,
      "tant": 1337,
      "ries": 1338,
      "ult": 1339,
      "roll": 1340,
      "▁use": 1341,
      "ied": 1342,
      "▁group": 1343,
      "orter": 1344,
      "▁Why": 1345,
      "udd": 1346,
      "sy": 1347,
      "▁ground": 1348,
      "▁live": 1349,
      "▁mouth": 1350,
      "▁My": 1351,
      "ared": 1352,
      "▁moves": 1353,
      "▁pres": 1354,
      "▁idea": 1355,
      "arr": 1356,
      "▁Shelly": 1357,
      "ying": 1358,
      "▁read": 1359,
      "▁vide": 1360,
      "▁others": 1361,
      "lder": 1362,
      "▁Christmas": 1363,
      "Aw": 1364,
      "pa": 1365,
      "▁enters": 1366,
      "Huh": 1367,
      "▁Mar": 1368,
      "▁chair": 1369,
      "▁screen": 1370,
      "enter": 1371,
      "iet": 1372,
      "▁sees": 1373,
      "oc": 1374,
      "▁sir": 1375,
      "▁Doctor": 1376,
      "▁desk": 1377,
      "rent": 1378,
      "▁Jew": 1379,
      "▁wee": 1380,
      "▁Gu": 1381,
      "▁lear": 1382,
      "rest": 1383,
      "▁ca": 1384,
      "▁gay": 1385,
      "sk": 1386,
      "▁Gr": 1387,
      "▁having": 1388,
      "sp": 1389,
      "▁word": 1390,
      "▁build": 1391,
      "▁bar": 1392,
      "▁gra": 1393,
      "▁steps": 1394,
      "▁John": 1395,
      "ife": 1396,
      "ntil": 1397,
      "▁saying": 1398,
      "owelie": 1399,
      "opp": 1400,
      "ecause": 1401,
      "ball": 1402,
      "▁black": 1403,
      "aur": 1404,
      "takes": 1405,
      "▁sing": 1406,
      "▁line": 1407,
      "▁Michael": 1408,
      "▁ev": 1409,
      "▁making": 1410,
      "rof": 1411,
      "▁Just": 1412,
      "ction": 1413,
      "▁onto": 1414,
      "any": 1415,
      "▁dad": 1416,
      "oooo": 1417,
      "udience": 1418,
      "God": 1419,
      "ape": 1420,
      "▁puts": 1421,
      "▁Satan": 1422,
      "▁times": 1423,
      "▁dif": 1424,
      "▁Uh": 1425,
      "leep": 1426,
      "▁gun": 1427,
      "▁street": 1428,
      "aper": 1429,
      "▁along": 1430,
      "anie": 1431,
      "▁Le": 1432,
      "tern": 1433,
      "▁arri": 1434,
      "▁problem": 1435,
      "vis": 1436,
      "umps": 1437,
      "gets": 1438,
      "len": 1439,
      "▁book": 1440,
      "▁dress": 1441,
      "▁Coon": 1442,
      "▁called": 1443,
      "itch": 1444,
      "ams": 1445,
      "ence": 1446,
      "aks": 1447,
      "▁bas": 1448,
      "ures": 1449,
      "▁Yates": 1450,
      "ib": 1451,
      "▁crap": 1452,
      "▁enter": 1453,
      "ient": 1454,
      "mit": 1455,
      "▁water": 1456,
      "▁voice": 1457,
      "▁arms": 1458,
      "▁Bo": 1459,
      "▁until": 1460,
      "▁near": 1461,
      "io": 1462,
      "old": 1463,
      "▁ter": 1464,
      "ention": 1465,
      "ph": 1466,
      "▁dec": 1467,
      "▁meet": 1468,
      "▁shows": 1469,
      "▁both": 1470,
      "you": 1471,
      "▁air": 1472,
      "▁police": 1473,
      "▁sex": 1474,
      "▁always": 1475,
      "▁found": 1476,
      "▁same": 1477,
      "Just": 1478,
      "fr": 1479,
      "ief": 1480,
      "fa": 1481,
      "▁ret": 1482,
      "▁stage": 1483,
      "airs": 1484,
      "not": 1485,
      "arge": 1486,
      "▁El": 1487,
      "▁anymore": 1488,
      "▁bring": 1489,
      "gg": 1490,
      "rong": 1491,
      "ition": 1492,
      "itting": 1493,
      "ible": 1494,
      "ru": 1495,
      "reen": 1496,
      "▁falls": 1497,
      "▁change": 1498,
      "▁matter": 1499,
      "acher": 1500,
      "aniels": 1501,
      "Not": 1502,
      "arry": 1503,
      "▁miss": 1504,
      "ushes": 1505,
      "▁arm": 1506,
      "▁mor": 1507,
      "nit": 1508,
      "ists": 1509,
      "▁Pip": 1510,
      "come": 1511,
      "sc": 1512,
      "▁cor": 1513,
      "▁yes": 1514,
      "▁fucking": 1515,
      "▁watching": 1516,
      "▁supposed": 1517,
      "▁em": 1518,
      "▁McD": 1519,
      "▁video": 1520,
      "If": 1521,
      "▁fine": 1522,
      "illed": 1523,
      "▁seat": 1524,
      "aaaa": 1525,
      "hhh": 1526,
      "▁cho": 1527,
      "▁Towelie": 1528,
      "▁forward": 1529,
      "▁aren": 1530,
      "ids": 1531,
      "▁McDaniels": 1532,
      "atches": 1533,
      "▁hur": 1534,
      "rew": 1535,
      "▁wall": 1536,
      "▁deal": 1537,
      "▁park": 1538,
      "▁red": 1539,
      "▁finally": 1540,
      "Wait": 1541,
      "che": 1542,
      "▁Is": 1543,
      "▁roll": 1544,
      "▁Rep": 1545,
      "▁join": 1546,
      "▁balls": 1547,
      "▁past": 1548,
      "▁On": 1549,
      "▁against": 1550,
      "▁happened": 1551,
      "Ah": 1552,
      "form": 1553,
      "▁taking": 1554,
      "ready": 1555,
      "▁hang": 1556,
      "ird": 1557,
      "▁resp": 1558,
      "co": 1559,
      "ret": 1560,
      "▁die": 1561,
      "▁pen": 1562,
      "▁tw": 1563,
      "▁job": 1564,
      "▁De": 1565,
      "▁heads": 1566,
      "Get": 1567,
      "cept": 1568,
      "▁offic": 1569,
      "selves": 1570,
      "▁eat": 1571,
      "▁rings": 1572,
      "▁view": 1573,
      "▁audience": 1574,
      "▁As": 1575,
      "ians": 1576,
      "▁closes": 1577,
      "▁approaches": 1578,
      "itchen": 1579,
      "▁country": 1580,
      "ual": 1581,
      "mor": 1582,
      "▁ball": 1583,
      "▁once": 1584,
      "▁acc": 1585,
      "runs": 1586,
      "▁win": 1587,
      "idd": 1588,
      "▁doors": 1589,
      "▁Me": 1590,
      "oop": 1591,
      "anta": 1592,
      "▁already": 1593,
      "▁took": 1594,
      "▁special": 1595,
      "▁prot": 1596,
      "rol": 1597,
      "▁z": 1598,
      "▁sweet": 1599,
      "▁close": 1600,
      "▁plays": 1601,
      "▁food": 1602,
      "arth": 1603,
      "▁Two": 1604,
      "▁soon": 1605,
      "ize": 1606,
      "▁free": 1607,
      "itty": 1608,
      "moves": 1609,
      "imm": 1610,
      "▁across": 1611,
      "Whoa": 1612,
      "men": 1613,
      "▁tot": 1614,
      "▁mar": 1615,
      "ason": 1616,
      "Ch": 1617,
      "▁pay": 1618,
      "▁quickly": 1619,
      "▁5": 1620,
      "▁oh": 1621,
      "▁check": 1622,
      "▁students": 1623,
      "cuse": 1624,
      "ness": 1625,
      "ister": 1626,
      "▁Who": 1627,
      "▁diffe": 1628,
      "▁Wh": 1629,
      "▁Go": 1630,
      "Here": 1631,
      "▁break": 1632,
      "▁Ne": 1633,
      "▁funny": 1634,
      "▁remember": 1635,
      "▁alone": 1636,
      "▁came": 1637,
      "enn": 1638,
      "▁store": 1639,
      "▁shut": 1640,
      "▁body": 1641,
      "agin": 1642,
      "▁everybody": 1643,
      "ots": 1644,
      "irt": 1645,
      "▁din": 1646,
      "uter": 1647,
      "▁mov": 1648,
      "▁hair": 1649,
      "▁lock": 1650,
      "Can": 1651,
      "▁wanted": 1652,
      "iness": 1653,
      "▁high": 1654,
      "▁Sm": 1655,
      "▁kitchen": 1656,
      "ost": 1657,
      "▁tur": 1658,
      "▁Com": 1659,
      "▁someone": 1660,
      "▁years": 1661,
      "owers": 1662,
      "▁baby": 1663,
      "ces": 1664,
      "▁war": 1665,
      "▁sofa": 1666,
      "▁morning": 1667,
      "Good": 1668,
      "▁hot": 1669,
      "▁gone": 1670,
      "▁Col": 1671,
      "ooo": 1672,
      "oke": 1673,
      "▁course": 1674,
      "ames": 1675,
      "▁wants": 1676,
      "poin": 1677,
      "ium": 1678,
      "▁drops": 1679,
      "▁add": 1680,
      "▁minute": 1681,
      "Where": 1682,
      "ering": 1683,
      "▁paper": 1684,
      "uth": 1685,
      "ement": 1686,
      "▁Steven": 1687,
      "att": 1688,
      "▁ra": 1689,
      "▁saw": 1690,
      "▁hey": 1691,
      "▁foot": 1692,
      "aken": 1693,
      "▁days": 1694,
      "ih": 1695,
      "rying": 1696,
      "▁serious": 1697,
      "▁mind": 1698,
      "▁ya": 1699,
      "▁young": 1700,
      "▁without": 1701,
      "▁bur": 1702,
      "▁Mark": 1703,
      "ote": 1704,
      "▁Boy": 1705,
      "▁Ned": 1706,
      "ween": 1707,
      "ney": 1708,
      "▁seconds": 1709,
      "cle": 1710,
      "eneral": 1711,
      "ical": 1712,
      "▁cra": 1713,
      "▁fore": 1714,
      "gins": 1715,
      "▁five": 1716,
      "axi": 1717,
      "igg": 1718,
      "Jesus": 1719,
      "oof": 1720,
      "▁Thom": 1721,
      "▁cur": 1722,
      "▁rid": 1723,
      "kes": 1724,
      "▁father": 1725,
      "ations": 1726,
      "▁blood": 1727,
      "▁happy": 1728,
      "no": 1729,
      "▁full": 1730,
      "▁wearing": 1731,
      "ours": 1732,
      "els": 1733,
      "▁hope": 1734,
      "ital": 1735,
      "▁Okay": 1736,
      "▁such": 1737,
      "▁scene": 1738,
      "▁Con": 1739,
      "▁Dav": 1740,
      "▁Grand": 1741,
      "▁hate": 1742,
      "▁fe": 1743,
      "aster": 1744,
      "oses": 1745,
      "▁present": 1746,
      "Eric": 1747,
      "▁bath": 1748,
      "ilet": 1749,
      "athan": 1750,
      "▁continues": 1751,
      "ground": 1752,
      "ror": 1753,
      "▁Yeah": 1754,
      "▁Bob": 1755,
      "▁waiting": 1756,
      "elly": 1757,
      "▁quest": 1758,
      "ii": 1759,
      "▁mother": 1760,
      "▁Get": 1761,
      "▁comm": 1762,
      "▁white": 1763,
      "▁working": 1764,
      "most": 1765,
      "ingers": 1766,
      "land": 1767,
      "▁sim": 1768,
      "omen": 1769,
      "▁eating": 1770,
      "hold": 1771,
      "olog": 1772,
      "▁Santa": 1773,
      "eep": 1774,
      "hin": 1775,
      "she": 1776,
      "▁ce": 1777,
      "▁chang": 1778,
      "▁computer": 1779,
      "cause": 1780,
      "▁inter": 1781,
      "▁stri": 1782,
      "▁hor": 1783,
      "▁Everyone": 1784,
      "hest": 1785,
      "▁sy": 1786,
      "ults": 1787,
      "▁many": 1788,
      "ense": 1789,
      "alf": 1790,
      "Is": 1791,
      "Are": 1792,
      "▁tomor": 1793,
      "▁mon": 1794,
      "▁Hat": 1795,
      "▁Look": 1796,
      "▁suck": 1797,
      "lov": 1798,
      "▁tomorrow": 1799,
      "Me": 1800,
      "▁band": 1801,
      "▁pants": 1802,
      "▁Sl": 1803,
      "ics": 1804,
      "ete": 1805,
      "▁kick": 1806,
      "▁goin": 1807,
      "▁super": 1808,
      "aah": 1809,
      "onight": 1810,
      "▁Some": 1811,
      "▁Je": 1812,
      "ugs": 1813,
      "▁party": 1814,
      "▁totally": 1815,
      "ony": 1816,
      "▁mill": 1817,
      "▁One": 1818,
      "▁Cho": 1819,
      "▁Hall": 1820,
      "ov": 1821,
      "ones": 1822,
      "▁couple": 1823,
      "iting": 1824,
      "uss": 1825,
      "exic": 1826,
      "▁dollars": 1827,
      "points": 1828,
      "ives": 1829,
      "iday": 1830,
      "▁somebody": 1831,
      "▁Steve": 1832,
      "▁boo": 1833,
      "▁toilet": 1834,
      "▁Ag": 1835,
      "▁means": 1836,
      "▁between": 1837,
      "▁building": 1838,
      "▁Hey": 1839,
      "▁conf": 1840,
      "▁different": 1841,
      "Re": 1842,
      "cial": 1843,
      "▁6": 1844,
      "ither": 1845,
      "▁yet": 1846,
      "▁power": 1847,
      "▁Maxi": 1848,
      "▁doctor": 1849,
      "yster": 1850,
      "▁taken": 1851,
      "▁mic": 1852,
      "▁year": 1853,
      "▁pie": 1854,
      "iff": 1855,
      "begins": 1856,
      "▁true": 1857,
      "▁follows": 1858,
      "Hi": 1859,
      "now": 1860,
      "used": 1861,
      "ooh": 1862,
      "▁People": 1863,
      "▁expl": 1864,
      "roflov": 1865,
      "▁butt": 1866,
      "▁leader": 1867,
      "roflovsk": 1868,
      "▁sleep": 1869,
      "▁cut": 1870,
      "▁pri": 1871,
      "▁Car": 1872,
      "▁rel": 1873,
      "▁wasn": 1874,
      "▁moment": 1875,
      "▁holding": 1876,
      "▁thank": 1877,
      "vel": 1878,
      "▁Q": 1879,
      "ines": 1880,
      "▁holds": 1881,
      "lete": 1882,
      "▁teacher": 1883,
      "▁drink": 1884,
      "ternet": 1885,
      "aving": 1886,
      "oe": 1887,
      "ince": 1888,
      "▁sitting": 1889,
      "stops": 1890,
      "▁tries": 1891,
      "▁bathroom": 1892,
      "Go": 1893,
      "zy": 1894,
      "▁mess": 1895,
      "vern": 1896,
      "▁dog": 1897,
      "amm": 1898,
      "▁coun": 1899,
      "▁top": 1900,
      "▁ru": 1901,
      "▁business": 1902,
      "esome": 1903,
      "Then": 1904,
      "▁used": 1905,
      "▁also": 1906,
      "▁control": 1907,
      "▁impor": 1908,
      "▁answer": 1909,
      "me": 1910,
      "ted": 1911,
      "▁went": 1912,
      "▁dou": 1913,
      "▁gas": 1914,
      "lic": 1915,
      "▁draw": 1916,
      "▁large": 1917,
      "▁killed": 1918,
      "▁walking": 1919,
      "ited": 1920,
      "▁cross": 1921,
      "ahah": 1922,
      "▁slow": 1923,
      "▁hallway": 1924,
      "vice": 1925,
      "▁dream": 1926,
      "▁His": 1927,
      "▁Your": 1928,
      "▁wife": 1929,
      "▁Mexic": 1930,
      "iddle": 1931,
      "ject": 1932,
      "▁bull": 1933,
      "▁Are": 1934,
      "raid": 1935,
      "▁board": 1936,
      "Mom": 1937,
      "puts": 1938,
      "▁wond": 1939,
      "erry": 1940,
      "▁fell": 1941,
      "▁pain": 1942,
      "▁leg": 1943,
      "▁col": 1944,
      "▁dumb": 1945,
      "idy": 1946,
      "▁Den": 1947,
      "uart": 1948,
      "▁squ": 1949,
      "urity": 1950,
      "▁Here": 1951,
      "ky": 1952,
      "▁bag": 1953,
      "uture": 1954,
      "▁yourself": 1955,
      "aptain": 1956,
      "▁appear": 1957,
      "goes": 1958,
      "ocks": 1959,
      "▁law": 1960,
      "▁reaches": 1961,
      "ephest": 1962,
      "osp": 1963,
      "▁America": 1964,
      "▁Reporter": 1965,
      "▁Jeff": 1966,
      "▁hon": 1967,
      "▁movie": 1968,
      "ephesto": 1969,
      "▁fly": 1970,
      "▁pull": 1971,
      "▁throws": 1972,
      "▁ele": 1973,
      "apan": 1974,
      "▁started": 1975,
      "iver": 1976,
      "let": 1977,
      "▁heart": 1978,
      "▁Broflovsk": 1979,
      "gridy": 1980,
      "▁penis": 1981,
      "Dam": 1982,
      "▁9": 1983,
      "tend": 1984,
      "▁afraid": 1985,
      "▁gives": 1986,
      "▁bott": 1987,
      "▁Rich": 1988,
      "urse": 1989,
      "▁buy": 1990,
      "▁important": 1991,
      "▁bra": 1992,
      "▁fre": 1993,
      "▁pee": 1994,
      "ado": 1995,
      "▁alright": 1996,
      "oom": 1997,
      "ann": 1998,
      "▁sick": 1999,
      "▁team": 2000,
      "▁asshole": 2001,
      "▁standing": 2002,
      "▁ear": 2003,
      "chor": 2004,
      "ately": 2005,
      "leaves": 2006,
      "▁Japan": 2007,
      "▁pe": 2008,
      "▁anyone": 2009,
      "An": 2010,
      "▁fish": 2011,
      "ager": 2012,
      "▁almost": 2013,
      "▁exp": 2014,
      "Please": 2015,
      "▁Z": 2016,
      "▁inv": 2017,
      "▁bel": 2018,
      "▁Ad": 2019,
      "▁Then": 2020,
      "unt": 2021,
      "▁Stuart": 2022,
      "rans": 2023,
      "▁whe": 2024,
      "nder": 2025,
      "▁lost": 2026,
      "ances": 2027,
      "Aww": 2028,
      "Dad": 2029,
      "pulls": 2030,
      "ative": 2031,
      "▁dressed": 2032,
      "Because": 2033,
      "Ex": 2034,
      "cc": 2035,
      "▁women": 2036,
      "▁piss": 2037,
      "ode": 2038,
      "▁entrance": 2039,
      "▁ap": 2040,
      "▁Mephesto": 2041,
      "▁beat": 2042,
      "▁At": 2043,
      "▁shock": 2044,
      "▁Lu": 2045,
      "▁Next": 2046,
      "ably": 2047,
      "▁Internet": 2048,
      "▁Canada": 2049,
      "▁dire": 2050,
      "▁brother": 2051,
      "Did": 2052,
      "ndred": 2053,
      "opens": 2054,
      "▁sounds": 2055,
      "oud": 2056,
      "ounds": 2057,
      "▁glass": 2058,
      "Right": 2059,
      "wh": 2060,
      "▁finger": 2061,
      "eth": 2062,
      "ung": 2063,
      "▁Nathan": 2064,
      "udge": 2065,
      "▁send": 2066,
      "▁speak": 2067,
      "▁Boys": 2068,
      "▁tou": 2069,
      "▁shoo": 2070,
      "▁David": 2071,
      "OU": 2072,
      "ma": 2073,
      "▁pick": 2074,
      "▁Where": 2075,
      "ages": 2076,
      "▁running": 2077,
      "ighs": 2078,
      "Thank": 2079,
      "▁Marvin": 2080,
      "On": 2081,
      "com": 2082,
      "with": 2083,
      "een": 2084,
      "▁city": 2085,
      "▁gather": 2086,
      "▁Pat": 2087,
      "ountain": 2088,
      "AR": 2089,
      "▁sile": 2090,
      "▁Min": 2091,
      "▁Kim": 2092,
      "amed": 2093,
      "▁kiss": 2094,
      "eez": 2095,
      "▁needs": 2096,
      "▁truck": 2097,
      "▁cost": 2098,
      "▁bedroom": 2099,
      "▁point": 2100,
      "▁tonight": 2101,
      "▁reads": 2102,
      "ume": 2103,
      "▁nobody": 2104,
      "▁exc": 2105,
      "orts": 2106,
      "elson": 2107,
      "▁rock": 2108,
      "▁six": 2109,
      "▁grow": 2110,
      "addam": 2111,
      "▁seem": 2112,
      "▁hundred": 2113,
      "work": 2114,
      "▁trou": 2115,
      "▁ahead": 2116,
      "erk": 2117,
      "▁int": 2118,
      "▁Ex": 2119,
      "oods": 2120,
      "Ike": 2121,
      "fl": 2122,
      "pris": 2123,
      "▁bunch": 2124,
      "▁worry": 2125,
      "▁Black": 2126,
      "▁lights": 2127,
      "ES": 2128,
      "▁fall": 2129,
      "▁Kids": 2130,
      "▁knew": 2131,
      "▁ago": 2132,
      "opez": 2133,
      "rit": 2134,
      "leas": 2135,
      "▁half": 2136,
      "▁Che": 2137,
      "▁ride": 2138,
      "unity": 2139,
      "▁For": 2140,
      "ifer": 2141,
      "▁produ": 2142,
      "▁grad": 2143,
      "▁Lead": 2144,
      "ysterion": 2145,
      "▁faces": 2146,
      "ried": 2147,
      "igure": 2148,
      "▁Fran": 2149,
      "▁seems": 2150,
      "▁drive": 2151,
      "otch": 2152,
      "▁Please": 2153,
      "steps": 2154,
      "▁Jan": 2155,
      "▁Lopez": 2156,
      "umber": 2157,
      "Thanks": 2158,
      "May": 2159,
      "pped": 2160,
      "▁safe": 2161,
      "▁thanks": 2162,
      "friend": 2163,
      "▁since": 2164,
      "▁del": 2165,
      "▁dest": 2166,
      "orado": 2167,
      "ays": 2168,
      "▁returns": 2169,
      "▁angry": 2170,
      "af": 2171,
      "stand": 2172,
      "▁hat": 2173,
      "▁hol": 2174,
      "ities": 2175,
      "▁gen": 2176,
      "▁par": 2177,
      "ksond": 2178,
      "icken": 2179,
      "▁coff": 2180,
      "resses": 2181,
      "▁News": 2182,
      "udden": 2183,
      "▁week": 2184,
      "ksondik": 2185,
      "To": 2186,
      "evin": 2187,
      "▁inst": 2188,
      "▁General": 2189,
      "▁Nelson": 2190,
      "▁clear": 2191,
      "▁return": 2192,
      "holds": 2193,
      "▁Choksondik": 2194,
      "bt": 2195,
      "min": 2196,
      "▁hit": 2197,
      "▁med": 2198,
      "ims": 2199,
      "urch": 2200,
      "abb": 2201,
      "▁wouldn": 2202,
      "sm": 2203,
      "uu": 2204,
      "▁fa": 2205,
      "▁mont": 2206,
      "▁When": 2207,
      "Your": 2208,
      "▁awesome": 2209,
      "▁Broflovski": 2210,
      "▁Richard": 2211,
      "▁stick": 2212,
      "▁Af": 2213,
      "▁thinking": 2214,
      "▁moments": 2215,
      "▁complete": 2216,
      "▁Maybe": 2217,
      "Be": 2218,
      "ior": 2219,
      "▁es": 2220,
      "▁center": 2221,
      "▁stat": 2222,
      "▁Pr": 2223,
      "▁officers": 2224,
      "ospital": 2225,
      "▁hours": 2226,
      "▁future": 2227,
      "▁ins": 2228,
      "rible": 2229,
      "▁blow": 2230,
      "ftly": 2231,
      "▁cheer": 2232,
      "▁become": 2233,
      "▁eye": 2234,
      "▁record": 2235,
      "▁dark": 2236,
      "▁far": 2237,
      "▁mil": 2238,
      "omb": 2239,
      "tance": 2240,
      "▁Strong": 2241,
      "▁attention": 2242,
      "▁grabs": 2243,
      "itor": 2244,
      "▁quiet": 2245,
      "▁report": 2246,
      "▁officer": 2247,
      "▁Agent": 2248,
      "vernment": 2249,
      "ires": 2250,
      "off": 2251,
      "utes": 2252,
      "▁Chief": 2253,
      "▁anybody": 2254,
      "dr": 2255,
      "▁Tra": 2256,
      "▁Will": 2257,
      "entle": 2258,
      "▁notices": 2259,
      "▁company": 2260,
      "ormal": 2261,
      "ennifer": 2262,
      "cy": 2263,
      "walk": 2264,
      "▁dick": 2265,
      "▁driver": 2266,
      "▁Colorado": 2267,
      "Bo": 2268,
      "Chef": 2269,
      "IN": 2270,
      "▁cell": 2271,
      "bably": 2272,
      "yp": 2273,
      "▁thous": 2274,
      "▁Big": 2275,
      "▁bell": 2276,
      "▁eas": 2277,
      "▁Pete": 2278,
      "▁tried": 2279,
      "▁Chinese": 2280,
      "bb": 2281,
      "arent": 2282,
      "emale": 2283,
      "▁shoulder": 2284,
      "▁points": 2285,
      "▁coffee": 2286,
      "ER": 2287,
      "Sc": 2288,
      "Sure": 2289,
      "aven": 2290,
      "erg": 2291,
      "▁Mysterion": 2292,
      "▁ste": 2293,
      "▁Girl": 2294,
      "▁haven": 2295,
      "▁whatever": 2296,
      "osh": 2297,
      "▁human": 2298,
      "▁trouble": 2299,
      "At": 2300,
      "▁tre": 2301,
      "ery": 2302,
      "▁pack": 2303,
      "▁lunch": 2304,
      "unk": 2305,
      "▁reading": 2306,
      "▁sell": 2307,
      "▁pan": 2308,
      "aming": 2309,
      "▁jumps": 2310,
      "board": 2311,
      "▁Slave": 2312,
      "▁slowly": 2313,
      "▁pa": 2314,
      "▁picks": 2315,
      "▁Rick": 2316,
      "▁memb": 2317,
      "ired": 2318,
      "HH": 2319,
      "▁clean": 2320,
      "▁American": 2321,
      "joy": 2322,
      "ron": 2323,
      "sl": 2324,
      "▁mag": 2325,
      "▁ob": 2326,
      "▁rises": 2327,
      "▁story": 2328,
      "▁ref": 2329,
      "▁Good": 2330,
      "▁Japanese": 2331,
      "fect": 2332,
      "gan": 2333,
      "▁Count": 2334,
      "idence": 2335,
      "▁Ge": 2336,
      "umm": 2337,
      "ully": 2338,
      "▁Saddam": 2339,
      "▁vis": 2340,
      "▁alien": 2341,
      "▁cheers": 2342,
      "▁McC": 2343,
      "▁answers": 2344,
      "▁learned": 2345,
      "opping": 2346,
      "attle": 2347,
      "▁Thomas": 2348,
      "lcome": 2349,
      "▁ice": 2350,
      "ono": 2351,
      "▁ship": 2352,
      "stairs": 2353,
      "▁clim": 2354,
      "▁imm": 2355,
      "what": 2356,
      "▁smiles": 2357,
      "▁members": 2358,
      "ID": 2359,
      "ket": 2360,
      "line": 2361,
      "▁di": 2362,
      "▁dance": 2363,
      "▁Ob": 2364,
      "izz": 2365,
      "back": 2366,
      "▁trans": 2367,
      "▁Ro": 2368,
      "▁Did": 2369,
      "appro": 2370,
      "▁pictures": 2371,
      "ares": 2372,
      "▁ah": 2373,
      "▁poor": 2374,
      "ically": 2375,
      "unches": 2376,
      "iling": 2377,
      "▁Elder": 2378,
      "▁road": 2379,
      "▁Un": 2380,
      "AT": 2381,
      "tin": 2382,
      "▁tree": 2383,
      "ishes": 2384,
      "▁flag": 2385,
      "aaa": 2386,
      "▁tele": 2387,
      "▁telling": 2388,
      "ized": 2389,
      "▁camp": 2390,
      "▁learn": 2391,
      "▁White": 2392,
      "oes": 2393,
      "lebr": 2394,
      "▁throw": 2395,
      "▁Miss": 2396,
      "uring": 2397,
      "▁government": 2398,
      "▁Not": 2399,
      "▁Far": 2400,
      "▁club": 2401,
      "olly": 2402,
      "azing": 2403,
      "gie": 2404,
      "▁toss": 2405,
      "▁thinks": 2406,
      "▁Kevin": 2407,
      "▁Pro": 2408,
      "▁aside": 2409,
      "▁able": 2410,
      "range": 2411,
      "▁adults": 2412,
      "▁grand": 2413,
      "▁snow": 2414,
      "ched": 2415,
      "▁Yes": 2416,
      "▁field": 2417,
      "▁Squ": 2418,
      "uses": 2419,
      "▁Member": 2420,
      "▁Gore": 2421,
      "▁Every": 2422,
      "▁approach": 2423,
      "▁middle": 2424,
      "▁either": 2425,
      "▁reve": 2426,
      "▁reason": 2427,
      "▁lives": 2428,
      "▁themselves": 2429,
      "▁scared": 2430,
      "uper": 2431,
      "aught": 2432,
      "▁entire": 2433,
      "▁Canadian": 2434,
      "end": 2435,
      "▁fair": 2436,
      "▁figure": 2437,
      "veral": 2438,
      "unned": 2439,
      "pper": 2440,
      "rought": 2441,
      "▁knocks": 2442,
      "▁surpris": 2443,
      "▁meeting": 2444,
      "ym": 2445,
      "▁mot": 2446,
      "▁Gary": 2447,
      "▁attack": 2448,
      "bot": 2449,
      "▁cer": 2450,
      "▁cond": 2451,
      "▁Ind": 2452,
      "▁Town": 2453,
      "▁stra": 2454,
      "▁forth": 2455,
      "▁jack": 2456,
      "▁jump": 2457,
      "rist": 2458,
      "▁probably": 2459,
      "▁fuckin": 2460,
      "aut": 2461,
      "for": 2462,
      "fully": 2463,
      "▁sand": 2464,
      "▁inte": 2465,
      "▁million": 2466,
      "con": 2467,
      "zz": 2468,
      "▁brought": 2469,
      "▁det": 2470,
      "amb": 2471,
      "▁myself": 2472,
      "▁damn": 2473,
      "▁dinner": 2474,
      "acing": 2475,
      "▁nose": 2476,
      "▁space": 2477,
      "▁Thanks": 2478,
      "▁rolls": 2479,
      "hands": 2480,
      "rog": 2481,
      "umes": 2482,
      "Shut": 2483,
      "ten": 2484,
      "▁X": 2485,
      "▁test": 2486,
      "▁though": 2487,
      "▁TH": 2488,
      "▁char": 2489,
      "▁death": 2490,
      "▁order": 2491,
      "Everyone": 2492,
      "When": 2493,
      "sible": 2494,
      "▁creat": 2495,
      "▁pop": 2496,
      "▁seated": 2497,
      "▁cover": 2498,
      "▁screw": 2499,
      "For": 2500,
      "Sp": 2501,
      "▁7": 2502,
      "▁hits": 2503,
      "▁dep": 2504,
      "▁pops": 2505,
      "▁lad": 2506,
      "▁reach": 2507,
      "host": 2508,
      "▁Lord": 2509,
      "▁sold": 2510,
      "mercial": 2511,
      "▁laughs": 2512,
      "▁nearby": 2513,
      "OM": 2514,
      "▁sent": 2515,
      "▁normal": 2516,
      "▁Jennifer": 2517,
      "▁knock": 2518,
      "▁Father": 2519,
      "▁seats": 2520,
      "▁classroom": 2521,
      "▁Denver": 2522,
      "gra": 2523,
      "ole": 2524,
      "over": 2525,
      "▁tick": 2526,
      "▁Captain": 2527,
      "▁stairs": 2528,
      "▁area": 2529,
      "▁Dan": 2530,
      "vision": 2531,
      "▁Smith": 2532,
      "ding": 2533,
      "▁Because": 2534,
      "▁Pass": 2535,
      "▁leaving": 2536,
      "rily": 2537,
      "iful": 2538,
      "▁Grandpa": 2539,
      "stands": 2540,
      "Sorry": 2541,
      "▁Center": 2542,
      "▁Our": 2543,
      "▁quite": 2544,
      "▁shouldn": 2545,
      "▁hurt": 2546,
      "Back": 2547,
      "ze": 2548,
      "read": 2549,
      "▁cars": 2550,
      "▁fart": 2551,
      "enters": 2552,
      "▁Hell": 2553,
      "unny": 2554,
      "▁NO": 2555,
      "▁Stre": 2556,
      "anket": 2557,
      "damnit": 2558,
      "arrator": 2559,
      "▁celebr": 2560,
      "▁gave": 2561,
      "▁land": 2562,
      "▁lands": 2563,
      "▁forget": 2564,
      "▁mem": 2565,
      "ills": 2566,
      "▁least": 2567,
      "▁somewhere": 2568,
      "▁giant": 2569,
      "Really": 2570,
      "Tom": 2571,
      "▁cap": 2572,
      "ustom": 2573,
      "inds": 2574,
      "▁Anchor": 2575,
      "▁question": 2576,
      "gers": 2577,
      "▁fast": 2578,
      "▁farts": 2579,
      "▁inc": 2580,
      "▁def": 2581,
      "▁Inside": 2582,
      "▁piece": 2583,
      "▁wonder": 2584,
      "▁fil": 2585,
      "▁shirt": 2586,
      "▁knows": 2587,
      "▁hello": 2588,
      "gram": 2589,
      "▁huge": 2590,
      "▁Billy": 2591,
      "▁words": 2592,
      "bor": 2593,
      "ced": 2594,
      "ees": 2595,
      "la": 2596,
      "light": 2597,
      "▁third": 2598,
      "usse": 2599,
      "riet": 2600,
      "▁truth": 2601,
      "eteria": 2602,
      "Out": 2603,
      "Sir": 2604,
      "ered": 2605,
      "ring": 2606,
      "▁ten": 2607,
      "▁sense": 2608,
      "▁eight": 2609,
      "▁Pl": 2610,
      "irth": 2611,
      "▁Res": 2612,
      "▁shoot": 2613,
      "▁Day": 2614,
      "▁several": 2615,
      "▁enjoy": 2616,
      "hhhh": 2617,
      "▁closer": 2618,
      "ammad": 2619,
      "▁pissed": 2620,
      "▁certain": 2621,
      "bell": 2622,
      "oly": 2623,
      "▁ma": 2624,
      "▁smart": 2625,
      "▁interest": 2626,
      "oins": 2627,
      "▁i": 2628,
      "ana": 2629,
      "ished": 2630,
      "▁cat": 2631,
      "▁opp": 2632,
      "▁pat": 2633,
      "omes": 2634,
      "ashes": 2635,
      "acy": 2636,
      "▁Wait": 2637,
      "akov": 2638,
      "ains": 2639,
      "entlemen": 2640,
      "▁Obama": 2641,
      "Wh": 2642,
      "ye": 2643,
      "inc": 2644,
      "▁bow": 2645,
      "▁pig": 2646,
      "▁chance": 2647,
      "Wendy": 2648,
      "▁singing": 2649,
      "▁arrives": 2650,
      "▁locker": 2651,
      "▁destro": 2652,
      "uddenly": 2653,
      "▁ain": 2654,
      "▁gro": 2655,
      "▁See": 2656,
      "▁joke": 2657,
      "▁Dou": 2658,
      "▁Narrator": 2659,
      "▁smile": 2660,
      "obb": 2661,
      "actly": 2662,
      "ij": 2663,
      "▁cuts": 2664,
      "▁dist": 2665,
      "▁fur": 2666,
      "acc": 2667,
      "▁guard": 2668,
      "▁spl": 2669,
      "▁blue": 2670,
      "Timm": 2671,
      "▁bast": 2672,
      "▁card": 2673,
      "▁cream": 2674,
      "▁crying": 2675,
      "▁yell": 2676,
      "▁Co": 2677,
      "▁welcome": 2678,
      "eef": 2679,
      "▁god": 2680,
      "▁Earth": 2681,
      "▁lose": 2682,
      "▁prop": 2683,
      "▁minutes": 2684,
      "▁basket": 2685,
      "▁terror": 2686,
      "▁thousand": 2687,
      "aff": 2688,
      "everyone": 2689,
      "▁hops": 2690,
      "▁mall": 2691,
      "▁lab": 2692,
      "▁bear": 2693,
      "▁Stanley": 2694,
      "▁With": 2695,
      "▁using": 2696,
      "▁laughing": 2697,
      "▁reporter": 2698,
      "▁Tegridy": 2699,
      "grabs": 2700,
      "haps": 2701,
      "nce": 2702,
      "time": 2703,
      "▁met": 2704,
      "▁gym": 2705,
      "▁egg": 2706,
      "rence": 2707,
      "▁crazy": 2708,
      "▁County": 2709,
      "▁background": 2710,
      "▁clot": 2711,
      "▁van": 2712,
      "ational": 2713,
      "aaah": 2714,
      "▁starting": 2715,
      "▁happens": 2716,
      "ancing": 2717,
      "▁evil": 2718,
      "▁television": 2719,
      "▁troll": 2720,
      "lex": 2721,
      "▁ep": 2722,
      "▁Dri": 2723,
      "▁Les": 2724,
      "▁towel": 2725,
      "▁couldn": 2726,
      "aughter": 2727,
      "ublic": 2728,
      "ocket": 2729,
      "bye": 2730,
      "▁sky": 2731,
      "▁arrive": 2732,
      "vil": 2733,
      "▁ed": 2734,
      "atic": 2735,
      "▁pus": 2736,
      "▁late": 2737,
      "▁Mel": 2738,
      "▁weed": 2739,
      "▁Harris": 2740,
      "rag": 2741,
      "rian": 2742,
      "▁chicken": 2743,
      "▁sucks": 2744,
      "hered": 2745,
      "iously": 2746,
      "▁Special": 2747,
      "approaches": 2748,
      "AN": 2749,
      "Some": 2750,
      "but": 2751,
      "hood": 2752,
      "inal": 2753,
      "▁catch": 2754,
      "▁Work": 2755,
      "▁form": 2756,
      "stem": 2757,
      "▁commercial": 2758,
      "▁amazing": 2759,
      "▁sets": 2760,
      "itches": 2761,
      "▁To": 2762,
      "aching": 2763,
      "▁Her": 2764,
      "▁anim": 2765,
      "iends": 2766,
      "▁plane": 2767,
      "kins": 2768,
      "▁sad": 2769,
      "▁Tr": 2770,
      "▁Adam": 2771,
      "irit": 2772,
      "urger": 2773,
      "ugg": 2774,
      "appears": 2775,
      "▁giving": 2776,
      "Bear": 2777,
      "Fuck": 2778,
      "lin": 2779,
      "▁ve": 2780,
      "▁case": 2781,
      "▁City": 2782,
      "▁ring": 2783,
      "▁places": 2784,
      "rincess": 2785,
      "▁Guy": 2786,
      "Excuse": 2787,
      "ead": 2788,
      "▁Mic": 2789,
      "imp": 2790,
      "▁stunned": 2791,
      "▁Police": 2792,
      "▁Thank": 2793,
      "000": 2794,
      "▁esc": 2795,
      "▁tape": 2796,
      "lect": 2797,
      "▁cow": 2798,
      "▁la": 2799,
      "▁Tu": 2800,
      "edy": 2801,
      "▁Ar": 2802,
      "▁Joe": 2803,
      "▁sometimes": 2804,
      "wear": 2805,
      "▁stopp": 2806,
      "Maybe": 2807,
      "gl": 2808,
      "ges": 2809,
      "▁breat": 2810,
      "▁deep": 2811,
      "▁mas": 2812,
      "▁pans": 2813,
      "▁Cru": 2814,
      "▁cannot": 2815,
      "▁flo": 2816,
      "▁prom": 2817,
      "▁Clerk": 2818,
      "▁clothes": 2819,
      "Ow": 2820,
      "ract": 2821,
      "▁Sec": 2822,
      "▁Ben": 2823,
      "▁Per": 2824,
      "▁Pri": 2825,
      "▁leads": 2826,
      "▁moving": 2827,
      "rince": 2828,
      "anger": 2829,
      "Sharon": 2830,
      "▁turd": 2831,
      "smiles": 2832,
      "that": 2833,
      "▁cry": 2834,
      "▁Super": 2835,
      "▁number": 2836,
      "▁King": 2837,
      "▁Har": 2838,
      "▁less": 2839,
      "▁Nic": 2840,
      "▁save": 2841,
      "▁babies": 2842,
      "▁month": 2843,
      "▁Driver": 2844,
      "view": 2845,
      "arc": 2846,
      "▁ble": 2847,
      "▁pu": 2848,
      "▁pir": 2849,
      "▁pur": 2850,
      "▁doin": 2851,
      "aha": 2852,
      "isten": 2853,
      "▁train": 2854,
      "▁corner": 2855,
      "See": 2856,
      "got": 2857,
      "iving": 2858,
      "▁backs": 2859,
      "▁gat": 2860,
      "▁president": 2861,
      "▁low": 2862,
      "iding": 2863,
      "keeter": 2864,
      "▁disc": 2865,
      "▁reveal": 2866,
      "mp": 2867,
      "arch": 2868,
      "▁burn": 2869,
      "▁cup": 2870,
      "▁fact": 2871,
      "▁green": 2872,
      "▁Am": 2873,
      "▁Hu": 2874,
      "▁Or": 2875,
      "ucker": 2876,
      "▁phot": 2877,
      "▁Scout": 2878,
      "▁happening": 2879,
      "▁caf": 2880,
      "screen": 2881,
      "▁Cruise": 2882,
      "can": 2883,
      "▁hospital": 2884,
      "▁cop": 2885,
      "▁mountain": 2886,
      "orge": 2887,
      "▁poop": 2888,
      "▁nin": 2889,
      "ided": 2890,
      "▁gold": 2891,
      "▁Dis": 2892,
      "▁exactly": 2893,
      "▁realize": 2894,
      "▁restaur": 2895,
      "▁planet": 2896,
      "▁system": 2897,
      "▁gathered": 2898,
      "Cra": 2899,
      "▁watches": 2900,
      "▁gar": 2901,
      "▁eff": 2902,
      "▁step": 2903,
      "▁neigh": 2904,
      "ular": 2905,
      "▁Crabt": 2906,
      "▁finds": 2907,
      "▁costume": 2908,
      "pers": 2909,
      "▁8": 2910,
      "▁tor": 2911,
      "▁principal": 2912,
      "ashing": 2913,
      "▁rush": 2914,
      "▁Larry": 2915,
      "ility": 2916,
      "astic": 2917,
      "ments": 2918,
      "▁putting": 2919,
      "▁Friends": 2920,
      "▁fellas": 2921,
      "▁silent": 2922,
      "aos": 2923,
      "hu": 2924,
      "king": 2925,
      "▁strong": 2926,
      "irty": 2927,
      "enty": 2928,
      "▁These": 2929,
      "starts": 2930,
      "▁Ed": 2931,
      "▁Other": 2932,
      "▁works": 2933,
      "▁spee": 2934,
      "▁flash": 2935,
      "avor": 2936,
      "▁seriously": 2937,
      "▁wheel": 2938,
      "▁cafeteria": 2939,
      "bl": 2940,
      "▁wish": 2941,
      "oops": 2942,
      "▁Right": 2943,
      "▁Stotch": 2944,
      "▁agents": 2945,
      "angs": 2946,
      "▁concer": 2947,
      "▁YOU": 2948,
      "▁simple": 2949,
      "▁completely": 2950,
      "▁Crabtree": 2951,
      "Clyde": 2952,
      "Gu": 2953,
      "rah": 2954,
      "▁ban": 2955,
      "▁books": 2956,
      "▁pot": 2957,
      "▁Mart": 2958,
      "imsy": 2959,
      "▁wear": 2960,
      "ects": 2961,
      "▁seeing": 2962,
      "▁continue": 2963,
      "▁weeks": 2964,
      "▁choice": 2965,
      "AS": 2966,
      "Every": 2967,
      "rup": 2968,
      "▁fist": 2969,
      "ica": 2970,
      "illy": 2971,
      "▁keeps": 2972,
      "▁Brit": 2973,
      "Pig": 2974,
      "eh": 2975,
      "▁sou": 2976,
      "▁wien": 2977,
      "▁mach": 2978,
      "▁beaut": 2979,
      "▁allow": 2980,
      "▁above": 2981,
      "ift": 2982,
      "▁everywhere": 2983,
      "▁showing": 2984,
      "▁drop": 2985,
      "▁Clin": 2986,
      "▁fourth": 2987,
      "arently": 2988,
      "BearPig": 2989,
      "Jimmy": 2990,
      "how": 2991,
      "▁battle": 2992,
      "▁mir": 2993,
      "▁Crowd": 2994,
      "▁rain": 2995,
      "▁short": 2996,
      "▁agree": 2997,
      "▁prep": 2998,
      "▁ends": 2999,
      "▁asked": 3000,
      "und": 3001,
      "ert": 3002,
      "▁Gay": 3003,
      "ili": 3004,
      "olks": 3005,
      "▁agent": 3006,
      "ulous": 3007,
      "ploy": 3008,
      "▁raises": 3009,
      "▁touch": 3010,
      "ey": 3011,
      "set": 3012,
      "▁lady": 3013,
      "ider": 3014,
      "sey": 3015,
      "bert": 3016,
      "▁longer": 3017,
      "▁protect": 3018,
      "As": 3019,
      "ray": 3020,
      "▁hist": 3021,
      "▁neck": 3022,
      "▁Stop": 3023,
      "▁perfect": 3024,
      "▁fighting": 3025,
      "▁problems": 3026,
      "AAAAAAAA": 3027,
      "▁Carol": 3028,
      "ussell": 3029,
      "Eh": 3030,
      "Man": 3031,
      "▁birth": 3032,
      "ature": 3033,
      "leg": 3034,
      "▁crew": 3035,
      "▁ghost": 3036,
      "▁Cupid": 3037,
      "▁Se": 3038,
      "▁str": 3039,
      "▁rece": 3040,
      "▁Rob": 3041,
      "▁shall": 3042,
      "rif": 3043,
      "berry": 3044,
      "▁Class": 3045,
      "Stop": 3046,
      "▁Mexican": 3047,
      "LL": 3048,
      "laugh": 3049,
      "some": 3050,
      "sits": 3051,
      "ests": 3052,
      "▁Ser": 3053,
      "▁Tw": 3054,
      "idge": 3055,
      "▁Kitty": 3056,
      "▁Nobody": 3057,
      "▁booth": 3058,
      "▁Qu": 3059,
      "▁Nichole": 3060,
      "▁speech": 3061,
      "uc": 3062,
      "reaches": 3063,
      "▁fingers": 3064,
      "▁mass": 3065,
      "▁Sky": 3066,
      "▁Mike": 3067,
      "▁station": 3068,
      "▁Par": 3069,
      "▁note": 3070,
      "▁vict": 3071,
      "▁10": 3072,
      "▁crack": 3073,
      "▁Friday": 3074,
      "▁Worker": 3075,
      "band": 3076,
      "nie": 3077,
      "heh": 3078,
      "▁sun": 3079,
      "▁bat": 3080,
      "▁base": 3081,
      "▁luck": 3082,
      "oph": 3083,
      "▁vagin": 3084,
      "▁blows": 3085,
      "▁imagin": 3086,
      "▁position": 3087,
      "▁basement": 3088,
      "Outside": 3089,
      "▁Priest": 3090,
      "gest": 3091,
      "ners": 3092,
      "vent": 3093,
      "hee": 3094,
      "▁sle": 3095,
      "▁cir": 3096,
      "▁mur": 3097,
      "▁page": 3098,
      "▁Cr": 3099,
      "▁inde": 3100,
      "▁reg": 3101,
      "▁Dick": 3102,
      "rises": 3103,
      "▁Char": 3104,
      "▁secret": 3105,
      "alent": 3106,
      "▁Teen": 3107,
      "ival": 3108,
      "▁straight": 3109,
      "▁Tuong": 3110,
      "gly": 3111,
      "▁treat": 3112,
      "▁bike": 3113,
      "lent": 3114,
      "▁honey": 3115,
      "ummy": 3116,
      "throws": 3117,
      "▁write": 3118,
      "▁Stevens": 3119,
      "▁feet": 3120,
      "▁confused": 3121,
      "▁easy": 3122,
      "▁Farms": 3123,
      "borhood": 3124,
      "Our": 3125,
      "Ugh": 3126,
      "lause": 3127,
      "▁typ": 3128,
      "orld": 3129,
      "▁Brian": 3130,
      "▁Ah": 3131,
      "▁flies": 3132,
      "▁calling": 3133,
      "▁fatass": 3134,
      "▁official": 3135,
      "▁zoom": 3136,
      "Gerald": 3137,
      "One": 3138,
      "Tolkien": 3139,
      "▁cart": 3140,
      "▁ind": 3141,
      "▁Boo": 3142,
      "▁rub": 3143,
      "▁rushes": 3144,
      "▁star": 3145,
      "▁Prof": 3146,
      "▁doorbell": 3147,
      "▁worked": 3148,
      "onster": 3149,
      "▁killing": 3150,
      "▁excited": 3151,
      "drops": 3152,
      "Ne": 3153,
      "Wel": 3154,
      "two": 3155,
      "voice": 3156,
      "ites": 3157,
      "alth": 3158,
      "▁Kelly": 3159,
      "▁Peter": 3160,
      "eeper": 3161,
      "▁Det": 3162,
      "rench": 3163,
      "oohoo": 3164,
      "▁fault": 3165,
      "▁member": 3166,
      "▁destroy": 3167,
      "Cause": 3168,
      "IT": 3169,
      "Mart": 3170,
      "picks": 3171,
      "▁roof": 3172,
      "ella": 3173,
      "abs": 3174,
      "order": 3175,
      "▁feeling": 3176,
      "▁football": 3177,
      "▁epis": 3178,
      "ET": 3179,
      "With": 3180,
      "wood": 3181,
      "rem": 3182,
      "▁Skeeter": 3183,
      "▁Prince": 3184,
      "▁upon": 3185,
      "▁shop": 3186,
      "▁Josh": 3187,
      "ickly": 3188,
      "▁loc": 3189,
      "▁ext": 3190,
      "▁cons": 3191,
      "▁distance": 3192,
      "▁bigger": 3193,
      "play": 3194,
      "appy": 3195,
      "closes": 3196,
      "ientist": 3197,
      "▁priv": 3198,
      "▁graders": 3199,
      "▁Towns": 3200,
      "▁beautiful": 3201,
      "rushes": 3202,
      "yard": 3203,
      "itter": 3204,
      "▁fag": 3205,
      "▁mad": 3206,
      "▁mine": 3207,
      "oween": 3208,
      "sees": 3209,
      "cha": 3210,
      "▁joins": 3211,
      "▁Nurse": 3212,
      "ummer": 3213,
      "▁vol": 3214,
      "▁player": 3215,
      "berg": 3216,
      "ressed": 3217,
      "▁pract": 3218,
      "okes": 3219,
      "mmm": 3220,
      "iety": 3221,
      "▁Johnson": 3222,
      "▁emp": 3223,
      "▁legs": 3224,
      "Damn": 3225,
      "▁George": 3226,
      "▁tosses": 3227,
      "Welcome": 3228,
      "ON": 3229,
      "▁bomb": 3230,
      "▁foc": 3231,
      "▁main": 3232,
      "▁ones": 3233,
      "▁elder": 3234,
      "elf": 3235,
      "▁except": 3236,
      "▁girlfriend": 3237,
      "shows": 3238,
      "▁following": 3239,
      "▁holiday": 3240,
      "▁Adams": 3241,
      "Fine": 3242,
      "Hold": 3243,
      "Te": 3244,
      "ken": 3245,
      "▁aff": 3246,
      "▁games": 3247,
      "▁thro": 3248,
      "▁Mimsy": 3249,
      "amily": 3250,
      "▁lets": 3251,
      "hose": 3252,
      "idel": 3253,
      "▁spirit": 3254,
      "▁Chaos": 3255,
      "▁prof": 3256,
      "▁somethin": 3257,
      "▁homeless": 3258,
      "▁passes": 3259,
      "▁counter": 3260,
      "annel": 3261,
      "▁instead": 3262,
      "▁bud": 3263,
      "▁hi": 3264,
      "▁chat": 3265,
      "▁cash": 3266,
      "▁folks": 3267,
      "▁mark": 3268,
      "▁los": 3269,
      "anda": 3270,
      "▁Have": 3271,
      "▁Russell": 3272,
      "chair": 3273,
      "iel": 3274,
      "▁announ": 3275,
      "▁Daw": 3276,
      "akin": 3277,
      "essor": 3278,
      "▁trash": 3279,
      "▁Guard": 3280,
      "▁forever": 3281,
      "▁ridic": 3282,
      "▁douche": 3283,
      "▁bottle": 3284,
      "▁shocked": 3285,
      "▁restaurant": 3286,
      "▁machine": 3287,
      "ucks": 3288,
      "▁Mus": 3289,
      "▁Mur": 3290,
      "alm": 3291,
      "▁round": 3292,
      "▁asleep": 3293,
      "▁church": 3294,
      "▁sub": 3295,
      "▁gotten": 3296,
      "▁ourselves": 3297,
      "▁turned": 3298,
      "▁angrily": 3299,
      "Craig": 3300,
      "Fr": 3301,
      "house": 3302,
      "ns": 3303,
      "▁favor": 3304,
      "▁press": 3305,
      "▁lowers": 3306,
      "edi": 3307,
      "▁beer": 3308,
      "▁um": 3309,
      "▁sol": 3310,
      "▁Fl": 3311,
      "▁project": 3312,
      "▁glad": 3313,
      "▁student": 3314,
      "▁calm": 3315,
      "▁broke": 3316,
      "sych": 3317,
      "▁certainly": 3318,
      "bec": 3319,
      "do": 3320,
      "iner": 3321,
      "ane": 3322,
      "▁sne": 3323,
      "▁sighs": 3324,
      "▁cook": 3325,
      "▁custom": 3326,
      "▁dem": 3327,
      "orth": 3328,
      "▁lim": 3329,
      "ammy": 3330,
      "▁notice": 3331,
      "▁Field": 3332,
      "onde": 3333,
      "▁exper": 3334,
      "▁spend": 3335,
      "▁corp": 3336,
      "▁Leslie": 3337,
      "laughs": 3338,
      "ca": 3339,
      "iers": 3340,
      "wich": 3341,
      "anch": 3342,
      "arri": 3343,
      "▁pool": 3344,
      "using": 3345,
      "asure": 3346,
      "otes": 3347,
      "mand": 3348,
      "▁Wall": 3349,
      "▁Dam": 3350,
      "▁boat": 3351,
      "aked": 3352,
      "ilt": 3353,
      "▁worse": 3354,
      "ulf": 3355,
      "▁anyway": 3356,
      "▁teeth": 3357,
      "▁writing": 3358,
      "ship": 3359,
      "Awww": 3360,
      "AH": 3361,
      "bra": 3362,
      "jumps": 3363,
      "reidel": 3364,
      "erv": 3365,
      "▁har": 3366,
      "▁hipp": 3367,
      "▁dancing": 3368,
      "▁Sw": 3369,
      "▁Sch": 3370,
      "acist": 3371,
      "ached": 3372,
      "▁upstairs": 3373,
      "▁button": 3374,
      "▁art": 3375,
      "▁security": 3376,
      "▁Americans": 3377,
      "▁Comm": 3378,
      "▁producer": 3379,
      "▁iP": 3380,
      "Ha": 3381,
      "IS": 3382,
      "NO": 3383,
      "ales": 3384,
      "hops": 3385,
      "ivers": 3386,
      "ised": 3387,
      "▁Jakov": 3388,
      "aped": 3389,
      "▁sea": 3390,
      "▁exit": 3391,
      "▁changes": 3392,
      "▁changed": 3393,
      "▁Janet": 3394,
      "▁milk": 3395,
      "ING": 3396,
      "▁McCorm": 3397,
      "▁wiener": 3398,
      "EN": 3399,
      "▁tank": 3400,
      "▁fif": 3401,
      "Ohhh": 3402,
      "ored": 3403,
      "ulhu": 3404,
      "thulhu": 3405,
      "▁block": 3406,
      "▁Another": 3407,
      "▁Phil": 3408,
      "▁driving": 3409,
      "▁asking": 3410,
      "▁missing": 3411,
      "▁Halloween": 3412,
      "gt": 3413,
      "member": 3414,
      "itar": 3415,
      "▁pod": 3416,
      "ases": 3417,
      "alt": 3418,
      "▁react": 3419,
      "▁repl": 3420,
      "▁House": 3421,
      "hers": 3422,
      "▁whoa": 3423,
      "▁grade": 3424,
      "▁screams": 3425,
      "damned": 3426,
      "arryl": 3427,
      "▁neighborhood": 3428,
      "11": 3429,
      "yan": 3430,
      "▁self": 3431,
      "arious": 3432,
      "isand": 3433,
      "▁hide": 3434,
      "▁during": 3435,
      "oring": 3436,
      "ased": 3437,
      "▁Jer": 3438,
      "Nobody": 3439,
      "▁tech": 3440,
      "▁Adler": 3441,
      "▁apart": 3442,
      "▁empty": 3443,
      "cent": 3444,
      "look": 3445,
      "▁gentlemen": 3446,
      "enger": 3447,
      "enriet": 3448,
      "▁pul": 3449,
      "▁School": 3450,
      "▁Time": 3451,
      "ades": 3452,
      "▁scr": 3453,
      "▁cold": 3454,
      "▁brings": 3455,
      "▁lots": 3456,
      "▁final": 3457,
      "▁support": 3458,
      "softly": 3459,
      "▁Ellen": 3460,
      "▁questions": 3461,
      "▁Clinton": 3462,
      "▁history": 3463,
      "enrietta": 3464,
      "CK": 3465,
      "Of": 3466,
      "Tr": 3467,
      "folk": 3468,
      "yy": 3469,
      "▁ign": 3470,
      "▁waves": 3471,
      "icop": 3472,
      "ils": 3473,
      "ums": 3474,
      "▁spot": 3475,
      "▁hole": 3476,
      "▁ManBearPig": 3477,
      "▁speaks": 3478,
      "formation": 3479,
      "▁protest": 3480,
      "Terrance": 3481,
      "hel": 3482,
      "ito": 3483,
      "▁port": 3484,
      "▁Aide": 3485,
      "▁excuse": 3486,
      "▁coat": 3487,
      "▁helicop": 3488,
      "▁throat": 3489,
      "RE": 3490,
      "gu": 3491,
      "▁woods": 3492,
      "nds": 3493,
      "omin": 3494,
      "▁lie": 3495,
      "▁lap": 3496,
      "▁loud": 3497,
      "▁Mor": 3498,
      "▁stool": 3499,
      "▁Russ": 3500,
      "▁Lor": 3501,
      "▁nothin": 3502,
      "▁Fuck": 3503,
      "▁alive": 3504,
      "▁Child": 3505,
      "omething": 3506,
      "▁drives": 3507,
      "▁court": 3508,
      "iju": 3509,
      "AM": 3510,
      "Have": 3511,
      "gar": 3512,
      "of": 3513,
      "▁av": 3514,
      "int": 3515,
      "▁cake": 3516,
      "▁farm": 3517,
      "▁fires": 3518,
      "ench": 3519,
      "▁Sgt": 3520,
      "▁eh": 3521,
      "▁kicks": 3522,
      "ently": 3523,
      "▁ant": 3524,
      "illing": 3525,
      "thinks": 3526,
      "▁track": 3527,
      "▁host": 3528,
      "▁among": 3529,
      "▁studio": 3530,
      "ology": 3531,
      "▁Leader": 3532,
      "▁zooms": 3533,
      "col": 3534,
      "mi": 3535,
      "▁App": 3536,
      "▁ann": 3537,
      "aine": 3538,
      "ipes": 3539,
      "▁seven": 3540,
      "▁robot": 3541,
      "▁Blanket": 3542,
      "▁breaks": 3543,
      "▁event": 3544,
      "▁terrible": 3545,
      "▁twenty": 3546,
      "▁dining": 3547,
      "▁ruin": 3548,
      "IDS": 3549,
      "izza": 3550,
      "iod": 3551,
      "ply": 3552,
      "▁key": 3553,
      "▁wood": 3554,
      "▁female": 3555,
      "▁Sally": 3556,
      "ald": 3557,
      "▁earth": 3558,
      "▁Jared": 3559,
      "▁Weather": 3560,
      "ifts": 3561,
      "▁charge": 3562,
      "▁Op": 3563,
      "▁vacc": 3564,
      "▁trick": 3565,
      "pson": 3566,
      "▁cough": 3567,
      "▁closet": 3568,
      "▁possible": 3569,
      "▁decided": 3570,
      "▁employ": 3571,
      "▁respect": 3572,
      "▁strike": 3573,
      "Boys": 3574,
      "ergart": 3575,
      "▁episode": 3576,
      "ijuana": 3577,
      "Bl": 3578,
      "Ooo": 3579,
      "ci": 3580,
      "fort": 3581,
      "eron": 3582,
      "▁bill": 3583,
      "lets": 3584,
      "▁daughter": 3585,
      "▁danger": 3586,
      "▁pol": 3587,
      "arters": 3588,
      "ution": 3589,
      "▁state": 3590,
      "▁upset": 3591,
      "▁Darryl": 3592,
      "▁alarm": 3593,
      "▁oper": 3594,
      "▁sidewalk": 3595,
      "▁message": 3596,
      "▁Elderly": 3597,
      "▁charac": 3598,
      "▁ninj": 3599,
      "book": 3600,
      "cis": 3601,
      "lar": 3602,
      "night": 3603,
      "heads": 3604,
      "▁bul": 3605,
      "▁bik": 3606,
      "▁died": 3607,
      "ading": 3608,
      "▁Bu": 3609,
      "▁Any": 3610,
      "eeee": 3611,
      "▁Dire": 3612,
      "vest": 3613,
      "▁worth": 3614,
      "▁moved": 3615,
      "▁Minister": 3616,
      "▁paj": 3617,
      "Take": 3618,
      "Two": 3619,
      "▁tem": 3620,
      "▁cre": 3621,
      "▁tooth": 3622,
      "▁poo": 3623,
      "▁rich": 3624,
      "urday": 3625,
      "▁Dude": 3626,
      "roud": 3627,
      "▁Est": 3628,
      "▁Out": 3629,
      "itten": 3630,
      "▁spread": 3631,
      "iled": 3632,
      "obs": 3633,
      "▁biggest": 3634,
      "clud": 3635,
      "rrr": 3636,
      "▁simply": 3637,
      "▁elect": 3638,
      "▁shooting": 3639,
      "▁Produ": 3640,
      "▁breath": 3641,
      "▁McCormick": 3642,
      "Dr": 3643,
      "WES": 3644,
      "eer": 3645,
      "gen": 3646,
      "ki": 3647,
      "▁tired": 3648,
      "▁suddenly": 3649,
      "▁cab": 3650,
      "▁caught": 3651,
      "▁pleas": 3652,
      "owing": 3653,
      "irts": 3654,
      "▁Home": 3655,
      "▁Like": 3656,
      "▁backyard": 3657,
      "▁First": 3658,
      "▁succ": 3659,
      "ously": 3660,
      "▁eng": 3661,
      "▁smok": 3662,
      "▁covers": 3663,
      "▁York": 3664,
      "dammit": 3665,
      "▁Jews": 3666,
      "▁hanging": 3667,
      "▁film": 3668,
      "▁Professor": 3669,
      "▁Jersey": 3670,
      "WESOM": 3671,
      "Tweek": 3672,
      "bur": 3673,
      "cess": 3674,
      "ogram": 3675,
      "▁thr": 3676,
      "▁lying": 3677,
      "ety": 3678,
      "lyn": 3679,
      "holes": 3680,
      "▁Head": 3681,
      "▁worried": 3682,
      "selor": 3683,
      "▁chest": 3684,
      "▁Sold": 3685,
      "▁skin": 3686,
      "▁surround": 3687,
      "▁turkey": 3688,
      "▁curtain": 3689,
      "▁shoots": 3690,
      "▁vagina": 3691,
      "Give": 3692,
      "sighs": 3693,
      "wait": 3694,
      "▁sat": 3695,
      "▁calls": 3696,
      "▁catches": 3697,
      "▁nurse": 3698,
      "usp": 3699,
      "eds": 3700,
      "▁health": 3701,
      "▁weren": 3702,
      "▁stom": 3703,
      "▁Air": 3704,
      "▁shopping": 3705,
      "rig": 3706,
      "ipe": 3707,
      "▁French": 3708,
      "shit": 3709,
      "▁Brad": 3710,
      "▁Alright": 3711,
      "rolls": 3712,
      "▁parking": 3713,
      "▁respons": 3714,
      "▁bottom": 3715,
      "▁basketball": 3716,
      "▁bench": 3717,
      "▁cows": 3718,
      "▁Cat": 3719,
      "▁lay": 3720,
      "artment": 3721,
      "▁race": 3722,
      "▁strange": 3723,
      "▁Gi": 3724,
      "▁cancer": 3725,
      "aint": 3726,
      "quickly": 3727,
      "iley": 3728,
      "▁queef": 3729,
      "▁brief": 3730,
      "▁image": 3731,
      "▁UP": 3732,
      "▁crit": 3733,
      "▁strikes": 3734,
      "▁horrible": 3735,
      "▁peace": 3736,
      "▁Streisand": 3737,
      "indsight": 3738,
      "▁ridiculous": 3739,
      "▁podium": 3740,
      "AL": 3741,
      "Great": 3742,
      "pok": 3743,
      "▁er": 3744,
      "▁tun": 3745,
      "rey": 3746,
      "▁warm": 3747,
      "▁cult": 3748,
      "▁drag": 3749,
      "▁mist": 3750,
      "▁monster": 3751,
      "▁psych": 3752,
      "asts": 3753,
      "otion": 3754,
      "unning": 3755,
      "raises": 3756,
      "ific": 3757,
      "Heh": 3758,
      "▁Show": 3759,
      "izes": 3760,
      "▁breaking": 3761,
      "▁period": 3762,
      "▁horse": 3763,
      "▁explain": 3764,
      "▁surprised": 3765,
      "▁Lorde": 3766,
      "▁Director": 3767,
      "▁Producer": 3768,
      "sn": 3769,
      "ube": 3770,
      "▁hom": 3771,
      "▁hus": 3772,
      "▁cred": 3773,
      "▁Cher": 3774,
      "▁net": 3775,
      "▁heh": 3776,
      "▁heaven": 3777,
      "aced": 3778,
      "▁weap": 3779,
      "▁anger": 3780,
      "▁DO": 3781,
      "rison": 3782,
      "agon": 3783,
      "▁whis": 3784,
      "▁anywhere": 3785,
      "▁playground": 3786,
      "▁dear": 3787,
      "▁Vamp": 3788,
      "▁brown": 3789,
      "▁evening": 3790,
      "Mrs": 3791,
      "▁Saturday": 3792,
      "OOOO": 3793,
      "ception": 3794,
      "▁sweetie": 3795,
      "▁raise": 3796,
      "ediately": 3797,
      "cing": 3798,
      "just": 3799,
      "lt": 3800,
      "▁talks": 3801,
      "another": 3802,
      "▁pour": 3803,
      "▁post": 3804,
      "▁Keeper": 3805,
      "▁beh": 3806,
      "▁Pa": 3807,
      "▁Pe": 3808,
      "▁guards": 3809,
      "arsh": 3810,
      "▁log": 3811,
      "uhammad": 3812,
      "▁windows": 3813,
      "uddha": 3814,
      "▁Britney": 3815,
      "Jim": 3816,
      "yer": 3817,
      "ism": 3818,
      "▁bin": 3819,
      "▁hy": 3820,
      "▁cause": 3821,
      "esy": 3822,
      "▁Crow": 3823,
      "icing": 3824,
      "ett": 3825,
      "adow": 3826,
      "▁rese": 3827,
      "arded": 3828,
      "▁Em": 3829,
      "▁clap": 3830,
      "que": 3831,
      "▁20": 3832,
      "▁bright": 3833,
      "▁couch": 3834,
      "▁finished": 3835,
      "▁broken": 3836,
      "iggles": 3837,
      "▁relax": 3838,
      "▁flying": 3839,
      "▁Paris": 3840,
      "Cool": 3841,
      "Timmy": 3842,
      "isa": 3843,
      "ened": 3844,
      "▁pocket": 3845,
      "▁Men": 3846,
      "▁Mill": 3847,
      "▁emb": 3848,
      "▁Huh": 3849,
      "▁Ryan": 3850,
      "▁jail": 3851,
      "▁softly": 3852,
      "quarters": 3853,
      "▁device": 3854,
      "ensive": 3855,
      "▁smiling": 3856,
      "▁trust": 3857,
      "▁teen": 3858,
      "ooray": 3859,
      "▁closed": 3860,
      "▁belong": 3861,
      "while": 3862,
      "▁Skyler": 3863,
      "becca": 3864,
      "BC": 3865,
      "Family": 3866,
      "Qu": 3867,
      "ai": 3868,
      "giving": 3869,
      "kn": 3870,
      "lan": 3871,
      "mark": 3872,
      "phy": 3873,
      "rick": 3874,
      "wards": 3875,
      "▁map": 3876,
      "▁proud": 3877,
      "▁Coll": 3878,
      "▁Male": 3879,
      "▁heav": 3880,
      "▁Henrietta": 3881,
      "▁Rec": 3882,
      "stru": 3883,
      "▁Dep": 3884,
      "▁likes": 3885,
      "▁Female": 3886,
      "ument": 3887,
      "▁vote": 3888,
      "emember": 3889,
      "▁drugs": 3890,
      "umbles": 3891,
      "azon": 3892,
      "▁older": 3893,
      "ipping": 3894,
      "▁respond": 3895,
      "▁monitor": 3896,
      "▁Frank": 3897,
      "▁jacket": 3898,
      "▁bastards": 3899,
      "▁yellow": 3900,
      "▁birthday": 3901,
      "▁Collins": 3902,
      "Ye": 3903,
      "ius": 3904,
      "pre": 3905,
      "rel": 3906,
      "▁candy": 3907,
      "▁punches": 3908,
      "▁public": 3909,
      "▁rally": 3910,
      "▁Princess": 3911,
      "▁remo": 3912,
      "ustr": 3913,
      "unte": 3914,
      "▁gettin": 3915,
      "▁arrest": 3916,
      "▁dise": 3917,
      "▁wrote": 3918,
      "▁residence": 3919,
      "▁laughter": 3920,
      "▁Daddy": 3921,
      "▁cares": 3922,
      "from": 3923,
      "Nothing": 3924,
      "▁community": 3925,
      "▁Jefferson": 3926,
      "▁below": 3927,
      "▁climb": 3928,
      "▁ticket": 3929,
      "▁months": 3930,
      "LE": 3931,
      "Ms": 3932,
      "Park": 3933,
      "hic": 3934,
      "hangs": 3935,
      "erve": 3936,
      "▁Mag": 3937,
      "vered": 3938,
      "ammer": 3939,
      "▁level": 3940,
      "▁Face": 3941,
      "▁suit": 3942,
      "▁spec": 3943,
      "▁applause": 3944,
      "▁sheet": 3945,
      "eels": 3946,
      "oyed": 3947,
      "▁action": 3948,
      "ackson": 3949,
      "soft": 3950,
      "ails": 3951,
      "▁dollar": 3952,
      "▁listening": 3953,
      "▁burst": 3954,
      "▁further": 3955,
      "▁buddy": 3956,
      "Listen": 3957,
      "Sweet": 3958,
      "eal": 3959,
      "ugh": 3960,
      "▁wrest": 3961,
      "istant": 3962,
      "ette": 3963,
      "▁Tell": 3964,
      "oos": 3965,
      "▁ur": 3966,
      "▁weight": 3967,
      "▁Ass": 3968,
      "▁workers": 3969,
      "▁checks": 3970,
      "▁finish": 3971,
      "▁sword": 3972,
      "▁Deck": 3973,
      "▁After": 3974,
      "▁climbs": 3975,
      "▁ladder": 3976,
      "▁Mickey": 3977,
      "Guys": 3978,
      "colate": 3979,
      "ceptionist": 3980,
      "▁Crowe": 3981,
      "Ey": 3982,
      "cus": 3983,
      "cont": 3984,
      "▁susp": 3985,
      "orting": 3986,
      "▁Mall": 3987,
      "▁iss": 3988,
      "▁Bro": 3989,
      "▁rise": 3990,
      "▁World": 3991,
      "▁Goth": 3992,
      "elt": 3993,
      "▁apparently": 3994,
      "▁Unit": 3995,
      "ipped": 3996,
      "▁China": 3997,
      "▁grab": 3998,
      "aura": 3999,
      "▁marijuana": 4000,
      "▁Thompson": 4001,
      "▁Dougie": 4002,
      "▁stopped": 4003,
      "Like": 4004,
      "People": 4005,
      "cil": 4006,
      "▁tour": 4007,
      "atters": 4008,
      "▁Mitch": 4009,
      "adio": 4010,
      "▁weak": 4011,
      "▁stor": 4012,
      "▁Ab": 4013,
      "urry": 4014,
      "These": 4015,
      "▁chin": 4016,
      "▁somehow": 4017,
      "▁vio": 4018,
      "▁handle": 4019,
      "aitlyn": 4020,
      "▁smell": 4021,
      "▁coll": 4022,
      "▁covered": 4023,
      "▁grins": 4024,
      "▁resumes": 4025,
      "www": 4026,
      "▁perform": 4027,
      "▁twice": 4028,
      "▁Conn": 4029,
      "▁rules": 4030,
      "▁direct": 4031,
      "▁oppos": 4032,
      "cluding": 4033,
      "Any": 4034,
      "Mmm": 4035,
      "gas": 4036,
      "tr": 4037,
      "town": 4038,
      "itive": 4039,
      "▁cig": 4040,
      "▁dreidel": 4041,
      "▁fake": 4042,
      "▁guns": 4043,
      "enor": 4044,
      "▁pap": 4045,
      "▁Cthulhu": 4046,
      "▁nuts": 4047,
      "▁Muhammad": 4048,
      "▁equ": 4049,
      "amas": 4050,
      "▁AIDS": 4051,
      "▁Gobb": 4052,
      "▁Hindsight": 4053,
      "ural": 4054,
      "▁Jon": 4055,
      "▁Jackson": 4056,
      "▁lif": 4057,
      "▁knees": 4058,
      "▁Heather": 4059,
      "▁agre": 4060,
      "▁whist": 4061,
      "▁talkin": 4062,
      "ueer": 4063,
      "▁Ye": 4064,
      "▁Three": 4065,
      "▁screaming": 4066,
      "▁Reiner": 4067,
      "Inside": 4068,
      "▁Only": 4069,
      "▁monkey": 4070,
      "▁double": 4071,
      "▁immediately": 4072,
      "▁Human": 4073,
      "NN": 4074,
      "cts": 4075,
      "hand": 4076,
      "tries": 4077,
      "upp": 4078,
      "▁sna": 4079,
      "itors": 4080,
      "▁yard": 4081,
      "omper": 4082,
      "▁Im": 4083,
      "ushing": 4084,
      "▁Buddha": 4085,
      "▁shitty": 4086,
      "▁Ow": 4087,
      "▁Star": 4088,
      "estab": 4089,
      "▁players": 4090,
      "rank": 4091,
      "▁trip": 4092,
      "▁Brown": 4093,
      "▁Chinpok": 4094,
      "▁Jewish": 4095
    },
    "merges": [
      "▁ t",
      "h e",
      "▁ a",
      "i n",
      "a n",
      "o u",
      "▁ s",
      "▁t he",
      "r e",
      "▁ w",
      "e r",
      "o n",
      "a r",
      "i s",
      "▁ b",
      "n d",
      "a t",
      "l e",
      "▁ h",
      "i t",
      "▁ c",
      "in g",
      "l l",
      "▁ d",
      "▁t o",
      "▁ f",
      "▁ m",
      "▁ g",
      "e s",
      "e n",
      "▁ o",
      "▁ y",
      "▁a nd",
      "o r",
      "▁ p",
      "▁y ou",
      "▁ C",
      "o m",
      "o w",
      "▁ S",
      "▁t h",
      "▁ I",
      "▁ l",
      "▁ n",
      "a y",
      "ar t",
      "▁o f",
      "i c",
      "▁ in",
      "u s",
      "e t",
      "▁ T",
      "e d",
      "▁ M",
      "o o",
      "a s",
      "v e",
      "a l",
      "o t",
      "▁ he",
      "u t",
      "i d",
      "a c",
      "m an",
      "▁ on",
      "▁ K",
      "g h",
      "▁ is",
      "i m",
      "art man",
      "▁ it",
      "t an",
      "▁C artman",
      "a d",
      "ou t",
      "▁ B",
      "▁b e",
      "k e",
      "t er",
      "▁ r",
      "h at",
      "▁ u",
      "▁w e",
      "y le",
      "▁ e",
      "▁s t",
      "v er",
      "▁d o",
      "gh t",
      "▁K yle",
      "▁S tan",
      "l d",
      "k s",
      "▁ W",
      "▁th at",
      "▁ P",
      "an d",
      "a m",
      "▁ re",
      "▁ A",
      "▁ G",
      "i ght",
      "▁ k",
      "▁h is",
      "i r",
      "▁ H",
      "o p",
      "▁h a",
      "it h",
      "s e",
      "om e",
      "▁ R",
      "▁w ith",
      "u r",
      "a ll",
      "l y",
      "▁f or",
      "▁u p",
      "▁a re",
      "en t",
      "c h",
      "▁ j",
      "▁s h",
      "▁T he",
      "e e",
      "▁a t",
      "us t",
      "he r",
      "▁ out",
      "▁m e",
      "Y ou",
      "i e",
      "s t",
      "▁g o",
      "▁a n",
      "r o",
      "ter s",
      "▁ J",
      "e ll",
      "▁ D",
      "▁ha ve",
      "u n",
      "ac k",
      "i ll",
      "i on",
      "▁ le",
      "▁f r",
      "a h",
      "y s",
      "h o",
      "▁n e",
      "▁l i",
      "▁a ll",
      "▁th is",
      "▁h im",
      "O h",
      "▁c an",
      "▁B ut",
      "p p",
      "r ou",
      "r a",
      "▁g et",
      "▁ L",
      "▁a s",
      "▁M r",
      "on e",
      "▁j ust",
      "er s",
      "T he",
      "▁b o",
      "c e",
      "▁you r",
      "▁m y",
      "c k",
      "and y",
      "a k",
      "▁But ters",
      "▁w hat",
      "▁l oo",
      "▁k n",
      "r i",
      "ow n",
      "ar d",
      "▁ N",
      "r y",
      "r is",
      "id e",
      "i g",
      "in d",
      "ou r",
      "▁n ot",
      "i l",
      "o re",
      "an t",
      "▁R andy",
      "t he",
      "▁s o",
      "u d",
      "a in",
      "n y",
      "e c",
      "o d",
      "a ke",
      "▁of f",
      "ou ld",
      "o l",
      "a g",
      "▁W e",
      "ver y",
      "n a",
      "▁r ight",
      "▁ E",
      "e ah",
      "▁d on",
      "▁kn ow",
      "▁H e",
      "▁b ack",
      "e p",
      "t o",
      "w ay",
      "i p",
      "▁a b",
      "▁ F",
      "i f",
      "u m",
      "▁c h",
      "all y",
      "▁b ut",
      "▁p l",
      "▁w as",
      "▁the n",
      "t s",
      "▁fr om",
      "▁g u",
      "h ing",
      "▁ You",
      "o s",
      "▁li ke",
      "re s",
      "▁n ow",
      "ur n",
      "▁ O",
      "en ny",
      "e l",
      "▁s ome",
      "H e",
      "rou nd",
      "v es",
      "a b",
      "in k",
      "W hat",
      "oo d",
      "ic e",
      "ar k",
      "ic k",
      "▁he re",
      "▁ab out",
      "▁ us",
      "Y eah",
      "▁the m",
      "▁d own",
      "▁he r",
      "▁the y",
      "▁S t",
      "on g",
      "▁s ee",
      "▁s u",
      "▁c l",
      "al ks",
      "▁o ver",
      "f f",
      "▁g ot",
      "▁c om",
      "▁w or",
      "a p",
      "ar s",
      "k ay",
      "▁the re",
      "▁bo ys",
      "e op",
      "▁ v",
      "▁s e",
      "▁a g",
      "eop le",
      "▁r o",
      "▁K enny",
      "▁w h",
      "c t",
      "it t",
      "a re",
      "he s",
      "t her",
      "he n",
      "on na",
      "▁a l",
      "▁n o",
      "▁in to",
      "al k",
      "ar ris",
      "q u",
      "▁g onna",
      "▁loo k",
      "▁s p",
      "m y",
      "▁a way",
      "es t",
      "▁do or",
      "le s",
      "▁ our",
      "▁on e",
      "im e",
      "u l",
      "e m",
      "▁w ho",
      "▁a round",
      "arris on",
      "as s",
      "▁th ink",
      "▁o ther",
      "ac e",
      "▁p eople",
      "▁C h",
      "▁G arrison",
      "on t",
      "W ell",
      "▁h as",
      "▁d ay",
      "oo l",
      "n t",
      "i ve",
      "▁w ant",
      "W e",
      "▁k id",
      "as t",
      "N o",
      "▁an y",
      "us e",
      "es s",
      "▁e very",
      "urn s",
      "is t",
      "r ow",
      "u ck",
      "▁d id",
      "in e",
      "at e",
      "▁the ir",
      "he re",
      "out h",
      "▁I t",
      "▁b y",
      "▁m an",
      "▁ag ain",
      "g e",
      "ke y",
      "▁s c",
      "i le",
      "i an",
      "▁m o",
      "ou se",
      "e w",
      "h is",
      "b e",
      "▁t ime",
      "▁J im",
      "▁gu ys",
      "v en",
      "▁l o",
      "ak es",
      "▁loo ks",
      "in s",
      "▁s ay",
      "ud e",
      "t h",
      "i en",
      "on d",
      "am e",
      "u re",
      "at ion",
      "w o",
      "itt le",
      "▁w alks",
      "▁S h",
      "i es",
      "tan d",
      "a use",
      "u h",
      "v ing",
      "u p",
      "▁b l",
      "op s",
      "▁ne ed",
      "▁s a",
      "re e",
      "▁h and",
      "f t",
      "▁a pp",
      "I t",
      "▁to w",
      "▁pl ay",
      "▁go ing",
      "ou s",
      "▁l ittle",
      "He y",
      "▁f l",
      "u ll",
      "▁S he",
      "▁P ark",
      "a a",
      "▁ro om",
      "▁d e",
      "s ide",
      "ot her",
      "r an",
      "oo k",
      "▁c ome",
      "b er",
      "▁e x",
      "▁ if",
      "▁he ad",
      "ac h",
      "i ld",
      "▁ 1",
      "▁h ouse",
      "en s",
      "a it",
      "as e",
      "ing s",
      "B ut",
      "▁ en",
      "r in",
      "▁re ally",
      "ic h",
      "▁m ake",
      "▁le t",
      "▁w ill",
      "h h",
      "er al",
      "b le",
      "om et",
      "t ing",
      "▁m ore",
      "▁kid s",
      "ag e",
      "ad y",
      "▁o p",
      "▁G od",
      "▁sh ow",
      "a ve",
      "▁t ake",
      "▁w ay",
      "m ent",
      "ar on",
      "he f",
      "it y",
      "▁p ro",
      "▁to o",
      "▁ qu",
      "▁st art",
      "▁s m",
      "x t",
      "i re",
      "▁a r",
      "▁ne w",
      "▁h ow",
      "an g",
      "se l",
      "▁t r",
      "ch ool",
      "re at",
      "le d",
      "▁o r",
      "ie nd",
      "T hat",
      "▁be en",
      "▁s omet",
      "▁ V",
      "▁ 2",
      "at er",
      "A A",
      "▁s he",
      "▁h o",
      "od y",
      "a u",
      "ir l",
      "A nd",
      "ic t",
      "ar y",
      "▁A nd",
      "▁Sh aron",
      "▁t e",
      "b ody",
      "U h",
      "▁t wo",
      "ou nd",
      "▁c o",
      "nd y",
      "▁do es",
      "▁g ood",
      "▁C hef",
      "s s",
      "▁sh ould",
      "▁M ac",
      "re n",
      "Y es",
      "f e",
      "▁s chool",
      "w e",
      "eral d",
      "o se",
      "▁b r",
      "S tan",
      "b o",
      "▁w ould",
      "a ir",
      "it e",
      "▁Mac key",
      "▁t ry",
      "▁t alk",
      "▁W hat",
      "▁wor k",
      "u e",
      "om an",
      "p s",
      "r ic",
      "is s",
      "▁me an",
      "o ll",
      "▁p ut",
      "▁M an",
      "it s",
      "C artman",
      "d e",
      "t hing",
      "▁r un",
      "▁le ft",
      "rou gh",
      "g et",
      "▁c ould",
      "▁n ight",
      "rin c",
      "o in",
      "t e",
      "t urns",
      "m er",
      "▁Jim my",
      "▁he l",
      "h y",
      "▁c he",
      "i al",
      "▁w hen",
      "▁d r",
      "at ch",
      "res s",
      "▁a m",
      "▁G erald",
      "ab le",
      "o b",
      "O kay",
      "▁be g",
      "▁th rough",
      "▁be c",
      "▁somet hing",
      "▁t ell",
      "▁A n",
      "▁The y",
      "re d",
      "or t",
      "an k",
      "r ight",
      "▁c ou",
      "es us",
      "▁Ch ris",
      "▁u nd",
      "ec t",
      "p er",
      "▁as s",
      "▁b et",
      "▁ha pp",
      "ol k",
      "ad e",
      "▁st op",
      "▁We ndy",
      "n e",
      "▁s tand",
      "ard s",
      "▁g irl",
      "▁we re",
      "▁fr iend",
      "ent s",
      "rinc ip",
      "t y",
      "▁he ll",
      "K yle",
      "rincip al",
      "▁w alk",
      "h ind",
      "ak ing",
      "e ar",
      "▁do ing",
      "e ars",
      "i z",
      "▁C ra",
      "▁c on",
      "▁d is",
      "b r",
      "▁fr ont",
      "▁m om",
      "au gh",
      "▁ne xt",
      "sel f",
      "at her",
      "t a",
      "le ase",
      "m s",
      "▁t urns",
      "an na",
      "▁a d",
      "▁ch ild",
      "▁hel p",
      "▁ Y",
      "▁w here",
      "▁c ar",
      "u b",
      "w alks",
      "▁f ace",
      "olk ien",
      "▁h ad",
      "all s",
      "is h",
      "at h",
      "c er",
      "▁w ait",
      "▁go es",
      "▁w anna",
      "▁T hat",
      "▁c am",
      "g er",
      "▁st ill",
      "▁com p",
      "A ll",
      "▁f uck",
      "▁s ec",
      "▁b it",
      "id ent",
      "▁b ig",
      "▁w r",
      "or d",
      "or ry",
      "▁be hind",
      "o ck",
      "▁on ly",
      "f ore",
      "ow s",
      "a w",
      "n ing",
      "▁every one",
      "l ie",
      "▁o kay",
      "▁c ont",
      "▁u h",
      "c hes",
      "▁su re",
      "i a",
      "▁ im",
      "▁b u",
      "▁d ude",
      "▁M ay",
      "ee l",
      "o y",
      "▁p r",
      "ir st",
      "at es",
      "m o",
      "D ude",
      "ct or",
      "▁p h",
      "▁p re",
      "▁I n",
      "▁P rincipal",
      "▁s l",
      "▁h ome",
      "▁tow n",
      "▁ U",
      "ot t",
      "one y",
      "▁bo y",
      "▁Cra ig",
      "▁T olkien",
      "ac t",
      "▁D o",
      "a ves",
      "ran ce",
      "ic er",
      "an s",
      "▁S c",
      "c ks",
      "ly de",
      "▁get s",
      "▁f ind",
      "▁th ing",
      "T his",
      "a v",
      "i gh",
      "▁ ke",
      "▁a f",
      "▁sa id",
      "s h",
      "▁e ven",
      "▁t akes",
      "S outh",
      "p l",
      "▁g r",
      "i ous",
      "▁did n",
      "▁S outh",
      "▁T h",
      "o h",
      "▁J esus",
      "row d",
      "u ff",
      "▁we ll",
      "b s",
      "ou gh",
      "ian e",
      "▁bec ause",
      "▁ very",
      "ep hen",
      "▁w atch",
      "il a",
      "▁e y",
      "▁ Oh",
      "▁an other",
      "up id",
      "w ee",
      "er a",
      "op e",
      "on s",
      "▁th an",
      "ac hes",
      "▁be ing",
      "S o",
      "▁Chris t",
      "▁B e",
      "▁u n",
      "▁sc re",
      "or m",
      "ou n",
      "▁e ach",
      "▁a ct",
      "u g",
      "▁l ater",
      "▁St ephen",
      "▁P h",
      "▁re s",
      "A l",
      "▁E ric",
      "im my",
      "▁L iane",
      "▁a c",
      "▁ho ld",
      "i ly",
      "▁be fore",
      "▁Mr s",
      "are n",
      "▁f irst",
      "▁wh y",
      "u ch",
      "▁T his",
      "ep s",
      "▁O ff",
      "▁s ide",
      "res ident",
      "W ho",
      "at ed",
      "▁p art",
      "▁b us",
      "ig n",
      "M r",
      "▁She ila",
      "ro om",
      "▁Jim bo",
      "ra p",
      "▁w ind",
      "oo ks",
      "o or",
      "▁C lyde",
      "▁ne ver",
      "wee k",
      "d am",
      "▁g reat",
      "▁l ot",
      "▁re al",
      "d ay",
      "▁d es",
      "▁b ed",
      "▁sh ot",
      "▁c r",
      "▁g ive",
      "▁B ar",
      "▁s orry",
      "▁l augh",
      "▁the se",
      "▁f eel",
      "But ters",
      "▁t able",
      "▁f un",
      "ic ks",
      "C ome",
      "n er",
      "▁t urn",
      "ull s",
      "ot h",
      "at ing",
      "▁lo ve",
      "▁op en",
      "▁m uch",
      "em ber",
      "a pp",
      "▁D r",
      "▁g l",
      "▁cam era",
      "▁c rowd",
      "▁beg ins",
      "▁wh ile",
      "as h",
      "▁l ong",
      "▁child ren",
      "▁f oll",
      "he d",
      "▁op ens",
      "▁bet ter",
      "▁cl ass",
      "is e",
      "▁does n",
      "▁y eah",
      "▁C an",
      "ro ss",
      "▁cl os",
      "▁f in",
      "▁in side",
      "▁is n",
      "Al right",
      "▁sec ond",
      "aren ts",
      "▁be lie",
      "▁d ri",
      "▁c all",
      "▁com es",
      "▁B l",
      "▁hand s",
      "ou ght",
      "▁N o",
      "w w",
      "The y",
      "▁I ke",
      "▁tow ards",
      "v in",
      "ad s",
      "▁M c",
      "▁got ta",
      "▁May or",
      "▁t ri",
      "▁th ose",
      "▁f ew",
      "▁T week",
      "g r",
      "n ed",
      "▁m ay",
      "d y",
      "▁m oney",
      "oo t",
      "id i",
      "▁sh own",
      "▁ 3",
      "▁p arents",
      "▁ph one",
      "H ow",
      "▁m ade",
      "er rance",
      "▁M s",
      "▁B r",
      "▁k ind",
      "a le",
      "▁th ree",
      "▁o w",
      "an c",
      "▁happ en",
      "▁Off icer",
      "H ell",
      "N ow",
      "v ed",
      "▁s on",
      "▁af ter",
      "▁b re",
      "et s",
      "un ch",
      "an ce",
      "▁th ings",
      "▁A ll",
      "▁le ave",
      "▁P C",
      "o on",
      "▁pl ace",
      "▁N ow",
      "▁look ing",
      "▁m en",
      "ion s",
      "▁wor ld",
      "ut s",
      "▁st ud",
      "▁C l",
      "▁m ust",
      "▁he ard",
      "▁e nd",
      "▁H ow",
      "▁s w",
      "ar ing",
      "▁P resident",
      "im es",
      "▁belie ve",
      "▁ey es",
      "p t",
      "▁k ill",
      "▁w oman",
      "▁wind ow",
      "at s",
      "us ic",
      "▁st upid",
      "The re",
      "ers on",
      "▁e ver",
      "▁The re",
      "▁ke ep",
      "▁b ad",
      "▁g i",
      "▁l ist",
      "▁wh ich",
      "▁get ting",
      "▁p ict",
      "▁re p",
      "ut e",
      "T h",
      "ill ip",
      "▁re m",
      "at or",
      "▁st ops",
      "▁S p",
      "▁M ars",
      "▁l ast",
      "p le",
      "▁m in",
      "▁out side",
      "l o",
      "▁at t",
      "▁app ears",
      "ers tand",
      "▁app ro",
      "▁th ought",
      "um b",
      "l s",
      "ac es",
      "▁T immy",
      "▁f am",
      "▁re st",
      "▁L et",
      "mer ic",
      "▁St e",
      "o k",
      "et er",
      "▁any thing",
      "▁try ing",
      "▁und erstand",
      "▁s er",
      "L ook",
      "br ady",
      "u ally",
      "ac ks",
      "▁e l",
      "▁su pp",
      "▁Ph illip",
      "▁st re",
      "▁p er",
      "w ard",
      "▁p lease",
      "▁c are",
      "▁ow n",
      "▁T errance",
      "very one",
      "a z",
      "e x",
      "▁girl s",
      "D on",
      "t ain",
      "ll y",
      "ment ary",
      "o ice",
      "s o",
      "m ore",
      "▁f our",
      "les s",
      "▁ 4",
      "▁friend s",
      "b y",
      "▁h u",
      "n oun",
      "S t",
      "▁Bar brady",
      "le mentary",
      "or y",
      "▁He idi",
      "c l",
      "▁W oman",
      "s on",
      "▁I f",
      "ip s",
      "ho le",
      "Hell o",
      "▁c al",
      "a x",
      "▁b ab",
      "▁se en",
      "i ke",
      "le y",
      "▁sp e",
      "ou nt",
      "the y",
      "o g",
      "un s",
      "▁gu y",
      "i k",
      "W hy",
      "▁run s",
      "▁S o",
      "ant s",
      "s w",
      "▁T om",
      "▁li fe",
      "ing er",
      "▁E lementary",
      "▁c le",
      "▁und er",
      "get her",
      "d er",
      "ien ce",
      "▁start s",
      "m m",
      "▁T e",
      "▁l ight",
      "a il",
      "▁wr ong",
      "▁to ld",
      "▁m usic",
      "▁f ight",
      "▁him self",
      "▁Sc ott",
      "▁s k",
      "or k",
      "▁A meric",
      "▁pl an",
      "▁A l",
      "0 0",
      "D o",
      "▁f at",
      "▁talk ing",
      "S h",
      "▁h ard",
      "K enny",
      "▁s n",
      "ol ice",
      "ap s",
      "e ver",
      "▁p ulls",
      "▁n ame",
      "▁sh it",
      "ind a",
      "l ooks",
      "▁st uff",
      "▁every thing",
      "▁w on",
      "ar m",
      "▁gu ess",
      "▁play ing",
      "▁T V",
      "l ing",
      "es e",
      "▁mo ve",
      "▁c ool",
      "▁Mars h",
      "▁it s",
      "t on",
      "▁pro ble",
      "ver s",
      "▁o ld",
      "▁R e",
      "▁el se",
      "▁to gether",
      "▁p ass",
      "▁m ight",
      "▁D ad",
      "is es",
      "at ter",
      "▁s ign",
      "am p",
      "i x",
      "m as",
      "▁ ent",
      "re am",
      "ec ial",
      "rou p",
      "i v",
      "▁new s",
      "AA AA",
      "▁h uh",
      "▁p os",
      "ie w",
      "▁off ice",
      "▁qu ick",
      "▁ ide",
      "and s",
      "el ie",
      "l er",
      "▁s its",
      "▁re c",
      "▁foll ow",
      "▁s et",
      "n g",
      "▁d one",
      "▁L inda",
      "▁Can ad",
      "or n",
      "▁le aves",
      "▁li ving",
      "▁bo x",
      "▁do ll",
      "we et",
      "h a",
      "r r",
      "ow er",
      "i er",
      "▁S at",
      "▁n ice",
      "t ty",
      "way s",
      "▁s ound",
      "▁b est",
      "▁list en",
      "f ul",
      "▁a w",
      "▁s ur",
      "M y",
      "u es",
      "▁s it",
      "▁C ome",
      "▁com ing",
      "in ks",
      "i les",
      "▁le ad",
      "▁Be be",
      "▁p oin",
      "▁as k",
      "row s",
      "▁b ro",
      "it c",
      "▁H an",
      "▁not hing",
      "▁fam ily",
      "ie ld",
      "S he",
      "m b",
      "▁p erson",
      "▁M om",
      "um p",
      "an ge",
      "▁fl oor",
      "noun cer",
      "ic es",
      "▁st ay",
      "▁ha ll",
      "▁im p",
      "he ad",
      "or s",
      "▁pict ure",
      "ra w",
      "▁V ict",
      "W ow",
      "▁t ra",
      "▁N ew",
      "▁cou nt",
      "▁stand s",
      "▁to day",
      "or ia",
      "▁en ough",
      "R andy",
      "o ve",
      "▁B ill",
      "oh n",
      "▁an sw",
      "▁may be",
      "L et",
      "al s",
      "▁F r",
      "i pp",
      "am a",
      "▁R ed",
      "os ed",
      "g o",
      "w here",
      "us h",
      "▁re ady",
      "O O",
      "▁f ire",
      "▁sm all",
      "I n",
      "▁d am",
      "▁bit ch",
      "▁Vict oria",
      "▁m akes",
      "en e",
      "▁pre tty",
      "▁D on",
      "▁de ad",
      "▁An nouncer",
      "▁who le",
      "▁act ually",
      "a el",
      "▁mo st",
      "▁say s",
      "an ks",
      "art s",
      "▁he ar",
      "▁W ell",
      "▁an g",
      "▁g ame",
      "▁Han key",
      "▁s ong",
      "d u",
      "id es",
      "▁Ch in",
      "ich ael",
      "▁beg in",
      "▁cont in",
      "▁c our",
      "tan t",
      "ri es",
      "ul t",
      "ro ll",
      "▁us e",
      "i ed",
      "▁g roup",
      "or ter",
      "▁W hy",
      "ud d",
      "s y",
      "▁g round",
      "▁li ve",
      "▁m outh",
      "▁M y",
      "are d",
      "▁mo ves",
      "▁p res",
      "▁ide a",
      "ar r",
      "▁She lly",
      "y ing",
      "▁re ad",
      "▁v ide",
      "▁other s",
      "ld er",
      "▁Christ mas",
      "A w",
      "p a",
      "▁en ters",
      "H uh",
      "▁M ar",
      "▁ch air",
      "▁scre en",
      "en ter",
      "i et",
      "▁se es",
      "o c",
      "▁s ir",
      "▁Do ctor",
      "▁des k",
      "re nt",
      "▁J ew",
      "▁we e",
      "▁G u",
      "▁le ar",
      "re st",
      "▁c a",
      "▁g ay",
      "s k",
      "▁G r",
      "▁ha ving",
      "s p",
      "▁wor d",
      "▁bu ild",
      "▁b ar",
      "▁g ra",
      "▁st eps",
      "▁J ohn",
      "if e",
      "nt il",
      "▁say ing",
      "ow elie",
      "op p",
      "ec ause",
      "b all",
      "▁bl ack",
      "a ur",
      "t akes",
      "▁s ing",
      "▁l ine",
      "▁M ichael",
      "▁e v",
      "▁m aking",
      "ro f",
      "▁J ust",
      "ct ion",
      "▁on to",
      "an y",
      "▁d ad",
      "oo oo",
      "ud ience",
      "G od",
      "ap e",
      "▁put s",
      "▁Sat an",
      "▁t imes",
      "▁d if",
      "▁ Uh",
      "le ep",
      "▁g un",
      "▁stre et",
      "ap er",
      "▁al ong",
      "an ie",
      "▁L e",
      "ter n",
      "▁ar ri",
      "▁proble m",
      "v is",
      "um ps",
      "get s",
      "le n",
      "▁b ook",
      "▁d ress",
      "▁C oon",
      "▁cal led",
      "it ch",
      "am s",
      "en ce",
      "a ks",
      "▁b as",
      "u res",
      "▁Y ates",
      "i b",
      "▁c rap",
      "▁en ter",
      "i ent",
      "m it",
      "▁w ater",
      "▁v oice",
      "▁ar ms",
      "▁B o",
      "▁u ntil",
      "▁ne ar",
      "i o",
      "o ld",
      "▁t er",
      "ent ion",
      "p h",
      "▁d ec",
      "▁me et",
      "▁show s",
      "▁b oth",
      "y ou",
      "▁a ir",
      "▁p olice",
      "▁se x",
      "▁al ways",
      "▁f ound",
      "▁s ame",
      "J ust",
      "f r",
      "ie f",
      "f a",
      "▁re t",
      "▁st age",
      "air s",
      "n ot",
      "ar ge",
      "▁E l",
      "▁any more",
      "▁br ing",
      "g g",
      "r ong",
      "it ion",
      "itt ing",
      "i ble",
      "r u",
      "re en",
      "▁f alls",
      "▁ch ange",
      "▁m atter",
      "ac her",
      "anie ls",
      "N ot",
      "ar ry",
      "▁m iss",
      "us hes",
      "▁ar m",
      "▁m or",
      "n it",
      "is ts",
      "▁P ip",
      "c ome",
      "s c",
      "▁c or",
      "▁y es",
      "▁fuck ing",
      "▁watch ing",
      "▁supp osed",
      "▁e m",
      "▁Mc D",
      "▁vide o",
      "I f",
      "▁f ine",
      "il led",
      "▁se at",
      "aa aa",
      "hh h",
      "▁c ho",
      "▁T owelie",
      "▁for ward",
      "▁are n",
      "id s",
      "▁McD aniels",
      "at ches",
      "▁h ur",
      "re w",
      "▁w all",
      "▁de al",
      "▁p ark",
      "▁re d",
      "▁fin ally",
      "W ait",
      "c he",
      "▁I s",
      "▁ro ll",
      "▁R ep",
      "▁j oin",
      "▁b alls",
      "▁p ast",
      "▁O n",
      "▁again st",
      "▁happen ed",
      "A h",
      "f orm",
      "▁t aking",
      "re ady",
      "▁h ang",
      "ir d",
      "▁res p",
      "c o",
      "re t",
      "▁d ie",
      "▁p en",
      "▁t w",
      "▁j ob",
      "▁D e",
      "▁head s",
      "G et",
      "ce pt",
      "▁off ic",
      "sel ves",
      "▁e at",
      "▁r ings",
      "▁v iew",
      "▁a udience",
      "▁A s",
      "ian s",
      "▁clos es",
      "▁appro aches",
      "itc hen",
      "▁count ry",
      "u al",
      "m or",
      "▁b all",
      "▁on ce",
      "▁ac c",
      "r uns",
      "▁w in",
      "id d",
      "▁door s",
      "▁M e",
      "oo p",
      "ant a",
      "▁al ready",
      "▁too k",
      "▁sp ecial",
      "▁pr ot",
      "ro l",
      "▁ z",
      "▁s weet",
      "▁cl ose",
      "▁play s",
      "▁f ood",
      "art h",
      "▁T wo",
      "▁so on",
      "iz e",
      "▁f ree",
      "itt y",
      "mo ves",
      "im m",
      "▁ac ross",
      "Who a",
      "m en",
      "▁to t",
      "▁m ar",
      "as on",
      "C h",
      "▁p ay",
      "▁quick ly",
      "▁ 5",
      "▁o h",
      "▁che ck",
      "▁stud ents",
      "c use",
      "n ess",
      "is ter",
      "▁W ho",
      "▁dif fe",
      "▁W h",
      "▁G o",
      "He re",
      "▁bre ak",
      "▁N e",
      "▁fun ny",
      "▁rem ember",
      "▁al one",
      "▁c ame",
      "en n",
      "▁st ore",
      "▁sh ut",
      "▁bo dy",
      "ag in",
      "▁every body",
      "ot s",
      "ir t",
      "▁d in",
      "ut er",
      "▁mo v",
      "▁ha ir",
      "▁lo ck",
      "C an",
      "▁want ed",
      "in ess",
      "▁h igh",
      "▁S m",
      "▁k itchen",
      "o st",
      "▁t ur",
      "▁C om",
      "▁some one",
      "▁y ears",
      "ow ers",
      "▁bab y",
      "c es",
      "▁w ar",
      "▁so fa",
      "▁mor ning",
      "G ood",
      "▁h ot",
      "▁g one",
      "▁C ol",
      "oo o",
      "o ke",
      "▁cour se",
      "am es",
      "▁want s",
      "p oin",
      "i um",
      "▁dr ops",
      "▁ad d",
      "▁min ute",
      "W here",
      "er ing",
      "▁p aper",
      "ut h",
      "em ent",
      "▁Ste ven",
      "at t",
      "▁r a",
      "▁sa w",
      "▁he y",
      "▁f oot",
      "ak en",
      "▁day s",
      "i h",
      "ry ing",
      "▁ser ious",
      "▁m ind",
      "▁y a",
      "▁you ng",
      "▁with out",
      "▁b ur",
      "▁M ark",
      "ot e",
      "▁B oy",
      "▁N ed",
      "we en",
      "ne y",
      "▁second s",
      "c le",
      "en eral",
      "ic al",
      "▁c ra",
      "▁f ore",
      "g ins",
      "▁f ive",
      "ax i",
      "ig g",
      "J esus",
      "oo f",
      "▁Th om",
      "▁c ur",
      "▁r id",
      "k es",
      "▁f ather",
      "ation s",
      "▁bl ood",
      "▁happ y",
      "n o",
      "▁f ull",
      "▁we aring",
      "our s",
      "el s",
      "▁h ope",
      "it al",
      "▁O kay",
      "▁su ch",
      "▁sc ene",
      "▁C on",
      "▁D av",
      "▁Gr and",
      "▁h ate",
      "▁f e",
      "as ter",
      "os es",
      "▁pres ent",
      "E ric",
      "▁b ath",
      "ile t",
      "ath an",
      "▁contin ues",
      "g round",
      "r or",
      "▁ Yeah",
      "▁B ob",
      "▁wait ing",
      "ell y",
      "▁qu est",
      "i i",
      "▁m other",
      "▁G et",
      "▁com m",
      "▁wh ite",
      "▁work ing",
      "mo st",
      "ing ers",
      "l and",
      "▁s im",
      "om en",
      "▁e ating",
      "ho ld",
      "ol og",
      "▁S anta",
      "ee p",
      "h in",
      "s he",
      "▁c e",
      "▁ch ang",
      "▁comp uter",
      "c ause",
      "▁in ter",
      "▁st ri",
      "▁h or",
      "▁E veryone",
      "he st",
      "▁s y",
      "ul ts",
      "▁man y",
      "en se",
      "al f",
      "I s",
      "A re",
      "▁to mor",
      "▁m on",
      "▁H at",
      "▁L ook",
      "▁su ck",
      "lo v",
      "▁tomor row",
      "M e",
      "▁b and",
      "▁p ants",
      "▁S l",
      "ic s",
      "et e",
      "▁k ick",
      "▁go in",
      "▁su per",
      "a ah",
      "on ight",
      "▁S ome",
      "▁J e",
      "ug s",
      "▁part y",
      "▁tot ally",
      "on y",
      "▁m ill",
      "▁O ne",
      "▁C ho",
      "▁H all",
      "o v",
      "on es",
      "▁cou ple",
      "it ing",
      "us s",
      "ex ic",
      "▁doll ars",
      "poin ts",
      "i ves",
      "id ay",
      "▁some body",
      "▁Ste ve",
      "▁b oo",
      "▁to ilet",
      "▁A g",
      "▁mean s",
      "▁bet ween",
      "▁build ing",
      "▁He y",
      "▁con f",
      "▁diffe rent",
      "R e",
      "c ial",
      "▁ 6",
      "it her",
      "▁y et",
      "▁p ower",
      "▁M axi",
      "▁do ctor",
      "ys ter",
      "▁t aken",
      "▁m ic",
      "▁y ear",
      "▁p ie",
      "if f",
      "be gins",
      "▁tr ue",
      "▁foll ows",
      "H i",
      "n ow",
      "us ed",
      "oo h",
      "▁P eople",
      "▁ex pl",
      "rof lov",
      "▁but t",
      "▁lead er",
      "roflov sk",
      "▁s leep",
      "▁c ut",
      "▁p ri",
      "▁C ar",
      "▁re l",
      "▁was n",
      "▁mom ent",
      "▁hold ing",
      "▁th ank",
      "ve l",
      "▁ Q",
      "in es",
      "▁hold s",
      "le te",
      "▁te acher",
      "▁dr ink",
      "tern et",
      "a ving",
      "o e",
      "in ce",
      "▁s itting",
      "st ops",
      "▁tri es",
      "▁bath room",
      "G o",
      "z y",
      "▁m ess",
      "ver n",
      "▁do g",
      "am m",
      "▁cou n",
      "▁to p",
      "▁r u",
      "▁bus iness",
      "es ome",
      "The n",
      "▁us ed",
      "▁al so",
      "▁cont rol",
      "▁imp or",
      "▁answ er",
      "m e",
      "t ed",
      "▁w ent",
      "▁d ou",
      "▁g as",
      "l ic",
      "▁d raw",
      "▁l arge",
      "▁k illed",
      "▁walk ing",
      "it ed",
      "▁c ross",
      "ah ah",
      "▁sl ow",
      "▁hall way",
      "v ice",
      "▁d ream",
      "▁H is",
      "▁You r",
      "▁w ife",
      "▁M exic",
      "idd le",
      "j ect",
      "▁b ull",
      "▁A re",
      "ra id",
      "▁bo ard",
      "M om",
      "p uts",
      "▁w ond",
      "er ry",
      "▁f ell",
      "▁p ain",
      "▁le g",
      "▁c ol",
      "▁d umb",
      "id y",
      "▁D en",
      "u art",
      "▁s qu",
      "ur ity",
      "▁He re",
      "k y",
      "▁b ag",
      "ut ure",
      "▁your self",
      "ap tain",
      "▁app ear",
      "go es",
      "o cks",
      "▁l aw",
      "▁re aches",
      "ep hest",
      "os p",
      "▁Americ a",
      "▁Rep orter",
      "▁Je ff",
      "▁h on",
      "▁mov ie",
      "ephest o",
      "▁f ly",
      "▁p ull",
      "▁th rows",
      "▁e le",
      "ap an",
      "▁start ed",
      "i ver",
      "le t",
      "▁he art",
      "▁B roflovsk",
      "gr idy",
      "▁pen is",
      "D am",
      "▁ 9",
      "te nd",
      "▁af raid",
      "▁gi ves",
      "▁b ott",
      "▁R ich",
      "ur se",
      "▁bu y",
      "▁impor tant",
      "▁b ra",
      "▁f re",
      "▁p ee",
      "ad o",
      "▁al right",
      "o om",
      "an n",
      "▁s ick",
      "▁te am",
      "▁ass hole",
      "▁stand ing",
      "▁e ar",
      "ch or",
      "ate ly",
      "le aves",
      "▁J apan",
      "▁p e",
      "▁any one",
      "A n",
      "▁f ish",
      "ag er",
      "▁al most",
      "▁ex p",
      "P lease",
      "▁ Z",
      "▁in v",
      "▁be l",
      "▁A d",
      "▁The n",
      "un t",
      "▁St uart",
      "ran s",
      "▁w he",
      "nd er",
      "▁lo st",
      "anc es",
      "A ww",
      "D ad",
      "p ulls",
      "at ive",
      "▁dress ed",
      "B ecause",
      "E x",
      "c c",
      "▁w omen",
      "▁p iss",
      "od e",
      "▁ent rance",
      "▁a p",
      "▁M ephesto",
      "▁be at",
      "▁A t",
      "▁sh ock",
      "▁L u",
      "▁Ne xt",
      "ab ly",
      "▁In ternet",
      "▁Canad a",
      "▁d ire",
      "▁br other",
      "D id",
      "nd red",
      "op ens",
      "▁sound s",
      "ou d",
      "ound s",
      "▁gl ass",
      "R ight",
      "w h",
      "▁f inger",
      "et h",
      "un g",
      "▁N athan",
      "ud ge",
      "▁se nd",
      "▁spe ak",
      "▁Bo ys",
      "▁t ou",
      "▁sh oo",
      "▁Dav id",
      "O U",
      "m a",
      "▁p ick",
      "▁W here",
      "ag es",
      "▁run ning",
      "igh s",
      "Th ank",
      "▁Mar vin",
      "O n",
      "c om",
      "w ith",
      "e en",
      "▁c ity",
      "▁g ather",
      "▁P at",
      "ount ain",
      "A R",
      "▁s ile",
      "▁M in",
      "▁K im",
      "am ed",
      "▁k iss",
      "ee z",
      "▁need s",
      "▁tr uck",
      "▁co st",
      "▁bed room",
      "▁poin t",
      "▁t onight",
      "▁re ads",
      "um e",
      "▁no body",
      "▁ex c",
      "or ts",
      "el son",
      "▁ro ck",
      "▁s ix",
      "▁g row",
      "ad dam",
      "▁see m",
      "▁hu ndred",
      "w ork",
      "▁t rou",
      "▁a head",
      "er k",
      "▁in t",
      "▁E x",
      "ood s",
      "I ke",
      "f l",
      "p ris",
      "▁b unch",
      "▁wor ry",
      "▁Bl ack",
      "▁light s",
      "E S",
      "▁f all",
      "▁K ids",
      "▁kn ew",
      "▁ag o",
      "ope z",
      "r it",
      "le as",
      "▁h alf",
      "▁C he",
      "▁r ide",
      "un ity",
      "▁F or",
      "if er",
      "▁pro du",
      "▁gr ad",
      "▁Le ad",
      "yster ion",
      "▁f aces",
      "ri ed",
      "ig ure",
      "▁F ran",
      "▁see ms",
      "▁dri ve",
      "ot ch",
      "▁P lease",
      "st eps",
      "▁J an",
      "▁L opez",
      "um ber",
      "Th anks",
      "M ay",
      "pp ed",
      "▁sa fe",
      "▁than ks",
      "fr iend",
      "▁s ince",
      "▁d el",
      "▁d est",
      "or ado",
      "ay s",
      "▁re turns",
      "▁ang ry",
      "a f",
      "s tand",
      "▁h at",
      "▁h ol",
      "it ies",
      "▁g en",
      "▁p ar",
      "ks ond",
      "ick en",
      "▁co ff",
      "ress es",
      "▁New s",
      "udd en",
      "▁wee k",
      "ksond ik",
      "T o",
      "e vin",
      "▁in st",
      "▁G eneral",
      "▁N elson",
      "▁cle ar",
      "▁ret urn",
      "hold s",
      "▁Cho ksondik",
      "b t",
      "m in",
      "▁h it",
      "▁m ed",
      "im s",
      "ur ch",
      "ab b",
      "▁would n",
      "s m",
      "u u",
      "▁f a",
      "▁m ont",
      "▁W hen",
      "You r",
      "▁aw esome",
      "▁Broflovsk i",
      "▁Rich ard",
      "▁st ick",
      "▁A f",
      "▁think ing",
      "▁mom ents",
      "▁comp lete",
      "▁May be",
      "B e",
      "i or",
      "▁ es",
      "▁c enter",
      "▁st at",
      "▁P r",
      "▁offic ers",
      "osp ital",
      "▁h ours",
      "▁f uture",
      "▁in s",
      "ri ble",
      "▁bl ow",
      "ft ly",
      "▁che er",
      "▁bec ome",
      "▁ey e",
      "▁rec ord",
      "▁d ark",
      "▁f ar",
      "▁m il",
      "om b",
      "tan ce",
      "▁St rong",
      "▁att ention",
      "▁gra bs",
      "it or",
      "▁qu iet",
      "▁rep ort",
      "▁off icer",
      "▁Ag ent",
      "vern ment",
      "i res",
      "o ff",
      "ut es",
      "▁Ch ief",
      "▁any body",
      "d r",
      "▁T ra",
      "▁W ill",
      "ent le",
      "▁not ices",
      "▁comp any",
      "orm al",
      "enn ifer",
      "c y",
      "w alk",
      "▁d ick",
      "▁dri ver",
      "▁Col orado",
      "B o",
      "C hef",
      "I N",
      "▁c ell",
      "b ably",
      "y p",
      "▁th ous",
      "▁B ig",
      "▁be ll",
      "▁e as",
      "▁P ete",
      "▁tri ed",
      "▁Chin ese",
      "b b",
      "are nt",
      "em ale",
      "▁should er",
      "▁poin ts",
      "▁coff ee",
      "E R",
      "S c",
      "S ure",
      "a ven",
      "er g",
      "▁M ysterion",
      "▁st e",
      "▁G irl",
      "▁ha ven",
      "▁what ever",
      "os h",
      "▁hu man",
      "▁trou ble",
      "A t",
      "▁t re",
      "er y",
      "▁p ack",
      "▁l unch",
      "un k",
      "▁read ing",
      "▁s ell",
      "▁p an",
      "am ing",
      "▁j umps",
      "bo ard",
      "▁Sl ave",
      "▁slow ly",
      "▁p a",
      "▁p icks",
      "▁R ick",
      "▁me mb",
      "ire d",
      "H H",
      "▁cle an",
      "▁Americ an",
      "j oy",
      "r on",
      "s l",
      "▁m ag",
      "▁o b",
      "▁r ises",
      "▁st ory",
      "▁re f",
      "▁G ood",
      "▁Japan ese",
      "f ect",
      "g an",
      "▁C ount",
      "id ence",
      "▁G e",
      "um m",
      "ull y",
      "▁S addam",
      "▁v is",
      "▁al ien",
      "▁che ers",
      "▁Mc C",
      "▁answ ers",
      "▁lear ned",
      "opp ing",
      "att le",
      "▁Thom as",
      "l come",
      "▁ ice",
      "on o",
      "▁sh ip",
      "st airs",
      "▁cl im",
      "▁im m",
      "w hat",
      "▁sm iles",
      "▁memb ers",
      "I D",
      "k et",
      "l ine",
      "▁d i",
      "▁d ance",
      "▁O b",
      "iz z",
      "b ack",
      "▁t rans",
      "▁R o",
      "▁D id",
      "app ro",
      "▁pict ures",
      "a res",
      "▁a h",
      "▁p oor",
      "ic ally",
      "un ches",
      "il ing",
      "▁E lder",
      "▁ro ad",
      "▁U n",
      "A T",
      "t in",
      "▁t ree",
      "is hes",
      "▁fl ag",
      "aa a",
      "▁te le",
      "▁tell ing",
      "iz ed",
      "▁cam p",
      "▁lear n",
      "▁Wh ite",
      "o es",
      "le br",
      "▁th row",
      "▁M iss",
      "ur ing",
      "▁go vernment",
      "▁N ot",
      "▁F ar",
      "▁cl ub",
      "oll y",
      "az ing",
      "g ie",
      "▁to ss",
      "▁th inks",
      "▁K evin",
      "▁P ro",
      "▁as ide",
      "▁ab le",
      "ran ge",
      "▁ad ults",
      "▁gr and",
      "▁sn ow",
      "c hed",
      "▁ Yes",
      "▁f ield",
      "▁S qu",
      "us es",
      "▁M ember",
      "▁G ore",
      "▁E very",
      "▁appro ach",
      "▁m iddle",
      "▁e ither",
      "▁re ve",
      "▁re ason",
      "▁li ves",
      "▁them selves",
      "▁sc ared",
      "up er",
      "au ght",
      "▁ent ire",
      "▁Canad ian",
      "e nd",
      "▁f air",
      "▁f igure",
      "ver al",
      "un ned",
      "pp er",
      "rou ght",
      "▁kn ocks",
      "▁sur pris",
      "▁meet ing",
      "y m",
      "▁m ot",
      "▁G ary",
      "▁att ack",
      "b ot",
      "▁c er",
      "▁c ond",
      "▁I nd",
      "▁T own",
      "▁st ra",
      "▁for th",
      "▁j ack",
      "▁j ump",
      "ris t",
      "▁pro bably",
      "▁fuck in",
      "a ut",
      "f or",
      "f ully",
      "▁s and",
      "▁in te",
      "▁mill ion",
      "c on",
      "z z",
      "▁b rought",
      "▁d et",
      "am b",
      "▁my self",
      "▁dam n",
      "▁din ner",
      "ac ing",
      "▁no se",
      "▁sp ace",
      "▁Th anks",
      "▁roll s",
      "h ands",
      "ro g",
      "um es",
      "Sh ut",
      "t en",
      "▁ X",
      "▁t est",
      "▁th ough",
      "▁T H",
      "▁ch ar",
      "▁de ath",
      "▁or der",
      "E veryone",
      "W hen",
      "s ible",
      "▁c reat",
      "▁p op",
      "▁se ated",
      "▁co ver",
      "▁scre w",
      "F or",
      "S p",
      "▁ 7",
      "▁h its",
      "▁d ep",
      "▁p ops",
      "▁l ad",
      "▁re ach",
      "ho st",
      "▁L ord",
      "▁so ld",
      "mer cial",
      "▁laugh s",
      "▁near by",
      "O M",
      "▁s ent",
      "▁n ormal",
      "▁J ennifer",
      "▁kn ock",
      "▁F ather",
      "▁se ats",
      "▁class room",
      "▁Den ver",
      "g ra",
      "o le",
      "o ver",
      "▁t ick",
      "▁C aptain",
      "▁st airs",
      "▁are a",
      "▁D an",
      "vis ion",
      "▁Sm ith",
      "d ing",
      "▁B ecause",
      "▁P ass",
      "▁le aving",
      "ri ly",
      "if ul",
      "▁Grand pa",
      "stand s",
      "S orry",
      "▁C enter",
      "▁O ur",
      "▁qu ite",
      "▁should n",
      "▁hur t",
      "B ack",
      "z e",
      "re ad",
      "▁c ars",
      "▁f art",
      "en ters",
      "▁H ell",
      "un ny",
      "▁N O",
      "▁St re",
      "ank et",
      "dam nit",
      "arr ator",
      "▁ce lebr",
      "▁g ave",
      "▁l and",
      "▁l ands",
      "▁for get",
      "▁me m",
      "ill s",
      "▁le ast",
      "▁some where",
      "▁gi ant",
      "Re ally",
      "T om",
      "▁c ap",
      "ust om",
      "ind s",
      "▁An chor",
      "▁quest ion",
      "g ers",
      "▁f ast",
      "▁f arts",
      "▁in c",
      "▁de f",
      "▁In side",
      "▁pie ce",
      "▁wond er",
      "▁f il",
      "▁sh irt",
      "▁know s",
      "▁hell o",
      "gr am",
      "▁hu ge",
      "▁Bill y",
      "▁word s",
      "b or",
      "c ed",
      "e es",
      "l a",
      "l ight",
      "▁th ird",
      "us se",
      "ri et",
      "▁tr uth",
      "eter ia",
      "O ut",
      "S ir",
      "e red",
      "r ing",
      "▁t en",
      "▁s ense",
      "▁e ight",
      "▁P l",
      "ir th",
      "▁R es",
      "▁sh oot",
      "▁D ay",
      "▁se veral",
      "▁en joy",
      "hh hh",
      "▁clos er",
      "amm ad",
      "▁piss ed",
      "▁cer tain",
      "b ell",
      "o ly",
      "▁m a",
      "▁sm art",
      "▁inte rest",
      "o ins",
      "▁ i",
      "an a",
      "is hed",
      "▁c at",
      "▁o pp",
      "▁p at",
      "om es",
      "as hes",
      "ac y",
      "▁W ait",
      "ak ov",
      "ain s",
      "entle men",
      "▁Ob ama",
      "W h",
      "y e",
      "in c",
      "▁b ow",
      "▁p ig",
      "▁ch ance",
      "We ndy",
      "▁sing ing",
      "▁arri ves",
      "▁lock er",
      "▁dest ro",
      "udden ly",
      "▁a in",
      "▁g ro",
      "▁S ee",
      "▁j oke",
      "▁D ou",
      "▁N arrator",
      "▁sm ile",
      "ob b",
      "act ly",
      "i j",
      "▁c uts",
      "▁d ist",
      "▁f ur",
      "ac c",
      "▁gu ard",
      "▁sp l",
      "▁bl ue",
      "T imm",
      "▁b ast",
      "▁c ard",
      "▁c ream",
      "▁c rying",
      "▁y ell",
      "▁C o",
      "▁we lcome",
      "ee f",
      "▁go d",
      "▁E arth",
      "▁lo se",
      "▁pr op",
      "▁min utes",
      "▁bas ket",
      "▁ter ror",
      "▁thous and",
      "a ff",
      "e veryone",
      "▁h ops",
      "▁m all",
      "▁l ab",
      "▁be ar",
      "▁Stan ley",
      "▁W ith",
      "▁us ing",
      "▁laugh ing",
      "▁rep orter",
      "▁Te gridy",
      "gra bs",
      "h aps",
      "n ce",
      "t ime",
      "▁m et",
      "▁g ym",
      "▁e gg",
      "ren ce",
      "▁cra zy",
      "▁Count y",
      "▁back ground",
      "▁cl ot",
      "▁v an",
      "ation al",
      "aa ah",
      "▁start ing",
      "▁happ ens",
      "anc ing",
      "▁ev il",
      "▁tele vision",
      "▁t roll",
      "le x",
      "▁e p",
      "▁D ri",
      "▁L es",
      "▁tow el",
      "▁could n",
      "augh ter",
      "ub lic",
      "ock et",
      "by e",
      "▁sk y",
      "▁arri ve",
      "v il",
      "▁ ed",
      "at ic",
      "▁p us",
      "▁l ate",
      "▁M el",
      "▁we ed",
      "▁H arris",
      "ra g",
      "ri an",
      "▁ch icken",
      "▁su cks",
      "here d",
      "ious ly",
      "▁Sp ecial",
      "appro aches",
      "A N",
      "S ome",
      "b ut",
      "h ood",
      "in al",
      "▁c atch",
      "▁W ork",
      "▁for m",
      "st em",
      "▁com mercial",
      "▁am azing",
      "▁s ets",
      "it ches",
      "▁T o",
      "ac hing",
      "▁H er",
      "▁an im",
      "iend s",
      "▁plan e",
      "k ins",
      "▁s ad",
      "▁T r",
      "▁A dam",
      "ir it",
      "ur ger",
      "ug g",
      "app ears",
      "▁gi ving",
      "B ear",
      "F uck",
      "l in",
      "▁ ve",
      "▁c ase",
      "▁C ity",
      "▁r ing",
      "▁pl aces",
      "rinc ess",
      "▁Gu y",
      "Ex cuse",
      "e ad",
      "▁M ic",
      "im p",
      "▁st unned",
      "▁P olice",
      "▁Th ank",
      "00 0",
      "▁es c",
      "▁t ape",
      "le ct",
      "▁c ow",
      "▁l a",
      "▁T u",
      "ed y",
      "▁A r",
      "▁J oe",
      "▁somet imes",
      "we ar",
      "▁stop p",
      "May be",
      "g l",
      "g es",
      "▁b reat",
      "▁d eep",
      "▁m as",
      "▁p ans",
      "▁C ru",
      "▁can not",
      "▁fl o",
      "▁pr om",
      "▁Cl erk",
      "▁clot hes",
      "O w",
      "r act",
      "▁S ec",
      "▁B en",
      "▁P er",
      "▁P ri",
      "▁le ads",
      "▁mo ving",
      "rin ce",
      "ang er",
      "Sh aron",
      "▁tur d",
      "sm iles",
      "t hat",
      "▁c ry",
      "▁S uper",
      "▁n umber",
      "▁K ing",
      "▁H ar",
      "▁le ss",
      "▁N ic",
      "▁sa ve",
      "▁bab ies",
      "▁mont h",
      "▁Dri ver",
      "v iew",
      "ar c",
      "▁b le",
      "▁p u",
      "▁p ir",
      "▁p ur",
      "▁do in",
      "ah a",
      "ist en",
      "▁tra in",
      "▁cor ner",
      "S ee",
      "g ot",
      "i ving",
      "▁b acks",
      "▁g at",
      "▁p resident",
      "▁l ow",
      "id ing",
      "ke eter",
      "▁dis c",
      "▁reve al",
      "m p",
      "ar ch",
      "▁b urn",
      "▁c up",
      "▁f act",
      "▁g reen",
      "▁A m",
      "▁H u",
      "▁O r",
      "uck er",
      "▁ph ot",
      "▁Sc out",
      "▁happen ing",
      "▁ca f",
      "sc reen",
      "▁Cru ise",
      "c an",
      "▁h ospital",
      "▁c op",
      "▁m ountain",
      "or ge",
      "▁p oop",
      "▁n in",
      "id ed",
      "▁go ld",
      "▁D is",
      "▁ex actly",
      "▁real ize",
      "▁rest aur",
      "▁plan et",
      "▁sy stem",
      "▁gat hered",
      "C ra",
      "▁w atches",
      "▁g ar",
      "▁e ff",
      "▁st ep",
      "▁ne igh",
      "ul ar",
      "▁Cra bt",
      "▁find s",
      "▁cost ume",
      "p ers",
      "▁ 8",
      "▁to r",
      "▁p rincipal",
      "as hing",
      "▁r ush",
      "▁L arry",
      "il ity",
      "ast ic",
      "ment s",
      "▁put ting",
      "▁Fr iends",
      "▁fell as",
      "▁sile nt",
      "a os",
      "h u",
      "k ing",
      "▁st rong",
      "ir ty",
      "ent y",
      "▁The se",
      "st arts",
      "▁E d",
      "▁O ther",
      "▁wor ks",
      "▁sp ee",
      "▁fl ash",
      "av or",
      "▁serious ly",
      "▁whe el",
      "▁caf eteria",
      "b l",
      "▁w ish",
      "oo ps",
      "▁R ight",
      "▁St otch",
      "▁ag ents",
      "ang s",
      "▁con cer",
      "▁Y OU",
      "▁sim ple",
      "▁complete ly",
      "▁Crabt ree",
      "C lyde",
      "G u",
      "r ah",
      "▁b an",
      "▁b ooks",
      "▁p ot",
      "▁M art",
      "im sy",
      "▁we ar",
      "ec ts",
      "▁see ing",
      "▁contin ue",
      "▁wee ks",
      "▁cho ice",
      "A S",
      "E very",
      "r up",
      "▁f ist",
      "ic a",
      "ill y",
      "▁ke eps",
      "▁Br it",
      "P ig",
      "e h",
      "▁s ou",
      "▁w ien",
      "▁m ach",
      "▁be aut",
      "▁all ow",
      "▁ab ove",
      "if t",
      "▁every where",
      "▁show ing",
      "▁dr op",
      "▁Cl in",
      "▁four th",
      "arent ly",
      "Bear Pig",
      "J immy",
      "h ow",
      "▁b attle",
      "▁m ir",
      "▁C rowd",
      "▁r ain",
      "▁sh ort",
      "▁ag ree",
      "▁pre p",
      "▁end s",
      "▁ask ed",
      "u nd",
      "er t",
      "▁G ay",
      "il i",
      "ol ks",
      "▁ag ent",
      "ul ous",
      "pl oy",
      "▁ra ises",
      "▁tou ch",
      "e y",
      "s et",
      "▁l ady",
      "id er",
      "se y",
      "ber t",
      "▁long er",
      "▁prot ect",
      "A s",
      "r ay",
      "▁his t",
      "▁ne ck",
      "▁St op",
      "▁per fect",
      "▁fight ing",
      "▁proble ms",
      "AAAA AAAA",
      "▁Car ol",
      "usse ll",
      "E h",
      "M an",
      "▁b irth",
      "at ure",
      "le g",
      "▁c rew",
      "▁g host",
      "▁C upid",
      "▁S e",
      "▁st r",
      "▁re ce",
      "▁R ob",
      "▁sh all",
      "ri f",
      "ber ry",
      "▁Cl ass",
      "St op",
      "▁Mexic an",
      "L L",
      "l augh",
      "s ome",
      "s its",
      "es ts",
      "▁S er",
      "▁T w",
      "id ge",
      "▁K itty",
      "▁No body",
      "▁boo th",
      "▁Q u",
      "▁Nic hole",
      "▁spee ch",
      "u c",
      "re aches",
      "▁f ingers",
      "▁m ass",
      "▁S ky",
      "▁M ike",
      "▁st ation",
      "▁P ar",
      "▁not e",
      "▁v ict",
      "▁1 0",
      "▁cr ack",
      "▁Fr iday",
      "▁Work er",
      "b and",
      "n ie",
      "he h",
      "▁s un",
      "▁b at",
      "▁b ase",
      "▁l uck",
      "op h",
      "▁v agin",
      "▁bl ows",
      "▁im agin",
      "▁pos ition",
      "▁bas ement",
      "Out side",
      "▁Pri est",
      "g est",
      "n ers",
      "v ent",
      "he e",
      "▁s le",
      "▁c ir",
      "▁m ur",
      "▁p age",
      "▁C r",
      "▁in de",
      "▁re g",
      "▁D ick",
      "ris es",
      "▁Ch ar",
      "▁sec ret",
      "ale nt",
      "▁Te en",
      "iv al",
      "▁stra ight",
      "▁Tu ong",
      "g ly",
      "▁t reat",
      "▁b ike",
      "le nt",
      "▁h oney",
      "um my",
      "th rows",
      "▁wr ite",
      "▁Steven s",
      "▁fe et",
      "▁conf used",
      "▁eas y",
      "▁Far ms",
      "bor hood",
      "O ur",
      "U gh",
      "l ause",
      "▁t yp",
      "or ld",
      "▁B rian",
      "▁A h",
      "▁fl ies",
      "▁call ing",
      "▁fat ass",
      "▁offic ial",
      "▁z oom",
      "G erald",
      "O ne",
      "T olkien",
      "▁c art",
      "▁in d",
      "▁B oo",
      "▁r ub",
      "▁r ushes",
      "▁st ar",
      "▁P rof",
      "▁door bell",
      "▁work ed",
      "ons ter",
      "▁kill ing",
      "▁exc ited",
      "dr ops",
      "N e",
      "W el",
      "t wo",
      "v oice",
      "it es",
      "al th",
      "▁K elly",
      "▁P eter",
      "ee per",
      "▁D et",
      "ren ch",
      "ooh oo",
      "▁fa ult",
      "▁mem ber",
      "▁destro y",
      "C ause",
      "I T",
      "M art",
      "p icks",
      "▁r oof",
      "ell a",
      "ab s",
      "ord er",
      "▁feel ing",
      "▁foot ball",
      "▁ep is",
      "E T",
      "W ith",
      "w ood",
      "re m",
      "▁S keeter",
      "▁P rince",
      "▁up on",
      "▁sh op",
      "▁J osh",
      "ick ly",
      "▁lo c",
      "▁ex t",
      "▁con s",
      "▁dis tance",
      "▁big ger",
      "pl ay",
      "app y",
      "cl oses",
      "ient ist",
      "▁pri v",
      "▁grad ers",
      "▁Town s",
      "▁beaut iful",
      "r ushes",
      "y ard",
      "it ter",
      "▁f ag",
      "▁m ad",
      "▁m ine",
      "ow een",
      "se es",
      "ch a",
      "▁j oins",
      "▁N urse",
      "um mer",
      "▁v ol",
      "▁play er",
      "ber g",
      "ress ed",
      "▁pr act",
      "ok es",
      "mm m",
      "iet y",
      "▁John son",
      "▁em p",
      "▁leg s",
      "Dam n",
      "▁Ge orge",
      "▁toss es",
      "Wel come",
      "O N",
      "▁b omb",
      "▁f oc",
      "▁m ain",
      "▁on es",
      "▁e lder",
      "el f",
      "▁ex cept",
      "▁girl friend",
      "sh ows",
      "▁follow ing",
      "▁hol iday",
      "▁Adam s",
      "F ine",
      "H old",
      "T e",
      "k en",
      "▁a ff",
      "▁g ames",
      "▁th ro",
      "▁M imsy",
      "am ily",
      "▁le ts",
      "ho se",
      "ide l",
      "▁sp irit",
      "▁Ch aos",
      "▁pro f",
      "▁somet hin",
      "▁home less",
      "▁pass es",
      "▁coun ter",
      "ann el",
      "▁inst ead",
      "▁b ud",
      "▁h i",
      "▁c hat",
      "▁c ash",
      "▁f olks",
      "▁m ark",
      "▁l os",
      "and a",
      "▁H ave",
      "▁R ussell",
      "ch air",
      "ie l",
      "▁an noun",
      "▁D aw",
      "ak in",
      "ess or",
      "▁tr ash",
      "▁Gu ard",
      "▁fore ver",
      "▁rid ic",
      "▁dou che",
      "▁bott le",
      "▁shock ed",
      "▁restaur ant",
      "▁mach ine",
      "u cks",
      "▁M us",
      "▁M ur",
      "al m",
      "▁r ound",
      "▁as leep",
      "▁ch urch",
      "▁su b",
      "▁got ten",
      "▁our selves",
      "▁turn ed",
      "▁ang rily",
      "Cra ig",
      "F r",
      "h ouse",
      "n s",
      "▁f avor",
      "▁p ress",
      "▁l owers",
      "ed i",
      "▁be er",
      "▁u m",
      "▁so l",
      "▁F l",
      "▁pro ject",
      "▁gl ad",
      "▁stud ent",
      "▁cal m",
      "▁bro ke",
      "sy ch",
      "▁certain ly",
      "b ec",
      "d o",
      "in er",
      "an e",
      "▁s ne",
      "▁s ighs",
      "▁c ook",
      "▁c ustom",
      "▁d em",
      "or th",
      "▁l im",
      "am my",
      "▁not ice",
      "▁F ield",
      "ond e",
      "▁ex per",
      "▁spe nd",
      "▁cor p",
      "▁Les lie",
      "laugh s",
      "c a",
      "i ers",
      "w ich",
      "an ch",
      "ar ri",
      "▁p ool",
      "us ing",
      "as ure",
      "ot es",
      "man d",
      "▁W all",
      "▁D am",
      "▁bo at",
      "ak ed",
      "il t",
      "▁wor se",
      "ul f",
      "▁any way",
      "▁te eth",
      "▁wr iting",
      "sh ip",
      "Aww w",
      "A H",
      "b ra",
      "j umps",
      "re idel",
      "er v",
      "▁h ar",
      "▁h ipp",
      "▁d ancing",
      "▁S w",
      "▁S ch",
      "ac ist",
      "ac hed",
      "▁up stairs",
      "▁but ton",
      "▁ar t",
      "▁sec urity",
      "▁Americ ans",
      "▁Com m",
      "▁produ cer",
      "▁i P",
      "H a",
      "I S",
      "N O",
      "a les",
      "h ops",
      "i vers",
      "is ed",
      "▁J akov",
      "ap ed",
      "▁se a",
      "▁ex it",
      "▁chang es",
      "▁chang ed",
      "▁Jan et",
      "▁mil k",
      "IN G",
      "▁McC orm",
      "▁wien er",
      "E N",
      "▁t ank",
      "▁f if",
      "Oh hh",
      "ore d",
      "ul hu",
      "th ulhu",
      "▁bl ock",
      "▁An other",
      "▁Ph il",
      "▁dri ving",
      "▁ask ing",
      "▁miss ing",
      "▁Hall oween",
      "g t",
      "m ember",
      "it ar",
      "▁p od",
      "as es",
      "al t",
      "▁re act",
      "▁re pl",
      "▁H ouse",
      "her s",
      "▁who a",
      "▁gr ade",
      "▁scre ams",
      "dam ned",
      "arry l",
      "▁neigh borhood",
      "1 1",
      "y an",
      "▁s elf",
      "ar ious",
      "is and",
      "▁h ide",
      "▁d uring",
      "or ing",
      "as ed",
      "▁J er",
      "No body",
      "▁te ch",
      "▁Ad ler",
      "▁ap art",
      "▁emp ty",
      "c ent",
      "l ook",
      "▁g entlemen",
      "en ger",
      "en riet",
      "▁p ul",
      "▁S chool",
      "▁T ime",
      "ad es",
      "▁sc r",
      "▁co ld",
      "▁br ings",
      "▁lot s",
      "▁fin al",
      "▁supp ort",
      "so ftly",
      "▁El len",
      "▁quest ions",
      "▁Clin ton",
      "▁hist ory",
      "enriet ta",
      "C K",
      "O f",
      "T r",
      "f olk",
      "y y",
      "▁ ign",
      "▁w aves",
      "ic op",
      "il s",
      "um s",
      "▁sp ot",
      "▁ho le",
      "▁Man BearPig",
      "▁spe aks",
      "form ation",
      "▁prot est",
      "T errance",
      "he l",
      "it o",
      "▁p ort",
      "▁A ide",
      "▁ex cuse",
      "▁co at",
      "▁hel icop",
      "▁thro at",
      "R E",
      "g u",
      "▁w oods",
      "nd s",
      "om in",
      "▁l ie",
      "▁l ap",
      "▁l oud",
      "▁M or",
      "▁st ool",
      "▁R uss",
      "▁L or",
      "▁not hin",
      "▁F uck",
      "▁al ive",
      "▁Ch ild",
      "omet hing",
      "▁dri ves",
      "▁cour t",
      "ij u",
      "A M",
      "H ave",
      "g ar",
      "o f",
      "▁a v",
      "in t",
      "▁c ake",
      "▁f arm",
      "▁f ires",
      "en ch",
      "▁S gt",
      "▁e h",
      "▁k icks",
      "ent ly",
      "▁an t",
      "ill ing",
      "th inks",
      "▁tr ack",
      "▁ho st",
      "▁am ong",
      "▁stud io",
      "olog y",
      "▁Lead er",
      "▁zoom s",
      "c ol",
      "m i",
      "▁A pp",
      "▁an n",
      "ain e",
      "ip es",
      "▁se ven",
      "▁ro bot",
      "▁Bl anket",
      "▁bre aks",
      "▁ev ent",
      "▁ter rible",
      "▁tw enty",
      "▁din ing",
      "▁ru in",
      "ID S",
      "izz a",
      "i od",
      "p ly",
      "▁ key",
      "▁w ood",
      "▁f emale",
      "▁S ally",
      "al d",
      "▁e arth",
      "▁J ared",
      "▁We ather",
      "if ts",
      "▁ch arge",
      "▁O p",
      "▁v acc",
      "▁tr ick",
      "ps on",
      "▁cou gh",
      "▁clos et",
      "▁pos sible",
      "▁dec ided",
      "▁em ploy",
      "▁resp ect",
      "▁stri ke",
      "Bo ys",
      "erg art",
      "▁epis ode",
      "iju ana",
      "B l",
      "O oo",
      "c i",
      "f ort",
      "er on",
      "▁b ill",
      "le ts",
      "▁d aughter",
      "▁d anger",
      "▁p ol",
      "art ers",
      "ut ion",
      "▁st ate",
      "▁up set",
      "▁D arryl",
      "▁al arm",
      "▁op er",
      "▁side walk",
      "▁mess age",
      "▁Elder ly",
      "▁char ac",
      "▁nin j",
      "b ook",
      "c is",
      "l ar",
      "n ight",
      "he ads",
      "▁b ul",
      "▁b ik",
      "▁d ied",
      "ad ing",
      "▁B u",
      "▁A ny",
      "ee ee",
      "▁D ire",
      "ves t",
      "▁wor th",
      "▁mo ved",
      "▁Min ister",
      "▁pa j",
      "T ake",
      "T wo",
      "▁t em",
      "▁c re",
      "▁to oth",
      "▁p oo",
      "▁r ich",
      "ur day",
      "▁D ude",
      "rou d",
      "▁E st",
      "▁O ut",
      "itt en",
      "▁sp read",
      "ile d",
      "ob s",
      "▁big gest",
      "cl ud",
      "rr r",
      "▁sim ply",
      "▁ele ct",
      "▁shoo ting",
      "▁Pro du",
      "▁breat h",
      "▁McCorm ick",
      "D r",
      "W ES",
      "e er",
      "g en",
      "k i",
      "▁t ired",
      "▁s uddenly",
      "▁c ab",
      "▁c aught",
      "▁p leas",
      "ow ing",
      "ir ts",
      "▁H ome",
      "▁L ike",
      "▁back yard",
      "▁F irst",
      "▁su cc",
      "ous ly",
      "▁en g",
      "▁sm ok",
      "▁co vers",
      "▁Y ork",
      "dam mit",
      "▁Jew s",
      "▁hang ing",
      "▁fil m",
      "▁Prof essor",
      "▁Jer sey",
      "WES OM",
      "T week",
      "b ur",
      "c ess",
      "o gram",
      "▁th r",
      "▁l ying",
      "et y",
      "ly n",
      "ho les",
      "▁He ad",
      "▁wor ried",
      "sel or",
      "▁che st",
      "▁So ld",
      "▁sk in",
      "▁sur round",
      "▁tur key",
      "▁cur tain",
      "▁shoo ts",
      "▁vagin a",
      "G ive",
      "s ighs",
      "w ait",
      "▁s at",
      "▁c alls",
      "▁c atches",
      "▁n urse",
      "us p",
      "ed s",
      "▁he alth",
      "▁we ren",
      "▁st om",
      "▁A ir",
      "▁sh opping",
      "ri g",
      "ip e",
      "▁F rench",
      "sh it",
      "▁Br ad",
      "▁Al right",
      "roll s",
      "▁park ing",
      "▁resp ons",
      "▁bott om",
      "▁basket ball",
      "▁b ench",
      "▁c ows",
      "▁C at",
      "▁l ay",
      "art ment",
      "▁r ace",
      "▁st range",
      "▁G i",
      "▁can cer",
      "ain t",
      "qu ickly",
      "ile y",
      "▁qu eef",
      "▁br ief",
      "▁im age",
      "▁U P",
      "▁cr it",
      "▁stri kes",
      "▁hor rible",
      "▁pe ace",
      "▁Stre isand",
      "inds ight",
      "▁ridic ulous",
      "▁pod ium",
      "A L",
      "G reat",
      "p ok",
      "▁ er",
      "▁t un",
      "re y",
      "▁w arm",
      "▁c ult",
      "▁d rag",
      "▁m ist",
      "▁m onster",
      "▁p sych",
      "as ts",
      "ot ion",
      "un ning",
      "ra ises",
      "if ic",
      "He h",
      "▁Sh ow",
      "iz es",
      "▁bre aking",
      "▁per iod",
      "▁hor se",
      "▁expl ain",
      "▁surpris ed",
      "▁Lor de",
      "▁Dire ctor",
      "▁Produ cer",
      "s n",
      "u be",
      "▁h om",
      "▁h us",
      "▁c red",
      "▁C her",
      "▁n et",
      "▁he h",
      "▁he aven",
      "ac ed",
      "▁we ap",
      "▁an ger",
      "▁D O",
      "ris on",
      "ag on",
      "▁wh is",
      "▁any where",
      "▁play ground",
      "▁de ar",
      "▁V amp",
      "▁br own",
      "▁even ing",
      "Mr s",
      "▁Sat urday",
      "OO OO",
      "cept ion",
      "▁sweet ie",
      "▁ra ise",
      "edi ately",
      "c ing",
      "j ust",
      "l t",
      "▁t alks",
      "an other",
      "▁p our",
      "▁p ost",
      "▁K eeper",
      "▁be h",
      "▁P a",
      "▁P e",
      "▁gu ards",
      "ars h",
      "▁lo g",
      "uh ammad",
      "▁wind ows",
      "udd ha",
      "▁Brit ney",
      "J im",
      "y er",
      "is m",
      "▁b in",
      "▁h y",
      "▁c ause",
      "es y",
      "▁C row",
      "ic ing",
      "et t",
      "ad ow",
      "▁re se",
      "ard ed",
      "▁E m",
      "▁cl ap",
      "qu e",
      "▁2 0",
      "▁br ight",
      "▁cou ch",
      "▁fin ished",
      "▁bro ken",
      "igg les",
      "▁rel ax",
      "▁fly ing",
      "▁Par is",
      "C ool",
      "T immy",
      "is a",
      "en ed",
      "▁p ocket",
      "▁M en",
      "▁M ill",
      "▁e mb",
      "▁H uh",
      "▁R yan",
      "▁j ail",
      "▁so ftly",
      "qu arters",
      "▁de vice",
      "ens ive",
      "▁sm iling",
      "▁tr ust",
      "▁te en",
      "oor ay",
      "▁clos ed",
      "▁bel ong",
      "wh ile",
      "▁Sky ler",
      "bec ca",
      "B C",
      "F amily",
      "Q u",
      "a i",
      "g iving",
      "k n",
      "l an",
      "m ark",
      "p hy",
      "r ick",
      "w ards",
      "▁m ap",
      "▁p roud",
      "▁C oll",
      "▁M ale",
      "▁he av",
      "▁H enrietta",
      "▁R ec",
      "st ru",
      "▁D ep",
      "▁li kes",
      "▁F emale",
      "um ent",
      "▁v ote",
      "em ember",
      "▁dr ugs",
      "umb les",
      "az on",
      "▁old er",
      "ipp ing",
      "▁resp ond",
      "▁mon itor",
      "▁Fran k",
      "▁jack et",
      "▁bast ards",
      "▁yell ow",
      "▁birth day",
      "▁Coll ins",
      "Y e",
      "i us",
      "p re",
      "re l",
      "▁c andy",
      "▁p unches",
      "▁p ublic",
      "▁r ally",
      "▁P rincess",
      "▁re mo",
      "ust r",
      "un te",
      "▁get tin",
      "▁ar rest",
      "▁dis e",
      "▁wr ote",
      "▁res idence",
      "▁laugh ter",
      "▁Dad dy",
      "▁ca res",
      "fr om",
      "Not hing",
      "▁comm unity",
      "▁Jeff erson",
      "▁bel ow",
      "▁clim b",
      "▁tick et",
      "▁month s",
      "L E",
      "M s",
      "P ark",
      "h ic",
      "h angs",
      "er ve",
      "▁M ag",
      "ve red",
      "am mer",
      "▁le vel",
      "▁F ace",
      "▁su it",
      "▁sp ec",
      "▁app lause",
      "▁she et",
      "eel s",
      "oy ed",
      "▁act ion",
      "acks on",
      "so ft",
      "ail s",
      "▁doll ar",
      "▁listen ing",
      "▁bur st",
      "▁fur ther",
      "▁bud dy",
      "L isten",
      "S weet",
      "e al",
      "u gh",
      "▁w rest",
      "is tant",
      "et te",
      "▁T ell",
      "oo s",
      "▁u r",
      "▁we ight",
      "▁A ss",
      "▁work ers",
      "▁che cks",
      "▁fin ish",
      "▁sw ord",
      "▁De ck",
      "▁Af ter",
      "▁clim bs",
      "▁lad der",
      "▁Mic key",
      "Gu ys",
      "col ate",
      "ception ist",
      "▁Crow e",
      "E y",
      "c us",
      "c ont",
      "▁s usp",
      "or ting",
      "▁M all",
      "▁is s",
      "▁B ro",
      "▁r ise",
      "▁W orld",
      "▁G oth",
      "el t",
      "▁app arently",
      "▁U nit",
      "ipp ed",
      "▁Chin a",
      "▁gra b",
      "aur a",
      "▁mar ijuana",
      "▁Thom pson",
      "▁Dou gie",
      "▁stopp ed",
      "L ike",
      "P eople",
      "c il",
      "▁t our",
      "at ters",
      "▁M itch",
      "ad io",
      "▁we ak",
      "▁st or",
      "▁A b",
      "ur ry",
      "The se",
      "▁ch in",
      "▁some how",
      "▁v io",
      "▁hand le",
      "ait lyn",
      "▁sm ell",
      "▁co ll",
      "▁co vered",
      "▁gr ins",
      "▁res umes",
      "ww w",
      "▁per form",
      "▁tw ice",
      "▁Con n",
      "▁ru les",
      "▁dire ct",
      "▁opp os",
      "clud ing",
      "A ny",
      "M mm",
      "g as",
      "t r",
      "t own",
      "it ive",
      "▁c ig",
      "▁d reidel",
      "▁f ake",
      "▁g uns",
      "en or",
      "▁p ap",
      "▁C thulhu",
      "▁n uts",
      "▁M uhammad",
      "▁e qu",
      "am as",
      "▁A IDS",
      "▁G obb",
      "▁H indsight",
      "ur al",
      "▁J on",
      "▁J ackson",
      "▁li f",
      "▁kn ees",
      "▁He ather",
      "▁ag re",
      "▁wh ist",
      "▁talk in",
      "ue er",
      "▁Y e",
      "▁Th ree",
      "▁scre aming",
      "▁Re iner",
      "In side",
      "▁On ly",
      "▁mon key",
      "▁dou ble",
      "▁imm ediately",
      "▁Hu man",
      "N N",
      "c ts",
      "h and",
      "t ries",
      "u pp",
      "▁s na",
      "it ors",
      "▁y ard",
      "om per",
      "▁I m",
      "us hing",
      "▁B uddha",
      "▁sh itty",
      "▁O w",
      "▁St ar",
      "est ab",
      "▁play ers",
      "ran k",
      "▁tri p",
      "▁Br own",
      "▁Chin pok",
      "▁Jew ish"
    ]
  }
}