{
  "version": "1.0",
  "truncation": null,
  "padding": null,
  "added_tokens": [
    {
      "id": 4094,
      "special": false,
      "content": " ",
      "single_word": false,
      "lstrip": false,
      "rstrip": false,
      "normalized": true
    },
    {
      "id": 4095,
      "special": false,
      "content": "\n",
      "single_word": false,
      "lstrip": false,
      "rstrip": false,
      "normalized": true
    }
  ],
  "normalizer": {
    "type": "Sequence",
    "normalizers": [
      {
        "type": "NFD"
      },
      {
        "type": "StripAccents"
      }
    ]
  },
  "pre_tokenizer": {
    "type": "Sequence",
    "pretokenizers": [
      {
        "type": "Whitespace"
      },
      {
        "type": "Punctuation",
        "behavior": "Isolated"
      }
    ]
  },
  "post_processor": null,
  "decoder": {
    "type": "BPEDecoder",
    "suffix": "</w>"
  },
  "model": {
    "type": "BPE",
    "dropout": null,
    "unk_token": null,
    "continuing_subword_prefix": null,
    "end_of_word_suffix": null,
    "fuse_unk": false,
    "vocab": {
      "!": 0,
      "\"": 1,
      "#": 2,
      "$": 3,
      "%": 4,
      "&": 5,
      "'": 6,
      "(": 7,
      ")": 8,
      "*": 9,
      "+": 10,
      ",": 11,
      "-": 12,
      ".": 13,
      "/": 14,
      "0": 15,
      "1": 16,
      "2": 17,
      "3": 18,
      "4": 19,
      "5": 20,
      "6": 21,
      "7": 22,
      "8": 23,
      "9": 24,
      ":": 25,
      ";": 26,
      "<": 27,
      "=": 28,
      ">": 29,
      "?": 30,
      "@": 31,
      "A": 32,
      "B": 33,
      "C": 34,
      "D": 35,
      "E": 36,
      "F": 37,
      "G": 38,
      "H": 39,
      "I": 40,
      "J": 41,
      "K": 42,
      "L": 43,
      "M": 44,
      "N": 45,
      "O": 46,
      "P": 47,
      "Q": 48,
      "R": 49,
      "S": 50,
      "T": 51,
      "U": 52,
      "V": 53,
      "W": 54,
      "X": 55,
      "Y": 56,
      "Z": 57,
      "[": 58,
      "\\": 59,
      "]": 60,
      "^": 61,
      "_": 62,
      "a": 63,
      "b": 64,
      "c": 65,
      "d": 66,
      "e": 67,
      "f": 68,
      "g": 69,
      "h": 70,
      "i": 71,
      "j": 72,
      "k": 73,
      "l": 74,
      "m": 75,
      "n": 76,
      "o": 77,
      "p": 78,
      "q": 79,
      "r": 80,
      "s": 81,
      "t": 82,
      "u": 83,
      "v": 84,
      "w": 85,
      "x": 86,
      "y": 87,
      "z": 88,
      "{": 89,
      "|": 90,
      "}": 91,
      "he": 92,
      "an": 93,
      "in": 94,
      "the": 95,
      "ou": 96,
      "re": 97,
      "er": 98,
      "on": 99,
      "ar": 100,
      "at": 101,
      "is": 102,
      "to": 103,
      "th": 104,
      "le": 105,
      "and": 106,
      "ing": 107,
      "ll": 108,
      "en": 109,
      "es": 110,
      "it": 111,
      "or": 112,
      "you": 113,
      "st": 114,
      "ow": 115,
      "om": 116,
      "se": 117,
      "of": 118,
      "ay": 119,
      "al": 120,
      "art": 121,
      "ic": 122,
      "as": 123,
      "ve": 124,
      "man": 125,
      "ac": 126,
      "be": 127,
      "oo": 128,
      "id": 129,
      "ut": 130,
      "gh": 131,
      "im": 132,
      "ke": 133,
      "St": 134,
      "Cart": 135,
      "Cartman": 136,
      "ad": 137,
      "all": 138,
      "we": 139,
      "ed": 140,
      "et": 141,
      "ot": 142,
      "The": 143,
      "ha": 144,
      "ri": 145,
      "hat": 146,
      "ter": 147,
      "yle": 148,
      "Stan": 149,
      "Kyle": 150,
      "his": 151,
      "out": 152,
      "ver": 153,
      "do": 154,
      "wi": 155,
      "are": 156,
      "ch": 157,
      "up": 158,
      "ro": 159,
      "ght": 160,
      "me": 161,
      "ld": 162,
      "that": 163,
      "ks": 164,
      "ome": 165,
      "sh": 166,
      "li": 167,
      "nd": 168,
      "ir": 169,
      "for": 170,
      "with": 171,
      "am": 172,
      "bo": 173,
      "ly": 174,
      "ur": 175,
      "He": 176,
      "We": 177,
      "one": 178,
      "ne": 179,
      "now": 180,
      "ent": 181,
      "us": 182,
      "go": 183,
      "my": 184,
      "ho": 185,
      "ta": 186,
      "You": 187,
      "ust": 188,
      "un": 189,
      "But": 190,
      "pe": 191,
      "ag": 192,
      "ters": 193,
      "ab": 194,
      "have": 195,
      "ther": 196,
      "op": 197,
      "de": 198,
      "ap": 199,
      "get": 200,
      "Mr": 201,
      "ack": 202,
      "ion": 203,
      "can": 204,
      "this": 205,
      "lo": 206,
      "mo": 207,
      "loo": 208,
      "him": 209,
      "ys": 210,
      "Oh": 211,
      "ah": 212,
      "Butters": 213,
      "just": 214,
      "ce": 215,
      "fr": 216,
      "way": 217,
      "here": 218,
      "right": 219,
      "own": 220,
      "your": 221,
      "ry": 222,
      "what": 223,
      "ris": 224,
      "andy": 225,
      "ers": 226,
      "some": 227,
      "Randy": 228,
      "ard": 229,
      "pl": 230,
      "ound": 231,
      "ts": 232,
      "ind": 233,
      "ide": 234,
      "na": 235,
      "off": 236,
      "thing": 237,
      "our": 238,
      "What": 239,
      "no": 240,
      "so": 241,
      "ill": 242,
      "ig": 243,
      "not": 244,
      "king": 245,
      "end": 246,
      "il": 247,
      "ny": 248,
      "ps": 249,
      "fe": 250,
      "au": 251,
      "wal": 252,
      "ould": 253,
      "back": 254,
      "very": 255,
      "know": 256,
      "don": 257,
      "her": 258,
      "res": 259,
      "gu": 260,
      "It": 261,
      "eah": 262,
      "ie": 263,
      "ain": 264,
      "but": 265,
      "te": 266,
      "ight": 267,
      "ant": 268,
      "uc": 269,
      "from": 270,
      "ally": 271,
      "then": 272,
      "like": 273,
      "um": 274,
      "they": 275,
      "was": 276,
      "gr": 277,
      "ma": 278,
      "other": 279,
      "over": 280,
      "tur": 281,
      "ep": 282,
      "enny": 283,
      "po": 284,
      "wor": 285,
      "ves": 286,
      "Kenny": 287,
      "com": 288,
      "day": 289,
      "con": 290,
      "ice": 291,
      "about": 292,
      "ass": 293,
      "ra": 294,
      "down": 295,
      "if": 296,
      "them": 297,
      "ip": 298,
      "Yeah": 299,
      "No": 300,
      "got": 301,
      "see": 302,
      "turn": 303,
      "sto": 304,
      "el": 305,
      "there": 306,
      "thin": 307,
      "che": 308,
      "ark": 309,
      "boys": 310,
      "kay": 311,
      "ins": 312,
      "ge": 313,
      "walks": 314,
      "Go": 315,
      "ople": 316,
      "ol": 317,
      "ong": 318,
      "ble": 319,
      "ure": 320,
      "lea": 321,
      "Well": 322,
      "ood": 323,
      "ick": 324,
      "uh": 325,
      "Gar": 326,
      "itt": 327,
      "wh": 328,
      "into": 329,
      "onna": 330,
      "And": 331,
      "tim": 332,
      "by": 333,
      "gonna": 334,
      "away": 335,
      "qu": 336,
      "any": 337,
      "tr": 338,
      "door": 339,
      "rison": 340,
      "who": 341,
      "people": 342,
      "Ch": 343,
      "ex": 344,
      "around": 345,
      "ace": 346,
      "room": 347,
      "Garrison": 348,
      "ile": 349,
      "has": 350,
      "sc": 351,
      "looks": 352,
      "pro": 353,
      "est": 354,
      "ff": 355,
      "kes": 356,
      "every": 357,
      "That": 358,
      "ive": 359,
      "hen": 360,
      "ast": 361,
      "ars": 362,
      "kid": 363,
      "think": 364,
      "ool": 365,
      "Sh": 366,
      "sa": 367,
      "dy": 368,
      "ul": 369,
      "come": 370,
      "br": 371,
      "fo": 372,
      "did": 373,
      "ine": 374,
      "Jim": 375,
      "She": 376,
      "head": 377,
      "their": 378,
      "turns": 379,
      "ess": 380,
      "time": 381,
      "cr": 382,
      "ans": 383,
      "again": 384,
      "outh": 385,
      "ough": 386,
      "key": 387,
      "more": 388,
      "want": 389,
      "cl": 390,
      "ist": 391,
      "ouse": 392,
      "ss": 393,
      "hand": 394,
      "ate": 395,
      "ven": 396,
      "Hey": 397,
      "look": 398,
      "guys": 399,
      "sed": 400,
      "say": 401,
      "wo": 402,
      "play": 403,
      "ude": 404,
      "oun": 405,
      "ation": 406,
      "uck": 407,
      "ment": 408,
      "ree": 409,
      "God": 410,
      "ittle": 411,
      "ang": 412,
      "ause": 413,
      "ving": 414,
      "let": 415,
      "stand": 416,
      "Park": 417,
      "bl": 418,
      "ach": 419,
      "need": 420,
      "going": 421,
      "sp": 422,
      "side": 423,
      "ct": 424,
      "pp": 425,
      "ien": 426,
      "its": 427,
      "ous": 428,
      "put": 429,
      "They": 430,
      "thr": 431,
      "little": 432,
      "house": 433,
      "red": 434,
      "ber": 435,
      "ull": 436,
      "ck": 437,
      "Che": 438,
      "rin": 439,
      "run": 440,
      "ian": 441,
      "tow": 442,
      "wa": 443,
      "ren": 444,
      "ud": 445,
      "tor": 446,
      "ows": 447,
      "she": 448,
      "new": 449,
      "South": 450,
      "hes": 451,
      "ance": 452,
      "really": 453,
      "aa": 454,
      "start": 455,
      "ens": 456,
      "ting": 457,
      "will": 458,
      "too": 459,
      "try": 460,
      "Be": 461,
      "make": 462,
      "body": 463,
      "This": 464,
      "take": 465,
      "eral": 466,
      "kids": 467,
      "ild": 468,
      "read": 469,
      "All": 470,
      "how": 471,
      "sel": 472,
      "und": 473,
      "ook": 474,
      "tal": 475,
      "ee": 476,
      "cause": 477,
      "em": 478,
      "aron": 479,
      "ies": 480,
      "act": 481,
      "ity": 482,
      "lie": 483,
      "age": 484,
      "co": 485,
      "Chef": 486,
      "Sharon": 487,
      "per": 488,
      "Uh": 489,
      "led": 490,
      "Th": 491,
      "ft": 492,
      "AA": 493,
      "two": 494,
      "chool": 495,
      "Okay": 496,
      "riend": 497,
      "ty": 498,
      "been": 499,
      "wat": 500,
      "sm": 501,
      "reat": 502,
      "where": 503,
      "Do": 504,
      "beg": 505,
      "jo": 506,
      "clo": 507,
      "So": 508,
      "does": 509,
      "In": 510,
      "arm": 511,
      "good": 512,
      "ls": 513,
      "les": 514,
      "night": 515,
      "Mac": 516,
      "should": 517,
      "school": 518,
      "Jimmy": 519,
      "Bo": 520,
      "Man": 521,
      "hh": 522,
      "wan": 523,
      "ite": 524,
      "Yes": 525,
      "Wh": 526,
      "ph": 527,
      "would": 528,
      "ric": 529,
      "Mackey": 530,
      "Geral": 531,
      "ak": 532,
      "ca": 533,
      "hel": 534,
      "aren": 535,
      "por": 536,
      "friend": 537,
      "How": 538,
      "Wend": 539,
      "Gerald": 540,
      "Now": 541,
      "ked": 542,
      "Wendy": 543,
      "An": 544,
      "oman": 545,
      "takes": 546,
      "could": 547,
      "left": 548,
      "show": 549,
      "mer": 550,
      "gets": 551,
      "Al": 552,
      "tell": 553,
      "Chris": 554,
      "ont": 555,
      "fore": 556,
      "ire": 557,
      "rinc": 558,
      "goes": 559,
      "wee": 560,
      "through": 561,
      "ue": 562,
      "There": 563,
      "aw": 564,
      "ary": 565,
      "son": 566,
      "even": 567,
      "ye": 568,
      "something": 569,
      "when": 570,
      "Come": 571,
      "ial": 572,
      "dam": 573,
      "xt": 574,
      "bet": 575,
      "happ": 576,
      "wr": 577,
      "spe": 578,
      "under": 579,
      "Jes": 580,
      "bu": 581,
      "pr": 582,
      "ade": 583,
      "Tim": 584,
      "ich": 585,
      "Jesus": 586,
      "gir": 587,
      "self": 588,
      "dis": 589,
      "olk": 590,
      "May": 591,
      "Who": 592,
      "ank": 593,
      "bit": 594,
      "were": 595,
      "hell": 596,
      "ards": 597,
      "everyone": 598,
      "next": 599,
      "doing": 600,
      "work": 601,
      "mom": 602,
      "air": 603,
      "car": 604,
      "hind": 605,
      "iss": 606,
      "rincip": 607,
      "ru": 608,
      "pic": 609,
      "rincipal": 610,
      "ga": 611,
      "sl": 612,
      "front": 613,
      "ents": 614,
      "ste": 615,
      "face": 616,
      "Sc": 617,
      "Eric": 618,
      "ball": 619,
      "ever": 620,
      "pre": 621,
      "ings": 622,
      "fl": 623,
      "My": 624,
      "hold": 625,
      "ath": 626,
      "ater": 627,
      "augh": 628,
      "ew": 629,
      "uch": 630,
      "oh": 631,
      "still": 632,
      "sure": 633,
      "mean": 634,
      "lease": 635,
      "child": 636,
      "help": 637,
      "had": 638,
      "appe": 639,
      "wait": 640,
      "ning": 641,
      "Cra": 642,
      "behind": 643,
      "Mar": 644,
      "cam": 645,
      "Tolk": 646,
      "Tolkien": 647,
      "Dude": 648,
      "pres": 649,
      "Craig": 650,
      "stop": 651,
      "week": 652,
      "yes": 653,
      "Let": 654,
      "wanna": 655,
      "okay": 656,
      "Can": 657,
      "lly": 658,
      "big": 659,
      "town": 660,
      "boy": 661,
      "only": 662,
      "cer": 663,
      "ident": 664,
      "iz": 665,
      "Don": 666,
      "orry": 667,
      "ish": 668,
      "rest": 669,
      "scre": 670,
      "begins": 671,
      "Principal": 672,
      "ches": 673,
      "walk": 674,
      "Br": 675,
      "well": 676,
      "ses": 677,
      "pull": 678,
      "men": 679,
      "dude": 680,
      "Why": 681,
      "Re": 682,
      "irst": 683,
      "cha": 684,
      "ond": 685,
      "af": 686,
      "home": 687,
      "opens": 688,
      "cont": 689,
      "another": 690,
      "ctor": 691,
      "find": 692,
      "oney": 693,
      "ple": 694,
      "ord": 695,
      "uff": 696,
      "ates": 697,
      "mon": 698,
      "sk": 699,
      "icer": 700,
      "mem": 701,
      "igh": 702,
      "rance": 703,
      "Cly": 704,
      "Clyde": 705,
      "owd": 706,
      "said": 707,
      "Ike": 708,
      "didn": 709,
      "cond": 710,
      "ket": 711,
      "If": 712,
      "laugh": 713,
      "av": 714,
      "Step": 715,
      "Mrs": 716,
      "being": 717,
      "table": 718,
      "ser": 719,
      "Christ": 720,
      "des": 721,
      "gl": 722,
      "ger": 723,
      "ady": 724,
      "watch": 725,
      "ton": 726,
      "ought": 727,
      "because": 728,
      "ash": 729,
      "part": 730,
      "sup": 731,
      "iane": 732,
      "Liane": 733,
      "Stephen": 734,
      "Co": 735,
      "era": 736,
      "runs": 737,
      "hands": 738,
      "fin": 739,
      "long": 740,
      "bed": 741,
      "shot": 742,
      "than": 743,
      "Ph": 744,
      "Jimbo": 745,
      "Off": 746,
      "real": 747,
      "love": 748,
      "ila": 749,
      "stops": 750,
      "call": 751,
      "upid": 752,
      "tri": 753,
      "use": 754,
      "comes": 755,
      "Sheila": 756,
      "ner": 757,
      "aches": 758,
      "each": 759,
      "before": 760,
      "ose": 761,
      "why": 762,
      "att": 763,
      "never": 764,
      "gi": 765,
      "Bar": 766,
      "Look": 767,
      "later": 768,
      "set": 769,
      "give": 770,
      "anc": 771,
      "paren": 772,
      "lot": 773,
      "Hell": 774,
      "poin": 775,
      "while": 776,
      "min": 777,
      "dri": 778,
      "first": 779,
      "sho": 780,
      "Alright": 781,
      "appro": 782,
      "bus": 783,
      "ily": 784,
      "wind": 785,
      "coun": 786,
      "light": 787,
      "yeah": 788,
      "Dr": 789,
      "feel": 790,
      "cle": 791,
      "foll": 792,
      "great": 793,
      "ott": 794,
      "ious": 795,
      "fun": 796,
      "Te": 797,
      "belie": 798,
      "Tweek": 799,
      "sorry": 800,
      "ated": 801,
      "camera": 802,
      "these": 803,
      "ather": 804,
      "ned": 805,
      "talk": 806,
      "Ho": 807,
      "open": 808,
      "ready": 809,
      "pers": 810,
      "Ms": 811,
      "may": 812,
      "roll": 813,
      "la": 814,
      "ating": 815,
      "much": 816,
      "enter": 817,
      "crowd": 818,
      "class": 819,
      "inside": 820,
      "Aw": 821,
      "appears": 822,
      "Just": 823,
      "ub": 824,
      "Ter": 825,
      "better": 826,
      "children": 827,
      "Mayor": 828,
      "cial": 829,
      "sing": 830,
      "doesn": 831,
      "tain": 832,
      "phone": 833,
      "moves": 834,
      "second": 835,
      "pulls": 836,
      "Every": 837,
      "place": 838,
      "port": 839,
      "isn": 840,
      "vie": 841,
      "bre": 842,
      "mor": 843,
      "shown": 844,
      "three": 845,
      "looking": 846,
      "Mc": 847,
      "PC": 848,
      "after": 849,
      "vin": 850,
      "cal": 851,
      "kind": 852,
      "Dad": 853,
      "Officer": 854,
      "lead": 855,
      "towards": 856,
      "Pres": 857,
      "those": 858,
      "leaves": 859,
      "gotta": 860,
      "most": 861,
      "Tom": 862,
      "few": 863,
      "bab": 864,
      "money": 865,
      "Bl": 866,
      "made": 867,
      "oice": 868,
      "parents": 869,
      "care": 870,
      "move": 871,
      "ground": 872,
      "Mom": 873,
      "mm": 874,
      "bro": 875,
      "idi": 876,
      "Timmy": 877,
      "ug": 878,
      "Ha": 879,
      "pan": 880,
      "ign": 881,
      "owe": 882,
      "getting": 883,
      "Terrance": 884,
      "dro": 885,
      "sit": 886,
      "world": 887,
      "aring": 888,
      "ross": 889,
      "keep": 890,
      "fuck": 891,
      "happen": 892,
      "believe": 893,
      "str": 894,
      "starts": 895,
      "ster": 896,
      "things": 897,
      "President": 898,
      "kill": 899,
      "leave": 900,
      "must": 901,
      "Ma": 902,
      "woman": 903,
      "sof": 904,
      "eyes": 905,
      "last": 906,
      "fall": 907,
      "list": 908,
      "heard": 909,
      "pa": 910,
      "outside": 911,
      "Ro": 912,
      "stupid": 913,
      "sy": 914,
      "less": 915,
      "len": 916,
      "ise": 917,
      "ange": 918,
      "pt": 919,
      "bad": 920,
      "window": 921,
      "Hello": 922,
      "mat": 923,
      "usic": 924,
      "Cl": 925,
      "which": 926,
      "Heidi": 927,
      "pict": 928,
      "ions": 929,
      "stre": 930,
      "plan": 931,
      "four": 932,
      "oot": 933,
      "Get": 934,
      "puts": 935,
      "member": 936,
      "arri": 937,
      "Phill": 938,
      "trying": 939,
      "stands": 940,
      "ator": 941,
      "flo": 942,
      "unt": 943,
      "thought": 944,
      "cks": 945,
      "ute": 946,
      "fam": 947,
      "anything": 948,
      "Amer": 949,
      "aces": 950,
      "please": 951,
      "sits": 952,
      "shit": 953,
      "cre": 954,
      "mas": 955,
      "Americ": 956,
      "steps": 957,
      "Me": 958,
      "Phillip": 959,
      "old": 960,
      "eter": 961,
      "mi": 962,
      "friends": 963,
      "ait": 964,
      "brady": 965,
      "Barbrady": 966,
      "ama": 967,
      "ually": 968,
      "top": 969,
      "understand": 970,
      "bs": 971,
      "Fr": 972,
      "girls": 973,
      "girl": 974,
      "Mic": 975,
      "os": 976,
      "vis": 977,
      "seen": 978,
      "di": 979,
      "mentary": 980,
      "noun": 981,
      "ba": 982,
      "stud": 983,
      "quick": 984,
      "Woman": 985,
      "life": 986,
      "unch": 987,
      "Scott": 988,
      "able": 989,
      "Ele": 990,
      "ese": 991,
      "bur": 992,
      "enters": 993,
      "ms": 994,
      "land": 995,
      "Gr": 996,
      "line": 997,
      "acks": 998,
      "music": 999,
      "app": 1000,
      "Ke": 1001,
      "si": 1002,
      "guy": 1003,
      "told": 1004,
      "Here": 1005,
      "ats": 1006,
      "coming": 1007,
      "ley": 1008,
      "screen": 1009,
      "arr": 1010,
      "Is": 1011,
      "fight": 1012,
      "Dan": 1013,
      "cor": 1014,
      "dres": 1015,
      "ways": 1016,
      "Elementary": 1017,
      "TV": 1018,
      "box": 1019,
      "On": 1020,
      "Sat": 1021,
      "fat": 1022,
      "ward": 1023,
      "gether": 1024,
      "talking": 1025,
      "huh": 1026,
      "wrong": 1027,
      "To": 1028,
      "hard": 1029,
      "Gu": 1030,
      "ience": 1031,
      "oup": 1032,
      "Cr": 1033,
      "himself": 1034,
      "playing": 1035,
      "pret": 1036,
      "cool": 1037,
      "Marsh": 1038,
      "arms": 1039,
      "name": 1040,
      "00": 1041,
      "sw": 1042,
      "won": 1043,
      "together": 1044,
      "cur": 1045,
      "chair": 1046,
      "stuff": 1047,
      "Where": 1048,
      "cut": 1049,
      "sees": 1050,
      "word": 1051,
      "everything": 1052,
      "ful": 1053,
      "inda": 1054,
      "guess": 1055,
      "Bebe": 1056,
      "proble": 1057,
      "De": 1058,
      "Bill": 1059,
      "Linda": 1060,
      "Canad": 1061,
      "Are": 1062,
      "Mo": 1063,
      "New": 1064,
      "makes": 1065,
      "might": 1066,
      "pass": 1067,
      "gun": 1068,
      "sur": 1069,
      "AAAA": 1070,
      "live": 1071,
      "else": 1072,
      "Red": 1073,
      "hu": 1074,
      "person": 1075,
      "Lo": 1076,
      "Wait": 1077,
      "form": 1078,
      "dr": 1079,
      "doll": 1080,
      "Huh": 1081,
      "abs": 1082,
      "follow": 1083,
      "ia": 1084,
      "Some": 1085,
      "best": 1086,
      "sound": 1087,
      "Shelly": 1088,
      "win": 1089,
      "living": 1090,
      "nice": 1091,
      "voice": 1092,
      "done": 1093,
      "ike": 1094,
      "icto": 1095,
      "office": 1096,
      "nothing": 1097,
      "Wow": 1098,
      "ken": 1099,
      "sign": 1100,
      "ower": 1101,
      "shows": 1102,
      "ries": 1103,
      "approaches": 1104,
      "listen": 1105,
      "io": 1106,
      "book": 1107,
      "Good": 1108,
      "ik": 1109,
      "Then": 1110,
      "cour": 1111,
      "inger": 1112,
      "contin": 1113,
      "jum": 1114,
      "ote": 1115,
      "smile": 1116,
      "stage": 1117,
      "pol": 1118,
      "Han": 1119,
      "answ": 1120,
      "sha": 1121,
      "stay": 1122,
      "ler": 1123,
      "row": 1124,
      "ene": 1125,
      "street": 1126,
      "family": 1127,
      "Pe": 1128,
      "Po": 1129,
      "swe": 1130,
      "full": 1131,
      "hall": 1132,
      "maybe": 1133,
      "Le": 1134,
      "tly": 1135,
      "ues": 1136,
      "floor": 1137,
      "raw": 1138,
      "fire": 1139,
      "picture": 1140,
      "holds": 1141,
      "nouncer": 1142,
      "used": 1143,
      "lear": 1144,
      "ices": 1145,
      "game": 1146,
      "points": 1147,
      "ww": 1148,
      "Chin": 1149,
      "pie": 1150,
      "Satan": 1151,
      "mouth": 1152,
      "hed": 1153,
      "dead": 1154,
      "closes": 1155,
      "cat": 1156,
      "icks": 1157,
      "crap": 1158,
      "damn": 1159,
      "bitch": 1160,
      "hear": 1161,
      "today": 1162,
      "enough": 1163,
      "Your": 1164,
      "Joh": 1165,
      "ort": 1166,
      "Victo": 1167,
      "band": 1168,
      "ria": 1169,
      "Christmas": 1170,
      "board": 1171,
      "view": 1172,
      "vide": 1173,
      "ield": 1174,
      "small": 1175,
      "Doctor": 1176,
      "OO": 1177,
      "gy": 1178,
      "umb": 1179,
      "Ex": 1180,
      "song": 1181,
      "wall": 1182,
      "Everyone": 1183,
      "pretty": 1184,
      "Jew": 1185,
      "tot": 1186,
      "aud": 1187,
      "whole": 1188,
      "Victoria": 1189,
      "Please": 1190,
      "fuc": 1191,
      "says": 1192,
      "actually": 1193,
      "ext": 1194,
      "Ah": 1195,
      "Jo": 1196,
      "Announcer": 1197,
      "hang": 1198,
      "John": 1199,
      "ev": 1200,
      "Hankey": 1201,
      "bar": 1202,
      "hor": 1203,
      "ear": 1204,
      "sn": 1205,
      "anks": 1206,
      "begin": 1207,
      "med": 1208,
      "ides": 1209,
      "others": 1210,
      "Micha": 1211,
      "group": 1212,
      "Michael": 1213,
      "idea": 1214,
      "dad": 1215,
      "pop": 1216,
      "both": 1217,
      "news": 1218,
      "pen": 1219,
      "drops": 1220,
      "Two": 1221,
      "wel": 1222,
      "falls": 1223,
      "mar": 1224,
      "lder": 1225,
      "feren": 1226,
      "gay": 1227,
      "build": 1228,
      "lar": 1229,
      "ping": 1230,
      "As": 1231,
      "suppo": 1232,
      "quickly": 1233,
      "At": 1234,
      "ink": 1235,
      "having": 1236,
      "boo": 1237,
      "low": 1238,
      "making": 1239,
      "rr": 1240,
      "cus": 1241,
      "sir": 1242,
      "ams": 1243,
      "iet": 1244,
      "ared": 1245,
      "je": 1246,
      "shut": 1247,
      "desk": 1248,
      "Not": 1249,
      "black": 1250,
      "Coon": 1251,
      "rec": 1252,
      "onto": 1253,
      "dif": 1254,
      "ith": 1255,
      "Did": 1256,
      "udd": 1257,
      "Con": 1258,
      "gent": 1259,
      "mit": 1260,
      "int": 1261,
      "saying": 1262,
      "sex": 1263,
      "als": 1264,
      "lock": 1265,
      "El": 1266,
      "Pip": 1267,
      "San": 1268,
      "Towe": 1269,
      "gen": 1270,
      "miss": 1271,
      "ons": 1272,
      "Towelie": 1273,
      "kno": 1274,
      "ling": 1275,
      "par": 1276,
      "duc": 1277,
      "ier": 1278,
      "itche": 1279,
      "For": 1280,
      "pap": 1281,
      "oooo": 1282,
      "amp": 1283,
      "iv": 1284,
      "free": 1285,
      "along": 1286,
      "change": 1287,
      "heads": 1288,
      "called": 1289,
      "leg": 1290,
      "times": 1291,
      "Because": 1292,
      "sle": 1293,
      "near": 1294,
      "Yates": 1295,
      "meet": 1296,
      "water": 1297,
      "found": 1298,
      "Tr": 1299,
      "One": 1300,
      "ush": 1301,
      "balls": 1302,
      "problem": 1303,
      "Danie": 1304,
      "until": 1305,
      "net": 1306,
      "ures": 1307,
      "itch": 1308,
      "aps": 1309,
      "Ste": 1310,
      "ete": 1311,
      "police": 1312,
      "always": 1313,
      "Thanks": 1314,
      "came": 1315,
      "hur": 1316,
      "ence": 1317,
      "Com": 1318,
      "Un": 1319,
      "ips": 1320,
      "same": 1321,
      "ction": 1322,
      "fucking": 1323,
      "Boy": 1324,
      "Whoa": 1325,
      "col": 1326,
      "went": 1327,
      "airs": 1328,
      "watching": 1329,
      "bring": 1330,
      "ng": 1331,
      "plays": 1332,
      "taking": 1333,
      "anymore": 1334,
      "mind": 1335,
      "rol": 1336,
      "hey": 1337,
      "finally": 1338,
      "matter": 1339,
      "itting": 1340,
      "ten": 1341,
      "reaches": 1342,
      "Thank": 1343,
      "die": 1344,
      "fine": 1345,
      "hair": 1346,
      "video": 1347,
      "supposed": 1348,
      "Daniels": 1349,
      "eat": 1350,
      "ushes": 1351,
      "Pr": 1352,
      "cou": 1353,
      "fart": 1354,
      "inter": 1355,
      "der": 1356,
      "past": 1357,
      "throws": 1358,
      "suc": 1359,
      "acher": 1360,
      "close": 1361,
      "seat": 1362,
      "forward": 1363,
      "When": 1364,
      "deal": 1365,
      "dre": 1366,
      "fi": 1367,
      "once": 1368,
      "illed": 1369,
      "tries": 1370,
      "rings": 1371,
      "bell": 1372,
      "ake": 1373,
      "ists": 1374,
      "orm": 1375,
      "McDaniels": 1376,
      "lood": 1377,
      "grabs": 1378,
      "comp": 1379,
      "break": 1380,
      "Kid": 1381,
      "Rep": 1382,
      "aks": 1383,
      "stairs": 1384,
      "Right": 1385,
      "ved": 1386,
      "Har": 1387,
      "pay": 1388,
      "selves": 1389,
      "against": 1390,
      "Maybe": 1391,
      "happened": 1392,
      "Dam": 1393,
      "fli": 1394,
      "war": 1395,
      "ention": 1396,
      "exc": 1397,
      "His": 1398,
      "ones": 1399,
      "cept": 1400,
      "offic": 1401,
      "doors": 1402,
      "five": 1403,
      "country": 1404,
      "Sp": 1405,
      "gre": 1406,
      "rid": 1407,
      "audience": 1408,
      "People": 1409,
      "food": 1410,
      "haha": 1411,
      "ship": 1412,
      "aaaa": 1413,
      "special": 1414,
      "already": 1415,
      "itchen": 1416,
      "ual": 1417,
      "vers": 1418,
      "soon": 1419,
      "Ned": 1420,
      "took": 1421,
      "pants": 1422,
      "Se": 1423,
      "high": 1424,
      "ya": 1425,
      "Grand": 1426,
      "Hi": 1427,
      "gg": 1428,
      "across": 1429,
      "someone": 1430,
      "gas": 1431,
      "xi": 1432,
      "Col": 1433,
      "cover": 1434,
      "itty": 1435,
      "students": 1436,
      "ird": 1437,
      "funny": 1438,
      "continues": 1439,
      "din": 1440,
      "wearing": 1441,
      "ours": 1442,
      "course": 1443,
      "ness": 1444,
      "ited": 1445,
      "alone": 1446,
      "differen": 1447,
      "hot": 1448,
      "ient": 1449,
      "ends": 1450,
      "wanted": 1451,
      "present": 1452,
      "remember": 1453,
      "ister": 1454,
      "baby": 1455,
      "ason": 1456,
      "everybody": 1457,
      "smiles": 1458,
      "ooo": 1459,
      "agin": 1460,
      "draw": 1461,
      "sell": 1462,
      "year": 1463,
      "ering": 1464,
      "irt": 1465,
      "Boys": 1466,
      "ize": 1467,
      "Santa": 1468,
      "Je": 1469,
      "Steven": 1470,
      "fra": 1471,
      "minute": 1472,
      "tree": 1473,
      "cho": 1474,
      "bor": 1475,
      "comput": 1476,
      "wood": 1477,
      "ises": 1478,
      "ible": 1479,
      "kitchen": 1480,
      "oud": 1481,
      "ney": 1482,
      "years": 1483,
      "morning": 1484,
      "sweet": 1485,
      "drin": 1486,
      "gone": 1487,
      "iness": 1488,
      "follows": 1489,
      "paper": 1490,
      "Mark": 1491,
      "Mem": 1492,
      "bot": 1493,
      "lt": 1494,
      "mic": 1495,
      "ying": 1496,
      "quest": 1497,
      "wants": 1498,
      "rises": 1499,
      "sofa": 1500,
      "Big": 1501,
      "Wor": 1502,
      "father": 1503,
      "point": 1504,
      "Dav": 1505,
      "su": 1506,
      "ouble": 1507,
      "ames": 1508,
      "mother": 1509,
      "job": 1510,
      "rem": 1511,
      "assho": 1512,
      "saw": 1513,
      "slow": 1514,
      "serious": 1515,
      "pri": 1516,
      "enn": 1517,
      "days": 1518,
      "happy": 1519,
      "rolls": 1520,
      "ces": 1521,
      "ef": 1522,
      "acc": 1523,
      "idd": 1524,
      "cry": 1525,
      "shop": 1526,
      "Thom": 1527,
      "join": 1528,
      "picks": 1529,
      "without": 1530,
      "aur": 1531,
      "hate": 1532,
      "gives": 1533,
      "ween": 1534,
      "Next": 1535,
      "young": 1536,
      "Car": 1537,
      "waiting": 1538,
      "fast": 1539,
      "stri": 1540,
      "seconds": 1541,
      "bath": 1542,
      "ager": 1543,
      "scene": 1544,
      "white": 1545,
      "jumps": 1546,
      "heart": 1547,
      "hole": 1548,
      "working": 1549,
      "reads": 1550,
      "many": 1551,
      "ilen": 1552,
      "ker": 1553,
      "squ": 1554,
      "toile": 1555,
      "walking": 1556,
      "Bob": 1557,
      "ime": 1558,
      "See": 1559,
      "fre": 1560,
      "ations": 1561,
      "holding": 1562,
      "Den": 1563,
      "such": 1564,
      "hope": 1565,
      "ror": 1566,
      "sim": 1567,
      "store": 1568,
      "Cho": 1569,
      "eating": 1570,
      "ital": 1571,
      "aking": 1572,
      "round": 1573,
      "chang": 1574,
      "order": 1575,
      "Hall": 1576,
      "athan": 1577,
      "hal": 1578,
      "pain": 1579,
      "pee": 1580,
      "ski": 1581,
      "Steve": 1582,
      "bag": 1583,
      "faces": 1584,
      "sin": 1585,
      "Our": 1586,
      "vice": 1587,
      "arry": 1588,
      "check": 1589,
      "cked": 1590,
      "fish": 1591,
      "ingers": 1592,
      "Inter": 1593,
      "omen": 1594,
      "ham": 1595,
      "log": 1596,
      "ask": 1597,
      "fect": 1598,
      "plo": 1599,
      "vel": 1600,
      "taken": 1601,
      "thinks": 1602,
      "computer": 1603,
      "poo": 1604,
      "zy": 1605,
      "char": 1606,
      "ances": 1607,
      "Gen": 1608,
      "NO": 1609,
      "laughs": 1610,
      "super": 1611,
      "morrow": 1612,
      "power": 1613,
      "beat": 1614,
      "notices": 1615,
      "conf": 1616,
      "Hat": 1617,
      "ele": 1618,
      "alright": 1619,
      "mill": 1620,
      "returns": 1621,
      "party": 1622,
      "leader": 1623,
      "Will": 1624,
      "ret": 1625,
      "male": 1626,
      "ult": 1627,
      "bers": 1628,
      "between": 1629,
      "six": 1630,
      "mun": 1631,
      "tomorrow": 1632,
      "ical": 1633,
      "dog": 1634,
      "true": 1635,
      "ults": 1636,
      "totally": 1637,
      "goin": 1638,
      "dec": 1639,
      "control": 1640,
      "Mex": 1641,
      "foot": 1642,
      "Maxi": 1643,
      "sitting": 1644,
      "means": 1645,
      "somebody": 1646,
      "writ": 1647,
      "America": 1648,
      "building": 1649,
      "couple": 1650,
      "cross": 1651,
      "ze": 1652,
      "pect": 1653,
      "dollars": 1654,
      "sleep": 1655,
      "toilet": 1656,
      "Mexic": 1657,
      "iday": 1658,
      "lov": 1659,
      "resp": 1660,
      "appear": 1661,
      "yet": 1662,
      "wasn": 1663,
      "standing": 1664,
      "hops": 1665,
      "ief": 1666,
      "Brof": 1667,
      "dressed": 1668,
      "doctor": 1669,
      "ped": 1670,
      "ines": 1671,
      "thank": 1672,
      "import": 1673,
      "teacher": 1674,
      "Kids": 1675,
      "With": 1676,
      "also": 1677,
      "ooh": 1678,
      "Jeff": 1679,
      "Broflov": 1680,
      "Rich": 1681,
      "ili": 1682,
      "ither": 1683,
      "ians": 1684,
      "silen": 1685,
      "whe": 1686,
      "ense": 1687,
      "bles": 1688,
      "moment": 1689,
      "Out": 1690,
      "bull": 1691,
      "Ne": 1692,
      "aah": 1693,
      "lights": 1694,
      "Repor": 1695,
      "Coun": 1696,
      "ib": 1697,
      "ob": 1698,
      "business": 1699,
      "ave": 1700,
      "vol": 1701,
      "omet": 1702,
      "add": 1703,
      "chor": 1704,
      "fle": 1705,
      "itor": 1706,
      "ots": 1707,
      "bathroom": 1708,
      "Stu": 1709,
      "answer": 1710,
      "blood": 1711,
      "fly": 1712,
      "killed": 1713,
      "hon": 1714,
      "lay": 1715,
      "imes": 1716,
      "ado": 1717,
      "wife": 1718,
      "glass": 1719,
      "Stop": 1720,
      "ago": 1721,
      "esome": 1722,
      "large": 1723,
      "different": 1724,
      "Pat": 1725,
      "cap": 1726,
      "whis": 1727,
      "fell": 1728,
      "hallway": 1729,
      "TH": 1730,
      "reading": 1731,
      "Member": 1732,
      "OU": 1733,
      "ring": 1734,
      "running": 1735,
      "Marvin": 1736,
      "ail": 1737,
      "wond": 1738,
      "Cap": 1739,
      "shoo": 1740,
      "anger": 1741,
      "hhh": 1742,
      "half": 1743,
      "IN": 1744,
      "bra": 1745,
      "law": 1746,
      "grid": 1747,
      "base": 1748,
      "important": 1749,
      "grad": 1750,
      "started": 1751,
      "penis": 1752,
      "fraid": 1753,
      "David": 1754,
      "Nathan": 1755,
      "field": 1756,
      "ky": 1757,
      "yourself": 1758,
      "ti": 1759,
      "almost": 1760,
      "uture": 1761,
      "movie": 1762,
      "Reporter": 1763,
      "Mep": 1764,
      "cra": 1765,
      "issed": 1766,
      "Canada": 1767,
      "Stuart": 1768,
      "Mephe": 1769,
      "Jap": 1770,
      "fig": 1771,
      "park": 1772,
      "inc": 1773,
      "using": 1774,
      "Inside": 1775,
      "News": 1776,
      "iddle": 1777,
      "Mephesto": 1778,
      "Sup": 1779,
      "ior": 1780,
      "team": 1781,
      "els": 1782,
      "asshole": 1783,
      "Japan": 1784,
      "Ind": 1785,
      "afraid": 1786,
      "mall": 1787,
      "tin": 1788,
      "ted": 1789,
      "buy": 1790,
      "gridy": 1791,
      "sick": 1792,
      "sigh": 1793,
      "Str": 1794,
      "thinking": 1795,
      "Black": 1796,
      "ony": 1797,
      "stu": 1798,
      "moments": 1799,
      "approach": 1800,
      "ares": 1801,
      "anyone": 1802,
      "speak": 1803,
      "dumb": 1804,
      "zing": 1805,
      "ics": 1806,
      "lost": 1807,
      "Or": 1808,
      "ition": 1809,
      "urse": 1810,
      "poss": 1811,
      "ately": 1812,
      "ii": 1813,
      "rushes": 1814,
      "quiet": 1815,
      "udge": 1816,
      "Internet": 1817,
      "cop": 1818,
      "arrives": 1819,
      "Ad": 1820,
      "Back": 1821,
      "Fuck": 1822,
      "Sure": 1823,
      "dire": 1824,
      "women": 1825,
      "hol": 1826,
      "giving": 1827,
      "slowly": 1828,
      "Pro": 1829,
      "Rus": 1830,
      "pes": 1831,
      "repor": 1832,
      "trans": 1833,
      "apped": 1834,
      "Mon": 1835,
      "grow": 1836,
      "comple": 1837,
      "Kim": 1838,
      "tou": 1839,
      "entrance": 1840,
      "Nobody": 1841,
      "sounds": 1842,
      "ase": 1843,
      "finger": 1844,
      "pat": 1845,
      "ages": 1846,
      "gather": 1847,
      "brother": 1848,
      "bas": 1849,
      "lad": 1850,
      "mess": 1851,
      "road": 1852,
      "angry": 1853,
      "Richard": 1854,
      "city": 1855,
      "cket": 1856,
      "knew": 1857,
      "kiss": 1858,
      "case": 1859,
      "Tegridy": 1860,
      "Spe": 1861,
      "tru": 1862,
      "undred": 1863,
      "van": 1864,
      "tom": 1865,
      "nobody": 1866,
      "truck": 1867,
      "American": 1868,
      "Broflovski": 1869,
      "Jan": 1870,
      "hi": 1871,
      "toss": 1872,
      "worry": 1873,
      "aim": 1874,
      "cy": 1875,
      "smo": 1876,
      "Stanley": 1877,
      "AT": 1878,
      "Sorry": 1879,
      "mur": 1880,
      "chick": 1881,
      "ES": 1882,
      "aming": 1883,
      "Myster": 1884,
      "tonight": 1885,
      "General": 1886,
      "Sad": 1887,
      "Ye": 1888,
      "tion": 1889,
      "bedroom": 1890,
      "ometimes": 1891,
      "hundred": 1892,
      "ride": 1893,
      "zz": 1894,
      "raises": 1895,
      "needs": 1896,
      "ame": 1897,
      "pops": 1898,
      "AR": 1899,
      "ahead": 1900,
      "gar": 1901,
      "suck": 1902,
      "sets": 1903,
      "elson": 1904,
      "Nelson": 1905,
      "norm": 1906,
      "pur": 1907,
      "return": 1908,
      "cell": 1909,
      "Saddam": 1910,
      "Gir": 1911,
      "These": 1912,
      "safe": 1913,
      "knocks": 1914,
      "pris": 1915,
      "pez": 1916,
      "Color": 1917,
      "Sir": 1918,
      "bow": 1919,
      "bunch": 1920,
      "mach": 1921,
      "ative": 1922,
      "ump": 1923,
      "seems": 1924,
      "cheer": 1925,
      "ousand": 1926,
      "Lead": 1927,
      "Qu": 1928,
      "cup": 1929,
      "gest": 1930,
      "hit": 1931,
      "ifer": 1932,
      "thanks": 1933,
      "drive": 1934,
      "Have": 1935,
      "Mysterion": 1936,
      "eye": 1937,
      "lets": 1938,
      "vern": 1939,
      "produc": 1940,
      "since": 1941,
      "Per": 1942,
      "Rick": 1943,
      "leads": 1944,
      "Lopez": 1945,
      "Strong": 1946,
      "Ob": 1947,
      "mag": 1948,
      "erk": 1949,
      "iling": 1950,
      "umber": 1951,
      "clear": 1952,
      "figure": 1953,
      "Ge": 1954,
      "fac": 1955,
      "gan": 1956,
      "blow": 1957,
      "action": 1958,
      "members": 1959,
      "AN": 1960,
      "coff": 1961,
      "clim": 1962,
      "damnit": 1963,
      "Colorado": 1964,
      "met": 1965,
      "pack": 1966,
      "ities": 1967,
      "ksond": 1968,
      "posit": 1969,
      "wouldn": 1970,
      "udden": 1971,
      "Choksond": 1972,
      "Choksondik": 1973,
      "Fe": 1974,
      "Ow": 1975,
      "pun": 1976,
      "wear": 1977,
      "story": 1978,
      "awesome": 1979,
      "Kevin": 1980,
      "curity": 1981,
      "Denver": 1982,
      "complete": 1983,
      "kick": 1984,
      "pped": 1985,
      "rug": 1986,
      "human": 1987,
      "ER": 1988,
      "Mart": 1989,
      "Miss": 1990,
      "future": 1991,
      "pu": 1992,
      "heh": 1993,
      "tory": 1994,
      "become": 1995,
      "answers": 1996,
      "Town": 1997,
      "center": 1998,
      "hours": 1999,
      "ress": 2000,
      "spital": 2001,
      "officers": 2002,
      "pound": 2003,
      "inte": 2004,
      "tage": 2005,
      "sighs": 2006,
      "Agent": 2007,
      "dark": 2008,
      "kne": 2009,
      "report": 2010,
      "rible": 2011,
      "Chief": 2012,
      "company": 2013,
      "cent": 2014,
      "fair": 2015,
      "mil": 2016,
      "uu": 2017,
      "anybody": 2018,
      "trouble": 2019,
      "White": 2020,
      "attention": 2021,
      "fully": 2022,
      "dream": 2023,
      "City": 2024,
      "gie": 2025,
      "sun": 2026,
      "butt": 2027,
      "cheers": 2028,
      "driver": 2029,
      "farts": 2030,
      "Pete": 2031,
      "cast": 2032,
      "stick": 2033,
      "ried": 2034,
      "govern": 2035,
      "officer": 2036,
      "Loo": 2037,
      "bing": 2038,
      "lim": 2039,
      "river": 2040,
      "Chinese": 2041,
      "10": 2042,
      "far": 2043,
      "ashes": 2044,
      "clean": 2045,
      "ennifer": 2046,
      "Thomas": 2047,
      "Ar": 2048,
      "hee": 2049,
      "thousand": 2050,
      "Stre": 2051,
      "tried": 2052,
      "Her": 2053,
      "Sla": 2054,
      "ov": 2055,
      "utes": 2056,
      "haven": 2057,
      "god": 2058,
      "ched": 2059,
      "Shut": 2060,
      "Really": 2061,
      "NA": 2062,
      "dick": 2063,
      "eas": 2064,
      "hood": 2065,
      "tic": 2066,
      "yard": 2067,
      "whatever": 2068,
      "sol": 2069,
      "gram": 2070,
      "bably": 2071,
      "record": 2072,
      "Grandpa": 2073,
      "coffee": 2074,
      "nin": 2075,
      "tra": 2076,
      "shoulder": 2077,
      "Japanese": 2078,
      "Af": 2079,
      "ID": 2080,
      "ges": 2081,
      "lunch": 2082,
      "inal": 2083,
      "Billy": 2084,
      "Slave": 2085,
      "Day": 2086,
      "Elder": 2087,
      "Lord": 2088,
      "ding": 2089,
      "ors": 2090,
      "appl": 2091,
      "throw": 2092,
      "vision": 2093,
      "abo": 2094,
      "cts": 2095,
      "stun": 2096,
      "seem": 2097,
      "softly": 2098,
      "Squ": 2099,
      "cking": 2100,
      "gro": 2101,
      "kins": 2102,
      "aside": 2103,
      "wed": 2104,
      "Gary": 2105,
      "telling": 2106,
      "press": 2107,
      "fuckin": 2108,
      "surpris": 2109,
      "Captain": 2110,
      "HH": 2111,
      "Jennifer": 2112,
      "cess": 2113,
      "tele": 2114,
      "mith": 2115,
      "alien": 2116,
      "grand": 2117,
      "lowers": 2118,
      "ject": 2119,
      "Ear": 2120,
      "Fo": 2121,
      "Father": 2122,
      "dance": 2123,
      "reach": 2124,
      "idence": 2125,
      "attle": 2126,
      "Damn": 2127,
      "Tur": 2128,
      "ran": 2129,
      "send": 2130,
      "ery": 2131,
      "ains": 2132,
      "Gore": 2133,
      "pping": 2134,
      "Canadian": 2135,
      "learned": 2136,
      "pig": 2137,
      "stem": 2138,
      "sever": 2139,
      "quite": 2140,
      "scared": 2141,
      "normal": 2142,
      "sudden": 2143,
      "seated": 2144,
      "shirt": 2145,
      "fill": 2146,
      "hits": 2147,
      "ono": 2148,
      "amed": 2149,
      "poor": 2150,
      "club": 2151,
      "Mor": 2152,
      "neck": 2153,
      "hoto": 2154,
      "joy": 2155,
      "pictures": 2156,
      "cuse": 2157,
      "dist": 2158,
      "fil": 2159,
      "reason": 2160,
      "though": 2161,
      "works": 2162,
      "Bear": 2163,
      "drink": 2164,
      "government": 2165,
      "Aaa": 2166,
      "ishes": 2167,
      "leaving": 2168,
      "space": 2169,
      "flag": 2170,
      "words": 2171,
      "learn": 2172,
      "dest": 2173,
      "ming": 2174,
      "pir": 2175,
      "snow": 2176,
      "ically": 2177,
      "nearby": 2178,
      "Of": 2179,
      "Take": 2180,
      "middle": 2181,
      "sent": 2182,
      "arch": 2183,
      "adults": 2184,
      "lives": 2185,
      "entire": 2186,
      "places": 2187,
      "nose": 2188,
      "teen": 2189,
      "themselves": 2190,
      "truth": 2191,
      "Friend": 2192,
      "Les": 2193,
      "mot": 2194,
      "reve": 2195,
      "meeting": 2196,
      "Any": 2197,
      "IT": 2198,
      "Lu": 2199,
      "either": 2200,
      "kee": 2201,
      "forth": 2202,
      "munity": 2203,
      "Like": 2204,
      "ium": 2205,
      "mand": 2206,
      "sand": 2207,
      "myself": 2208,
      "lose": 2209,
      "million": 2210,
      "several": 2211,
      "bat": 2212,
      "rew": 2213,
      "deep": 2214,
      "piece": 2215,
      "Excuse": 2216,
      "Obama": 2217,
      "AL": 2218,
      "pissed": 2219,
      "za": 2220,
      "step": 2221,
      "otes": 2222,
      "death": 2223,
      "probably": 2224,
      "plane": 2225,
      "Crab": 2226,
      "nother": 2227,
      "brought": 2228,
      "singing": 2229,
      "Pass": 2230,
      "Tu": 2231,
      "rush": 2232,
      "dinner": 2233,
      "stunned": 2234,
      "Another": 2235,
      "IS": 2236,
      "Smith": 2237,
      "ener": 2238,
      "agree": 2239,
      "sold": 2240,
      "aster": 2241,
      "yell": 2242,
      "cuts": 2243,
      "Eh": 2244,
      "Give": 2245,
      "ju": 2246,
      "umes": 2247,
      "bye": 2248,
      "smart": 2249,
      "ized": 2250,
      "interest": 2251,
      "Boo": 2252,
      "creat": 2253,
      "hy": 2254,
      "cele": 2255,
      "prom": 2256,
      "hello": 2257,
      "Keep": 2258,
      "dou": 2259,
      "gle": 2260,
      "mp": 2261,
      "test": 2262,
      "prep": 2263,
      "area": 2264,
      "uses": 2265,
      "angri": 2266,
      "mercial": 2267,
      "celebr": 2268,
      "backs": 2269,
      "ply": 2270,
      "spl": 2271,
      "seats": 2272,
      "somewhere": 2273,
      "shouldn": 2274,
      "certain": 2275,
      "classroom": 2276,
      "lands": 2277,
      "hurt": 2278,
      "Center": 2279,
      "Mel": 2280,
      "OM": 2281,
      "Pol": 2282,
      "Stot": 2283,
      "thes": 2284,
      "uts": 2285,
      "ucks": 2286,
      "tosses": 2287,
      "cars": 2288,
      "moving": 2289,
      "iful": 2290,
      "sky": 2291,
      "laughing": 2292,
      "11": 2293,
      "Run": 2294,
      "stat": 2295,
      "omb": 2296,
      "McC": 2297,
      "suit": 2298,
      "Earth": 2299,
      "Larry": 2300,
      "anket": 2301,
      "hamm": 2302,
      "least": 2303,
      "ountain": 2304,
      "spir": 2305,
      "cret": 2306,
      "arrator": 2307,
      "question": 2308,
      "Ben": 2309,
      "state": 2310,
      "bear": 2311,
      "rog": 2312,
      "guard": 2313,
      "gave": 2314,
      "Brit": 2315,
      "giant": 2316,
      "Hold": 2317,
      "Awww": 2318,
      "hangs": 2319,
      "Super": 2320,
      "possible": 2321,
      "Cha": 2322,
      "fs": 2323,
      "tw": 2324,
      "third": 2325,
      "load": 2326,
      "Anchor": 2327,
      "ancing": 2328,
      "huge": 2329,
      "locker": 2330,
      "crying": 2331,
      "Hu": 2332,
      "eight": 2333,
      "late": 2334,
      "mis": 2335,
      "inde": 2336,
      "urch": 2337,
      "tee": 2338,
      "dammit": 2339,
      "prote": 2340,
      "respon": 2341,
      "wonder": 2342,
      "Great": 2343,
      "aven": 2344,
      "ci": 2345,
      "pick": 2346,
      "sense": 2347,
      "inv": 2348,
      "shoot": 2349,
      "ils": 2350,
      "knows": 2351,
      "blue": 2352,
      "Special": 2353,
      "Jer": 2354,
      "anne": 2355,
      "bea": 2356,
      "plain": 2357,
      "eez": 2358,
      "finds": 2359,
      "eteria": 2360,
      "bum": 2361,
      "card": 2362,
      "yed": 2363,
      "terror": 2364,
      "waves": 2365,
      "closer": 2366,
      "destro": 2367,
      "hammad": 2368,
      "Dou": 2369,
      "tre": 2370,
      "lemen": 2371,
      "ica": 2372,
      "angrily": 2373,
      "fa": 2374,
      "hun": 2375,
      "hug": 2376,
      "acy": 2377,
      "chance": 2378,
      "background": 2379,
      "akov": 2380,
      "damned": 2381,
      "YOU": 2382,
      "ni": 2383,
      "oom": 2384,
      "weed": 2385,
      "lif": 2386,
      "Child": 2387,
      "ments": 2388,
      "joke": 2389,
      "joins": 2390,
      "Dis": 2391,
      "Narrator": 2392,
      "cough": 2393,
      "ished": 2394,
      "allow": 2395,
      "ault": 2396,
      "starting": 2397,
      "actly": 2398,
      "carry": 2399,
      "soft": 2400,
      "Joe": 2401,
      "welcome": 2402,
      "basket": 2403,
      "bast": 2404,
      "cu": 2405,
      "cau": 2406,
      "fur": 2407,
      "mir": 2408,
      "rain": 2409,
      "kets": 2410,
      "forget": 2411,
      "uring": 2412,
      "Harris": 2413,
      "Nic": 2414,
      "PS": 2415,
      "ban": 2416,
      "Wel": 2417,
      "tape": 2418,
      "seeing": 2419,
      "watches": 2420,
      "minutes": 2421,
      "Tell": 2422,
      "dress": 2423,
      "catch": 2424,
      "County": 2425,
      "chicken": 2426,
      "gers": 2427,
      "anim": 2428,
      "towel": 2429,
      "ths": 2430,
      "irth": 2431,
      "unny": 2432,
      "brings": 2433,
      "happens": 2434,
      "flash": 2435,
      "ighbor": 2436,
      "cream": 2437,
      "Guy": 2438,
      "evil": 2439,
      "Outside": 2440,
      "crazy": 2441,
      "reporter": 2442,
      "keeps": 2443,
      "Mim": 2444,
      "Pig": 2445,
      "egg": 2446,
      "lin": 2447,
      "ana": 2448,
      "rel": 2449,
      "ict": 2450,
      "weet": 2451,
      "haps": 2452,
      "rian": 2453,
      "iles": 2454,
      "Box": 2455,
      "couldn": 2456,
      "gym": 2457,
      "Adam": 2458,
      "En": 2459,
      "Gay": 2460,
      "Ser": 2461,
      "bin": 2462,
      "sub": 2463,
      "Ohhh": 2464,
      "ational": 2465,
      "lent": 2466,
      "sucks": 2467,
      "television": 2468,
      "Other": 2469,
      "cow": 2470,
      "ost": 2471,
      "erson": 2472,
      "commercial": 2473,
      "blic": 2474,
      "arrive": 2475,
      "rap": 2476,
      "thered": 2477,
      "blows": 2478,
      "amazing": 2479,
      "Police": 2480,
      "Welcome": 2481,
      "pus": 2482,
      "sad": 2483,
      "sight": 2484,
      "vo": 2485,
      "concer": 2486,
      "berry": 2487,
      "Time": 2488,
      "Cupid": 2489,
      "Min": 2490,
      "bud": 2491,
      "bott": 2492,
      "weak": 2493,
      "button": 2494,
      "caf": 2495,
      "Friends": 2496,
      "King": 2497,
      "Ske": 2498,
      "bul": 2499,
      "ied": 2500,
      "vil": 2501,
      "excited": 2502,
      "Pri": 2503,
      "bill": 2504,
      "train": 2505,
      "rincess": 2506,
      "drop": 2507,
      "planet": 2508,
      "green": 2509,
      "confused": 2510,
      "Stotch": 2511,
      "Cru": 2512,
      "eh": 2513,
      "gn": 2514,
      "pans": 2515,
      "sometimes": 2516,
      "cannot": 2517,
      "Timmi": 2518,
      "000": 2519,
      "aff": 2520,
      "ced": 2521,
      "dies": 2522,
      "ns": 2523,
      "turd": 2524,
      "save": 2525,
      "showing": 2526,
      "Pi": 2527,
      "doin": 2528,
      "deli": 2529,
      "gotten": 2530,
      "president": 2531,
      "Clerk": 2532,
      "Driver": 2533,
      "Sky": 2534,
      "az": 2535,
      "fag": 2536,
      "kin": 2537,
      "number": 2538,
      "lla": 2539,
      "stra": 2540,
      "ofess": 2541,
      "rince": 2542,
      "Scout": 2543,
      "attack": 2544,
      "babies": 2545,
      "system": 2546,
      "More": 2547,
      "Cruise": 2548,
      "Ugh": 2549,
      "bust": 2550,
      "cher": 2551,
      "edy": 2552,
      "grins": 2553,
      "rent": 2554,
      "cake": 2555,
      "camp": 2556,
      "fourth": 2557,
      "corner": 2558,
      "Crowd": 2559,
      "cir": 2560,
      "hip": 2561,
      "putting": 2562,
      "stead": 2563,
      "Clin": 2564,
      "pounds": 2565,
      "Mike": 2566,
      "cli": 2567,
      "treat": 2568,
      "ided": 2569,
      "realize": 2570,
      "moved": 2571,
      "jump": 2572,
      "stume": 2573,
      "reveal": 2574,
      "Skeeter": 2575,
      "bang": 2576,
      "val": 2577,
      "vent": 2578,
      "wish": 2579,
      "gold": 2580,
      "hospital": 2581,
      "quart": 2582,
      "exactly": 2583,
      "clothes": 2584,
      "weeks": 2585,
      "aughter": 2586,
      "happening": 2587,
      "books": 2588,
      "colle": 2589,
      "above": 2590,
      "Bur": 2591,
      "Ed": 2592,
      "Kitty": 2593,
      "Par": 2594,
      "bri": 2595,
      "principal": 2596,
      "photo": 2597,
      "sme": 2598,
      "itches": 2599,
      "orge": 2600,
      "whoa": 2601,
      "costume": 2602,
      "gathered": 2603,
      "restaur": 2604,
      "flies": 2605,
      "fellas": 2606,
      "Nichole": 2607,
      "fet": 2608,
      "ases": 2609,
      "rock": 2610,
      "neighbor": 2611,
      "que": 2612,
      "explo": 2613,
      "reath": 2614,
      "strong": 2615,
      "wheel": 2616,
      "Patr": 2617,
      "After": 2618,
      "beaut": 2619,
      "Peter": 2620,
      "ech": 2621,
      "fic": 2622,
      "fist": 2623,
      "ging": 2624,
      "mine": 2625,
      "ners": 2626,
      "zoom": 2627,
      "ility": 2628,
      "brid": 2629,
      "crack": 2630,
      "perfect": 2631,
      "calling": 2632,
      "Class": 2633,
      "seriously": 2634,
      "Carol": 2635,
      "completely": 2636,
      "cafeteria": 2637,
      "gig": 2638,
      "ives": 2639,
      "pet": 2640,
      "rer": 2641,
      "station": 2642,
      "asked": 2643,
      "irty": 2644,
      "agon": 2645,
      "agents": 2646,
      "grade": 2647,
      "covers": 2648,
      "suddenly": 2649,
      "Crabtree": 2650,
      "Fine": 2651,
      "First": 2652,
      "List": 2653,
      "bi": 2654,
      "lan": 2655,
      "rup": 2656,
      "iso": 2657,
      "star": 2658,
      "asure": 2659,
      "ghost": 2660,
      "choice": 2661,
      "roof": 2662,
      "raise": 2663,
      "Char": 2664,
      "burger": 2665,
      "appy": 2666,
      "Kelly": 2667,
      "fighting": 2668,
      "continue": 2669,
      "simple": 2670,
      "20": 2671,
      "Ab": 2672,
      "Brian": 2673,
      "Dick": 2674,
      "School": 2675,
      "Wha": 2676,
      "birth": 2677,
      "iver": 2678,
      "non": 2679,
      "sne": 2680,
      "tu": 2681,
      "tle": 2682,
      "ref": 2683,
      "rece": 2684,
      "iting": 2685,
      "iding": 2686,
      "grap": 2687,
      "aaa": 2688,
      "emp": 2689,
      "avor": 2690,
      "struc": 2691,
      "writing": 2692,
      "ais": 2693,
      "battle": 2694,
      "pot": 2695,
      "hose": 2696,
      "feeling": 2697,
      "Mexican": 2698,
      "rugs": 2699,
      "Mimsy": 2700,
      "ON": 2701,
      "Put": 2702,
      "rat": 2703,
      "ants": 2704,
      "agent": 2705,
      "Nothing": 2706,
      "everywhere": 2707,
      "ManBear": 2708,
      "presses": 2709,
      "catches": 2710,
      "position": 2711,
      "ManBearPig": 2712,
      "Daw": 2713,
      "lady": 2714,
      "gue": 2715,
      "except": 2716,
      "Johnson": 2717,
      "protect": 2718,
      "Would": 2719,
      "wha": 2720,
      "orde": 2721,
      "sey": 2722,
      "olks": 2723,
      "ulous": 2724,
      "Three": 2725,
      "longer": 2726,
      "AAAAAAAA": 2727,
      "Josh": 2728,
      "graders": 2729,
      "touch": 2730,
      "punches": 2731,
      "Towns": 2732,
      "straight": 2733,
      "Listen": 2734,
      "fit": 2735,
      "hom": 2736,
      "mark": 2737,
      "site": 2738,
      "bert": 2739,
      "cove": 2740,
      "Everything": 2741,
      "Friday": 2742,
      "problems": 2743,
      "Girl": 2744,
      "Res": 2745,
      "breath": 2746,
      "page": 2747,
      "vagin": 2748,
      "leans": 2749,
      "ider": 2750,
      "imagin": 2751,
      "boat": 2752,
      "tem": 2753,
      "Does": 2754,
      "crew": 2755,
      "From": 2756,
      "Worker": 2757,
      "Russell": 2758,
      "Priest": 2759,
      "AW": 2760,
      "RE": 2761,
      "Wo": 2762,
      "cab": 2763,
      "folk": 2764,
      "kicks": 2765,
      "luck": 2766,
      "leep": 2767,
      "security": 2768,
      "ending": 2769,
      "phy": 2770,
      "write": 2771,
      "speech": 2772,
      "poop": 2773,
      "nie": 2774,
      "sum": 2775,
      "note": 2776,
      "George": 2777,
      "easy": 2778,
      "Could": 2779,
      "Lad": 2780,
      "Mur": 2781,
      "bal": 2782,
      "bike": 2783,
      "fed": 2784,
      "fingers": 2785,
      "fault": 2786,
      "hum": 2787,
      "mass": 2788,
      "vious": 2789,
      "oop": 2790,
      "shall": 2791,
      "speaks": 2792,
      "shocked": 2793,
      "counter": 2794,
      "Teen": 2795,
      "Tuong": 2796,
      "Nurse": 2797,
      "hero": 2798,
      "thro": 2799,
      "search": 2800,
      "imp": 2801,
      "episo": 2802,
      "deser": 2803,
      "killing": 2804,
      "Americans": 2805,
      "wenty": 2806,
      "basement": 2807,
      "Leslie": 2808,
      "lifts": 2809,
      "covered": 2810,
      "Gre": 2811,
      "feet": 2812,
      "teach": 2813,
      "forest": 2814,
      "Stevens": 2815,
      "Farms": 2816,
      "Mars": 2817,
      "ST": 2818,
      "ape": 2819,
      "har": 2820,
      "honey": 2821,
      "lies": 2822,
      "ury": 2823,
      "exits": 2824,
      "rich": 2825,
      "fatass": 2826,
      "passes": 2827,
      "priv": 2828,
      "Looks": 2829,
      "beautiful": 2830,
      "Cause": 2831,
      "upon": 2832,
      "ummy": 2833,
      "worked": 2834,
      "clap": 2835,
      "pract": 2836,
      "bigger": 2837,
      "ashing": 2838,
      "official": 2839,
      "Mmm": 2840,
      "Wall": 2841,
      "cul": 2842,
      "dancing": 2843,
      "mad": 2844,
      "nat": 2845,
      "yy": 2846,
      "hears": 2847,
      "itter": 2848,
      "owers": 2849,
      "rip": 2850,
      "locks": 2851,
      "doorbell": 2852,
      "gasps": 2853,
      "Chaos": 2854,
      "Fl": 2855,
      "Fam": 2856,
      "Hen": 2857,
      "Jakov": 2858,
      "Prince": 2859,
      "cred": 2860,
      "ole": 2861,
      "anda": 2862,
      "sticks": 2863,
      "asleep": 2864,
      "Heh": 2865,
      "respect": 2866,
      "tray": 2867,
      "rench": 2868,
      "screams": 2869,
      "drives": 2870,
      "following": 2871,
      "football": 2872,
      "oohoo": 2873,
      "applause": 2874,
      "Hill": 2875,
      "Um": 2876,
      "bbing": 2877,
      "chat": 2878,
      "seven": 2879,
      "alth": 2880,
      "robot": 2881,
      "ift": 2882,
      "checks": 2883,
      "sco": 2884,
      "ously": 2885,
      "waits": 2886,
      "Janet": 2887,
      "distance": 2888,
      "App": 2889,
      "Ba": 2890,
      "Four": 2891,
      "Mus": 2892,
      "ja": 2893,
      "ane": 2894,
      "instead": 2895,
      "keys": 2896,
      "short": 2897,
      "host": 2898,
      "psy": 2899,
      "Gob": 2900,
      "whips": 2901,
      "trash": 2902,
      "player": 2903,
      "forever": 2904,
      "driving": 2905,
      "breaks": 2906,
      "Guys": 2907,
      "ientist": 2908,
      "douche": 2909,
      "spirit": 2910,
      "AH": 2911,
      "Jared": 2912,
      "War": 2913,
      "ben": 2914,
      "elder": 2915,
      "sou": 2916,
      "tun": 2917,
      "turned": 2918,
      "berg": 2919,
      "oween": 2920,
      "Jews": 2921,
      "iety": 2922,
      "legs": 2923,
      "fires": 2924,
      "holiday": 2925,
      "games": 2926,
      "main": 2927,
      "od": 2928,
      "ests": 2929,
      "secret": 2930,
      "somethin": 2931,
      "resumes": 2932,
      "post": 2933,
      "talks": 2934,
      "homeless": 2935,
      "glad": 2936,
      "booth": 2937,
      "Halloween": 2938,
      "silence": 2939,
      "machine": 2940,
      "Adams": 2941,
      "bottle": 2942,
      "ET": 2943,
      "Got": 2944,
      "Say": 2945,
      "fan": 2946,
      "loud": 2947,
      "pool": 2948,
      "announ": 2949,
      "idel": 2950,
      "notice": 2951,
      "exper": 2952,
      "Guard": 2953,
      "snif": 2954,
      "ival": 2955,
      "Field": 2956,
      "cash": 2957,
      "farm": 2958,
      "folks": 2959,
      "push": 2960,
      "iner": 2961,
      "removes": 2962,
      "church": 2963,
      "ford": 2964,
      "tains": 2965,
      "hhhh": 2966,
      "Phil": 2967,
      "calm": 2968,
      "student": 2969,
      "missing": 2970,
      "excuse": 2971,
      "ridic": 2972,
      "annel": 2973,
      "restaurant": 2974,
      "Ale": 2975,
      "Cool": 2976,
      "Free": 2977,
      "Tra": 2978,
      "favor": 2979,
      "ix": 2980,
      "pal": 2981,
      "erry": 2982,
      "ory": 2983,
      "beer": 2984,
      "upstairs": 2985,
      "ourselves": 2986,
      "stor": 2987,
      "skin": 2988,
      "broke": 2989,
      "certainly": 2990,
      "Clinton": 2991,
      "Cat": 2992,
      "Im": 2993,
      "Sch": 2994,
      "cro": 2995,
      "hus": 2996,
      "icking": 2997,
      "ammy": 2998,
      "focus": 2999,
      "sheet": 3000,
      "cold": 3001,
      "calls": 3002,
      "count": 3003,
      "Blanket": 3004,
      "changes": 3005,
      "Sha": 3006,
      "fact": 3007,
      "ram": 3008,
      "ork": 3009,
      "worse": 3010,
      "screw": 3011,
      "Britney": 3012,
      "ofessor": 3013,
      "Family": 3014,
      "Air": 3015,
      "Bro": 3016,
      "Ooo": 3017,
      "Sally": 3018,
      "det": 3019,
      "fif": 3020,
      "jac": 3021,
      "py": 3022,
      "pul": 3023,
      "wich": 3024,
      "sea": 3025,
      "assed": 3026,
      "Star": 3027,
      "otest": 3028,
      "upset": 3029,
      "tech": 3030,
      "anyway": 3031,
      "tract": 3032,
      "support": 3033,
      "Holy": 3034,
      "girlfriend": 3035,
      "formation": 3036,
      "flips": 3037,
      "crosses": 3038,
      "silent": 3039,
      "McCorm": 3040,
      "teeth": 3041,
      "House": 3042,
      "during": 3043,
      "hide": 3044,
      "sion": 3045,
      "sem": 3046,
      "acist": 3047,
      "ached": 3048,
      "wiener": 3049,
      "grab": 3050,
      "exit": 3051,
      "anson": 3052,
      "coat": 3053,
      "monitor": 3054,
      "shakes": 3055,
      "strikes": 3056,
      "changed": 3057,
      "shoots": 3058,
      "producer": 3059,
      "surprised": 3060,
      "Ama": 3061,
      "Tes": 3062,
      "du": 3063,
      "fu": 3064,
      "jam": 3065,
      "pac": 3066,
      "pause": 3067,
      "arious": 3068,
      "lying": 3069,
      "Head": 3070,
      "leased": 3071,
      "spot": 3072,
      "Rob": 3073,
      "etect": 3074,
      "ING": 3075,
      "Timmih": 3076,
      "neighborhood": 3077,
      "Cth": 3078,
      "Nor": 3079,
      "erg": 3080,
      "atic": 3081,
      "ised": 3082,
      "icop": 3083,
      "asking": 3084,
      "oops": 3085,
      "among": 3086,
      "apart": 3087,
      "logy": 3088,
      "ulhu": 3089,
      "Only": 3090,
      "Ellen": 3091,
      "aims": 3092,
      "zooms": 3093,
      "Cthulhu": 3094,
      "AID": 3095,
      "DO": 3096,
      "Darry": 3097,
      "EN": 3098,
      "KK": 3099,
      "Sg": 3100,
      "lap": 3101,
      "onde": 3102,
      "itar": 3103,
      "history": 3104,
      "apo": 3105,
      "female": 3106,
      "Daddy": 3107,
      "Darryl": 3108,
      "Sgt": 3109,
      "Hand": 3110,
      "Sweet": 3111,
      "Those": 3112,
      "pin": 3113,
      "ray": 3114,
      "tank": 3115,
      "troll": 3116,
      "yan": 3117,
      "isand": 3118,
      "alarm": 3119,
      "chal": 3120,
      "chuck": 3121,
      "agg": 3122,
      "final": 3123,
      "Frank": 3124,
      "died": 3125,
      "burst": 3126,
      "drum": 3127,
      "event": 3128,
      "mari": 3129,
      "draws": 3130,
      "Adler": 3131,
      "empty": 3132,
      "Aide": 3133,
      "Cam": 3134,
      "cord": 3135,
      "daughter": 3136,
      "lines": 3137,
      "inst": 3138,
      "enger": 3139,
      "etta": 3140,
      "rietta": 3141,
      "Hel": 3142,
      "closed": 3143,
      "lots": 3144,
      "gentlemen": 3145,
      "Professor": 3146,
      "woods": 3147,
      "questions": 3148,
      "climbs": 3149,
      "milk": 3150,
      "Streisand": 3151,
      "episode": 3152,
      "Henrietta": 3153,
      "CK": 3154,
      "Li": 3155,
      "Men": 3156,
      "Mag": 3157,
      "sal": 3158,
      "warm": 3159,
      "incl": 3160,
      "omin": 3161,
      "oper": 3162,
      "tooth": 3163,
      "protest": 3164,
      "studio": 3165,
      "earth": 3166,
      "shooting": 3167,
      "Down": 3168,
      "bes": 3169,
      "bac": 3170,
      "bright": 3171,
      "bucks": 3172,
      "da": 3173,
      "pair": 3174,
      "rab": 3175,
      "ugh": 3176,
      "anno": 3177,
      "alive": 3178,
      "ads": 3179,
      "lyn": 3180,
      "nothin": 3181,
      "helicop": 3182,
      "charge": 3183,
      "Skyler": 3184,
      "throat": 3185,
      "Home": 3186,
      "lab": 3187,
      "twenty": 3188,
      "bel": 3189,
      "ades": 3190,
      "terrible": 3191,
      "lips": 3192,
      "quee": 3193,
      "Show": 3194,
      "ruin": 3195,
      "izza": 3196,
      "finish": 3197,
      "court": 3198,
      "19": 3199,
      "ki": 3200,
      "yer": 3201,
      "def": 3202,
      "apparen": 3203,
      "ilt": 3204,
      "aine": 3205,
      "pose": 3206,
      "worth": 3207,
      "knock": 3208,
      "decided": 3209,
      "respond": 3210,
      "glasses": 3211,
      "Leader": 3212,
      "Mu": 3213,
      "Mal": 3214,
      "gles": 3215,
      "vic": 3216,
      "vacc": 3217,
      "eron": 3218,
      "orn": 3219,
      "immed": 3220,
      "wig": 3221,
      "lds": 3222,
      "Weather": 3223,
      "stool": 3224,
      "Brad": 3225,
      "lax": 3226,
      "Haha": 3227,
      "Somebody": 3228,
      "dining": 3229,
      "charac": 3230,
      "French": 3231,
      "LE": 3232,
      "Lorde": 3233,
      "danger": 3234,
      "rist": 3235,
      "pson": 3236,
      "worried": 3237,
      "ucker": 3238,
      "tors": 3239,
      "emplo": 3240,
      "closet": 3241,
      "presents": 3242,
      "towns": 3243,
      "dollar": 3244,
      "iod": 3245,
      "hanging": 3246,
      "strike": 3247,
      "message": 3248,
      "Elderly": 3249,
      "juana": 3250,
      "Minister": 3251,
      "ergart": 3252,
      "Mill": 3253,
      "Ten": 3254,
      "cart": 3255,
      "icked": 3256,
      "sidewalk": 3257,
      "laughter": 3258,
      "Barbra": 3259,
      "breast": 3260,
      "Mommy": 3261,
      "mission": 3262,
      "Jersey": 3263,
      "Paris": 3264,
      "brief": 3265,
      "vagina": 3266,
      "McCormick": 3267,
      "immedi": 3268,
      "Bet": 3269,
      "Dire": 3270,
      "Face": 3271,
      "Hind": 3272,
      "Little": 3273,
      "Very": 3274,
      "nuts": 3275,
      "enjoy": 3276,
      "orts": 3277,
      "apper": 3278,
      "cancer": 3279,
      "plant": 3280,
      "guards": 3281,
      "dying": 3282,
      "slams": 3283,
      "desc": 3284,
      "breaking": 3285,
      "shopping": 3286,
      "coughs": 3287,
      "caught": 3288,
      "12": 3289,
      "Am": 3290,
      "Bu": 3291,
      "Budd": 3292,
      "Princess": 3293,
      "Sim": 3294,
      "Wal": 3295,
      "cum": 3296,
      "dig": 3297,
      "race": 3298,
      "bec": 3299,
      "rips": 3300,
      "urday": 3301,
      "rise": 3302,
      "itten": 3303,
      "brown": 3304,
      "biggest": 3305,
      "shots": 3306,
      "Saturday": 3307,
      "surround": 3308,
      "simply": 3309,
      "tired": 3310,
      "Produc": 3311,
      "quarters": 3312,
      "AIDS": 3313,
      "Ey": 3314,
      "Happy": 3315,
      "wast": 3316,
      "zon": 3317,
      "health": 3318,
      "image": 3319,
      "Stud": 3320,
      "aul": 3321,
      "backyard": 3322,
      "turkey": 3323,
      "track": 3324,
      "crit": 3325,
      "period": 3326,
      "swim": 3327,
      "bottom": 3328,
      "ESOM": 3329,
      "responsi": 3330,
      "AWESOM": 3331,
      "bench": 3332,
      "SA": 3333,
      "Sho": 3334,
      "cows": 3335,
      "mountain": 3336,
      "heav": 3337,
      "weren": 3338,
      "force": 3339,
      "logram": 3340,
      "chest": 3341,
      "selor": 3342,
      "Sold": 3343,
      "monster": 3344,
      "dium": 3345,
      "Isn": 3346,
      "Once": 3347,
      "horrible": 3348,
      "sexual": 3349,
      "Dep": 3350,
      "Lem": 3351,
      "Nice": 3352,
      "Rab": 3353,
      "dances": 3354,
      "nurse": 3355,
      "sus": 3356,
      "wide": 3357,
      "tomer": 3358,
      "irts": 3359,
      "explain": 3360,
      "finished": 3361,
      "strange": 3362,
      "horse": 3363,
      "parking": 3364,
      "writes": 3365,
      "Dougie": 3366,
      "basketball": 3367,
      "buddy": 3368,
      "Mitch": 3369,
      "Play": 3370,
      "cure": 3371,
      "fir": 3372,
      "pour": 3373,
      "spo": 3374,
      "relax": 3375,
      "thor": 3376,
      "eng": 3377,
      "acting": 3378,
      "ution": 3379,
      "weight": 3380,
      "peace": 3381,
      "thers": 3382,
      "podium": 3383,
      "iley": 3384,
      "famili": 3385,
      "switch": 3386,
      "horn": 3387,
      "ridiculous": 3388,
      "Vamp": 3389,
      "candy": 3390,
      "double": 3391,
      "ginger": 3392,
      "iers": 3393,
      "sen": 3394,
      "weap": 3395,
      "rope": 3396,
      "ender": 3397,
      "known": 3398,
      "grin": 3399,
      "pok": 3400,
      "assist": 3401,
      "anywhere": 3402,
      "pper": 3403,
      "given": 3404,
      "OOOO": 3405,
      "sweetie": 3406,
      "World": 3407,
      "flying": 3408,
      "apparently": 3409,
      "Director": 3410,
      "Producer": 3411,
      "Fire": 3412,
      "Ryan": 3413,
      "bomb": 3414,
      "ered": 3415,
      "hic": 3416,
      "jack": 3417,
      "map": 3418,
      "named": 3419,
      "phe": 3420,
      "vote": 3421,
      "heaven": 3422,
      "oray": 3423,
      "likes": 3424,
      "dear": 3425,
      "illy": 3426,
      "notic": 3427,
      "playground": 3428,
      "smiling": 3429,
      "evening": 3430,
      "windows": 3431,
      "mmm": 3432,
      "Mickey": 3433,
      "China": 3434,
      "Chinpok": 3435,
      "ception": 3436,
      "HA": 3437,
      "Ju": 3438,
      "Son": 3439,
      "Too": 3440,
      "nic": 3441,
      "hehe": 3442,
      "oppo": 3443,
      "trust": 3444,
      "coll": 3445,
      "proud": 3446,
      "izes": 3447,
      "shock": 3448,
      "Aww": 3449,
      "broken": 3450,
      "listening": 3451,
      "Trapper": 3452,
      "yellow": 3453,
      "Keeper": 3454,
      "Children": 3455,
      "Muhammad": 3456,
      "immediately": 3457,
      "Bre": 3458,
      "Det": 3459,
      "Ko": 3460,
      "Sk": 3461,
      "bly": 3462,
      "drugs": 3463,
      "jail": 3464,
      "inks": 3465,
      "isa": 3466,
      "shield": 3467,
      "pocket": 3468,
      "ific": 3469,
      "bling": 3470,
      "runch": 3471,
      "wake": 3472,
      "couch": 3473,
      "Grandma": 3474,
      "Jefferson": 3475,
      "THE": 3476,
      "Girls": 3477,
      "Female": 3478,
      "Buddha": 3479,
      "Cait": 3480,
      "Voice": 3481,
      "filled": 3482,
      "glo": 3483,
      "ih": 3484,
      "pi": 3485,
      "sna": 3486,
      "level": 3487,
      "belong": 3488,
      "adow": 3489,
      "device": 3490,
      "master": 3491,
      "iled": 3492,
      "ensive": 3493,
      "cost": 3494,
      "Rebec": 3495,
      "Hooray": 3496,
      "Male": 3497,
      "older": 3498,
      "public": 3499,
      "motion": 3500,
      "birthday": 3501,
      "jacket": 3502,
      "includ": 3503,
      "Rebecca": 3504,
      "BC": 3505,
      "Jon": 3506,
      "barr": 3507,
      "dry": 3508,
      "rally": 3509,
      "rect": 3510,
      "arrest": 3511,
      "llins": 3512,
      "below": 3513,
      "chin": 3514,
      "demon": 3515,
      "noon": 3516,
      "umbles": 3517,
      "cheering": 3518,
      "wrote": 3519,
      "workers": 3520,
      "Brid": 3521,
      "Remember": 3522,
      "months": 3523,
      "Collins": 3524,
      "cares": 3525,
      "Deck": 3526,
      "fix": 3527,
      "film": 3528,
      "bastards": 3529,
      "further": 3530,
      "North": 3531,
      "Hindsight": 3532,
      "30": 3533,
      "Old": 3534,
      "Opr": 3535,
      "ale": 3536,
      "den": 3537,
      "rey": 3538,
      "ened": 3539,
      "eds": 3540,
      "ustr": 3541,
      "unte": 3542,
      "gettin": 3543,
      "plat": 3544,
      "residence": 3545,
      "community": 3546,
      "cru": 3547,
      "perform": 3548,
      "jobs": 3549,
      "apping": 3550,
      "Thompson": 3551,
      "direct": 3552,
      "ticket": 3553,
      "Oprah": 3554,
      "Call": 3555,
      "Even": 3556,
      "Jacks": 3557,
      "Mall": 3558,
      "Over": 3559,
      "Oho": 3560,
      "Sn": 3561,
      "York": 3562,
      "boun": 3563,
      "cas": 3564,
      "lit": 3565,
      "pies": 3566,
      "sug": 3567,
      "wrest": 3568,
      "zes": 3569,
      "ache": 3570,
      "ching": 3571,
      "tered": 3572,
      "wakes": 3573,
      "worker": 3574,
      "rules": 3575,
      "Real": 3576,
      "Coach": 3577,
      "finishes": 3578,
      "guns": 3579,
      "winks": 3580,
      "shuts": 3581,
      "colate": 3582,
      "aura": 3583,
      "retard": 3584,
      "Human": 3585,
      "carrying": 3586,
      "Murphy": 3587,
      "marijuana": 3588,
      "Jackson": 3589,
      "Crunch": 3590,
      "Jenny": 3591,
      "Pu": 3592,
      "fake": 3593,
      "ito": 3594,
      "ald": 3595,
      "choo": 3596,
      "Heather": 3597,
      "somehow": 3598,
      "trick": 3599,
      "prove": 3600,
      "screaming": 3601,
      "clears": 3602,
      "Franc": 3603,
      "Crowe": 3604,
      "share": 3605,
      "whispers": 3606,
      "ladder": 3607,
      "twice": 3608,
      "Amazon": 3609,
      "ceptionist": 3610,
      "Cal": 3611,
      "Woohoo": 3612,
      "ax": 3613,
      "ease": 3614,
      "gang": 3615,
      "punch": 3616,
      "tour": 3617,
      "vio": 3618,
      "esy": 3619,
      "vest": 3620,
      "stopped": 3621,
      "oods": 3622,
      "chase": 3623,
      "Someone": 3624,
      "legal": 3625,
      "hurry": 3626,
      "incred": 3627,
      "Help": 3628,
      "Francis": 3629,
      "Cher": 3630,
      "Hum": 3631,
      "Judge": 3632,
      "Luc": 3633,
      "block": 3634,
      "cig": 3635,
      "cult": 3636,
      "ek": 3637,
      "organ": 3638,
      "adio": 3639,
      "moon": 3640,
      "Ohh": 3641,
      "ended": 3642,
      "claps": 3643,
      "handle": 3644,
      "Goddamnit": 3645,
      "Both": 3646,
      "built": 3647,
      "Brown": 3648,
      "Reiner": 3649,
      "Make": 3650,
      "born": 3651,
      "cops": 3652,
      "smoke": 3653,
      "smell": 3654,
      "Caitlyn": 3655,
      "BI": 3656,
      "Bi": 3657,
      "FO": 3658,
      "Law": 3659,
      "Sar": 3660,
      "cil": 3661,
      "cook": 3662,
      "equ": 3663,
      "fro": 3664,
      "ius": 3665,
      "pill": 3666,
      "vies": 3667,
      "antly": 3668,
      "cons": 3669,
      "players": 3670,
      "Howard": 3671,
      "ueer": 3672,
      "monkey": 3673,
      "glances": 3674,
      "feels": 3675,
      "talkin": 3676,
      "Robert": 3677,
      "Jewish": 3678,
      "United": 3679,
      "dreidel": 3680,
      "Space": 3681,
      "Security": 3682,
      "kisses": 3683,
      "knees": 3684,
      "Scouts": 3685,
      "Lam": 3686,
      "NN": 3687,
      "gain": 3688,
      "nine": 3689,
      "various": 3690,
      "anchor": 3691,
      "ato": 3692,
      "tha": 3693,
      "staff": 3694,
      "wipes": 3695,
      "shitty": 3696,
      "locked": 3697,
      "movies": 3698,
      "plac": 3699,
      "soc": 3700,
      "stomach": 3701,
      "saved": 3702,
      "brain": 3703,
      "ouses": 3704,
      "Uhh": 3705,
      "spec": 3706,
      "prof": 3707,
      "drag": 3708,
      "Mexico": 3709,
      "terrorists": 3710,
      "pussy": 3711,
      "Patrick": 3712,
      "annoyed": 3713,
      "Deckter": 3714,
      "Aaah": 3715,
      "Hot": 3716,
      "Tre": 3717,
      "cries": 3718,
      "hoo": 3719,
      "accept": 3720,
      "addres": 3721,
      "dol": 3722,
      "urry": 3723,
      "tast": 3724,
      "crime": 3725,
      "angle": 3726,
      "Annie": 3727,
      "nerv": 3728,
      "Canadians": 3729,
      "signs": 3730,
      "freak": 3731,
      "honor": 3732,
      "direction": 3733,
      "surprise": 3734,
      "hung": 3735,
      "psych": 3736,
      "victim": 3737,
      "Hoh": 3738,
      "Hav": 3739,
      "LA": 3740,
      "Music": 3741,
      "Manson": 3742,
      "Sw": 3743,
      "Trent": 3744,
      "Washing": 3745,
      "fest": 3746,
      "pleased": 3747,
      "meant": 3748,
      "aged": 3749,
      "abort": 3750,
      "ional": 3751,
      "guitar": 3752,
      "program": 3753,
      "coach": 3754,
      "pray": 3755,
      "afternoon": 3756,
      "swings": 3757,
      "surv": 3758,
      "Love": 3759,
      "general": 3760,
      "study": 3761,
      "smoking": 3762,
      "facing": 3763,
      "pirate": 3764,
      "sandwich": 3765,
      "elderly": 3766,
      "announce": 3767,
      "Soldier": 3768,
      "Bridon": 3769,
      "Bush": 3770,
      "Easter": 3771,
      "Jason": 3772,
      "Kill": 3773,
      "Roman": 3774,
      "Sl": 3775,
      "Sand": 3776,
      "Van": 3777,
      "Wuh": 3778,
      "aides": 3779,
      "coo": 3780,
      "hill": 3781,
      "nn": 3782,
      "oc": 3783,
      "sat": 3784,
      "zen": 3785,
      "ert": 3786,
      "online": 3787,
      "yours": 3788,
      "plast": 3789,
      "fear": 3790,
      "butth": 3791,
      "ular": 3792,
      "Check": 3793,
      "talked": 3794,
      "opening": 3795,
      "grounded": 3796,
      "Maury": 3797,
      "arrow": 3798,
      "medic": 3799,
      "priest": 3800,
      "Indian": 3801,
      "Perhaps": 3802,
      "including": 3803,
      "Este": 3804,
      "Fin": 3805,
      "Honey": 3806,
      "Lisa": 3807,
      "Laura": 3808,
      "Mary": 3809,
      "Sto": 3810,
      "Singer": 3811,
      "Sometimes": 3812,
      "bon": 3813,
      "fal": 3814,
      "prison": 3815,
      "sort": 3816,
      "tac": 3817,
      "reme": 3818,
      "icy": 3819,
      "becomes": 3820,
      "admit": 3821,
      "lion": 3822,
      "hob": 3823,
      "taps": 3824,
      "unk": 3825,
      "conom": 3826,
      "expect": 3827,
      "spread": 3828,
      "shed": 3829,
      "Marcus": 3830,
      "trip": 3831,
      "ancy": 3832,
      "ancher": 3833,
      "Something": 3834,
      "Att": 3835,
      "grader": 3836,
      "craft": 3837,
      "bowl": 3838,
      "animals": 3839,
      "favorite": 3840,
      "Washington": 3841,
      "Ac": 3842,
      "Bab": 3843,
      "Best": 3844,
      "CH": 3845,
      "Evil": 3846,
      "GO": 3847,
      "Nooo": 3848,
      "Spie": 3849,
      "gift": 3850,
      "vir": 3851,
      "toy": 3852,
      "stit": 3853,
      "omon": 3854,
      "social": 3855,
      "grat": 3856,
      "spend": 3857,
      "written": 3858,
      "rubs": 3859,
      "flute": 3860,
      "Holly": 3861,
      "singer": 3862,
      "strap": 3863,
      "followed": 3864,
      "streets": 3865,
      "drinking": 3866,
      "Martin": 3867,
      "Spiel": 3868,
      "EE": 3869,
      "Em": 3870,
      "Hm": 3871,
      "Jack": 3872,
      "Ming": 3873,
      "Mother": 3874,
      "Mint": 3875,
      "Paul": 3876,
      "Troll": 3877,
      "foo": 3878,
      "tough": 3879,
      "enjo": 3880,
      "ites": 3881,
      "ican": 3882,
      "assem": 3883,
      "rocket": 3884,
      "boss": 3885,
      "hologram": 3886,
      "oph": 3887,
      "loc": 3888,
      "poster": 3889,
      "turning": 3890,
      "quit": 3891,
      "Channel": 3892,
      "cloud": 3893,
      "blind": 3894,
      "slaps": 3895,
      "flat": 3896,
      "Offic": 3897,
      "Poof": 3898,
      "Thanksgiving": 3899,
      "micro": 3900,
      "magic": 3901,
      "statue": 3902,
      "Hollywood": 3903,
      "Spielberg": 3904,
      "Afr": 3905,
      "Aaaaa": 3906,
      "Ger": 3907,
      "bird": 3908,
      "dar": 3909,
      "frog": 3910,
      "hunt": 3911,
      "iP": 3912,
      "pit": 3913,
      "sian": 3914,
      "sled": 3915,
      "wow": 3916,
      "ita": 3917,
      "stro": 3918,
      "aret": 3919,
      "hop": 3920,
      "deb": 3921,
      "aper": 3922,
      "feed": 3923,
      "hasn": 3924,
      "proper": 3925,
      "spin": 3926,
      "emot": 3927,
      "perhaps": 3928,
      "cave": 3929,
      "miwinks": 3930,
      "inky": 3931,
      "rrrr": 3932,
      "obvious": 3933,
      "interesting": 3934,
      "Chinpokomon": 3935,
      "Lucas": 3936,
      "Aunt": 3937,
      "Bed": 3938,
      "Hang": 3939,
      "Pil": 3940,
      "WH": 3941,
      "jaw": 3942,
      "vom": 3943,
      "yee": 3944,
      "reg": 3945,
      "reli": 3946,
      "threat": 3947,
      "itself": 3948,
      "kept": 3949,
      "lier": 3950,
      "sobbing": 3951,
      "lame": 3952,
      "pajam": 3953,
      "Moses": 3954,
      "ference": 3955,
      "success": 3956,
      "Dammit": 3957,
      "ibly": 3958,
      "husband": 3959,
      "dangerous": 3960,
      "Estella": 3961,
      "pajamas": 3962,
      "AS": 3963,
      "By": 3964,
      "FC": 3965,
      "IV": 3966,
      "Night": 3967,
      "Oo": 3968,
      "Pa": 3969,
      "Ron": 3970,
      "Singers": 3971,
      "Up": 3972,
      "cand": 3973,
      "nu": 3974,
      "national": 3975,
      "oid": 3976,
      "ssed": 3977,
      "tight": 3978,
      "ture": 3979,
      "hearing": 3980,
      "reco": 3981,
      "atch": 3982,
      "stares": 3983,
      "edge": 3984,
      "tering": 3985,
      "decor": 3986,
      "felt": 3987,
      "pole": 3988,
      "comedy": 3989,
      "embarr": 3990,
      "Manager": 3991,
      "Blaine": 3992,
      "mask": 3993,
      "corpor": 3994,
      "iker": 3995,
      "stays": 3996,
      "Community": 3997,
      "compet": 3998,
      "Sea": 3999,
      "AND": 4000,
      "grandpa": 4001,
      "promise": 4002,
      "destroy": 4003,
      "Service": 4004,
      "practice": 4005,
      "Gobbles": 4006,
      "soul": 4007,
      "opposite": 4008,
      "WW": 4009,
      "ec": 4010,
      "fool": 4011,
      "hour": 4012,
      "jar": 4013,
      "piss": 4014,
      "ism": 4015,
      "isham": 4016,
      "esar": 4017,
      "arts": 4018,
      "terri": 4019,
      "defin": 4020,
      "tears": 4021,
      "berries": 4022,
      "speaking": 4023,
      "loved": 4024,
      "Everybody": 4025,
      "burn": 4026,
      "parade": 4027,
      "remain": 4028,
      "assholes": 4029,
      "joined": 4030,
      "sleeping": 4031,
      "Janus": 4032,
      "Townsman": 4033,
      "snake": 4034,
      "cigaret": 4035,
      "Havisham": 4036,
      "Die": 4037,
      "James": 4038,
      "Native": 4039,
      "OC": 4040,
      "Os": 4041,
      "Power": 4042,
      "Sr": 4043,
      "Sy": 4044,
      "Tammy": 4045,
      "XBox": 4046,
      "craw": 4047,
      "ears": 4048,
      "lower": 4049,
      "marri": 4050,
      "pours": 4051,
      "rep": 4052,
      "llow": 4053,
      "hah": 4054,
      "tracks": 4055,
      "Should": 4056,
      "eeee": 4057,
      "emer": 4058,
      "Think": 4059,
      "disease": 4060,
      "Screw": 4061,
      "pressed": 4062,
      "Bron": 4063,
      "pulling": 4064,
      "Club": 4065,
      "babe": 4066,
      "drone": 4067,
      "Uncle": 4068,
      "Protes": 4069,
      "peeks": 4070,
      "Peru": 4071,
      "soldiers": 4072,
      "hugs": 4073,
      "sneak": 4074,
      "Travis": 4075,
      "Bradley": 4076,
      "Lemmiwinks": 4077,
      "gratul": 4078,
      "Cesar": 4079,
      "Funny": 4080,
      "Jones": 4081,
      "Try": 4082,
      "Yel": 4083,
      "fists": 4084,
      "ka": 4085,
      "kni": 4086,
      "ume": 4087,
      "wards": 4088,
      "orman": 4089,
      "stuck": 4090,
      "imm": 4091,
      "forms": 4092,
      "nowhere": 4093
    },
    "merges": [
      "h e",
      "a n",
      "i n",
      "t he",
      "o u",
      "r e",
      "e r",
      "o n",
      "a r",
      "a t",
      "i s",
      "t o",
      "t h",
      "l e",
      "an d",
      "in g",
      "l l",
      "e n",
      "e s",
      "i t",
      "o r",
      "y ou",
      "s t",
      "o w",
      "o m",
      "s e",
      "o f",
      "a y",
      "a l",
      "ar t",
      "i c",
      "a s",
      "v e",
      "m an",
      "a c",
      "b e",
      "o o",
      "i d",
      "u t",
      "g h",
      "i m",
      "k e",
      "S t",
      "C art",
      "Cart man",
      "a d",
      "a ll",
      "w e",
      "e d",
      "e t",
      "o t",
      "T he",
      "h a",
      "r i",
      "h at",
      "t er",
      "y le",
      "St an",
      "K yle",
      "h is",
      "ou t",
      "v er",
      "d o",
      "w i",
      "a re",
      "c h",
      "u p",
      "r o",
      "gh t",
      "m e",
      "l d",
      "th at",
      "k s",
      "om e",
      "s h",
      "l i",
      "n d",
      "i r",
      "f or",
      "wi th",
      "a m",
      "b o",
      "l y",
      "u r",
      "H e",
      "W e",
      "on e",
      "n e",
      "n ow",
      "en t",
      "u s",
      "g o",
      "m y",
      "h o",
      "t a",
      "Y ou",
      "u st",
      "u n",
      "B ut",
      "p e",
      "a g",
      "ter s",
      "a b",
      "ha ve",
      "the r",
      "o p",
      "d e",
      "a p",
      "g et",
      "M r",
      "ac k",
      "i on",
      "c an",
      "th is",
      "l o",
      "m o",
      "l oo",
      "h im",
      "y s",
      "O h",
      "a h",
      "But ters",
      "j ust",
      "c e",
      "f r",
      "w ay",
      "he re",
      "ri ght",
      "ow n",
      "you r",
      "r y",
      "w hat",
      "r is",
      "and y",
      "er s",
      "s ome",
      "R andy",
      "ar d",
      "p l",
      "ou nd",
      "t s",
      "in d",
      "id e",
      "n a",
      "of f",
      "th ing",
      "ou r",
      "W hat",
      "n o",
      "s o",
      "i ll",
      "i g",
      "n ot",
      "k ing",
      "en d",
      "i l",
      "n y",
      "p s",
      "f e",
      "a u",
      "w al",
      "ou ld",
      "b ack",
      "ver y",
      "k now",
      "d on",
      "he r",
      "re s",
      "g u",
      "I t",
      "e ah",
      "i e",
      "a in",
      "b ut",
      "t e",
      "i ght",
      "an t",
      "u c",
      "fr om",
      "all y",
      "the n",
      "li ke",
      "u m",
      "the y",
      "w as",
      "g r",
      "m a",
      "o ther",
      "o ver",
      "t ur",
      "e p",
      "en ny",
      "p o",
      "w or",
      "v es",
      "K enny",
      "c om",
      "d ay",
      "c on",
      "ic e",
      "ab out",
      "as s",
      "r a",
      "d own",
      "i f",
      "the m",
      "i p",
      "Y eah",
      "N o",
      "g ot",
      "se e",
      "tur n",
      "s to",
      "e l",
      "the re",
      "th in",
      "c he",
      "ar k",
      "bo ys",
      "k ay",
      "in s",
      "g e",
      "wal ks",
      "G o",
      "op le",
      "o l",
      "on g",
      "b le",
      "u re",
      "le a",
      "We ll",
      "oo d",
      "ic k",
      "u h",
      "G ar",
      "it t",
      "w h",
      "in to",
      "on na",
      "A nd",
      "t im",
      "b y",
      "g onna",
      "a way",
      "q u",
      "an y",
      "t r",
      "do or",
      "ris on",
      "w ho",
      "pe ople",
      "C h",
      "e x",
      "ar ound",
      "ac e",
      "ro om",
      "Gar rison",
      "i le",
      "h as",
      "s c",
      "loo ks",
      "p ro",
      "es t",
      "f f",
      "k es",
      "e very",
      "T hat",
      "i ve",
      "he n",
      "a st",
      "ar s",
      "k id",
      "thin k",
      "oo l",
      "S h",
      "s a",
      "d y",
      "u l",
      "c ome",
      "b r",
      "f o",
      "d id",
      "in e",
      "J im",
      "S he",
      "he ad",
      "the ir",
      "turn s",
      "es s",
      "tim e",
      "c r",
      "an s",
      "ag ain",
      "ou th",
      "ou gh",
      "ke y",
      "mo re",
      "w ant",
      "c l",
      "is t",
      "ou se",
      "s s",
      "h and",
      "at e",
      "v en",
      "He y",
      "loo k",
      "gu ys",
      "se d",
      "s ay",
      "w o",
      "pl ay",
      "u de",
      "ou n",
      "at ion",
      "uc k",
      "m ent",
      "re e",
      "Go d",
      "itt le",
      "an g",
      "au se",
      "v ing",
      "le t",
      "st and",
      "P ark",
      "b l",
      "ac h",
      "ne ed",
      "go ing",
      "s p",
      "s ide",
      "c t",
      "p p",
      "i en",
      "it s",
      "ou s",
      "p ut",
      "The y",
      "th r",
      "l ittle",
      "h ouse",
      "re d",
      "b er",
      "u ll",
      "c k",
      "C he",
      "r in",
      "r un",
      "i an",
      "to w",
      "w a",
      "re n",
      "u d",
      "to r",
      "ow s",
      "s he",
      "ne w",
      "S outh",
      "he s",
      "an ce",
      "re ally",
      "a a",
      "st art",
      "en s",
      "t ing",
      "wi ll",
      "to o",
      "t ry",
      "B e",
      "ma ke",
      "bo dy",
      "T his",
      "ta ke",
      "er al",
      "kid s",
      "i ld",
      "re ad",
      "A ll",
      "h ow",
      "se l",
      "u nd",
      "oo k",
      "t al",
      "e e",
      "c ause",
      "e m",
      "ar on",
      "i es",
      "ac t",
      "it y",
      "li e",
      "ag e",
      "c o",
      "Che f",
      "Sh aron",
      "p er",
      "U h",
      "le d",
      "T h",
      "f t",
      "A A",
      "t wo",
      "ch ool",
      "O kay",
      "ri end",
      "t y",
      "be en",
      "w at",
      "s m",
      "re at",
      "w here",
      "D o",
      "be g",
      "j o",
      "c lo",
      "S o",
      "do es",
      "I n",
      "ar m",
      "g ood",
      "l s",
      "le s",
      "n ight",
      "M ac",
      "sh ould",
      "s chool",
      "Jim my",
      "B o",
      "M an",
      "h h",
      "w an",
      "it e",
      "Y es",
      "W h",
      "p h",
      "w ould",
      "r ic",
      "Mac key",
      "G eral",
      "a k",
      "c a",
      "he l",
      "are n",
      "p or",
      "f riend",
      "H ow",
      "W end",
      "Geral d",
      "N ow",
      "ke d",
      "Wend y",
      "A n",
      "om an",
      "ta kes",
      "c ould",
      "le ft",
      "sh ow",
      "m er",
      "get s",
      "A l",
      "te ll",
      "Ch ris",
      "on t",
      "fo re",
      "i re",
      "rin c",
      "go es",
      "we e",
      "thr ough",
      "u e",
      "The re",
      "a w",
      "ar y",
      "s on",
      "e ven",
      "y e",
      "some thing",
      "w hen",
      "C ome",
      "i al",
      "d am",
      "x t",
      "be t",
      "ha pp",
      "w r",
      "s pe",
      "und er",
      "J es",
      "b u",
      "p r",
      "ad e",
      "T im",
      "ic h",
      "Jes us",
      "g ir",
      "sel f",
      "d is",
      "ol k",
      "M ay",
      "W ho",
      "an k",
      "b it",
      "we re",
      "he ll",
      "ard s",
      "every one",
      "ne xt",
      "do ing",
      "wor k",
      "m om",
      "a ir",
      "c ar",
      "h ind",
      "is s",
      "rinc ip",
      "r u",
      "p ic",
      "rincip al",
      "g a",
      "s l",
      "fr ont",
      "ent s",
      "st e",
      "f ace",
      "S c",
      "E ric",
      "b all",
      "e ver",
      "p re",
      "ing s",
      "f l",
      "M y",
      "ho ld",
      "at h",
      "at er",
      "au gh",
      "e w",
      "u ch",
      "o h",
      "st ill",
      "s ure",
      "me an",
      "lea se",
      "ch ild",
      "hel p",
      "h ad",
      "ap pe",
      "wa it",
      "n ing",
      "C ra",
      "be hind",
      "M ar",
      "c am",
      "T olk",
      "Tolk ien",
      "D ude",
      "p res",
      "Cra ig",
      "sto p",
      "wee k",
      "y es",
      "L et",
      "wan na",
      "o kay",
      "C an",
      "ll y",
      "b ig",
      "tow n",
      "bo y",
      "on ly",
      "c er",
      "id ent",
      "i z",
      "D on",
      "or ry",
      "is h",
      "re st",
      "sc re",
      "beg ins",
      "P rincipal",
      "che s",
      "wal k",
      "B r",
      "we ll",
      "s es",
      "p ull",
      "m en",
      "d ude",
      "Wh y",
      "R e",
      "ir st",
      "c ha",
      "on d",
      "a f",
      "h ome",
      "op ens",
      "con t",
      "an other",
      "c tor",
      "f ind",
      "one y",
      "p le",
      "or d",
      "u ff",
      "at es",
      "m on",
      "s k",
      "ic er",
      "me m",
      "i gh",
      "r ance",
      "C ly",
      "Cly de",
      "ow d",
      "sa id",
      "I ke",
      "did n",
      "con d",
      "ke t",
      "I f",
      "l augh",
      "a v",
      "St ep",
      "Mr s",
      "be ing",
      "ta ble",
      "s er",
      "Chris t",
      "d es",
      "g l",
      "g er",
      "ad y",
      "wat ch",
      "t on",
      "ou ght",
      "be cause",
      "as h",
      "p art",
      "s up",
      "ian e",
      "L iane",
      "Step hen",
      "C o",
      "er a",
      "run s",
      "hand s",
      "f in",
      "l ong",
      "be d",
      "sh ot",
      "th an",
      "P h",
      "Jim bo",
      "O ff",
      "re al",
      "lo ve",
      "il a",
      "sto ps",
      "c all",
      "up id",
      "t ri",
      "u se",
      "com es",
      "She ila",
      "n er",
      "ac hes",
      "e ach",
      "be fore",
      "o se",
      "wh y",
      "at t",
      "ne ver",
      "g i",
      "B ar",
      "L ook",
      "l ater",
      "se t",
      "g ive",
      "an c",
      "p aren",
      "l ot",
      "He ll",
      "po in",
      "wh ile",
      "m in",
      "d ri",
      "f irst",
      "sh o",
      "Al right",
      "ap pro",
      "b us",
      "i ly",
      "w ind",
      "c oun",
      "li ght",
      "y eah",
      "D r",
      "fe el",
      "c le",
      "fo ll",
      "g reat",
      "ot t",
      "i ous",
      "f un",
      "T e",
      "be lie",
      "T week",
      "s orry",
      "at ed",
      "cam era",
      "the se",
      "a ther",
      "n ed",
      "tal k",
      "H o",
      "op en",
      "read y",
      "p ers",
      "M s",
      "m ay",
      "ro ll",
      "l a",
      "at ing",
      "m uch",
      "en ter",
      "cr owd",
      "cl ass",
      "ins ide",
      "A w",
      "appe ars",
      "J ust",
      "u b",
      "T er",
      "bet ter",
      "child ren",
      "May or",
      "c ial",
      "s ing",
      "does n",
      "ta in",
      "ph one",
      "mo ves",
      "se cond",
      "pull s",
      "E very",
      "pl ace",
      "por t",
      "is n",
      "v ie",
      "b re",
      "m or",
      "sh own",
      "th ree",
      "loo king",
      "M c",
      "P C",
      "af ter",
      "v in",
      "c al",
      "k ind",
      "D ad",
      "Off icer",
      "le ad",
      "tow ards",
      "P res",
      "th ose",
      "lea ves",
      "got ta",
      "mo st",
      "T om",
      "fe w",
      "b ab",
      "m oney",
      "B l",
      "m ade",
      "o ice",
      "paren ts",
      "c are",
      "mo ve",
      "gr ound",
      "M om",
      "m m",
      "b ro",
      "id i",
      "Tim my",
      "u g",
      "H a",
      "p an",
      "ig n",
      "ow e",
      "get ting",
      "Ter rance",
      "d ro",
      "s it",
      "wor ld",
      "ar ing",
      "ro ss",
      "ke ep",
      "f uck",
      "happ en",
      "belie ve",
      "st r",
      "start s",
      "st er",
      "thing s",
      "Pres ident",
      "k ill",
      "lea ve",
      "m ust",
      "M a",
      "w oman",
      "s of",
      "e yes",
      "l ast",
      "f all",
      "l ist",
      "he ard",
      "p a",
      "out side",
      "R o",
      "st upid",
      "s y",
      "le ss",
      "le n",
      "is e",
      "an ge",
      "p t",
      "b ad",
      "wind ow",
      "Hell o",
      "m at",
      "us ic",
      "C l",
      "wh ich",
      "He idi",
      "pic t",
      "ion s",
      "st re",
      "pl an",
      "f our",
      "oo t",
      "G et",
      "put s",
      "mem ber",
      "ar ri",
      "Ph ill",
      "try ing",
      "stand s",
      "at or",
      "f lo",
      "un t",
      "th ought",
      "c ks",
      "ut e",
      "f am",
      "any thing",
      "A mer",
      "ac es",
      "p lease",
      "s its",
      "sh it",
      "c re",
      "m as",
      "Amer ic",
      "ste ps",
      "M e",
      "Phill ip",
      "o ld",
      "et er",
      "m i",
      "friend s",
      "a it",
      "br ady",
      "Bar brady",
      "am a",
      "u ally",
      "to p",
      "under stand",
      "b s",
      "F r",
      "gir ls",
      "gir l",
      "M ic",
      "o s",
      "v is",
      "se en",
      "d i",
      "ment ary",
      "n oun",
      "b a",
      "st ud",
      "qu ick",
      "W oman",
      "li fe",
      "un ch",
      "Sc ott",
      "ab le",
      "E le",
      "es e",
      "b ur",
      "en ters",
      "m s",
      "l and",
      "G r",
      "l ine",
      "ac ks",
      "m usic",
      "ap p",
      "K e",
      "s i",
      "gu y",
      "to ld",
      "He re",
      "at s",
      "com ing",
      "le y",
      "scre en",
      "ar r",
      "I s",
      "f ight",
      "D an",
      "c or",
      "d res",
      "way s",
      "Ele mentary",
      "T V",
      "bo x",
      "O n",
      "S at",
      "f at",
      "w ard",
      "ge ther",
      "tal king",
      "h uh",
      "wr ong",
      "T o",
      "h ard",
      "G u",
      "ien ce",
      "ou p",
      "C r",
      "him self",
      "play ing",
      "pre t",
      "c ool",
      "Mar sh",
      "arm s",
      "na me",
      "0 0",
      "s w",
      "w on",
      "to gether",
      "c ur",
      "cha ir",
      "st uff",
      "W here",
      "c ut",
      "se es",
      "wor d",
      "every thing",
      "f ul",
      "ind a",
      "gu ess",
      "Be be",
      "pro ble",
      "D e",
      "B ill",
      "L inda",
      "Can ad",
      "A re",
      "M o",
      "N ew",
      "ma kes",
      "m ight",
      "p ass",
      "g un",
      "s ur",
      "AA AA",
      "li ve",
      "el se",
      "R ed",
      "h u",
      "pers on",
      "L o",
      "W ait",
      "for m",
      "d r",
      "do ll",
      "H uh",
      "ab s",
      "foll ow",
      "i a",
      "S ome",
      "b est",
      "s ound",
      "She lly",
      "w in",
      "li ving",
      "n ice",
      "v oice",
      "d one",
      "i ke",
      "ic to",
      "off ice",
      "no thing",
      "W ow",
      "k en",
      "s ign",
      "ow er",
      "sh ows",
      "ri es",
      "appro aches",
      "list en",
      "i o",
      "b ook",
      "G ood",
      "i k",
      "The n",
      "c our",
      "ing er",
      "cont in",
      "j um",
      "ot e",
      "sm ile",
      "st age",
      "po l",
      "H an",
      "ans w",
      "s ha",
      "st ay",
      "l er",
      "r ow",
      "en e",
      "stre et",
      "fam ily",
      "P e",
      "P o",
      "s we",
      "f ull",
      "h all",
      "may be",
      "L e",
      "t ly",
      "u es",
      "flo or",
      "ra w",
      "f ire",
      "pict ure",
      "hold s",
      "noun cer",
      "u sed",
      "le ar",
      "ic es",
      "ga me",
      "poin ts",
      "w w",
      "Ch in",
      "p ie",
      "Sat an",
      "m outh",
      "he d",
      "de ad",
      "clo ses",
      "c at",
      "ic ks",
      "cr ap",
      "dam n",
      "bit ch",
      "he ar",
      "to day",
      "en ough",
      "You r",
      "J oh",
      "or t",
      "V icto",
      "b and",
      "ri a",
      "Christ mas",
      "bo ard",
      "vie w",
      "v ide",
      "ie ld",
      "sm all",
      "Do ctor",
      "O O",
      "g y",
      "um b",
      "E x",
      "s ong",
      "w all",
      "Every one",
      "pret ty",
      "J ew",
      "to t",
      "au d",
      "who le",
      "Victo ria",
      "P lease",
      "f uc",
      "say s",
      "act ually",
      "ex t",
      "A h",
      "J o",
      "An nouncer",
      "h ang",
      "Joh n",
      "e v",
      "Han key",
      "b ar",
      "h or",
      "e ar",
      "s n",
      "an ks",
      "beg in",
      "m ed",
      "id es",
      "other s",
      "Mic ha",
      "gr oup",
      "Micha el",
      "ide a",
      "d ad",
      "p op",
      "bo th",
      "new s",
      "p en",
      "dro ps",
      "T wo",
      "we l",
      "fall s",
      "m ar",
      "ld er",
      "fe ren",
      "g ay",
      "bu ild",
      "l ar",
      "p ing",
      "A s",
      "sup po",
      "quick ly",
      "A t",
      "in k",
      "ha ving",
      "b oo",
      "l ow",
      "ma king",
      "r r",
      "c us",
      "s ir",
      "am s",
      "i et",
      "are d",
      "j e",
      "sh ut",
      "des k",
      "N ot",
      "bl ack",
      "Co on",
      "re c",
      "on to",
      "d if",
      "i th",
      "D id",
      "ud d",
      "C on",
      "g ent",
      "m it",
      "in t",
      "say ing",
      "se x",
      "al s",
      "lo ck",
      "E l",
      "P ip",
      "S an",
      "T owe",
      "g en",
      "m iss",
      "on s",
      "Towe lie",
      "k no",
      "l ing",
      "p ar",
      "d uc",
      "i er",
      "it che",
      "F or",
      "p ap",
      "oo oo",
      "am p",
      "i v",
      "f ree",
      "al ong",
      "ch ange",
      "head s",
      "cal led",
      "le g",
      "tim es",
      "Be cause",
      "s le",
      "ne ar",
      "Y ates",
      "me et",
      "wat er",
      "f ound",
      "T r",
      "O ne",
      "u sh",
      "ball s",
      "proble m",
      "Dan ie",
      "unt il",
      "n et",
      "u res",
      "it ch",
      "ap s",
      "St e",
      "et e",
      "pol ice",
      "al ways",
      "Th anks",
      "ca me",
      "h ur",
      "en ce",
      "C om",
      "U n",
      "i ps",
      "sa me",
      "ct ion",
      "fuc king",
      "Bo y",
      "Who a",
      "c ol",
      "w ent",
      "air s",
      "watch ing",
      "br ing",
      "n g",
      "play s",
      "ta king",
      "any more",
      "m ind",
      "ro l",
      "he y",
      "fin ally",
      "mat ter",
      "itt ing",
      "t en",
      "re aches",
      "Th ank",
      "d ie",
      "f ine",
      "ha ir",
      "vide o",
      "suppo sed",
      "Danie ls",
      "e at",
      "us hes",
      "P r",
      "c ou",
      "f art",
      "in ter",
      "d er",
      "p ast",
      "thr ows",
      "s uc",
      "ac her",
      "clo se",
      "se at",
      "for ward",
      "W hen",
      "de al",
      "d re",
      "f i",
      "on ce",
      "il led",
      "tri es",
      "r ings",
      "be ll",
      "a ke",
      "is ts",
      "or m",
      "Mc Daniels",
      "loo d",
      "gr abs",
      "com p",
      "bre ak",
      "K id",
      "R ep",
      "a ks",
      "st airs",
      "R ight",
      "ve d",
      "H ar",
      "p ay",
      "sel ves",
      "again st",
      "May be",
      "happen ed",
      "D am",
      "f li",
      "w ar",
      "ent ion",
      "ex c",
      "H is",
      "on es",
      "ce pt",
      "off ic",
      "door s",
      "f ive",
      "coun try",
      "S p",
      "g re",
      "r id",
      "aud ience",
      "Pe ople",
      "f ood",
      "ha ha",
      "sh ip",
      "aa aa",
      "spe cial",
      "al ready",
      "itche n",
      "u al",
      "ver s",
      "so on",
      "N ed",
      "too k",
      "pan ts",
      "S e",
      "h igh",
      "y a",
      "Gr and",
      "H i",
      "g g",
      "ac ross",
      "some one",
      "g as",
      "x i",
      "C ol",
      "c over",
      "itt y",
      "stud ents",
      "ir d",
      "fun ny",
      "contin ues",
      "d in",
      "we aring",
      "our s",
      "cour se",
      "n ess",
      "it ed",
      "al one",
      "dif feren",
      "h ot",
      "i ent",
      "end s",
      "want ed",
      "pres ent",
      "re member",
      "is ter",
      "bab y",
      "as on",
      "every body",
      "smile s",
      "oo o",
      "ag in",
      "d raw",
      "se ll",
      "ye ar",
      "er ing",
      "ir t",
      "Bo ys",
      "iz e",
      "San ta",
      "J e",
      "St even",
      "fr a",
      "min ute",
      "t ree",
      "ch o",
      "b or",
      "com put",
      "w ood",
      "is es",
      "i ble",
      "k itchen",
      "ou d",
      "ne y",
      "ye ars",
      "mor ning",
      "swe et",
      "d rin",
      "g one",
      "in ess",
      "foll ows",
      "pap er",
      "M ark",
      "M em",
      "b ot",
      "l t",
      "m ic",
      "y ing",
      "qu est",
      "wan ts",
      "ris es",
      "sof a",
      "B ig",
      "W or",
      "f ather",
      "poin t",
      "D av",
      "s u",
      "ou ble",
      "am es",
      "mo ther",
      "jo b",
      "re m",
      "as sho",
      "sa w",
      "sl ow",
      "ser ious",
      "p ri",
      "en n",
      "day s",
      "happ y",
      "roll s",
      "c es",
      "e f",
      "ac c",
      "id d",
      "c ry",
      "sh op",
      "Th om",
      "jo in",
      "pic ks",
      "with out",
      "a ur",
      "hat e",
      "gi ves",
      "we en",
      "N ext",
      "you ng",
      "C ar",
      "wait ing",
      "f ast",
      "st ri",
      "second s",
      "b ath",
      "ag er",
      "sc ene",
      "wh ite",
      "jum ps",
      "he art",
      "ho le",
      "wor king",
      "read s",
      "man y",
      "ile n",
      "k er",
      "s qu",
      "to ile",
      "wal king",
      "Bo b",
      "im e",
      "S ee",
      "f re",
      "ation s",
      "hold ing",
      "D en",
      "s uch",
      "ho pe",
      "r or",
      "s im",
      "sto re",
      "C ho",
      "e ating",
      "it al",
      "a king",
      "r ound",
      "ch ang",
      "ord er",
      "H all",
      "ath an",
      "h al",
      "p ain",
      "pe e",
      "sk i",
      "Ste ve",
      "b ag",
      "f aces",
      "s in",
      "O ur",
      "v ice",
      "ar ry",
      "che ck",
      "c ked",
      "f ish",
      "ing ers",
      "In ter",
      "om en",
      "ha m",
      "lo g",
      "as k",
      "fe ct",
      "p lo",
      "ve l",
      "ta ken",
      "thin ks",
      "comput er",
      "p oo",
      "z y",
      "ch ar",
      "anc es",
      "G en",
      "N O",
      "laugh s",
      "sup er",
      "mor row",
      "p ower",
      "be at",
      "not ices",
      "con f",
      "H at",
      "e le",
      "al right",
      "m ill",
      "re turns",
      "part y",
      "lead er",
      "W ill",
      "re t",
      "ma le",
      "ul t",
      "b ers",
      "bet ween",
      "si x",
      "m un",
      "to morrow",
      "ic al",
      "do g",
      "tr ue",
      "ul ts",
      "tot ally",
      "go in",
      "de c",
      "cont rol",
      "M ex",
      "f oot",
      "Ma xi",
      "s itting",
      "me ans",
      "some body",
      "wr it",
      "Americ a",
      "build ing",
      "cou ple",
      "c ross",
      "z e",
      "pe ct",
      "doll ars",
      "sle ep",
      "toile t",
      "Mex ic",
      "id ay",
      "lo v",
      "res p",
      "appe ar",
      "y et",
      "was n",
      "stand ing",
      "ho ps",
      "ie f",
      "Br of",
      "dres sed",
      "do ctor",
      "p ed",
      "in es",
      "th ank",
      "im port",
      "te acher",
      "Kid s",
      "W ith",
      "al so",
      "oo h",
      "Je ff",
      "Brof lov",
      "R ich",
      "i li",
      "i ther",
      "i ans",
      "s ilen",
      "w he",
      "en se",
      "ble s",
      "mom ent",
      "O ut",
      "b ull",
      "N e",
      "a ah",
      "light s",
      "Rep or",
      "C oun",
      "i b",
      "o b",
      "bus iness",
      "a ve",
      "v ol",
      "om et",
      "ad d",
      "ch or",
      "f le",
      "i tor",
      "ot s",
      "bath room",
      "St u",
      "answ er",
      "b lood",
      "f ly",
      "k illed",
      "h on",
      "l ay",
      "im es",
      "ad o",
      "wi fe",
      "gl ass",
      "S top",
      "a go",
      "es ome",
      "lar ge",
      "differen t",
      "P at",
      "c ap",
      "w his",
      "fe ll",
      "hall way",
      "T H",
      "read ing",
      "Mem ber",
      "O U",
      "r ing",
      "run ning",
      "Mar vin",
      "a il",
      "w ond",
      "C ap",
      "sh oo",
      "ang er",
      "hh h",
      "hal f",
      "I N",
      "b ra",
      "l aw",
      "gr id",
      "ba se",
      "import ant",
      "gr ad",
      "start ed",
      "pen is",
      "fra id",
      "Dav id",
      "N athan",
      "f ield",
      "k y",
      "your self",
      "t i",
      "al most",
      "ut ure",
      "mo vie",
      "Repor ter",
      "M ep",
      "c ra",
      "is sed",
      "Canad a",
      "Stu art",
      "Mep he",
      "J ap",
      "f ig",
      "p ark",
      "in c",
      "us ing",
      "In side",
      "New s",
      "idd le",
      "Mephe sto",
      "S up",
      "i or",
      "te am",
      "el s",
      "assho le",
      "Jap an",
      "I nd",
      "a fraid",
      "m all",
      "t in",
      "t ed",
      "bu y",
      "grid y",
      "s ick",
      "s igh",
      "St r",
      "thin king",
      "Bl ack",
      "on y",
      "st u",
      "mom ents",
      "appro ach",
      "are s",
      "any one",
      "spe ak",
      "d umb",
      "z ing",
      "ic s",
      "lo st",
      "O r",
      "it ion",
      "ur se",
      "po ss",
      "ate ly",
      "i i",
      "r ushes",
      "qu iet",
      "ud ge",
      "Inter net",
      "c op",
      "arri ves",
      "A d",
      "B ack",
      "F uck",
      "S ure",
      "d ire",
      "w omen",
      "ho l",
      "gi ving",
      "slow ly",
      "P ro",
      "R us",
      "p es",
      "re por",
      "tr ans",
      "app ed",
      "M on",
      "gr ow",
      "com ple",
      "K im",
      "t ou",
      "ent rance",
      "No body",
      "sound s",
      "a se",
      "f inger",
      "p at",
      "ag es",
      "ga ther",
      "bro ther",
      "b as",
      "l ad",
      "m ess",
      "ro ad",
      "ang ry",
      "Rich ard",
      "c ity",
      "c ket",
      "k new",
      "k iss",
      "ca se",
      "Te gridy",
      "S pe",
      "tr u",
      "und red",
      "v an",
      "to m",
      "no body",
      "tr uck",
      "Americ an",
      "Broflov ski",
      "J an",
      "h i",
      "to ss",
      "wor ry",
      "a im",
      "c y",
      "s mo",
      "Stan ley",
      "A T",
      "S orry",
      "m ur",
      "ch ick",
      "E S",
      "am ing",
      "My ster",
      "ton ight",
      "Gen eral",
      "S ad",
      "Y e",
      "t ion",
      "bed room",
      "omet imes",
      "h undred",
      "r ide",
      "z z",
      "ra ises",
      "need s",
      "a me",
      "pop s",
      "A R",
      "a head",
      "g ar",
      "s uck",
      "se ts",
      "el son",
      "N elson",
      "n orm",
      "p ur",
      "re turn",
      "ce ll",
      "Sad dam",
      "G ir",
      "The se",
      "sa fe",
      "kno cks",
      "p ris",
      "pe z",
      "Col or",
      "S ir",
      "b ow",
      "b unch",
      "m ach",
      "at ive",
      "um p",
      "see ms",
      "che er",
      "ous and",
      "Le ad",
      "Q u",
      "c up",
      "g est",
      "h it",
      "if er",
      "than ks",
      "dri ve",
      "Ha ve",
      "Myster ion",
      "e ye",
      "le ts",
      "ver n",
      "pro duc",
      "sin ce",
      "P er",
      "R ick",
      "lead s",
      "Lo pez",
      "Str ong",
      "O b",
      "m ag",
      "er k",
      "il ing",
      "um ber",
      "cle ar",
      "fig ure",
      "G e",
      "f ac",
      "g an",
      "bl ow",
      "act ion",
      "mem bers",
      "A N",
      "c off",
      "cl im",
      "damn it",
      "Color ado",
      "m et",
      "p ack",
      "it ies",
      "ks ond",
      "po sit",
      "would n",
      "udd en",
      "Cho ksond",
      "Choksond ik",
      "F e",
      "O w",
      "p un",
      "we ar",
      "sto ry",
      "aw esome",
      "Ke vin",
      "cur ity",
      "Den ver",
      "comple te",
      "k ick",
      "pp ed",
      "ru g",
      "hu man",
      "E R",
      "M art",
      "M iss",
      "f uture",
      "p u",
      "he h",
      "to ry",
      "be come",
      "answ ers",
      "T own",
      "c enter",
      "h ours",
      "res s",
      "sp ital",
      "offic ers",
      "p ound",
      "in te",
      "ta ge",
      "sigh s",
      "A gent",
      "d ark",
      "k ne",
      "re port",
      "ri ble",
      "Ch ief",
      "comp any",
      "c ent",
      "f air",
      "m il",
      "u u",
      "any body",
      "tr ouble",
      "Wh ite",
      "att ention",
      "full y",
      "dre am",
      "C ity",
      "g ie",
      "s un",
      "but t",
      "che ers",
      "dri ver",
      "fart s",
      "P ete",
      "c ast",
      "st ick",
      "ri ed",
      "go vern",
      "off icer",
      "L oo",
      "b ing",
      "l im",
      "ri ver",
      "Chin ese",
      "1 0",
      "f ar",
      "as hes",
      "cle an",
      "enn ifer",
      "Thom as",
      "A r",
      "he e",
      "th ousand",
      "St re",
      "tri ed",
      "H er",
      "S la",
      "o v",
      "ut es",
      "ha ven",
      "go d",
      "che d",
      "Sh ut",
      "Re ally",
      "N A",
      "d ick",
      "e as",
      "h ood",
      "t ic",
      "y ard",
      "what ever",
      "so l",
      "gr am",
      "bab ly",
      "rec ord",
      "Grand pa",
      "coff ee",
      "n in",
      "t ra",
      "should er",
      "Japan ese",
      "A f",
      "I D",
      "g es",
      "l unch",
      "in al",
      "Bill y",
      "Sla ve",
      "D ay",
      "E lder",
      "L ord",
      "d ing",
      "or s",
      "ap pl",
      "thr ow",
      "vis ion",
      "a bo",
      "c ts",
      "st un",
      "see m",
      "sof tly",
      "S qu",
      "c king",
      "g ro",
      "k ins",
      "as ide",
      "we d",
      "Gar y",
      "tell ing",
      "pres s",
      "fuck in",
      "sur pris",
      "Cap tain",
      "H H",
      "J ennifer",
      "c ess",
      "te le",
      "mi th",
      "al ien",
      "gr and",
      "low ers",
      "je ct",
      "E ar",
      "F o",
      "F ather",
      "d ance",
      "re ach",
      "id ence",
      "att le",
      "Dam n",
      "T ur",
      "r an",
      "s end",
      "er y",
      "ain s",
      "Go re",
      "pp ing",
      "Canad ian",
      "lear ned",
      "p ig",
      "st em",
      "se ver",
      "qu ite",
      "sc ared",
      "norm al",
      "s udden",
      "se ated",
      "sh irt",
      "f ill",
      "h its",
      "on o",
      "am ed",
      "po or",
      "cl ub",
      "M or",
      "ne ck",
      "ho to",
      "jo y",
      "pict ures",
      "c use",
      "d ist",
      "f il",
      "re ason",
      "th ough",
      "wor ks",
      "Be ar",
      "drin k",
      "govern ment",
      "A aa",
      "is hes",
      "lea ving",
      "sp ace",
      "fl ag",
      "word s",
      "lear n",
      "d est",
      "m ing",
      "p ir",
      "s now",
      "ic ally",
      "near by",
      "O f",
      "T ake",
      "m iddle",
      "s ent",
      "ar ch",
      "ad ults",
      "li ves",
      "ent ire",
      "pl aces",
      "no se",
      "te en",
      "them selves",
      "tru th",
      "F riend",
      "L es",
      "m ot",
      "re ve",
      "meet ing",
      "A ny",
      "I T",
      "L u",
      "e ither",
      "ke e",
      "for th",
      "mun ity",
      "L ike",
      "i um",
      "m and",
      "s and",
      "my self",
      "lo se",
      "mill ion",
      "sever al",
      "b at",
      "re w",
      "de ep",
      "pie ce",
      "Ex cuse",
      "Ob ama",
      "A L",
      "p issed",
      "z a",
      "st ep",
      "ot es",
      "de ath",
      "pro bably",
      "plan e",
      "Cr ab",
      "no ther",
      "br ought",
      "sing ing",
      "P ass",
      "T u",
      "ru sh",
      "din ner",
      "stun ned",
      "A nother",
      "I S",
      "S mith",
      "en er",
      "ag ree",
      "so ld",
      "ast er",
      "ye ll",
      "cut s",
      "E h",
      "G ive",
      "j u",
      "um es",
      "by e",
      "sm art",
      "iz ed",
      "inte rest",
      "B oo",
      "c reat",
      "h y",
      "ce le",
      "pr om",
      "hell o",
      "Ke ep",
      "d ou",
      "g le",
      "m p",
      "t est",
      "pre p",
      "are a",
      "us es",
      "ang ri",
      "mer cial",
      "cele br",
      "b acks",
      "p ly",
      "s pl",
      "se ats",
      "some where",
      "should n",
      "cer tain",
      "class room",
      "land s",
      "hur t",
      "C enter",
      "M el",
      "O M",
      "P ol",
      "S tot",
      "the s",
      "ut s",
      "uc ks",
      "toss es",
      "c ars",
      "mo ving",
      "if ul",
      "sk y",
      "laugh ing",
      "1 1",
      "R un",
      "st at",
      "om b",
      "Mc C",
      "su it",
      "Ear th",
      "L arry",
      "an ket",
      "ha mm",
      "lea st",
      "oun tain",
      "sp ir",
      "cre t",
      "arr ator",
      "quest ion",
      "B en",
      "st ate",
      "be ar",
      "ro g",
      "gu ard",
      "ga ve",
      "Br it",
      "gi ant",
      "Ho ld",
      "Aw ww",
      "hang s",
      "Sup er",
      "poss ible",
      "C ha",
      "f s",
      "t w",
      "th ird",
      "lo ad",
      "An chor",
      "anc ing",
      "hu ge",
      "lock er",
      "cry ing",
      "H u",
      "e ight",
      "l ate",
      "m is",
      "in de",
      "ur ch",
      "te e",
      "dam mit",
      "pr ote",
      "resp on",
      "wond er",
      "G reat",
      "a ven",
      "c i",
      "p ick",
      "s ense",
      "in v",
      "sh oot",
      "il s",
      "know s",
      "bl ue",
      "Spe cial",
      "J er",
      "an ne",
      "be a",
      "pl ain",
      "ee z",
      "find s",
      "eter ia",
      "b um",
      "c ard",
      "y ed",
      "ter ror",
      "wa ves",
      "clo ser",
      "dest ro",
      "hamm ad",
      "D ou",
      "t re",
      "le men",
      "ic a",
      "angri ly",
      "f a",
      "h un",
      "h ug",
      "ac y",
      "ch ance",
      "back ground",
      "ak ov",
      "dam ned",
      "Y OU",
      "n i",
      "o om",
      "we ed",
      "li f",
      "Ch ild",
      "ment s",
      "jo ke",
      "jo ins",
      "D is",
      "N arrator",
      "c ough",
      "is hed",
      "all ow",
      "au lt",
      "start ing",
      "act ly",
      "car ry",
      "sof t",
      "Jo e",
      "wel come",
      "bas ket",
      "b ast",
      "c u",
      "c au",
      "f ur",
      "m ir",
      "r ain",
      "ke ts",
      "for get",
      "ur ing",
      "Har ris",
      "N ic",
      "P S",
      "b an",
      "We l",
      "ta pe",
      "see ing",
      "wat ches",
      "min utes",
      "Te ll",
      "dres s",
      "cat ch",
      "Coun ty",
      "chick en",
      "g ers",
      "an im",
      "to wel",
      "th s",
      "ir th",
      "un ny",
      "br ings",
      "happ ens",
      "fl ash",
      "igh bor",
      "cre am",
      "Gu y",
      "ev il",
      "Out side",
      "cra zy",
      "repor ter",
      "kee ps",
      "M im",
      "P ig",
      "e gg",
      "l in",
      "an a",
      "re l",
      "ic t",
      "we et",
      "ha ps",
      "ri an",
      "ile s",
      "Bo x",
      "could n",
      "gy m",
      "A dam",
      "E n",
      "G ay",
      "S er",
      "b in",
      "s ub",
      "Oh hh",
      "ation al",
      "len t",
      "suc ks",
      "tele vision",
      "O ther",
      "c ow",
      "o st",
      "ers on",
      "com mercial",
      "bl ic",
      "arri ve",
      "r ap",
      "there d",
      "bl ows",
      "ama zing",
      "Pol ice",
      "Wel come",
      "p us",
      "s ad",
      "s ight",
      "v o",
      "con cer",
      "ber ry",
      "Tim e",
      "C upid",
      "M in",
      "b ud",
      "b ott",
      "we ak",
      "but ton",
      "ca f",
      "Friend s",
      "K ing",
      "S ke",
      "b ul",
      "i ed",
      "v il",
      "exc ited",
      "P ri",
      "b ill",
      "tr ain",
      "rinc ess",
      "dro p",
      "plan et",
      "gre en",
      "conf used",
      "Stot ch",
      "C ru",
      "e h",
      "g n",
      "p ans",
      "s ometimes",
      "can not",
      "Tim mi",
      "00 0",
      "a ff",
      "c ed",
      "d ies",
      "n s",
      "tur d",
      "sa ve",
      "show ing",
      "P i",
      "do in",
      "de li",
      "got ten",
      "pres ident",
      "Cl erk",
      "D river",
      "S ky",
      "a z",
      "f ag",
      "k in",
      "n umber",
      "ll a",
      "st ra",
      "of ess",
      "rin ce",
      "Sc out",
      "att ack",
      "bab ies",
      "sy stem",
      "Mo re",
      "Cru ise",
      "U gh",
      "b ust",
      "c her",
      "ed y",
      "gr ins",
      "ren t",
      "ca ke",
      "cam p",
      "four th",
      "cor ner",
      "Cr owd",
      "c ir",
      "h ip",
      "put ting",
      "ste ad",
      "Cl in",
      "pound s",
      "M ike",
      "c li",
      "t reat",
      "id ed",
      "real ize",
      "move d",
      "jum p",
      "stu me",
      "reve al",
      "Ske eter",
      "b ang",
      "v al",
      "v ent",
      "w ish",
      "go ld",
      "ho spital",
      "qu art",
      "ex actly",
      "clo thes",
      "wee ks",
      "augh ter",
      "happen ing",
      "boo ks",
      "col le",
      "abo ve",
      "B ur",
      "E d",
      "K itty",
      "P ar",
      "b ri",
      "p rincipal",
      "p hoto",
      "s me",
      "it ches",
      "or ge",
      "who a",
      "co stume",
      "ga thered",
      "rest aur",
      "fli es",
      "fell as",
      "Nic hole",
      "f et",
      "as es",
      "ro ck",
      "ne ighbor",
      "qu e",
      "ex plo",
      "reat h",
      "str ong",
      "whe el",
      "Pat r",
      "Af ter",
      "bea ut",
      "P eter",
      "e ch",
      "f ic",
      "f ist",
      "g ing",
      "m ine",
      "n ers",
      "z oom",
      "il ity",
      "br id",
      "cr ack",
      "per fect",
      "call ing",
      "Cl ass",
      "serious ly",
      "Car ol",
      "complete ly",
      "caf eteria",
      "g ig",
      "i ves",
      "p et",
      "re r",
      "st ation",
      "as ked",
      "ir ty",
      "ag on",
      "ag ents",
      "gr ade",
      "cover s",
      "sudden ly",
      "Crab tree",
      "F ine",
      "F irst",
      "L ist",
      "b i",
      "l an",
      "r up",
      "is o",
      "st ar",
      "as ure",
      "gh ost",
      "ch oice",
      "ro of",
      "ra ise",
      "Ch ar",
      "bur ger",
      "app y",
      "Ke lly",
      "fight ing",
      "contin ue",
      "sim ple",
      "2 0",
      "A b",
      "B rian",
      "D ick",
      "S chool",
      "W ha",
      "b irth",
      "i ver",
      "n on",
      "s ne",
      "t u",
      "t le",
      "re f",
      "re ce",
      "it ing",
      "id ing",
      "gr ap",
      "aa a",
      "em p",
      "av or",
      "str uc",
      "writ ing",
      "a is",
      "b attle",
      "p ot",
      "ho se",
      "feel ing",
      "Mexic an",
      "rug s",
      "Mim sy",
      "O N",
      "P ut",
      "r at",
      "an ts",
      "ag ent",
      "No thing",
      "every where",
      "Man Bear",
      "pres ses",
      "cat ches",
      "posit ion",
      "ManBear Pig",
      "D aw",
      "l ady",
      "gu e",
      "ex cept",
      "John son",
      "prote ct",
      "W ould",
      "w ha",
      "or de",
      "se y",
      "ol ks",
      "ul ous",
      "Th ree",
      "long er",
      "AAAA AAAA",
      "Jo sh",
      "grad ers",
      "tou ch",
      "pun ches",
      "Town s",
      "stra ight",
      "List en",
      "f it",
      "h om",
      "m ark",
      "s ite",
      "ber t",
      "co ve",
      "Every thing",
      "Fr iday",
      "proble ms",
      "Gir l",
      "R es",
      "b reath",
      "p age",
      "v agin",
      "le ans",
      "id er",
      "im agin",
      "bo at",
      "te m",
      "Do es",
      "cre w",
      "Fr om",
      "Wor ker",
      "Rus sell",
      "Pri est",
      "A W",
      "R E",
      "W o",
      "c ab",
      "f olk",
      "k icks",
      "l uck",
      "le ep",
      "se curity",
      "end ing",
      "ph y",
      "wr ite",
      "spe ech",
      "poo p",
      "n ie",
      "s um",
      "not e",
      "Ge orge",
      "eas y",
      "C ould",
      "L ad",
      "M ur",
      "b al",
      "b ike",
      "f ed",
      "f ingers",
      "f ault",
      "h um",
      "m ass",
      "v ious",
      "oo p",
      "sh all",
      "spe aks",
      "sho cked",
      "coun ter",
      "Te en",
      "Tu ong",
      "N urse",
      "he ro",
      "th ro",
      "se arch",
      "im p",
      "ep iso",
      "des er",
      "kill ing",
      "Americ ans",
      "went y",
      "base ment",
      "Les lie",
      "lif ts",
      "cove red",
      "G re",
      "fe et",
      "te ach",
      "fore st",
      "Steven s",
      "F arms",
      "M ars",
      "S T",
      "a pe",
      "h ar",
      "h oney",
      "li es",
      "ur y",
      "ex its",
      "ric h",
      "fat ass",
      "pass es",
      "pri v",
      "Loo ks",
      "beaut iful",
      "C ause",
      "up on",
      "um my",
      "wor ked",
      "cl ap",
      "pr act",
      "big ger",
      "ash ing",
      "offic ial",
      "M mm",
      "W all",
      "c ul",
      "d ancing",
      "m ad",
      "n at",
      "y y",
      "he ars",
      "it ter",
      "ow ers",
      "ri p",
      "lo cks",
      "door bell",
      "gas ps",
      "Cha os",
      "F l",
      "F am",
      "H en",
      "J akov",
      "P rince",
      "c red",
      "o le",
      "and a",
      "st icks",
      "as leep",
      "He h",
      "res pect",
      "tr ay",
      "ren ch",
      "scre ams",
      "dri ves",
      "follow ing",
      "foot ball",
      "ooh oo",
      "appl ause",
      "H ill",
      "U m",
      "b bing",
      "c hat",
      "se ven",
      "al th",
      "ro bot",
      "if t",
      "che cks",
      "sc o",
      "ous ly",
      "wa its",
      "Jan et",
      "dist ance",
      "A pp",
      "B a",
      "F our",
      "M us",
      "j a",
      "an e",
      "in stead",
      "ke ys",
      "sh ort",
      "ho st",
      "ps y",
      "Go b",
      "wh ips",
      "tr ash",
      "play er",
      "fore ver",
      "dri ving",
      "bre aks",
      "Gu ys",
      "ient ist",
      "dou che",
      "spir it",
      "A H",
      "J ared",
      "W ar",
      "b en",
      "e lder",
      "s ou",
      "t un",
      "turn ed",
      "ber g",
      "owe en",
      "Jew s",
      "iet y",
      "leg s",
      "fi res",
      "hol iday",
      "g ames",
      "m ain",
      "o d",
      "es ts",
      "se cret",
      "some thin",
      "res umes",
      "po st",
      "tal ks",
      "home less",
      "gl ad",
      "boo th",
      "Hall oween",
      "silen ce",
      "mach ine",
      "Adam s",
      "bott le",
      "E T",
      "G ot",
      "S ay",
      "f an",
      "l oud",
      "p ool",
      "an noun",
      "ide l",
      "not ice",
      "ex per",
      "Gu ard",
      "sn if",
      "iv al",
      "F ield",
      "c ash",
      "f arm",
      "f olks",
      "p ush",
      "in er",
      "re moves",
      "ch urch",
      "for d",
      "ta ins",
      "hh hh",
      "Ph il",
      "cal m",
      "stud ent",
      "miss ing",
      "exc use",
      "rid ic",
      "anne l",
      "restaur ant",
      "A le",
      "C ool",
      "F ree",
      "T ra",
      "f avor",
      "i x",
      "p al",
      "er ry",
      "or y",
      "be er",
      "up stairs",
      "our selves",
      "sto r",
      "sk in",
      "bro ke",
      "certain ly",
      "Clin ton",
      "C at",
      "I m",
      "S ch",
      "c ro",
      "h us",
      "ic king",
      "am my",
      "fo cus",
      "she et",
      "co ld",
      "call s",
      "coun t",
      "Bl anket",
      "chang es",
      "S ha",
      "f act",
      "r am",
      "or k",
      "wor se",
      "scre w",
      "Brit ney",
      "ofess or",
      "Fam ily",
      "A ir",
      "B ro",
      "O oo",
      "S ally",
      "d et",
      "f if",
      "j ac",
      "p y",
      "p ul",
      "w ich",
      "se a",
      "as sed",
      "St ar",
      "ot est",
      "up set",
      "te ch",
      "any way",
      "tr act",
      "sup port",
      "Ho ly",
      "girl friend",
      "form ation",
      "fli ps",
      "cross es",
      "silen t",
      "McC orm",
      "tee th",
      "H ouse",
      "d uring",
      "h ide",
      "s ion",
      "se m",
      "ac ist",
      "ac hed",
      "wi ener",
      "gr ab",
      "ex it",
      "ans on",
      "co at",
      "mon itor",
      "sha kes",
      "stri kes",
      "chang ed",
      "shoo ts",
      "produc er",
      "surpris ed",
      "A ma",
      "T es",
      "d u",
      "f u",
      "j am",
      "p ac",
      "p ause",
      "ar ious",
      "ly ing",
      "He ad",
      "lea sed",
      "sp ot",
      "Ro b",
      "ete ct",
      "IN G",
      "Timmi h",
      "neighbor hood",
      "C th",
      "N or",
      "er g",
      "at ic",
      "is ed",
      "ic op",
      "as king",
      "oo ps",
      "am ong",
      "ap art",
      "lo gy",
      "ul hu",
      "On ly",
      "El len",
      "aim s",
      "zoom s",
      "Cth ulhu",
      "A ID",
      "D O",
      "D arry",
      "E N",
      "K K",
      "S g",
      "l ap",
      "on de",
      "it ar",
      "his tory",
      "ap o",
      "fe male",
      "Dad dy",
      "Darry l",
      "Sg t",
      "H and",
      "S weet",
      "T hose",
      "p in",
      "r ay",
      "t ank",
      "t roll",
      "y an",
      "is and",
      "al arm",
      "ch al",
      "ch uck",
      "ag g",
      "fin al",
      "Fr ank",
      "di ed",
      "bur st",
      "dr um",
      "ev ent",
      "mar i",
      "draw s",
      "Ad ler",
      "emp ty",
      "A ide",
      "C am",
      "c ord",
      "d aughter",
      "l ines",
      "in st",
      "en ger",
      "et ta",
      "ri etta",
      "He l",
      "clo sed",
      "lot s",
      "gent lemen",
      "Pr ofessor",
      "wood s",
      "quest ions",
      "clim bs",
      "mil k",
      "Stre isand",
      "episo de",
      "Hen rietta",
      "C K",
      "L i",
      "M en",
      "M ag",
      "s al",
      "w arm",
      "in cl",
      "om in",
      "op er",
      "too th",
      "pr otest",
      "stud io",
      "ear th",
      "shoo ting",
      "D own",
      "b es",
      "b ac",
      "b right",
      "b ucks",
      "d a",
      "p air",
      "r ab",
      "u gh",
      "an no",
      "al ive",
      "ad s",
      "ly n",
      "no thin",
      "hel icop",
      "char ge",
      "Sky ler",
      "thro at",
      "H ome",
      "l ab",
      "t wenty",
      "be l",
      "ad es",
      "ter rible",
      "li ps",
      "qu ee",
      "Sh ow",
      "ru in",
      "iz za",
      "fin ish",
      "cour t",
      "1 9",
      "k i",
      "y er",
      "de f",
      "ap paren",
      "il t",
      "ain e",
      "po se",
      "wor th",
      "kno ck",
      "dec ided",
      "resp ond",
      "glass es",
      "Lead er",
      "M u",
      "M al",
      "g les",
      "v ic",
      "v acc",
      "er on",
      "or n",
      "im med",
      "wi g",
      "ld s",
      "We ather",
      "sto ol",
      "Br ad",
      "la x",
      "Ha ha",
      "Some body",
      "din ing",
      "char ac",
      "F rench",
      "L E",
      "L orde",
      "d anger",
      "ris t",
      "ps on",
      "wor ried",
      "uck er",
      "tor s",
      "em plo",
      "clo set",
      "pres ents",
      "town s",
      "doll ar",
      "io d",
      "hang ing",
      "stri ke",
      "mess age",
      "Elder ly",
      "ju ana",
      "Min ister",
      "erg art",
      "M ill",
      "T en",
      "c art",
      "ic ked",
      "side walk",
      "laugh ter",
      "Bar bra",
      "bre ast",
      "Mom my",
      "miss ion",
      "Jer sey",
      "Par is",
      "bri ef",
      "vagin a",
      "McCorm ick",
      "immed i",
      "B et",
      "D ire",
      "F ace",
      "H ind",
      "L ittle",
      "V ery",
      "n uts",
      "en joy",
      "or ts",
      "ap per",
      "can cer",
      "pl ant",
      "gu ards",
      "dy ing",
      "sl ams",
      "des c",
      "bre aking",
      "shop ping",
      "cough s",
      "cau ght",
      "1 2",
      "A m",
      "B u",
      "B udd",
      "P rincess",
      "S im",
      "W al",
      "c um",
      "d ig",
      "r ace",
      "be c",
      "ri ps",
      "ur day",
      "ris e",
      "itt en",
      "br own",
      "big gest",
      "shot s",
      "Sat urday",
      "sur round",
      "sim ply",
      "ti red",
      "Pro duc",
      "quart ers",
      "AID S",
      "E y",
      "H appy",
      "w ast",
      "z on",
      "he alth",
      "im age",
      "St ud",
      "au l",
      "back yard",
      "tur key",
      "tr ack",
      "cr it",
      "per iod",
      "sw im",
      "bot tom",
      "ES OM",
      "respon si",
      "AW ESOM",
      "ben ch",
      "S A",
      "S ho",
      "c ows",
      "m ountain",
      "he av",
      "we ren",
      "for ce",
      "lo gram",
      "che st",
      "sel or",
      "So ld",
      "mon ster",
      "di um",
      "Is n",
      "On ce",
      "hor rible",
      "sex ual",
      "D ep",
      "L em",
      "N ice",
      "R ab",
      "d ances",
      "n urse",
      "s us",
      "w ide",
      "to mer",
      "ir ts",
      "ex plain",
      "fin ished",
      "str ange",
      "hor se",
      "par king",
      "writ es",
      "Dou gie",
      "basket ball",
      "bud dy",
      "M itch",
      "P lay",
      "c ure",
      "f ir",
      "p our",
      "s po",
      "re lax",
      "th or",
      "en g",
      "ac ting",
      "ut ion",
      "we ight",
      "pe ace",
      "ther s",
      "po dium",
      "ile y",
      "fam ili",
      "sw itch",
      "hor n",
      "ridic ulous",
      "V amp",
      "c andy",
      "d ouble",
      "g inger",
      "i ers",
      "s en",
      "we ap",
      "ro pe",
      "end er",
      "know n",
      "gr in",
      "po k",
      "ass ist",
      "any where",
      "pp er",
      "gi ven",
      "OO OO",
      "sweet ie",
      "Wor ld",
      "fly ing",
      "apparen tly",
      "Dire ctor",
      "Produc er",
      "F ire",
      "R yan",
      "b omb",
      "e red",
      "h ic",
      "j ack",
      "m ap",
      "n amed",
      "p he",
      "v ote",
      "he aven",
      "or ay",
      "li kes",
      "de ar",
      "ill y",
      "not ic",
      "play ground",
      "sm iling",
      "even ing",
      "wind ows",
      "mm m",
      "Mic key",
      "Chin a",
      "Chin pok",
      "cept ion",
      "H A",
      "J u",
      "S on",
      "T oo",
      "n ic",
      "he he",
      "op po",
      "tr ust",
      "co ll",
      "pr oud",
      "iz es",
      "sho ck",
      "Aw w",
      "bro ken",
      "listen ing",
      "Tr apper",
      "yell ow",
      "Keep er",
      "Child ren",
      "Mu hammad",
      "immedi ately",
      "B re",
      "D et",
      "K o",
      "S k",
      "b ly",
      "d rugs",
      "j ail",
      "in ks",
      "is a",
      "sh ield",
      "po cket",
      "if ic",
      "bl ing",
      "run ch",
      "wa ke",
      "cou ch",
      "Grand ma",
      "Jeff erson",
      "TH E",
      "Gir ls",
      "Fe male",
      "Budd ha",
      "C ait",
      "V oice",
      "f illed",
      "g lo",
      "i h",
      "p i",
      "s na",
      "le vel",
      "be long",
      "ad ow",
      "de vice",
      "ma ster",
      "ile d",
      "ens ive",
      "co st",
      "Re bec",
      "Ho oray",
      "Ma le",
      "old er",
      "pu blic",
      "mot ion",
      "birth day",
      "jac ket",
      "incl ud",
      "Rebec ca",
      "B C",
      "J on",
      "b arr",
      "d ry",
      "r ally",
      "re ct",
      "ar rest",
      "ll ins",
      "be low",
      "ch in",
      "de mon",
      "no on",
      "um bles",
      "che ering",
      "wr ote",
      "work ers",
      "Br id",
      "Re member",
      "mon ths",
      "Co llins",
      "care s",
      "De ck",
      "fi x",
      "fil m",
      "bast ards",
      "fur ther",
      "Nor th",
      "Hind sight",
      "3 0",
      "O ld",
      "O pr",
      "a le",
      "d en",
      "re y",
      "en ed",
      "ed s",
      "ust r",
      "un te",
      "get tin",
      "pl at",
      "res idence",
      "com munity",
      "cr u",
      "per form",
      "jo bs",
      "app ing",
      "Thom pson",
      "dire ct",
      "tic ket",
      "Opr ah",
      "C all",
      "E ven",
      "J acks",
      "M all",
      "O ver",
      "O ho",
      "S n",
      "Y ork",
      "b oun",
      "c as",
      "l it",
      "p ies",
      "s ug",
      "w rest",
      "z es",
      "ac he",
      "ch ing",
      "te red",
      "wa kes",
      "work er",
      "ru les",
      "Re al",
      "Co ach",
      "fin ishes",
      "gun s",
      "win ks",
      "shut s",
      "col ate",
      "aur a",
      "ret ard",
      "Hu man",
      "carry ing",
      "Mur phy",
      "mari juana",
      "Jacks on",
      "C runch",
      "J enny",
      "P u",
      "f ake",
      "i to",
      "al d",
      "ch oo",
      "He ather",
      "some how",
      "tr ick",
      "pro ve",
      "scre aming",
      "cle ars",
      "Fr anc",
      "Cr owe",
      "sha re",
      "whis pers",
      "lad der",
      "tw ice",
      "Ama zon",
      "ception ist",
      "C al",
      "W oohoo",
      "a x",
      "e ase",
      "g ang",
      "p unch",
      "t our",
      "v io",
      "es y",
      "ves t",
      "sto pped",
      "ood s",
      "cha se",
      "Some one",
      "leg al",
      "hur ry",
      "inc red",
      "Hel p",
      "Franc is",
      "C her",
      "H um",
      "J udge",
      "L uc",
      "b lock",
      "c ig",
      "c ult",
      "e k",
      "or gan",
      "ad io",
      "mo on",
      "Oh h",
      "end ed",
      "cl aps",
      "hand le",
      "God damnit",
      "Bo th",
      "bu ilt",
      "Br own",
      "Re iner",
      "Ma ke",
      "bor n",
      "cop s",
      "smo ke",
      "sme ll",
      "Cait lyn",
      "B I",
      "B i",
      "F O",
      "L aw",
      "S ar",
      "c il",
      "c ook",
      "e qu",
      "f ro",
      "i us",
      "p ill",
      "v ies",
      "ant ly",
      "con s",
      "play ers",
      "How ard",
      "ue er",
      "mon key",
      "gl ances",
      "feel s",
      "talk in",
      "Ro bert",
      "Jew ish",
      "Un ited",
      "dre idel",
      "Sp ace",
      "Se curity",
      "kiss es",
      "kne es",
      "Scout s",
      "L am",
      "N N",
      "g ain",
      "n ine",
      "v arious",
      "an chor",
      "at o",
      "th a",
      "st aff",
      "wi pes",
      "sh itty",
      "lo cked",
      "mo vies",
      "pl ac",
      "so c",
      "sto mach",
      "sa ved",
      "br ain",
      "ous es",
      "Uh h",
      "spe c",
      "pr of",
      "dr ag",
      "Mexic o",
      "terror ists",
      "pus sy",
      "Patr ick",
      "anno yed",
      "Deck ter",
      "A aah",
      "H ot",
      "T re",
      "c ries",
      "h oo",
      "ac cept",
      "ad dres",
      "do l",
      "ur ry",
      "ta st",
      "cr ime",
      "ang le",
      "An nie",
      "ner v",
      "Canad ians",
      "sign s",
      "fre ak",
      "hon or",
      "dire ction",
      "surpris e",
      "hun g",
      "psy ch",
      "vic tim",
      "H oh",
      "H av",
      "L A",
      "M usic",
      "M anson",
      "S w",
      "T rent",
      "W ashing",
      "f est",
      "p leased",
      "me ant",
      "ag ed",
      "ab ort",
      "ion al",
      "gu itar",
      "pro gram",
      "co ach",
      "pr ay",
      "after noon",
      "sw ings",
      "sur v",
      "Lo ve",
      "gen eral",
      "stu dy",
      "smo king",
      "fac ing",
      "pir ate",
      "sand wich",
      "elder ly",
      "announ ce",
      "Sold ier",
      "Brid on",
      "B ush",
      "E aster",
      "J ason",
      "K ill",
      "R oman",
      "S l",
      "S and",
      "V an",
      "W uh",
      "a ides",
      "c oo",
      "h ill",
      "n n",
      "o c",
      "s at",
      "z en",
      "er t",
      "on line",
      "your s",
      "pl ast",
      "fe ar",
      "but th",
      "ul ar",
      "Che ck",
      "tal ked",
      "open ing",
      "ground ed",
      "Ma ury",
      "arr ow",
      "med ic",
      "pri est",
      "Ind ian",
      "Per haps",
      "includ ing",
      "E ste",
      "F in",
      "H oney",
      "L isa",
      "L aura",
      "M ary",
      "S to",
      "S inger",
      "S ometimes",
      "b on",
      "f al",
      "p rison",
      "s ort",
      "t ac",
      "re me",
      "ic y",
      "be comes",
      "ad mit",
      "li on",
      "ho b",
      "ta ps",
      "un k",
      "con om",
      "ex pect",
      "sp read",
      "she d",
      "Mar cus",
      "tri p",
      "anc y",
      "anc her",
      "Some thing",
      "At t",
      "grad er",
      "cra ft",
      "bow l",
      "anim als",
      "favor ite",
      "Washing ton",
      "A c",
      "B ab",
      "B est",
      "C H",
      "E vil",
      "G O",
      "N ooo",
      "S pie",
      "g ift",
      "v ir",
      "to y",
      "st it",
      "om on",
      "so cial",
      "gr at",
      "sp end",
      "wr itten",
      "ru bs",
      "fl ute",
      "Ho lly",
      "sing er",
      "str ap",
      "follow ed",
      "street s",
      "drin king",
      "Mart in",
      "Spie l",
      "E E",
      "E m",
      "H m",
      "J ack",
      "M ing",
      "M other",
      "M int",
      "P aul",
      "T roll",
      "f oo",
      "t ough",
      "en jo",
      "it es",
      "ic an",
      "as sem",
      "ro cket",
      "bo ss",
      "ho logram",
      "op h",
      "lo c",
      "po ster",
      "turn ing",
      "qu it",
      "Ch annel",
      "cl oud",
      "bl ind",
      "sl aps",
      "fl at",
      "Off ic",
      "Po of",
      "Thanks giving",
      "mic ro",
      "mag ic",
      "stat ue",
      "Holly wood",
      "Spiel berg",
      "A fr",
      "A aaaa",
      "G er",
      "b ird",
      "d ar",
      "f rog",
      "h unt",
      "i P",
      "p it",
      "s ian",
      "s led",
      "w ow",
      "it a",
      "st ro",
      "are t",
      "ho p",
      "de b",
      "ap er",
      "fe ed",
      "has n",
      "pro per",
      "sp in",
      "em ot",
      "per haps",
      "ca ve",
      "mi winks",
      "ink y",
      "rr rr",
      "ob vious",
      "interest ing",
      "Chinpok omon",
      "Luc as",
      "A unt",
      "B ed",
      "H ang",
      "P il",
      "W H",
      "j aw",
      "v om",
      "y ee",
      "re g",
      "re li",
      "th reat",
      "it self",
      "ke pt",
      "li er",
      "so bbing",
      "la me",
      "pa jam",
      "Mo ses",
      "feren ce",
      "suc cess",
      "Dam mit",
      "ib ly",
      "hus band",
      "danger ous",
      "Este lla",
      "pajam as",
      "A S",
      "B y",
      "F C",
      "I V",
      "N ight",
      "O o",
      "P a",
      "R on",
      "S ingers",
      "U p",
      "c and",
      "n u",
      "n ational",
      "o id",
      "s sed",
      "t ight",
      "t ure",
      "he aring",
      "re co",
      "at ch",
      "st ares",
      "ed ge",
      "ter ing",
      "de cor",
      "fe lt",
      "po le",
      "com edy",
      "em barr",
      "Man ager",
      "Bl aine",
      "mas k",
      "cor por",
      "ik er",
      "stay s",
      "Com munity",
      "comp et",
      "Se a",
      "AN D",
      "grand pa",
      "prom ise",
      "destro y",
      "Ser vice",
      "pract ice",
      "Gob bles",
      "sou l",
      "oppo site",
      "W W",
      "e c",
      "f ool",
      "h our",
      "j ar",
      "p iss",
      "is m",
      "is ham",
      "es ar",
      "art s",
      "ter ri",
      "de fin",
      "te ars",
      "ber ries",
      "spe aking",
      "love d",
      "Every body",
      "bur n",
      "par ade",
      "rem ain",
      "assho les",
      "join ed",
      "sleep ing",
      "Jan us",
      "Towns man",
      "sna ke",
      "cig aret",
      "Hav isham",
      "D ie",
      "J ames",
      "N ative",
      "O C",
      "O s",
      "P ower",
      "S r",
      "S y",
      "T ammy",
      "X Box",
      "c raw",
      "e ars",
      "l ower",
      "m arri",
      "p ours",
      "re p",
      "ll ow",
      "ha h",
      "tr acks",
      "Sh ould",
      "ee ee",
      "em er",
      "Th ink",
      "dis ease",
      "Sc rew",
      "pres sed",
      "Br on",
      "pull ing",
      "Cl ub",
      "ba be",
      "dr one",
      "Un cle",
      "Pr otes",
      "pee ks",
      "Per u",
      "sold iers",
      "hug s",
      "sne ak",
      "Tra vis",
      "Brad ley",
      "Lem miwinks",
      "grat ul",
      "C esar",
      "F unny",
      "J ones",
      "T ry",
      "Y el",
      "f ists",
      "k a",
      "k ni",
      "u me",
      "w ards",
      "or man",
      "st uck",
      "im m",
      "for ms",
      "now here"
    ]
  }
}