{
  "version": "1.0",
  "truncation": null,
  "padding": null,
  "added_tokens": [],
  "normalizer": {
    "type": "Sequence",
    "normalizers": [
      {
        "type": "NFD"
      },
      {
        "type": "StripAccents"
      }
    ]
  },
  "pre_tokenizer": {
    "type": "Metaspace",
    "replacement": "▁",
    "add_prefix_space": true
  },
  "post_processor": null,
  "decoder": {
    "type": "Metaspace",
    "replacement": "▁",
    "add_prefix_space": true
  },
  "model": {
    "type": "BPE",
    "dropout": null,
    "unk_token": null,
    "continuing_subword_prefix": null,
    "end_of_word_suffix": null,
    "fuse_unk": false,
    "vocab": {
      "\n": 0,
      "!": 1,
      "\"": 2,
      "#": 3,
      "$": 4,
      "%": 5,
      "&": 6,
      "'": 7,
      "(": 8,
      ")": 9,
      "*": 10,
      "+": 11,
      ",": 12,
      "-": 13,
      ".": 14,
      "/": 15,
      "0": 16,
      "1": 17,
      "2": 18,
      "3": 19,
      "4": 20,
      "5": 21,
      "6": 22,
      "7": 23,
      "8": 24,
      "9": 25,
      ":": 26,
      ";": 27,
      "<": 28,
      "=": 29,
      ">": 30,
      "?": 31,
      "@": 32,
      "A": 33,
      "B": 34,
      "C": 35,
      "D": 36,
      "E": 37,
      "F": 38,
      "G": 39,
      "H": 40,
      "I": 41,
      "J": 42,
      "K": 43,
      "L": 44,
      "M": 45,
      "N": 46,
      "O": 47,
      "P": 48,
      "Q": 49,
      "R": 50,
      "S": 51,
      "T": 52,
      "U": 53,
      "V": 54,
      "W": 55,
      "X": 56,
      "Y": 57,
      "Z": 58,
      "[": 59,
      "\\": 60,
      "]": 61,
      "^": 62,
      "_": 63,
      "a": 64,
      "b": 65,
      "c": 66,
      "d": 67,
      "e": 68,
      "f": 69,
      "g": 70,
      "h": 71,
      "i": 72,
      "j": 73,
      "k": 74,
      "l": 75,
      "m": 76,
      "n": 77,
      "o": 78,
      "p": 79,
      "q": 80,
      "r": 81,
      "s": 82,
      "t": 83,
      "u": 84,
      "v": 85,
      "w": 86,
      "x": 87,
      "y": 88,
      "z": 89,
      "{": 90,
      "|": 91,
      "}": 92,
      "▁": 93,
      "▁t": 94,
      "he": 95,
      "▁a": 96,
      "in": 97,
      "an": 98,
      "ou": 99,
      "▁s": 100,
      "▁the": 101,
      "re": 102,
      "▁w": 103,
      "er": 104,
      "on": 105,
      "ar": 106,
      "is": 107,
      "▁b": 108,
      ",\"": 109,
      "\"\n": 110,
      "nd": 111,
      "at": 112,
      "le": 113,
      "▁h": 114,
      "it": 115,
      "▁c": 116,
      "ing": 117,
      "ll": 118,
      "▁d": 119,
      "▁to": 120,
      "▁f": 121,
      "▁m": 122,
      "▁g": 123,
      "es": 124,
      "en": 125,
      "▁o": 126,
      "▁y": 127,
      "▁and": 128,
      "or": 129,
      "▁p": 130,
      "▁you": 131,
      "▁C": 132,
      "om": 133,
      "ow": 134,
      "▁S": 135,
      "▁th": 136,
      "▁I": 137,
      "▁l": 138,
      "'s": 139,
      "▁n": 140,
      "ay": 141,
      ".\"\n": 142,
      "art": 143,
      "▁of": 144,
      "ic": 145,
      "▁in": 146,
      "us": 147,
      "et": 148,
      "▁T": 149,
      "ed": 150,
      "▁M": 151,
      "oo": 152,
      "as": 153,
      "ve": 154,
      "al": 155,
      "ot": 156,
      "▁he": 157,
      "ut": 158,
      "id": 159,
      "ac": 160,
      "man": 161,
      "▁on": 162,
      "▁K": 163,
      "gh": 164,
      "▁is": 165,
      "im": 166,
      "artman": 167,
      "▁it": 168,
      "..": 169,
      "tan": 170,
      "▁Cartman": 171,
      "ad": 172,
      ".\n": 173,
      "out": 174,
      "▁B": 175,
      "▁be": 176,
      "ke": 177,
      "ter": 178,
      "▁r": 179,
      "hat": 180,
      "▁u": 181,
      "▁we": 182,
      "yle": 183,
      "▁e": 184,
      "▁st": 185,
      "ver": 186,
      "'t": 187,
      "▁do": 188,
      "ght": 189,
      "▁Kyle": 190,
      ".[": 191,
      "▁Stan": 192,
      "ld": 193,
      "ks": 194,
      "▁W": 195,
      "▁that": 196,
      "▁P": 197,
      "and": 198,
      "am": 199,
      "▁re": 200,
      "▁A": 201,
      "▁G": 202,
      "e,": 203,
      "ight": 204,
      "▁k": 205,
      "▁his": 206,
      "ir": 207,
      "y,": 208,
      "▁H": 209,
      "op": 210,
      "▁ha": 211,
      "ith": 212,
      "!\n": 213,
      "▁R": 214,
      "▁with": 215,
      "ome": 216,
      "ur": 217,
      "all": 218,
      "!\"\n": 219,
      "]\"\n": 220,
      "▁for": 221,
      "▁up": 222,
      "os": 223,
      "![": 224,
      "▁are": 225,
      "ent": 226,
      "ch": 227,
      "ly": 228,
      "▁j": 229,
      "s,": 230,
      "▁sh": 231,
      "▁The": 232,
      "▁at": 233,
      "h,": 234,
      "ust": 235,
      "her": 236,
      "▁out": 237,
      "You": 238,
      "▁se": 239,
      "▁an": 240,
      "▁go": 241,
      "▁me": 242,
      "▁J": 243,
      "ell": 244,
      "?\n": 245,
      "ri": 246,
      "el": 247,
      "▁D": 248,
      "\"\"": 249,
      "▁have": 250,
      ",\"[": 251,
      "un": 252,
      "r.": 253,
      "ack": 254,
      "ion": 255,
      "▁le": 256,
      "ill": 257,
      "'re": 258,
      "▁li": 259,
      "s.": 260,
      "▁ne": 261,
      "ro": 262,
      "▁all": 263,
      "...": 264,
      "▁this": 265,
      "▁I'": 266,
      "ra": 267,
      "▁,\"": 268,
      "?\"\n": 269,
      "▁him": 270,
      "▁can": 271,
      "▁But": 272,
      "ea": 273,
      "ho": 274,
      "pp": 275,
      "rou": 276,
      "▁as": 277,
      "▁get": 278,
      "▁L": 279,
      "▁just": 280,
      "The": 281,
      "st": 282,
      "▁bo": 283,
      "on't": 284,
      "▁your": 285,
      "▁my": 286,
      "one": 287,
      "▁fr": 288,
      "▁Cartman,\"": 289,
      "ck": 290,
      "ters": 291,
      "▁what": 292,
      "▁loo": 293,
      "▁kn": 294,
      "ers": 295,
      "own": 296,
      "ard": 297,
      "▁N": 298,
      "ep": 299,
      "▁Mr.": 300,
      "ys": 301,
      "ris": 302,
      "il": 303,
      "ig": 304,
      "ind": 305,
      "▁not": 306,
      "our": 307,
      "ore": 308,
      "ant": 309,
      "se": 310,
      "ie": 311,
      "▁Rand": 312,
      "ak": 313,
      "the": 314,
      "▁so": 315,
      "▁O": 316,
      "ud": 317,
      "ain": 318,
      "od": 319,
      "ct": 320,
      "ake": 321,
      "▁off": 322,
      "ould": 323,
      "ce": 324,
      "ol": 325,
      "y,\"": 326,
      "na": 327,
      "very": 328,
      "▁We": 329,
      "▁Kyle,": 330,
      "ag": 331,
      "ry": 332,
      "▁right": 333,
      "▁E": 334,
      "▁know": 335,
      "▁back": 336,
      "▁I'm": 337,
      "▁Cartman,": 338,
      "▁don't": 339,
      "way": 340,
      "ip": 341,
      "▁ab": 342,
      "▁F": 343,
      "if": 344,
      "▁He": 345,
      "▁,": 346,
      "um": 347,
      "enn": 348,
      "▁ch": 349,
      "to": 350,
      "]\n": 351,
      "▁but": 352,
      "n't": 353,
      "▁Stan,": 354,
      "▁pl": 355,
      "▁was": 356,
      "▁then": 357,
      "▁from": 358,
      "ide": 359,
      "▁gu": 360,
      "hing": 361,
      "▁You": 362,
      "▁like": 363,
      "ally": 364,
      "▁Stan,\"": 365,
      "▁now": 366,
      "urn": 367,
      "res": 368,
      "▁some": 369,
      "He": 370,
      "round": 371,
      "ves": 372,
      "t's": 373,
      "ab": 374,
      "ink": 375,
      "What": 376,
      "ood": 377,
      "ark": 378,
      "▁Butters": 379,
      "ick": 380,
      "▁here": 381,
      "Yea": 382,
      "▁about": 383,
      "o,": 384,
      "▁us": 385,
      "▁them": 386,
      "nt": 387,
      "▁down": 388,
      "▁they": 389,
      "ong": 390,
      "▁St": 391,
      "▁su": 392,
      "▁cl": 393,
      "em": 394,
      "alks": 395,
      "▁her": 396,
      "▁over": 397,
      "ff": 398,
      "e.": 399,
      "▁got": 400,
      "▁com": 401,
      "▁wor": 402,
      "▁pe": 403,
      "kay": 404,
      "▁there": 405,
      "ap": 406,
      "▁v": 407,
      "▁ag": 408,
      "ople": 409,
      "▁Kenn": 410,
      "▁wh": 411,
      "▁Kyle,\"": 412,
      "Oh": 413,
      "▁ro": 414,
      "itt": 415,
      "est": 416,
      "ther": 417,
      "are": 418,
      "hen": 419,
      "onna": 420,
      "▁al": 421,
      "▁into": 422,
      "alk": 423,
      "arris": 424,
      "▁gonna": 425,
      "qu": 426,
      "▁look": 427,
      "▁sp": 428,
      "▁away": 429,
      "ars": 430,
      "▁door": 431,
      "▁our": 432,
      "hes": 433,
      "ul": 434,
      "ice": 435,
      "ee": 436,
      "ist": 437,
      "ile": 438,
      "▁boys": 439,
      "▁around": 440,
      "arrison": 441,
      "ous": 442,
      "▁who": 443,
      "imm": 444,
      "▁think": 445,
      "▁other": 446,
      "▁\"\"": 447,
      "▁people": 448,
      "▁Ch": 449,
      "in'": 450,
      "ont": 451,
      "▁Garrison": 452,
      "Well": 453,
      "▁has": 454,
      "▁tim": 455,
      "▁day": 456,
      "▁one": 457,
      "ool": 458,
      "ast": 459,
      "ive": 460,
      "▁want": 461,
      "▁kid": 462,
      "We": 463,
      "▁see": 464,
      "▁it's": 465,
      "▁any": 466,
      "?[": 467,
      "▁every": 468,
      "ass": 469,
      "▁de": 470,
      "row": 471,
      "uck": 472,
      "urns": 473,
      "▁did": 474,
      "▁their": 475,
      "here": 476,
      "aa": 477,
      "▁man": 478,
      "er,": 479,
      "use": 480,
      "▁again": 481,
      "▁no": 482,
      "▁sc": 483,
      "ace": 484,
      "]I": 485,
      "ang": 486,
      "outh": 487,
      "ian": 488,
      "▁by": 489,
      "end": 490,
      "ew": 491,
      "Oh,": 492,
      "his": 493,
      "ess": 494,
      "ven": 495,
      "akes": 496,
      "▁looks": 497,
      "ure": 498,
      "ts": 499,
      "▁say": 500,
      "ate": 501,
      "ond": 502,
      "ien": 503,
      "les": 504,
      "es,": 505,
      "ation": 506,
      "th": 507,
      "ittle": 508,
      "▁walks": 509,
      "be": 510,
      "▁Sh": 511,
      "a,": 512,
      "▁can't": 513,
      "tand": 514,
      "ving": 515,
      "wo": 516,
      "up": 517,
      "▁bl": 518,
      "▁need": 519,
      "▁hand": 520,
      "▁sa": 521,
      "ft": 522,
      "▁app": 523,
      "▁tow": 524,
      "▁play": 525,
      "▁going": 526,
      "▁Kenny": 527,
      "rin": 528,
      "'ve": 529,
      "hat's": 530,
      "▁little": 531,
      "▁fl": 532,
      "ull": 533,
      "▁She": 534,
      "▁Park": 535,
      "ove": 536,
      "ause": 537,
      "▁room": 538,
      "other": 539,
      "ook": 540,
      "ame": 541,
      "ters,": 542,
      "▁ex": 543,
      "▁come": 544,
      "▁if": 545,
      "▁head": 546,
      "ops": 547,
      "ild": 548,
      "▁1": 549,
      "ies": 550,
      "ins": 551,
      "ob": 552,
      "ait": 553,
      "▁en": 554,
      "▁tr": 555,
      "y.": 556,
      "ine": 557,
      "▁you're": 558,
      ",[": 559,
      "But": 560,
      "ach": 561,
      "ose": 562,
      ".[the": 563,
      "ree": 564,
      "]A": 565,
      "ost": 566,
      ",\"I": 567,
      "ble": 568,
      "eral": 569,
      "Yeah": 570,
      "▁time": 571,
      "▁make": 572,
      "▁will": 573,
      "omet": 574,
      "▁Randy,\"": 575,
      "▁more": 576,
      "ens": 577,
      "ich": 578,
      "▁really": 579,
      "uh": 580,
      "Well,": 581,
      "▁op": 582,
      "'m": 583,
      "▁God": 584,
      "ec": 585,
      "ting": 586,
      "▁show": 587,
      "Yeah,": 588,
      "▁take": 589,
      "▁way": 590,
      "ment": 591,
      ",\"A": 592,
      "aron": 593,
      "hef": 594,
      "ber": 595,
      "▁qu": 596,
      "![the": 597,
      "ire": 598,
      "▁start": 599,
      "'ll": 600,
      "ear": 601,
      "▁sm": 602,
      "ave": 603,
      "xt": 604,
      "▁thing": 605,
      "ah": 606,
      "▁or": 607,
      "▁ar": 608,
      "▁new": 609,
      "side": 610,
      "▁how": 611,
      "▁pro": 612,
      "sel": 613,
      "chool": 614,
      "reat": 615,
      "led": 616,
      "riend": 617,
      "▁Butters,": 618,
      "▁that's": 619,
      "▁been": 620,
      "▁somet": 621,
      "▁Randy": 622,
      "▁V": 623,
      "▁2": 624,
      "▁she": 625,
      "hh": 626,
      "▁too": 627,
      "irl": 628,
      "ict": 629,
      "ge": 630,
      "au": 631,
      "▁And": 632,
      "▁Sharon": 633,
      "oll": 634,
      "old": 635,
      "▁kids": 636,
      "?!": 637,
      "ound": 638,
      "▁guys": 639,
      "ans": 640,
      "▁wat": 641,
      "ock": 642,
      "▁good": 643,
      "▁Chef": 644,
      "AA": 645,
      "▁does": 646,
      "fe": 647,
      "▁It's": 648,
      "▁two": 649,
      "▁day.": 650,
      "▁should": 651,
      "▁Mac": 652,
      "kay,": 653,
      "▁,\"The": 654,
      "ank": 655,
      "▁school": 656,
      "erald": 657,
      "ance": 658,
      "Stan": 659,
      "▁Randy,": 660,
      "▁would": 661,
      "▁Macke": 662,
      "air": 663,
      "ric": 664,
      "▁talk": 665,
      "▁work": 666,
      "age": 667,
      "▁U": 668,
      "ity": 669,
      "▁try": 670,
      "No": 671,
      "▁put": 672,
      "oman": 673,
      "ase": 674,
      "oin": 675,
      "Cartman": 676,
      "▁An": 677,
      "rinc": 678,
      "thing": 679,
      "iss": 680,
      "▁run": 681,
      "▁left": 682,
      "rough": 683,
      "ody": 684,
      "▁te": 685,
      "▁could": 686,
      "get": 687,
      "ouse": 688,
      "▁br": 689,
      "▁night": 690,
      "▁Jimm": 691,
      ",I": 692,
      "▁stop": 693,
      "▁hel": 694,
      "turns": 695,
      "▁Cartman,\"[": 696,
      "▁Man": 697,
      "▁che": 698,
      "ial": 699,
      "▁when": 700,
      "able": 701,
      "▁am": 702,
      "▁Gerald": 703,
      "ren": 704,
      "red": 705,
      "ort": 706,
      "▁dr": 707,
      "▁were": 708,
      "▁Y": 709,
      "s]": 710,
      "▁beg": 711,
      "▁through": 712,
      "▁bec": 713,
      "▁something": 714,
      "▁tell": 715,
      "ite": 716,
      "▁guy": 717,
      "▁They": 718,
      "▁we're": 719,
      "its": 720,
      "▁Butters,\"": 721,
      "▁cou": 722,
      "right": 723,
      "ude,": 724,
      "esus": 725,
      "▁Chris": 726,
      "▁und": 727,
      "▁bet": 728,
      "mer": 729,
      "▁happ": 730,
      "▁mo": 731,
      "olk": 732,
      "rad": 733,
      "▁Wend": 734,
      "ect": 735,
      "?!\n": 736,
      "ress": 737,
      "▁stand": 738,
      "we": 739,
      "▁girl": 740,
      "er.": 741,
      "▁on,": 742,
      "▁friend": 743,
      "rincip": 744,
      "▁hell": 745,
      "Kyle": 746,
      "ps": 747,
      "oss": 748,
      "rincipal": 749,
      "ue": 750,
      "▁boy": 751,
      "▁walk": 752,
      "ing,": 753,
      "hind": 754,
      "▁it,": 755,
      "▁con": 756,
      "▁What": 757,
      "ord": 758,
      "▁Cra": 759,
      "hy": 760,
      "iz": 761,
      "▁dis": 762,
      "▁front": 763,
      "ing.": 764,
      "▁mom": 765,
      "augh": 766,
      "▁mean": 767,
      "▁you,": 768,
      "▁car": 769,
      "imb": 770,
      "▁next": 771,
      "ather": 772,
      "ident": 773,
      "anna": 774,
      "self": 775,
      "▁cr": 776,
      "ub": 777,
      "▁ass": 778,
      "er,\"": 779,
      "▁ad": 780,
      "oy": 781,
      "ards": 782,
      "▁help": 783,
      "▁child": 784,
      "▁fe": 785,
      "anc": 786,
      "▁where": 787,
      "▁read": 788,
      "▁pr": 789,
      "walks": 790,
      "olkien": 791,
      "▁had": 792,
      "▁turns": 793,
      "ty": 794,
      "body": 795,
      "▁doing": 796,
      "oc": 797,
      "▁wait": 798,
      "▁cam": 799,
      "▁wanna": 800,
      "That's": 801,
      "▁goes": 802,
      "▁,\"S": 803,
      "ta": 804,
      "▁bit": 805,
      "ow,": 806,
      "▁still": 807,
      "▁let": 808,
      "aking": 809,
      "▁comp": 810,
      "▁fuck": 811,
      "▁wr": 812,
      "▁sec": 813,
      "ath": 814,
      "▁big": 815,
      "▁ke": 816,
      "▁behind": 817,
      "per": 818,
      "No,": 819,
      "orn": 820,
      "fore": 821,
      "aw": 822,
      "ish": 823,
      "▁only": 824,
      "▁cont": 825,
      "err": 826,
      "ed,": 827,
      "▁sure": 828,
      "▁house": 829,
      "▁right,": 830,
      "▁bu": 831,
      "▁he's": 832,
      "▁May": 833,
      "▁,The": 834,
      "arb": 835,
      "ears": 836,
      "▁bel": 837,
      "Hey,": 838,
      "▁Th": 839,
      "irst": 840,
      "ctor": 841,
      "ne": 842,
      "ret": 843,
      "▁ph": 844,
      "es.": 845,
      "ott": 846,
      "▁In": 847,
      "▁Principal": 848,
      "▁sl": 849,
      "act": 850,
      "▁town": 851,
      "▁Craig": 852,
      "orm": 853,
      "og": 854,
      "▁Tolkien": 855,
      "▁it.": 856,
      "ade": 857,
      "aves": 858,
      "s.\"\n": 859,
      "▁Sc": 860,
      "te": 861,
      "▁'": 862,
      "lyd": 863,
      "]You": 864,
      "▁find": 865,
      "▁gets": 866,
      "This": 867,
      "igh": 868,
      "▁Tw": 869,
      "nc": 870,
      "▁af": 871,
      "▁face": 872,
      "▁said": 873,
      "arent": 874,
      "pl": 875,
      "▁lat": 876,
      "▁even": 877,
      "av": 878,
      "▁takes": 879,
      "▁didn't": 880,
      "▁South": 881,
      "▁everyone": 882,
      "▁Jesus": 883,
      "rowd": 884,
      "ches": 885,
      "rs.": 886,
      "uff": 887,
      "▁It": 888,
      "▁well": 889,
      "ouse,": 890,
      "▁I've": 891,
      "]H": 892,
      "ough": 893,
      "ents": 894,
      "ephen": 895,
      "]W": 896,
      "Hey": 897,
      "▁Do": 898,
      "▁watch": 899,
      "▁very": 900,
      "▁being": 901,
      "▁I'll": 902,
      "▁ey": 903,
      "▁fin": 904,
      "▁another": 905,
      "▁because": 906,
      "ows": 907,
      "upid": 908,
      "sh": 909,
      "ffic": 910,
      "▁than": 911,
      "▁act": 912,
      "alls": 913,
      "]S": 914,
      "?!\"\n": 915,
      "▁home": 916,
      ",\"Oh,": 917,
      "ug": 918,
      "unn": 919,
      "▁scre": 920,
      "▁each": 921,
      "aches": 922,
      "▁Stephen": 923,
      "▁Ph": 924,
      "ign": 925,
      "▁Christ": 926,
      "imp": 927,
      "▁res": 928,
      "▁Eric": 929,
      "▁Lian": 930,
      "▁hold": 931,
      "era": 932,
      "Okay,": 933,
      "lright": 934,
      "ious": 935,
      "▁before": 936,
      "▁house,": 937,
      "▁sor": 938,
      "resident": 939,
      "▁first": 940,
      "oh": 941,
      "ings": 942,
      "uch": 943,
      "▁This": 944,
      "ed.": 945,
      "▁Kenny,": 946,
      "▁Mrs.": 947,
      "▁ac": 948,
      "eek": 949,
      "▁part": 950,
      "rap": 951,
      "▁bus": 952,
      "▁Sheil": 953,
      "▁Jimb": 954,
      "room": 955,
      "oor": 956,
      "els": 957,
      "Dude,": 958,
      "▁wind": 959,
      "▁open": 960,
      "ooks": 961,
      "▁Clyd": 962,
      "▁never": 963,
      "dam": 964,
      "▁great": 965,
      "▁lot": 966,
      "ger": 967,
      "▁real": 968,
      "▁offic": 969,
      "day": 970,
      "▁des": 971,
      "▁shot": 972,
      "▁give": 973,
      "▁Be": 974,
      "▁why": 975,
      "▁turn": 976,
      "▁table": 977,
      "eps": 978,
      "ates": 979,
      "▁laugh": 980,
      "▁arm": 981,
      "re's": 982,
      "ily": 983,
      "▁Offic": 984,
      "▁rem": 985,
      "et's": 986,
      "▁clos": 987,
      "ary": 988,
      "▁these": 989,
      "▁dri": 990,
      "icks": 991,
      "ope": 992,
      "ulls": 993,
      "▁love": 994,
      "lease": 995,
      "▁much": 996,
      "ons": 997,
      "Come": 998,
      "▁Garrison,\"": 999,
      "▁,\"South": 1000,
      "▁gl": 1001,
      "app": 1002,
      "▁co": 1003,
      "wn": 1004,
      "▁yea": 1005,
      "▁crowd": 1006,
      ".]\"\n": 1007,
      "▁while": 1008,
      "hed": 1009,
      "on,": 1010,
      "▁long": 1011,
      "▁children": 1012,
      "▁foll": 1013,
      "▁call": 1014,
      "▁better": 1015,
      "▁side": 1016,
      "]Oh": 1017,
      "▁doesn't": 1018,
      "oth": 1019,
      "▁un": 1020,
      "▁okay": 1021,
      "▁second": 1022,
      "▁belie": 1023,
      "ia": 1024,
      "▁Can": 1025,
      "▁isn't": 1026,
      "▁Bl": 1027,
      "▁sw": 1028,
      "ought": 1029,
      "ale": 1030,
      "oney": 1031,
      "ash": 1032,
      "▁know,": 1033,
      "▁parent": 1034,
      "▁camera": 1035,
      "ww": 1036,
      "oot": 1037,
      ",\"S": 1038,
      "bs": 1039,
      "▁there's": 1040,
      "▁tri": 1041,
      "▁Ike": 1042,
      "▁feel": 1043,
      "▁towards": 1044,
      "▁begins": 1045,
      "ating": 1046,
      "▁comes": 1047,
      "▁Mc": 1048,
      "ated": 1049,
      "▁gotta": 1050,
      "▁dud": 1051,
      "▁opens": 1052,
      "▁Mayor": 1053,
      "Mr.": 1054,
      "ember": 1055,
      "▁few": 1056,
      "▁Tweek": 1057,
      "▁happen": 1058,
      "ov": 1059,
      "▁may": 1060,
      "▁let's": 1061,
      "idi": 1062,
      "▁shown": 1063,
      "▁those": 1064,
      "'d": 1065,
      "▁3": 1066,
      "And": 1067,
      "▁Timm": 1068,
      "▁kind": 1069,
      "]The": 1070,
      "arm": 1071,
      "▁Ms.": 1072,
      ",\"Well,": 1073,
      "▁inside": 1074,
      "I'm": 1075,
      "▁att": 1076,
      "▁made": 1077,
      "arn": 1078,
      "▁after": 1079,
      "▁bre": 1080,
      "unch": 1081,
      "▁me,": 1082,
      "▁All": 1083,
      "▁leave": 1084,
      "uts": 1085,
      "▁Barb": 1086,
      "▁PC": 1087,
      "▁three": 1088,
      "Th": 1089,
      "▁men": 1090,
      "ex": 1091,
      "]What": 1092,
      "y's": 1093,
      "▁world": 1094,
      "▁stud": 1095,
      "▁President": 1096,
      "▁Dr.": 1097,
      "▁looking": 1098,
      "▁Cl": 1099,
      "▁must": 1100,
      "▁heard": 1101,
      "▁end": 1102,
      "▁own": 1103,
      "▁phone": 1104,
      "▁How": 1105,
      "▁believe": 1106,
      "▁kill": 1107,
      "▁woman": 1108,
      "ok": 1109,
      "▁bed": 1110,
      "usic": 1111,
      "▁stupid": 1112,
      ",\"You": 1113,
      "▁min": 1114,
      "Who": 1115,
      "▁list": 1116,
      "▁ever": 1117,
      "▁up,": 1118,
      "▁keep": 1119,
      "▁Liane": 1120,
      "ounc": 1121,
      "▁bad": 1122,
      "▁chang": 1123,
      "▁gi": 1124,
      "▁getting": 1125,
      "▁hu": 1126,
      "▁pict": 1127,
      "ward": 1128,
      "▁set": 1129,
      "▁rep": 1130,
      "▁which": 1131,
      "▁last": 1132,
      "illip": 1133,
      "▁He's": 1134,
      "ator": 1135,
      "▁sn": 1136,
      "umb": 1137,
      "▁Sp": 1138,
      "▁class": 1139,
      "▁Terr": 1140,
      "▁son": 1141,
      "Uh": 1142,
      "▁Mars": 1143,
      "erstand": 1144,
      "oon": 1145,
      "▁appro": 1146,
      "▁night.": 1147,
      "▁thought": 1148,
      ",\"H": 1149,
      "▁fam": 1150,
      "▁rest": 1151,
      ",What": 1152,
      "-\"\n": 1153,
      "meric": 1154,
      "▁Officer": 1155,
      "ry,": 1156,
      "▁lead": 1157,
      "▁anything": 1158,
      "uc": 1159,
      "▁Ste": 1160,
      "▁understand": 1161,
      "▁window": 1162,
      "▁ser": 1163,
      "Look": 1164,
      "cl": 1165,
      "▁el": 1166,
      "▁That's": 1167,
      "y!": 1168,
      "acks": 1169,
      "▁they're": 1170,
      "▁care": 1171,
      "▁supp": 1172,
      "▁Phillip": 1173,
      "▁trying": 1174,
      "▁hands": 1175,
      "erson": 1176,
      "ise": 1177,
      ".[s": 1178,
      "ount": 1179,
      "▁things": 1180,
      "▁now,": 1181,
      "ie,": 1182,
      "▁parents": 1183,
      "▁We're": 1184,
      "]D": 1185,
      "az": 1186,
      "tain": 1187,
      "▁You're": 1188,
      "reet": 1189,
      "read": 1190,
      "lement": 1191,
      "▁per": 1192,
      "y.\"\n": 1193,
      "rand": 1194,
      "▁4": 1195,
      "Butters": 1196,
      "▁four": 1197,
      "hole": 1198,
      "▁-": 1199,
      "▁Cartman,[": 1200,
      "▁Barbrad": 1201,
      "▁Heidi": 1202,
      "Yes,": 1203,
      "▁Woman": 1204,
      "ream": 1205,
      "▁If": 1206,
      ".\"\"": 1207,
      "rid": 1208,
      "aces": 1209,
      "▁Stan,\"[": 1210,
      "▁cal": 1211,
      "ax": 1212,
      "▁bab": 1213,
      "ike": 1214,
      "▁money": 1215,
      "▁seen": 1216,
      "iv": 1217,
      "more": 1218,
      "▁mat": 1219,
      "It's": 1220,
      "aring": 1221,
      "▁Mackey,\"": 1222,
      "leas": 1223,
      "▁Ann": 1224,
      ",\"Oh": 1225,
      "...\n": 1226,
      "ik": 1227,
      ".[a": 1228,
      "▁Tom": 1229,
      "▁outside": 1230,
      "▁Element": 1231,
      "]G": 1232,
      "▁cle": 1233,
      "eak": 1234,
      "head": 1235,
      "amp": 1236,
      "▁eyes": 1237,
      "▁under": 1238,
      "gether": 1239,
      "mm": 1240,
      "veryone": 1241,
      "▁runs": 1242,
      "▁fat": 1243,
      "▁stops": 1244,
      "so": 1245,
      "▁plan": 1246,
      "vin": 1247,
      "▁light": 1248,
      "▁appears": 1249,
      "▁wrong": 1250,
      "▁told": 1251,
      "▁music": 1252,
      "▁Jimbo": 1253,
      "ail": 1254,
      "ually": 1255,
      "▁fight": 1256,
      "▁himself": 1257,
      "udd": 1258,
      "▁sk": 1259,
      "ork": 1260,
      "▁uh": 1261,
      "▁Americ": 1262,
      "▁what's": 1263,
      "▁place": 1264,
      "▁Sheila": 1265,
      "uns": 1266,
      "blem": 1267,
      "sw": 1268,
      "Yeah.": 1269,
      "00": 1270,
      "lright,": 1271,
      "▁starts": 1272,
      "Kenn": 1273,
      "▁Oh": 1274,
      "▁hard": 1275,
      "▁seat": 1276,
      "▁shit": 1277,
      "▁follow": 1278,
      "looks": 1279,
      "▁stuff": 1280,
      "▁everything": 1281,
      "▁Scott": 1282,
      "▁pulls": 1283,
      "ips": 1284,
      "▁TV": 1285,
      "▁it!": 1286,
      "ever": 1287,
      "▁move": 1288,
      "...\"\n": 1289,
      "▁cool": 1290,
      "▁its": 1291,
      "]Oh,": 1292,
      "▁sorry": 1293,
      "▁sign": 1294,
      "▁problem": 1295,
      "fl": 1296,
      "▁pret": 1297,
      "en,": 1298,
      "▁rec": 1299,
      ",You": 1300,
      "▁Te": 1301,
      "▁old": 1302,
      "inger": 1303,
      "▁talking": 1304,
      "oice": 1305,
      "▁together": 1306,
      "▁Dad": 1307,
      "roup": 1308,
      "So": 1309,
      "ng": 1310,
      "less": 1311,
      "▁might": 1312,
      "They": 1313,
      "How": 1314,
      "ions": 1315,
      "ss": 1316,
      "▁sit": 1317,
      ".[p": 1318,
      "amm": 1319,
      "ix": 1320,
      "▁ent": 1321,
      "ecial": 1322,
      "]We": 1323,
      "mas": 1324,
      "ide,": 1325,
      "▁doll": 1326,
      "olice": 1327,
      "]O": 1328,
      "That": 1329,
      "▁uh,": 1330,
      "▁guess": 1331,
      "ictor": 1332,
      "weet": 1333,
      "▁pass": 1334,
      "ary,": 1335,
      "iew": 1336,
      "▁quick": 1337,
      "arr": 1338,
      "]M": 1339,
      "▁girls": 1340,
      "]N": 1341,
      "▁Lind": 1342,
      ")\n": 1343,
      "▁Canad": 1344,
      "▁else": 1345,
      "mb": 1346,
      "itc": 1347,
      "▁leaves": 1348,
      "▁living": 1349,
      "▁box": 1350,
      "▁playing": 1351,
      "▁,\"A": 1352,
      "ump": 1353,
      "▁Sat": 1354,
      "Uh,": 1355,
      "▁Kyle,\"[": 1356,
      "▁sound": 1357,
      "ines": 1358,
      "▁best": 1359,
      "▁please": 1360,
      "ime": 1361,
      "▁picture": 1362,
      "ful": 1363,
      "▁sur": 1364,
      "a.": 1365,
      "▁sits": 1366,
      "uss": 1367,
      "▁aw": 1368,
      "inks": 1369,
      "vers": 1370,
      "aps": 1371,
      "ult": 1372,
      "ross": 1373,
      "▁dude": 1374,
      "a-": 1375,
      "▁poin": 1376,
      "▁him.": 1377,
      "▁ask": 1378,
      "ience": 1379,
      "▁Terrance": 1380,
      "oes": 1381,
      "▁Garrison,": 1382,
      "▁Kenny,(": 1383,
      "▁Now": 1384,
      "▁begin": 1385,
      "▁Come": 1386,
      "▁name": 1387,
      "▁cat": 1388,
      "▁it.\"\n": 1389,
      "ead": 1390,
      "h.": 1391,
      "▁street": 1392,
      "▁nothing": 1393,
      "eter": 1394,
      "ield": 1395,
      "▁room.": 1396,
      "▁count": 1397,
      "▁Mom": 1398,
      "amn": 1399,
      "ower": 1400,
      "▁Br": 1401,
      "▁Han": 1402,
      "AAAA": 1403,
      "▁floor": 1404,
      "▁imp": 1405,
      "key": 1406,
      "▁Clyde": 1407,
      "▁minut": 1408,
      "s.\n": 1409,
      "▁pre": 1410,
      "▁stay": 1411,
      "▁hall": 1412,
      "▁here,": 1413,
      "ises": 1414,
      "▁Jimmy": 1415,
      "ved": 1416,
      "ling": 1417,
      "ton": 1418,
      ",\"Yeah,": 1419,
      "▁done": 1420,
      "ands": 1421,
      "▁New": 1422,
      "▁tra": 1423,
      "▁Cartman's": 1424,
      "▁today": 1425,
      "▁Let's": 1426,
      "▁enough": 1427,
      "Rand": 1428,
      "▁ball": 1429,
      "▁Bill": 1430,
      "ter,": 1431,
      "▁guys,": 1432,
      "▁That": 1433,
      "▁Al": 1434,
      "rows": 1435,
      "ohn": 1436,
      "oves": 1437,
      "▁answ": 1438,
      "▁Victor": 1439,
      "der": 1440,
      "▁fire": 1441,
      "▁person": 1442,
      "▁listen": 1443,
      "dy": 1444,
      "▁ang": 1445,
      "All": 1446,
      "ipp": 1447,
      "where": 1448,
      "...[": 1449,
      "▁God,": 1450,
      "?![": 1451,
      "▁small": 1452,
      "OO": 1453,
      "▁won't": 1454,
      "▁exc": 1455,
      "▁bitch": 1456,
      "▁Announc": 1457,
      "Yes": 1458,
      "▁id": 1459,
      "▁makes": 1460,
      "▁acc": 1461,
      "anks": 1462,
      "▁life": 1463,
      "iet": 1464,
      "ner": 1465,
      "osed": 1466,
      "▁dead": 1467,
      "▁hear": 1468,
      "▁whole": 1469,
      "▁pretty": 1470,
      "cks": 1471,
      "▁huh": 1472,
      "▁most": 1473,
      "!!": 1474,
      "ael": 1475,
      "▁Well": 1476,
      "eople": 1477,
      "ib": 1478,
      "▁family": 1479,
      "▁sing": 1480,
      "▁song": 1481,
      "▁group": 1482,
      "tant": 1483,
      "▁contin": 1484,
      "rr": 1485,
      "▁fun": 1486,
      "aaaa": 1487,
      "ichael": 1488,
      "▁stands": 1489,
      "▁cour": 1490,
      "▁him,": 1491,
      "ways": 1492,
      "▁maybe": 1493,
      "▁no,": 1494,
      "ction": 1495,
      "▁seem": 1496,
      "roll": 1497,
      "▁ground": 1498,
      "▁Mar": 1499,
      "▁live": 1500,
      "Why": 1501,
      "ning": 1502,
      "▁moves": 1503,
      "i,": 1504,
      "▁idea": 1505,
      ",\"N": 1506,
      "▁pres": 1507,
      "▁Shell": 1508,
      "▁later.": 1509,
      "▁No": 1510,
      "▁vide": 1511,
      "▁actually": 1512,
      "che": 1513,
      "owel": 1514,
      "▁use": 1515,
      "▁Christmas": 1516,
      "▁My": 1517,
      "!\"\"": 1518,
      "an,": 1519,
      "▁ca": 1520,
      "▁Gu": 1521,
      "opp": 1522,
      "▁chair": 1523,
      "rent": 1524,
      "▁sir": 1525,
      "▁Doctor": 1526,
      "▁desk": 1527,
      "ly,": 1528,
      "ole": 1529,
      "▁So": 1530,
      "▁Jew": 1531,
      "ices": 1532,
      "▁str": 1533,
      "▁coming": 1534,
      "ues": 1535,
      "▁dad": 1536,
      "▁learn": 1537,
      "rest": 1538,
      "▁bas": 1539,
      "▁eat": 1540,
      "▁Re": 1541,
      "ello": 1542,
      "ple": 1543,
      "▁bro": 1544,
      "▁gay": 1545,
      "▁wee": 1546,
      "]And": 1547,
      "-b": 1548,
      "ani": 1549,
      ",\"M": 1550,
      "▁gra": 1551,
      "tern": 1552,
      "▁having": 1553,
      "▁,S": 1554,
      "sk": 1555,
      "sp": 1556,
      "▁sees": 1557,
      "ries": 1558,
      "▁word": 1559,
      "▁build": 1560,
      "raw": 1561,
      "▁right.": 1562,
      "▁mean,": 1563,
      ",\"The": 1564,
      "▁John": 1565,
      "ntil": 1566,
      "▁you.": 1567,
      "▁nice": 1568,
      "▁gun": 1569,
      "▁Kyle,[": 1570,
      "▁away.": 1571,
      "Don't": 1572,
      "▁black": 1573,
      "aur": 1574,
      "ball": 1575,
      "takes": 1576,
      "▁ev": 1577,
      "ants": 1578,
      "▁Michael": 1579,
      "▁Mackey": 1580,
      "▁friends": 1581,
      "▁making": 1582,
      "▁Just": 1583,
      "leep": 1584,
      "ush": 1585,
      "▁onto": 1586,
      "We're": 1587,
      "oooo": 1588,
      "ared": 1589,
      "▁1,": 1590,
      "▁puts": 1591,
      "▁dif": 1592,
      "ocks": 1593,
      "▁Why": 1594,
      "▁Wendy": 1595,
      "▁Wendy,": 1596,
      "▁there,": 1597,
      "▁along": 1598,
      "?[the": 1599,
      "▁Jimmy,\"": 1600,
      "▁aud": 1601,
      "ient": 1602,
      "you": 1603,
      "▁we've": 1604,
      "▁enter": 1605,
      "▁arri": 1606,
      "▁pap": 1607,
      "vis": 1608,
      "ene": 1609,
      "▁book": 1610,
      "▁Wh": 1611,
      "▁called": 1612,
      "itch": 1613,
      "▁meet": 1614,
      "▁room,": 1615,
      "▁McD": 1616,
      "form": 1617,
      "mor": 1618,
      "▁Red": 1619,
      "▁tw": 1620,
      "▁crap": 1621,
      "▁ready": 1622,
      "not": 1623,
      "ition": 1624,
      "orter": 1625,
      "▁says": 1626,
      "▁Marsh": 1627,
      "-[": 1628,
      "▁you've": 1629,
      "▁There's": 1630,
      "▁ret": 1631,
      ",\"And": 1632,
      ",\"W": 1633,
      "ention": 1634,
      "olog": 1635,
      "ier": 1636,
      ",\"O": 1637,
      "▁mouth": 1638,
      "▁until": 1639,
      "umps": 1640,
      "Kenny": 1641,
      "ph": 1642,
      "s]\"\n": 1643,
      "gets": 1644,
      "ying": 1645,
      "rol": 1646,
      "▁Randy,\"[": 1647,
      "▁screen": 1648,
      "▁air": 1649,
      "▁sex": 1650,
      "▁enters": 1651,
      "▁found": 1652,
      "▁both": 1653,
      ",\"G": 1654,
      "▁deal": 1655,
      "]I'm": 1656,
      "Just": 1657,
      "ors": 1658,
      "▁dress": 1659,
      "▁El": 1660,
      "ual": 1661,
      "▁em": 1662,
      "ible": 1663,
      "one,": 1664,
      "ides": 1665,
      "▁red": 1666,
      "▁anymore": 1667,
      "nce": 1668,
      "ama": 1669,
      "▁always": 1670,
      "▁bring": 1671,
      "my": 1672,
      "▁wall": 1673,
      "▁that,": 1674,
      "ept": 1675,
      "acher": 1676,
      "▁shows": 1677,
      "St": 1678,
      "ushes": 1679,
      "▁Towel": 1680,
      "]E": 1681,
      "gg": 1682,
      "▁...": 1683,
      "▁saying": 1684,
      "ecause": 1685,
      "ru": 1686,
      "▁Pip": 1687,
      "▁win": 1688,
      "▁miss": 1689,
      "itting": 1690,
      "arge": 1691,
      "▁steps": 1692,
      "▁fucking": 1693,
      "▁supposed": 1694,
      "▁funn": 1695,
      "oop": 1696,
      "▁up.": 1697,
      "▁well,": 1698,
      "]T": 1699,
      "br": 1700,
      "▁forward": 1701,
      "illed": 1702,
      "▁Elementary,": 1703,
      "▁2,": 1704,
      "Look,": 1705,
      "Do": 1706,
      "bo": 1707,
      "▁me.": 1708,
      "▁McDani": 1709,
      "]He": 1710,
      "▁bar": 1711,
      "▁aren't": 1712,
      "w,": 1713,
      "▁hur": 1714,
      "▁Jimmy,": 1715,
      "▁Don't": 1716,
      "▁park": 1717,
      "▁Stan,[": 1718,
      "▁mar": 1719,
      "▁As": 1720,
      "▁roll": 1721,
      "reen": 1722,
      "▁Is": 1723,
      ".[turns": 1724,
      "▁Rep": 1725,
      "No!": 1726,
      "ied": 1727,
      "▁past": 1728,
      "ird": 1729,
      "▁join": 1730,
      "▁against": 1731,
      "▁hang": 1732,
      "▁police": 1733,
      "▁Coon": 1734,
      "arts": 1735,
      "▁resp": 1736,
      "▁you.\"\n": 1737,
      "irt": 1738,
      "▁job": 1739,
      "▁dec": 1740,
      "▁taking": 1741,
      "▁same": 1742,
      "selves": 1743,
      "damn": 1744,
      "▁watching": 1745,
      "m,": 1746,
      "▁view": 1747,
      "▁others": 1748,
      "▁pen": 1749,
      "▁Ke": 1750,
      "Sh": 1751,
      "▁im": 1752,
      ".[walks": 1753,
      "ief": 1754,
      "▁mov": 1755,
      "▁falls": 1756,
      "▁game": 1757,
      "lder": 1758,
      "itchen": 1759,
      "▁video": 1760,
      "▁pos": 1761,
      "▁we'll": 1762,
      "▁Ne": 1763,
      ",\"All": 1764,
      "ory": 1765,
      "▁smile": 1766,
      "Ch": 1767,
      "▁sweet": 1768,
      "▁Satan": 1769,
      "arth": 1770,
      "▁Fr": 1771,
      ",A": 1772,
      "runs": 1773,
      "▁morn": 1774,
      "idd": 1775,
      "▁alread": 1776,
      "▁took": 1777,
      "▁Sm": 1778,
      "▁Cartman,\"I": 1779,
      "ape": 1780,
      "▁special": 1781,
      "▁prot": 1782,
      "pa": 1783,
      "▁z": 1784,
      "▁finally": 1785,
      "▁food": 1786,
      "▁line": 1787,
      "▁yeah": 1788,
      "-f": 1789,
      ",\"No,": 1790,
      "▁De": 1791,
      "ife": 1792,
      "-s": 1793,
      "▁tot": 1794,
      "oof": 1795,
      "▁news": 1796,
      "ures": 1797,
      "et,": 1798,
      "▁Bo": 1799,
      "▁Park,": 1800,
      "▁closes": 1801,
      "▁break": 1802,
      "'kay": 1803,
      "rew": 1804,
      "▁pay": 1805,
      "ets": 1806,
      "come": 1807,
      "▁5": 1808,
      "any": 1809,
      "arl": 1810,
      "▁Boy": 1811,
      "▁check": 1812,
      "oke": 1813,
      "t.": 1814,
      "▁cho": 1815,
      "▁matter": 1816,
      "▁diffe": 1817,
      "▁Com": 1818,
      "▁once": 1819,
      "▁Who": 1820,
      "▁sof": 1821,
      "▁approaches": 1822,
      "▁Linda": 1823,
      "▁store": 1824,
      "▁Kyle.": 1825,
      "▁shut": 1826,
      "▁across": 1827,
      "▁Kyle's": 1828,
      "▁Oh,": 1829,
      "▁water": 1830,
      "Randy": 1831,
      "]B": 1832,
      "cc": 1833,
      "ats": 1834,
      "ims": 1835,
      "▁,A": 1836,
      "▁voice": 1837,
      "▁appear": 1838,
      "len": 1839,
      "▁cut": 1840,
      "▁din": 1841,
      "▁gr": 1842,
      "agin": 1843,
      "▁lock": 1844,
      "▁hair": 1845,
      "![s": 1846,
      "ly.": 1847,
      "ing.\"\n": 1848,
      "▁Clyde,": 1849,
      "▁yeah,": 1850,
      "▁audience": 1851,
      "ital": 1852,
      "▁grad": 1853,
      "▁year": 1854,
      "▁high": 1855,
      "▁kitchen": 1856,
      "You're": 1857,
      "▁Stan,What": 1858,
      "▁comput": 1859,
      "▁tur": 1860,
      "▁rel": 1861,
      "▁hot": 1862,
      "▁came": 1863,
      "Can": 1864,
      "▁(": 1865,
      "▁out,": 1866,
      "▁dude,": 1867,
      "▁Col": 1868,
      "▁Go": 1869,
      "▁Chef,": 1870,
      "▁change": 1871,
      "Let's": 1872,
      "▁lad": 1873,
      "vel": 1874,
      "▁on.": 1875,
      "▁heads": 1876,
      "it,": 1877,
      "ams": 1878,
      "▁again,": 1879,
      "▁On": 1880,
      "▁someone": 1881,
      "▁comm": 1882,
      "▁house.": 1883,
      "▁country": 1884,
      "-h": 1885,
      "ann": 1886,
      "ement": 1887,
      "▁add": 1888,
      "▁already": 1889,
      "ium": 1890,
      "▁Butters,\"[": 1891,
      "▁free": 1892,
      "▁young": 1893,
      "ical": 1894,
      "▁ra": 1895,
      "▁Kyle,I": 1896,
      "▁Steven": 1897,
      "▁see,": 1898,
      "▁present": 1899,
      "cer": 1900,
      "▁soon": 1901,
      "▁Stan,I": 1902,
      "ize": 1903,
      "▁fac": 1904,
      "▁foot": 1905,
      "![p": 1906,
      "▁wanted": 1907,
      "a!": 1908,
      "▁Stan,\"Dude,": 1909,
      "▁mind": 1910,
      "▁without": 1911,
      "▁saw": 1912,
      ")\"\n": 1913,
      "▁bat": 1914,
      "▁bur": 1915,
      "ese": 1916,
      "▁Mark": 1917,
      "ween": 1918,
      "ence": 1919,
      "▁Bob": 1920,
      "▁quickly": 1921,
      "ited": 1922,
      "]It's": 1923,
      "▁Victoria": 1924,
      ",\"We": 1925,
      "eneral": 1926,
      "▁,\"Cartman": 1927,
      "co": 1928,
      "▁cra": 1929,
      "▁die": 1930,
      "▁fore": 1931,
      "▁rid": 1932,
      "▁happened": 1933,
      "-m": 1934,
      "![a": 1935,
      "▁Kyle,What": 1936,
      "ram": 1937,
      "▁five": 1938,
      "enter": 1939,
      "▁remember": 1940,
      "▁tak": 1941,
      "ister": 1942,
      "owers": 1943,
      "▁Two": 1944,
      "▁Bro": 1945,
      "▁Stan's": 1946,
      "▁close": 1947,
      "Okay": 1948,
      "et.": 1949,
      "Jesus": 1950,
      "pt": 1951,
      "▁Me": 1952,
      "▁Thom": 1953,
      "-t": 1954,
      "▁cur": 1955,
      "▁out.": 1956,
      "igg": 1957,
      "▁guys.": 1958,
      "▁father": 1959,
      "ason": 1960,
      "▁wants": 1961,
      "▁blood": 1962,
      "▁drops": 1963,
      "▁full": 1964,
      "▁Kenny,\"": 1965,
      "▁such": 1966,
      "In": 1967,
      "My": 1968,
      "▁Con": 1969,
      "▁Grand": 1970,
      "▁Dav": 1971,
      "▁wearing": 1972,
      "▁quest": 1973,
      "▁bath": 1974,
      "▁Pro": 1975,
      "▁times": 1976,
      "▁man,": 1977,
      ",\"I'm": 1978,
      "▁Bebe": 1979,
      "ground": 1980,
      "gins": 1981,
      "ii": 1982,
      "▁Kid": 1983,
      "??\n": 1984,
      "uth": 1985,
      "▁Mackey,": 1986,
      "▁later": 1987,
      ",Oh": 1988,
      "most": 1989,
      "lect": 1990,
      "▁mother": 1991,
      "▁Sant": 1992,
      "▁Get": 1993,
      "▁cheer": 1994,
      "ler": 1995,
      "▁away]\"\n": 1996,
      "Yeah!": 1997,
      "▁They're": 1998,
      "▁toile": 1999,
      "hold": 2000,
      "He's": 2001,
      "ject": 2002,
      "▁band": 2003,
      ",\"What": 2004,
      "▁hate": 2005,
      "▁Sheila,": 2006,
      "cause": 2007,
      "▁bra": 2008,
      "▁ce": 2009,
      "ots": 2010,
      "▁Cartman,I": 2011,
      "▁speak": 2012,
      "▁sorry,": 2013,
      "land": 2014,
      "▁cry": 2015,
      "als": 2016,
      "▁it.\n": 2017,
      "Stan,": 2018,
      "▁stri": 2019,
      "h-": 2020,
      ",\"Hey,": 2021,
      ",\"Yes,": 2022,
      "ists": 2023,
      "▁Yates": 2024,
      "hest": 2025,
      "▁sy": 2026,
      "▁pri": 2027,
      "▁alone": 2028,
      "▁Wendy,\"": 2029,
      "ote": 2030,
      "ion,": 2031,
      "▁she's": 2032,
      "▁Jimbo,": 2033,
      "▁gone": 2034,
      "or,": 2035,
      "▁Max": 2036,
      "alf": 2037,
      ".[Cartman": 2038,
      "▁Hat": 2039,
      "▁Je": 2040,
      "▁serious": 2041,
      "ness": 2042,
      "ooo": 2043,
      "ians": 2044,
      "side,": 2045,
      "▁okay,": 2046,
      "▁door.": 2047,
      "▁moment": 2048,
      "]This": 2049,
      "▁tomor": 2050,
      "▁mon": 2051,
      "▁Look": 2052,
      "▁here.": 2053,
      "▁suck": 2054,
      "▁control": 2055,
      "▁tomorrow": 2056,
      "Huh": 2057,
      "kes": 2058,
      ",\"E": 2059,
      "▁Sl": 2060,
      "▁Pet": 2061,
      "▁Are": 2062,
      "▁kick": 2063,
      "▁couple": 2064,
      "onight": 2065,
      "▁hope": 2066,
      "▁Some": 2067,
      "▁away,": 2068,
      "oints": 2069,
      "▁damn": 2070,
      "▁mill": 2071,
      "omen": 2072,
      "▁Jenn": 2073,
      "▁Str": 2074,
      "▁Hanke": 2075,
      "▁hallway": 2076,
      "▁paper": 2077,
      "t,": 2078,
      "▁ho": 2079,
      "▁Hall": 2080,
      "io": 2081,
      "▁mic": 2082,
      "▁super": 2083,
      "▁many": 2084,
      ",\"It's": 2085,
      "▁totally": 2086,
      "▁There": 2087,
      ",\"[s": 2088,
      "▁Sharon,": 2089,
      "exic": 2090,
      "]F": 2091,
      "ives": 2092,
      "und": 2093,
      "▁waiting": 2094,
      "▁students": 2095,
      "▁Steve": 2096,
      "aving": 2097,
      ",\"T": 2098,
      "▁Ag": 2099,
      "▁goin'": 2100,
      "▁between": 2101,
      "▁conf": 2102,
      "▁'cause": 2103,
      "▁sleep": 2104,
      "▁hor": 2105,
      "ither": 2106,
      "▁Cho": 2107,
      "▁stage": 2108,
      "▁Timmy": 2109,
      "▁different": 2110,
      "tle": 2111,
      "▁6": 2112,
      "▁doctor": 2113,
      "▁them.": 2114,
      "▁white": 2115,
      "ovsk": 2116,
      "moves": 2117,
      "▁fre": 2118,
      "ed.\"\n": 2119,
      "▁Kenny,\"(": 2120,
      "▁People": 2121,
      "begins": 2122,
      "▁expl": 2123,
      "▁hour": 2124,
      "ad,": 2125,
      "flovsk": 2126,
      "[the": 2127,
      "ia,": 2128,
      "▁years": 2129,
      "▁Lord": 2130,
      "▁wasn't": 2131,
      "by": 2132,
      "ce,": 2133,
      "▁thank": 2134,
      "]All": 2135,
      "▁arms": 2136,
      "▁taken": 2137,
      "uh,": 2138,
      "▁Q": 2139,
      "lease,": 2140,
      "▁answer": 2141,
      "▁Well,": 2142,
      "-o": 2143,
      "She": 2144,
      "▁eating": 2145,
      "vern": 2146,
      "oses": 2147,
      "\"\"\"\n": 2148,
      "▁now.": 2149,
      "▁teacher": 2150,
      "▁drink": 2151,
      "▁holding": 2152,
      "-w": 2153,
      "lic": 2154,
      ",\"B": 2155,
      "▁pie": 2156,
      "▁inter": 2157,
      "aster": 2158,
      "ames": 2159,
      "▁leg": 2160,
      "iff": 2161,
      "▁holds": 2162,
      "▁bathroom": 2163,
      "ense": 2164,
      "▁dog": 2165,
      "▁Stan,\"Yeah,": 2166,
      "▁tries": 2167,
      "▁top": 2168,
      "▁board": 2169,
      "▁again.": 2170,
      "▁sitting": 2171,
      "▁is,": 2172,
      "▁impor": 2173,
      "duc": 2174,
      "oom": 2175,
      "iness": 2176,
      "▁went": 2177,
      "▁dou": 2178,
      "▁gas": 2179,
      "▁Everyone": 2180,
      "▁working": 2181,
      "now": 2182,
      "ince": 2183,
      "▁killed": 2184,
      "▁One": 2185,
      "onder": 2186,
      ".[they": 2187,
      "osp": 2188,
      "ello,": 2189,
      "▁office": 2190,
      "▁somebody": 2191,
      "▁dream": 2192,
      "▁heart": 2193,
      "▁His": 2194,
      "▁Your": 2195,
      "▁used": 2196,
      "▁boys,": 2197,
      "com": 2198,
      "▁Mexic": 2199,
      "▁butt": 2200,
      "▁down,": 2201,
      "ahah": 2202,
      "hhh": 2203,
      "▁team": 2204,
      "]P": 2205,
      "▁bull": 2206,
      "▁mess": 2207,
      "ute": 2208,
      "raid": 2209,
      "▁body": 2210,
      "▁Gerald,": 2211,
      "iddle": 2212,
      "arry": 2213,
      "▁boo": 2214,
      "▁dumb": 2215,
      "▁fell": 2216,
      "▁pain": 2217,
      "▁large": 2218,
      "ice,": 2219,
      "▁ru": 2220,
      "▁also": 2221,
      "▁time,": 2222,
      "▁continues": 2223,
      "▁col": 2224,
      "▁bell": 2225,
      "▁him]\"\n": 2226,
      "▁slow": 2227,
      "▁penis": 2228,
      "cial": 2229,
      "uart": 2230,
      "▁squ": 2231,
      "▁ind": 2232,
      "▁Den": 2233,
      "ange": 2234,
      "Kyle,": 2235,
      "▁asshole": 2236,
      "▁Craig,": 2237,
      "-p": 2238,
      "goes": 2239,
      "▁bag": 2240,
      "▁ya": 2241,
      "▁pull": 2242,
      "uture": 2243,
      "▁yourself": 2244,
      "aptain": 2245,
      "▁scene": 2246,
      "▁Kenny's": 2247,
      "▁Towelie": 2248,
      "]Hey,": 2249,
      "▁law": 2250,
      "▁reaches": 2251,
      "▁means": 2252,
      "ephest": 2253,
      "▁sofa": 2254,
      "▁Jeff": 2255,
      "▁int": 2256,
      "stops": 2257,
      "▁Intern": 2258,
      "iver": 2259,
      "rit": 2260,
      "lete": 2261,
      "▁Chin": 2262,
      "ance,": 2263,
      "grid": 2264,
      "o.": 2265,
      "▁throws": 2266,
      "ults": 2267,
      "▁Broflovsk": 2268,
      "God": 2269,
      "▁9": 2270,
      "let": 2271,
      "▁hon": 2272,
      "ters.": 2273,
      "▁We've": 2274,
      "itty": 2275,
      "▁buy": 2276,
      "▁afraid": 2277,
      "▁Timmy,": 2278,
      "▁gives": 2279,
      "▁war": 2280,
      "▁bott": 2281,
      "ley": 2282,
      "▁fall": 2283,
      "▁power": 2284,
      "▁this,": 2285,
      "athan": 2286,
      "▁'em": 2287,
      "▁important": 2288,
      "-\n": 2289,
      "▁Rich": 2290,
      "![walks": 2291,
      "▁Jap": 2292,
      "▁alright": 2293,
      "▁Tolkien,": 2294,
      "]Hey": 2295,
      "▁sick": 2296,
      "▁hat": 2297,
      "▁I'd": 2298,
      "▁off.": 2299,
      "▁know.": 2300,
      "▁computer": 2301,
      "[p": 2302,
      "▁balls": 2303,
      ".[he": 2304,
      "▁Cartman,\"A": 2305,
      "▁Cartman,What": 2306,
      "-c": 2307,
      "ih": 2308,
      "leaves": 2309,
      "▁beat": 2310,
      "▁Cartman,\"Oh,": 2311,
      "▁who's": 2312,
      "xc": 2313,
      "om,": 2314,
      "▁ann": 2315,
      "yster": 2316,
      "sc": 2317,
      ".[h": 2318,
      "▁Ad": 2319,
      "▁almost": 2320,
      "▁day,": 2321,
      "▁exp": 2322,
      "▁cross": 2323,
      "ances": 2324,
      "▁entr": 2325,
      "▁Z": 2326,
      "▁inv": 2327,
      "▁ring": 2328,
      "▁rings": 2329,
      "▁Then": 2330,
      "umm": 2331,
      "▁Stuart": 2332,
      "▁doors": 2333,
      "obody": 2334,
      "]But": 2335,
      "oud": 2336,
      "▁whe": 2337,
      "▁fly": 2338,
      "▁lost": 2339,
      "ative": 2340,
      "esome": 2341,
      "▁Pat": 2342,
      "▁back,": 2343,
      "▁hom": 2344,
      "▁you?\"\n": 2345,
      "▁Mephest": 2346,
      "▁What's": 2347,
      "▁Rob": 2348,
      "ally,": 2349,
      "▁me!": 2350,
      "Re": 2351,
      "▁simp": 2352,
      "▁shock": 2353,
      "ung": 2354,
      "▁like,": 2355,
      "▁standing": 2356,
      "▁Next": 2357,
      "▁tou": 2358,
      "▁ap": 2359,
      "▁At": 2360,
      "▁,\"C": 2361,
      "▁door,": 2362,
      "▁dollars": 2363,
      "▁dire": 2364,
      "▁brother": 2365,
      "▁Japan": 2366,
      "▁piss": 2367,
      "opens": 2368,
      "unk": 2369,
      "▁anyone": 2370,
      "▁#": 2371,
      "▁tre": 2372,
      "▁that?\n": 2373,
      "▁send": 2374,
      "unt": 2375,
      "▁everybody": 2376,
      "▁walking": 2377,
      ",The": 2378,
      "Right": 2379,
      "erk": 2380,
      "▁it!\"\n": 2381,
      ",\"Alright,": 2382,
      "▁quiet": 2383,
      "▁happy": 2384,
      "Not": 2385,
      "int": 2386,
      "▁pur": 2387,
      "▁Pr": 2388,
      "▁shoo": 2389,
      "ven't": 2390,
      "▁David": 2391,
      "OU": 2392,
      "be,": 2393,
      "e!": 2394,
      "▁finger": 2395,
      "▁oh": 2396,
      "▁pick": 2397,
      "▁Where": 2398,
      "▁Cartman,\"You": 2399,
      "▁them,": 2400,
      "eez": 2401,
      "Thank": 2402,
      "▁Marvin": 2403,
      "▁McDaniels": 2404,
      "▁Santa": 2405,
      "▁toilet": 2406,
      "▁women": 2407,
      "▁you!": 2408,
      ".[Stan": 2409,
      "▁fine": 2410,
      "▁fish": 2411,
      "▁grow": 2412,
      "▁gather": 2413,
      "ably": 2414,
      "▁days": 2415,
      "▁plays": 2416,
      "ountain": 2417,
      "▁sile": 2418,
      "ooh": 2419,
      "▁Kim": 2420,
      "▁truck": 2421,
      "![they": 2422,
      "ney": 2423,
      "▁bedroom": 2424,
      "hin'": 2425,
      "wh": 2426,
      "with": 2427,
      "▁tonight": 2428,
      "orad": 2429,
      "▁stat": 2430,
      "▁baby": 2431,
      "▁clear": 2432,
      "▁dressed": 2433,
      "AR": 2434,
      "]L": 2435,
      "son": 2436,
      "▁wonder": 2437,
      "▁m'kay": 2438,
      "![turns": 2439,
      "▁rock": 2440,
      "▁started": 2441,
      "▁return": 2442,
      "gridy": 2443,
      "▁ter": 2444,
      "▁six": 2445,
      "ndred": 2446,
      "addam": 2447,
      "▁Randy,[": 2448,
      "▁hundred": 2449,
      "▁Reporter": 2450,
      "▁trou": 2451,
      "▁ahead": 2452,
      "ers,": 2453,
      "![he": 2454,
      "igure": 2455,
      "Yeah.\n": 2456,
      "Yeah!\n": 2457,
      "▁course": 2458,
      "Where": 2459,
      "▁bunch": 2460,
      "imes": 2461,
      "amed": 2462,
      "▁,\"Stan": 2463,
      "▁Cartman,\"Yeah,": 2464,
      "▁around,": 2465,
      "▁nobody": 2466,
      "▁Black": 2467,
      "▁Maxi": 2468,
      "ospital": 2469,
      "ES": 2470,
      "pris": 2471,
      "▁draw": 2472,
      "▁Russ": 2473,
      "▁knew": 2474,
      "opez": 2475,
      "aks": 2476,
      "ha": 2477,
      "▁$": 2478,
      ",\"Okay,": 2479,
      "▁half": 2480,
      "▁cor": 2481,
      "ing.\n": 2482,
      "▁Che": 2483,
      "▁Lead": 2484,
      "▁For": 2485,
      "obb": 2486,
      "▁guys!": 2487,
      "▁Un": 2488,
      "ones": 2489,
      "▁us,": 2490,
      "▁trans": 2491,
      "▁drive": 2492,
      "▁movie": 2493,
      "yp": 2494,
      "ert": 2495,
      "otch": 2496,
      "▁near": 2497,
      "▁Lopez": 2498,
      "steps": 2499,
      "ifer": 2500,
      "ugs": 2501,
      "▁dude.": 2502,
      "Now": 2503,
      "Yes.": 2504,
      "ered": 2505,
      "▁fart": 2506,
      "▁you'll": 2507,
      "▁Ind": 2508,
      "▁in,": 2509,
      "▁Jan": 2510,
      "▁down.": 2511,
      "Thanks": 2512,
      "▁seems": 2513,
      "▁Richard": 2514,
      "▁Kyle,\"I": 2515,
      "ounds": 2516,
      "▁thanks": 2517,
      "▁follows": 2518,
      "▁cost": 2519,
      "▁del": 2520,
      "▁dest": 2521,
      "▁met": 2522,
      "▁gen": 2523,
      "▁pat": 2524,
      "▁it!\n": 2525,
      "▁him.\"\n": 2526,
      "used": 2527,
      "ksond": 2528,
      "▁coff": 2529,
      "▁week": 2530,
      "ksondik": 2531,
      "]Well,": 2532,
      "▁since": 2533,
      "ony": 2534,
      "iting": 2535,
      "▁di": 2536,
      "▁inst": 2537,
      "▁General": 2538,
      "▁kiss": 2539,
      "▁Nels": 2540,
      "▁pee": 2541,
      "▁blow": 2542,
      "▁needs": 2543,
      "▁running": 2544,
      "▁coun": 2545,
      "▁Choksondik": 2546,
      "itor": 2547,
      "▁med": 2548,
      "▁Sk": 2549,
      "▁Now,": 2550,
      "abb": 2551,
      "▁wouldn't": 2552,
      "holds": 2553,
      "]\"\"": 2554,
      "▁es": 2555,
      "ine,": 2556,
      "▁wife": 2557,
      "▁mont": 2558,
      "omb": 2559,
      "▁When": 2560,
      "chor": 2561,
      "emale": 2562,
      "Me": 2563,
      "▁test": 2564,
      "rem": 2565,
      "▁fa": 2566,
      "▁stick": 2567,
      "▁Af": 2568,
      "▁Every": 2569,
      "▁chick": 2570,
      "▁glass": 2571,
      "▁report": 2572,
      "▁American": 2573,
      "▁Agent": 2574,
      "Get": 2575,
      "]Come": 2576,
      "bt": 2577,
      "erry": 2578,
      "▁hit": 2579,
      "ay,": 2580,
      "▁off,": 2581,
      "uu": 2582,
      "▁future": 2583,
      "▁in.": 2584,
      "▁ins": 2585,
      "▁on!": 2586,
      ".[Kyle": 2587,
      "rible": 2588,
      "▁God!": 2589,
      "▁become": 2590,
      "▁record": 2591,
      "]C": 2592,
      "]Okay,": 2593,
      "friend": 2594,
      "se,": 2595,
      "ingers": 2596,
      "▁dark": 2597,
      "▁mil": 2598,
      "rag": 2599,
      "pped": 2600,
      "resses": 2601,
      "izz": 2602,
      "▁driver": 2603,
      "▁attention": 2604,
      "▁grabs": 2605,
      "▁Strong": 2606,
      "??": 2607,
      "men": 2608,
      "work": 2609,
      "▁imm": 2610,
      "▁wood": 2611,
      ",\"Well": 2612,
      ",\"That's": 2613,
      "▁Myster": 2614,
      "▁lif": 2615,
      "umber": 2616,
      "▁Maybe": 2617,
      "▁business": 2618,
      "▁point": 2619,
      "vernment": 2620,
      "lo": 2621,
      "▁par": 2622,
      "▁Co": 2623,
      "▁Chief": 2624,
      "▁time.": 2625,
      "▁Liane,": 2626,
      "rom": 2627,
      "▁faces": 2628,
      "▁pa": 2629,
      "ays": 2630,
      "▁ride": 2631,
      "▁Will": 2632,
      "▁returns": 2633,
      "entle": 2634,
      "ode": 2635,
      "▁Kyle,\"Dude,": 2636,
      "▁def": 2637,
      "ormal": 2638,
      "▁building": 2639,
      "▁Colorad": 2640,
      "-d": 2641,
      "ef": 2642,
      "▁dick": 2643,
      "▁far": 2644,
      "▁Stan,\"I": 2645,
      "▁now.\"\n": 2646,
      "▁complete": 2647,
      "▁Jesus,": 2648,
      "bot": 2649,
      "▁cell": 2650,
      "▁yet": 2651,
      "▁Tra": 2652,
      "▁eas": 2653,
      "▁Stan.": 2654,
      "IN": 2655,
      "ey": 2656,
      "vice": 2657,
      "zz": 2658,
      "▁thous": 2659,
      "▁Big": 2660,
      "▁Chines": 2661,
      "bably": 2662,
      "walk": 2663,
      "erg": 2664,
      "▁ref": 2665,
      "▁me.\"\n": 2666,
      "ion.": 2667,
      "udge": 2668,
      "▁,C": 2669,
      "▁plac": 2670,
      "ric,": 2671,
      "udden": 2672,
      "ER": 2673,
      "ities": 2674,
      "▁Girl": 2675,
      "urse": 2676,
      "![runs": 2677,
      "▁go,": 2678,
      "▁whatever": 2679,
      "▁there.": 2680,
      "▁human": 2681,
      "▁lights": 2682,
      "board": 2683,
      "af": 2684,
      "een": 2685,
      "▁pack": 2686,
      "▁lunch": 2687,
      "▁sell": 2688,
      "airs": 2689,
      "▁party": 2690,
      "▁pan": 2691,
      "▁Canadian": 2692,
      "▁Slave": 2693,
      "es.\"\n": 2694,
      "▁picks": 2695,
      "ics": 2696,
      "▁Ge": 2697,
      "▁haven't": 2698,
      "▁Rick": 2699,
      "▁Butters.": 2700,
      "ired": 2701,
      "▁moments": 2702,
      "▁,\"Cartman's": 2703,
      "▁entrance": 2704,
      "HH": 2705,
      "ares": 2706,
      "▁pants": 2707,
      "▁ship": 2708,
      "▁Ned": 2709,
      "▁Barbrady,": 2710,
      "▁points": 2711,
      "▁angry": 2712,
      "▁trouble": 2713,
      "▁corn": 2714,
      "▁mag": 2715,
      "▁ob": 2716,
      "▁do,": 2717,
      "▁Good": 2718,
      "▁Nathan": 2719,
      "▁here.\"\n": 2720,
      "ron": 2721,
      "▁Count": 2722,
      "▁Cartman,\"Oh": 2723,
      "▁Here": 2724,
      "▁Butters,[": 2725,
      ",It's": 2726,
      "orts": 2727,
      "▁Saddam": 2728,
      "▁jumps": 2729,
      "▁vis": 2730,
      "▁alien": 2731,
      "▁Uh": 2732,
      "▁officers": 2733,
      "▁seconds": 2734,
      "▁McC": 2735,
      "▁Thomas": 2736,
      ",We": 2737,
      "]That's": 2738,
      ",\"But": 2739,
      "▁,\"T": 2740,
      "▁what?\n": 2741,
      "▁then,": 2742,
      "▁reads": 2743,
      "Wait": 2744,
      "joy": 2745,
      "ny": 2746,
      "▁\"": 2747,
      "ations": 2748,
      "ID": 2749,
      "]...": 2750,
      "gan": 2751,
      "oe": 2752,
      "▁[": 2753,
      "▁Did": 2754,
      "unity": 2755,
      "▁Ob": 2756,
      "▁awesome": 2757,
      "dr": 2758,
      "le,": 2759,
      "ried": 2760,
      "appro": 2761,
      "▁children,": 2762,
      "▁Shelly": 2763,
      "▁Internet": 2764,
      "▁poor": 2765,
      "▁step": 2766,
      "▁memb": 2767,
      "age.": 2768,
      "fect": 2769,
      ",I'm": 2770,
      "i-": 2771,
      ",\"\"": 2772,
      "▁throw": 2773,
      "▁flag": 2774,
      "▁tele": 2775,
      "▁clean": 2776,
      "Timm": 2777,
      "sy": 2778,
      ",\"F": 2779,
      ",\"P": 2780,
      "lebr": 2781,
      "▁city": 2782,
      "▁grand": 2783,
      "▁ste": 2784,
      "▁government": 2785,
      "▁just...": 2786,
      "▁Not": 2787,
      "▁notices": 2788,
      "▁club": 2789,
      "iles": 2790,
      "▁cover": 2791,
      "▁tried": 2792,
      "▁Barbrady": 2793,
      "ires": 2794,
      "pers": 2795,
      "▁toss": 2796,
      "▁thinks": 2797,
      "▁jump": 2798,
      "▁,\"B": 2799,
      "ages": 2800,
      "▁able": 2801,
      "▁telling": 2802,
      "▁Barbrady,\"": 2803,
      ".\"\"\"\n": 2804,
      "▁Kevin": 2805,
      "▁Broflovski": 2806,
      "▁Japanese": 2807,
      ")[": 2808,
      "AT": 2809,
      "ior": 2810,
      "ertain": 2811,
      ",\"Come": 2812,
      "▁field": 2813,
      "▁figure": 2814,
      "▁Car": 2815,
      "▁Squ": 2816,
      "▁Miss": 2817,
      "▁Member": 2818,
      "▁Gore": 2819,
      "▁off]\"\n": 2820,
      "▁Uh,": 2821,
      "▁funny": 2822,
      "-g": 2823,
      "ket": 2824,
      "ted": 2825,
      "▁middle": 2826,
      "eth": 2827,
      "▁either": 2828,
      "▁lives": 2829,
      "ume": 2830,
      "▁themselves": 2831,
      "▁scared": 2832,
      "▁safe": 2833,
      "aught": 2834,
      "▁entire": 2835,
      "▁Chinese": 2836,
      ",S": 2837,
      "▁sand": 2838,
      "▁center": 2839,
      "veral": 2840,
      "▁reve": 2841,
      "urity": 2842,
      "rought": 2843,
      "▁knocks": 2844,
      "▁scream": 2845,
      "▁surpris": 2846,
      "xcuse": 2847,
      "▁ice": 2848,
      "▁fair": 2849,
      "▁pop": 2850,
      "uring": 2851,
      "rog": 2852,
      "uper": 2853,
      "▁attack": 2854,
      "▁Announcer,\"": 2855,
      "▁learned": 2856,
      "lderly": 2857,
      "ched": 2858,
      "s!": 2859,
      "▁cond": 2860,
      "▁mot": 2861,
      "▁Town": 2862,
      "▁jack": 2863,
      "unches": 2864,
      "Here": 2865,
      "]It": 2866,
      "They're": 2867,
      ",H": 2868,
      "a.\"\n": 2869,
      "uct": 2870,
      "▁inte": 2871,
      "▁stra": 2872,
      "▁Butters'": 2873,
      "▁probably": 2874,
      "▁reading": 2875,
      "▁fuckin'": 2876,
      "▁finis": 2877,
      "▁student": 2878,
      "▁approach": 2879,
      "](": 2880,
      "back": 2881,
      "min": 2882,
      "off": 2883,
      "▁brought": 2884,
      "▁cap": 2885,
      "▁det": 2886,
      "▁Jos": 2887,
      "eaks": 2888,
      "▁myself": 2889,
      "agg": 2890,
      "▁char": 2891,
      ",\"L": 2892,
      "▁land": 2893,
      "ice.": 2894,
      "▁Tr": 2895,
      "▁We'll": 2896,
      "▁Thanks": 2897,
      "▁officer": 2898,
      "▁Bebe,": 2899,
      "▁sounds": 2900,
      "opping": 2901,
      "-up": 2902,
      "aus": 2903,
      "ces": 2904,
      "▁anybody": 2905,
      "ately": 2906,
      "ation,": 2907,
      "ies,": 2908,
      "no": 2909,
      "ten": 2910,
      "▁X": 2911,
      "ery": 2912,
      "▁dance": 2913,
      "▁though": 2914,
      "▁TH": 2915,
      "▁No,": 2916,
      "▁Hankey": 2917,
      "upp": 2918,
      "ater": 2919,
      "atic": 2920,
      "▁creat": 2921,
      "▁ear": 2922,
      "▁here!": 2923,
      "▁climb": 2924,
      "▁Kyle,\"Yeah,": 2925,
      "▁road": 2926,
      "]Who": 2927,
      "▁screw": 2928,
      "▁million": 2929,
      "▁7": 2930,
      "▁dep": 2931,
      "▁fil": 2932,
      "▁poss": 2933,
      "▁wel": 2934,
      "▁forth": 2935,
      "▁nearb": 2936,
      "▁sold": 2937,
      "▁thinking": 2938,
      "mercial": 2939,
      "OM": 2940,
      "▁sent": 2941,
      "▁normal": 2942,
      "tance": 2943,
      "▁reach": 2944,
      "▁knock": 2945,
      "▁Father": 2946,
      "▁snow": 2947,
      "▁classroom": 2948,
      "soft": 2949,
      "▁Jennifer": 2950,
      "▁Denver": 2951,
      "cle": 2952,
      "gra": 2953,
      "▁tick": 2954,
      "▁you.\n": 2955,
      "▁Captain": 2956,
      "▁rises": 2957,
      "▁reason": 2958,
      "![Cartman": 2959,
      "els,": 2960,
      "▁deep": 2961,
      "error": 2962,
      "▁Smith": 2963,
      "Did": 2964,
      "light": 2965,
      "▁card": 2966,
      "ir,": 2967,
      "\"\"]\"\n": 2968,
      "▁leaving": 2969,
      "iful": 2970,
      "ugg": 2971,
      "▁answers": 2972,
      "▁hurt": 2973,
      "▁rolls": 2974,
      "Wow": 2975,
      "▁hits": 2976,
      "▁inc": 2977,
      "▁Let": 2978,
      "▁Our": 2979,
      "▁shouldn't": 2980,
      "▁okay.": 2981,
      "▁question": 2982,
      "▁Nelson": 2983,
      "▁pops": 2984,
      "ass,": 2985,
      "▁shirt": 2986,
      "▁NO": 2987,
      "▁guard": 2988,
      "▁You've": 2989,
      "▁no!": 2990,
      "arrator": 2991,
      "▁celebr": 2992,
      "-a": 2993,
      "aut": 2994,
      "m.": 2995,
      "in't": 2996,
      "▁gy": 2997,
      "▁gave": 2998,
      "▁Cartman.": 2999,
      "▁forget": 3000,
      "▁least": 3001,
      "▁boy,": 3002,
      "▁somewhere": 3003,
      "ffect": 3004,
      "▁quite": 3005,
      "▁giant": 3006,
      "bod": 3007,
      "arri": 3008,
      "ity,": 3009,
      "▁I,": 3010,
      "▁Pass": 3011,
      "urch": 3012,
      "ustom": 3013,
      "tands": 3014,
      "hhhh": 3015,
      "▁camp": 3016,
      "▁members": 3017,
      "Wh": 3018,
      "gr": 3019,
      "▁i": 3020,
      "▁fast": 3021,
      "▁lo": 3022,
      "acc": 3023,
      "▁mem": 3024,
      "Kyle's": 3025,
      "ma": 3026,
      "▁grin": 3027,
      "enters": 3028,
      "▁bear": 3029,
      "▁seated": 3030,
      "▁,\"P": 3031,
      "▁Lu": 3032,
      "▁,He": 3033,
      "▁Garrison,\"[": 3034,
      "ized": 3035,
      "▁adults": 3036,
      "ee,": 3037,
      "zy": 3038,
      "▁you?\n": 3039,
      "▁third": 3040,
      "▁aside": 3041,
      "▁soft": 3042,
      "▁Kyle,You": 3043,
      "▁Ex": 3044,
      "▁,B": 3045,
      "▁appl": 3046,
      "▁true": 3047,
      "▁order": 3048,
      "Really": 3049,
      "▁coffee": 3050,
      "-l": 3051,
      "h!": 3052,
      "▁ten": 3053,
      "in,": 3054,
      "ley,": 3055,
      "▁certain": 3056,
      "▁eight": 3057,
      ".[takes": 3058,
      "▁Pl": 3059,
      "▁Res": 3060,
      "▁shoot": 3061,
      "▁several": 3062,
      "There": 3063,
      "▁shoulder": 3064,
      "▁Linda,": 3065,
      "full": 3066,
      "mit": 3067,
      "▁gat": 3068,
      "▁log": 3069,
      "![Stan": 3070,
      "▁smart": 3071,
      "▁pictures": 3072,
      "▁piece": 3073,
      "▁interest": 3074,
      "▁opp": 3075,
      "▁yes": 3076,
      "▁Wait": 3077,
      "▁form": 3078,
      "akov": 3079,
      "▁thousand": 3080,
      "To": 3081,
      "con": 3082,
      "oins": 3083,
      "▁pig": 3084,
      "▁Because": 3085,
      "No.": 3086,
      "▁amaz": 3087,
      "▁eye": 3088,
      "▁arrives": 3089,
      "▁destro": 3090,
      "▁televis": 3091,
      "▁gro": 3092,
      "aybe": 3093,
      "amb": 3094,
      "irth": 3095,
      "▁joke": 3096,
      "▁Dou": 3097,
      "▁Narrator": 3098,
      "▁Or": 3099,
      "rying": 3100,
      "What's": 3101,
      "▁enjoy": 3102,
      "▁Tweek,": 3103,
      "▁huge": 3104,
      "▁Elementary": 3105,
      "On": 3106,
      "ij": 3107,
      "lf": 3108,
      "inal": 3109,
      "▁cream": 3110,
      "▁dist": 3111,
      "▁fur": 3112,
      "▁you!\"\n": 3113,
      "▁lands": 3114,
      "ed.\n": 3115,
      "▁stunn": 3116,
      "▁Les": 3117,
      "There's": 3118,
      "rist": 3119,
      "umes": 3120,
      "▁boys.": 3121,
      "Hey!": 3122,
      "▁America": 3123,
      "-I": 3124,
      "▁&": 3125,
      "▁bast": 3126,
      "▁cuts": 3127,
      "▁mall": 3128,
      "▁yell": 3129,
      "▁god": 3130,
      "▁,Cartman": 3131,
      "▁but...": 3132,
      "▁spl": 3133,
      "eef": 3134,
      "▁death": 3135,
      "▁towel": 3136,
      "▁prop": 3137,
      "▁Eric,": 3138,
      "bor": 3139,
      "▁terror": 3140,
      "▁ain't": 3141,
      "▁hops": 3142,
      "▁cand": 3143,
      "▁lab": 3144,
      "▁it?": 3145,
      "▁With": 3146,
      "▁him.\n": 3147,
      "▁Okay,": 3148,
      "▁back.": 3149,
      "▁using": 3150,
      "▁clot": 3151,
      "astic": 3152,
      "ure,": 3153,
      "▁cheers": 3154,
      "▁Canada": 3155,
      "▁News": 3156,
      "▁slowly": 3157,
      "grabs": 3158,
      "Wow,": 3159,
      "ract": 3160,
      "▁bow": 3161,
      "▁danc": 3162,
      "alt": 3163,
      "▁egg": 3164,
      "▁Rec": 3165,
      ",\"[p": 3166,
      "age,": 3167,
      "▁knows": 3168,
      "▁kids,": 3169,
      "▁She's": 3170,
      "Good": 3171,
      "hood": 3172,
      "▁fist": 3173,
      "▁Kyle.\"\n": 3174,
      ".[t": 3175,
      "▁Dan": 3176,
      ",\"[walks": 3177,
      "▁background": 3178,
      "▁them.\"\n": 3179,
      "ational": 3180,
      "▁evil": 3181,
      "▁Mephesto": 3182,
      "!!\n": 3183,
      "-M": 3184,
      "everyone": 3185,
      "ye": 3186,
      "▁troll": 3187,
      "lex": 3188,
      "▁ep": 3189,
      "rily": 3190,
      "▁Dri": 3191,
      "▁Cartman,\"Well,": 3192,
      "▁Stan,\"No,": 3193,
      "▁too.": 3194,
      "▁couldn't": 3195,
      "ublic": 3196,
      "▁company": 3197,
      "▁arrive": 3198,
      "oly": 3199,
      "vil": 3200,
      "▁Mel": 3201,
      "ashes": 3202,
      "▁Harris": 3203,
      "▁,\"M": 3204,
      "▁sucks": 3205,
      "▁door]\"\n": 3206,
      "hered": 3207,
      "▁office,": 3208,
      "▁Special": 3209,
      "▁,\"Stan's": 3210,
      "fess": 3211,
      "▁ed": 3212,
      ",\"C": 3213,
      "▁Work": 3214,
      "stem": 3215,
      "▁so,": 3216,
      "▁commercial": 3217,
      "▁drop": 3218,
      "▁later,": 3219,
      "▁catch": 3220,
      "▁pissed": 3221,
      "approaches": 3222,
      "AN": 3223,
      "],": 3224,
      "bell": 3225,
      "ates,": 3226,
      "▁hospital": 3227,
      "▁mas": 3228,
      "▁gam": 3229,
      "alm": 3230,
      "aching": 3231,
      "▁anim": 3232,
      "▁van": 3233,
      "Bear": 3234,
      "Because": 3235,
      "Go": 3236,
      "▁yes,": 3237,
      "▁hey": 3238,
      "▁Ar": 3239,
      "▁Adam": 3240,
      "▁Friend": 3241,
      "www": 3242,
      "▁giving": 3243,
      "]Don't": 3244,
      "▁basket": 3245,
      "▁cow": 3246,
      "▁pour": 3247,
      "▁ele": 3248,
      "▁Her": 3249,
      "▁Stan,\"A": 3250,
      "▁space": 3251,
      "aaa": 3252,
      "aaah": 3253,
      "▁tru": 3254,
      "▁way,": 3255,
      "actly": 3256,
      "▁leader": 3257,
      "rat": 3258,
      "▁ve": 3259,
      "▁tree": 3260,
      "▁sense": 3261,
      "▁fact": 3262,
      "▁Mic": 3263,
      "mand": 3264,
      "oney,": 3265,
      "inds": 3266,
      "▁agent": 3267,
      "▁look,": 3268,
      "▁again.\"\n": 3269,
      "▁starting": 3270,
      "▁Anchor": 3271,
      "▁night,": 3272,
      "▁Thank": 3273,
      "000": 3274,
      "▁Brit": 3275,
      "▁Victoria,": 3276,
      "▁White": 3277,
      "▁protect": 3278,
      "▁esc": 3279,
      "[s": 3280,
      "cy": 3281,
      "line": 3282,
      "ering": 3283,
      "▁cop": 3284,
      "▁president": 3285,
      "▁Cr": 3286,
      "▁it?\"\n": 3287,
      "▁that.": 3288,
      "elly": 3289,
      "▁sets": 3290,
      "▁wheel": 3291,
      "▁bill": 3292,
      "▁breat": 3293,
      "▁ma": 3294,
      "▁Pri": 3295,
      "▁up.\"\n": 3296,
      "▁up]\"\n": 3297,
      "▁cannot": 3298,
      "▁chance": 3299,
      "anger": 3300,
      "▁flo": 3301,
      "▁produc": 3302,
      "▁prom": 3303,
      "▁Ike,": 3304,
      "▁Clerk": 3305,
      "▁welcome": 3306,
      "Dud": 3307,
      "aff": 3308,
      "inc": 3309,
      "arc": 3310,
      "ing]\"\n": 3311,
      "▁Cru": 3312,
      "▁Sec": 3313,
      "▁To": 3314,
      "olid": 3315,
      "▁Cartman,You": 3316,
      "▁Farm": 3317,
      "▁away]\n": 3318,
      "▁blue": 3319,
      "▁stopp": 3320,
      "▁moving": 3321,
      "unny": 3322,
      "▁turd": 3323,
      "▁Colorado": 3324,
      "-y": 3325,
      "haps": 3326,
      "▁and,": 3327,
      "▁pans": 3328,
      "▁pleas": 3329,
      "▁lose": 3330,
      "ett": 3331,
      "▁Kyle!": 3332,
      ".[c": 3333,
      "▁Police": 3334,
      "▁Am": 3335,
      "▁Nic": 3336,
      "▁Hey,": 3337,
      "▁save": 3338,
      "▁good,": 3339,
      "▁Driver": 3340,
      ".]\n": 3341,
      "aos": 3342,
      "view": 3343,
      "▁sigh": 3344,
      "▁ble": 3345,
      "▁gentle": 3346,
      "▁pir": 3347,
      "▁Super": 3348,
      "▁Day": 3349,
      "▁over,": 3350,
      "Cartman,": 3351,
      "Hello": 3352,
      "gl": 3353,
      "iving": 3354,
      "mp": 3355,
      "ze": 3356,
      "▁burn": 3357,
      "▁backs": 3358,
      ",\"Uh,": 3359,
      "▁poop": 3360,
      "▁Okay": 3361,
      "▁ext": 3362,
      "▁disc": 3363,
      "ighbor": 3364,
      "▁leads": 3365,
      "▁caf": 3366,
      "▁chicken": 3367,
      "▁reveal": 3368,
      "]Yeah,": 3369,
      "erv": 3370,
      "arch": 3371,
      "▁cars": 3372,
      "▁cup": 3373,
      "▁too,": 3374,
      "orry": 3375,
      "▁la": 3376,
      "▁nin": 3377,
      "▁number": 3378,
      "al,": 3379,
      "▁less": 3380,
      "ular": 3381,
      "▁phot": 3382,
      "▁Scout": 3383,
      "▁Announcer,": 3384,
      "▁hours": 3385,
      "▁Mysterion": 3386,
      "!)\n": 3387,
      "-damn": 3388,
      "bl": 3389,
      "over": 3390,
      "▁mountain": 3391,
      "orge": 3392,
      "▁Min": 3393,
      "▁gold": 3394,
      "▁Dis": 3395,
      "▁Le": 3396,
      "▁Ed": 3397,
      "▁us.": 3398,
      "▁around.": 3399,
      "aughter": 3400,
      "▁closer": 3401,
      "▁restaur": 3402,
      "▁system": 3403,
      "▁gathered": 3404,
      "what": 3405,
      "▁wear": 3406,
      "▁Please": 3407,
      "pper": 3408,
      "▁Cartman,\"No,": 3409,
      "▁Crabt": 3410,
      "▁finds": 3411,
      "uddenly": 3412,
      "vin'": 3413,
      "▁8": 3414,
      "▁sad": 3415,
      "leg": 3416,
      "▁tor": 3417,
      "▁pot": 3418,
      "▁principal": 3419,
      "ashing": 3420,
      "▁it?\n": 3421,
      "▁rush": 3422,
      "▁story": 3423,
      "▁Ab": 3424,
      "irit": 3425,
      "▁right?\"\n": 3426,
      "ation.": 3427,
      "▁putting": 3428,
      "▁realize": 3429,
      "▁Tegridy": 3430,
      "▁fellas": 3431,
      "▁silent": 3432,
      "▁cafeter": 3433,
      "Jimm": 3434,
      "ls": 3435,
      "uses": 3436,
      "oo,": 3437,
      "▁doin'": 3438,
      "▁These": 3439,
      "starts": 3440,
      "▁bod": 3441,
      "▁Other": 3442,
      "▁works": 3443,
      "▁spee": 3444,
      "▁truth": 3445,
      "▁Eric.": 3446,
      "ammad": 3447,
      "▁strong": 3448,
      "▁morning": 3449,
      "▁Boys,": 3450,
      "?\"\"": 3451,
      "lead": 3452,
      "▁Brad": 3453,
      "▁rain": 3454,
      "▁Hu": 3455,
      "oph": 3456,
      "▁Right": 3457,
      "▁Stotch": 3458,
      "▁YOU": 3459,
      "▁concer": 3460,
      "]You're": 3461,
      "appears": 3462,
      "▁reporter": 3463,
      "▁County": 3464,
      "bb": 3465,
      "eed": 3466,
      "▁books": 3467,
      "▁green": 3468,
      "▁you'd": 3469,
      "▁this.": 3470,
      "▁too.\"\n": 3471,
      "▁weeks": 3472,
      "▁Keep": 3473,
      "▁Mexican": 3474,
      "Bo": 3475,
      "]Well": 3476,
      "can": 3477,
      "ray": 3478,
      "rup": 3479,
      "vent": 3480,
      "▁sou": 3481,
      "ar,": 3482,
      "le.": 3483,
      "▁gh": 3484,
      "▁City": 3485,
      "▁low": 3486,
      "▁forg": 3487,
      "▁me.\n": 3488,
      "▁Earth": 3489,
      "▁flash": 3490,
      "rence": 3491,
      "▁keeps": 3492,
      "▁3,": 3493,
      "▁McDaniels,": 3494,
      "▁position": 3495,
      "AS": 3496,
      "Pig": 3497,
      "▁wien": 3498,
      "ers.": 3499,
      "▁mach": 3500,
      "▁I...": 3501,
      "▁late": 3502,
      "▁beaut": 3503,
      "▁do.": 3504,
      "▁short": 3505,
      "elcome": 3506,
      "▁allow": 3507,
      "ains": 3508,
      "▁above": 3509,
      "▁vo": 3510,
      "▁people,": 3511,
      "▁everywhere": 3512,
      "angs": 3513,
      "▁exactly": 3514,
      "ocket": 3515,
      "▁fourth": 3516,
      "▁train": 3517,
      "BearPig": 3518,
      "Are": 3519,
      "Damn": 3520,
      "Out": 3521,
      "]No": 3522,
      "hu": 3523,
      "on.": 3524,
      "▁budd": 3525,
      "▁mir": 3526,
      "▁Crowd": 3527,
      "ald": 3528,
      "Wend": 3529,
      "▁time.\"\n": 3530,
      "▁Sharon,\"": 3531,
      "▁prep": 3532,
      "▁meeting": 3533,
      "▁dinner": 3534,
      "▁battle": 3535,
      "]Dude,": 3536,
      "but": 3537,
      "▁Yeah,": 3538,
      "anch": 3539,
      "▁wish": 3540,
      "ically": 3541,
      "▁Per": 3542,
      "▁Gay": 3543,
      "![Kyle": 3544,
      "▁kne": 3545,
      "olks": 3546,
      "▁places": 3547,
      "▁showing": 3548,
      "ploy": 3549,
      "▁Announcer": 3550,
      "▁raises": 3551,
      "▁touch": 3552,
      "▁completely": 3553,
      "er.\"\n": 3554,
      "▁you!\n": 3555,
      "idence": 3556,
      "irty": 3557,
      "rah": 3558,
      "▁,\"H": 3559,
      "▁right!": 3560,
      "ift": 3561,
      "▁,Stan": 3562,
      "▁Stop": 3563,
      "▁seeing": 3564,
      "?[s": 3565,
      "▁secret": 3566,
      "▁babies": 3567,
      "▁minute": 3568,
      "▁Pete": 3569,
      "y.\n": 3570,
      "▁nose": 3571,
      "▁hist": 3572,
      "▁are,": 3573,
      "▁neck": 3574,
      "Then": 3575,
      "▁ago": 3576,
      "▁Kyle,\"You": 3577,
      "▁\"\"I": 3578,
      "▁Garrison's": 3579,
      "▁watches": 3580,
      "▁Terrance,": 3581,
      "▁perfect": 3582,
      "▁Carol": 3583,
      "▁member": 3584,
      "band": 3585,
      "ges": 3586,
      "enag": 3587,
      "▁Cupid": 3588,
      "▁Tu": 3589,
      "iding": 3590,
      "▁rece": 3591,
      "▁shall": 3592,
      "▁go.": 3593,
      "▁Fl": 3594,
      "▁say,": 3595,
      "▁happens": 3596,
      "▁continue": 3597,
      "▁Conn": 3598,
      "-O": 3599,
      "LL": 3600,
      "]No,": 3601,
      "laugh": 3602,
      "▁fill": 3603,
      "idel": 3604,
      "▁Bri": 3605,
      "rif": 3606,
      "▁,\"D": 3607,
      "▁Frid": 3608,
      "▁but,": 3609,
      "berry": 3610,
      "olly": 3611,
      "avor": 3612,
      "▁plane": 3613,
      "▁asked": 3614,
      "▁Qu": 3615,
      "▁Nichole": 3616,
      "▁speech": 3617,
      "]U": 3618,
      "reaches": 3619,
      "▁pol": 3620,
      "▁Mike": 3621,
      "▁hey,": 3622,
      "▁Ben": 3623,
      "▁star": 3624,
      "▁Nobody": 3625,
      "overed": 3626,
      "▁10": 3627,
      ",\"If": 3628,
      "▁project": 3629,
      "▁crack": 3630,
      "alent": 3631,
      "▁singing": 3632,
      "▁Priest": 3633,
      "▁bri": 3634,
      ",\"This": 3635,
      "▁mass": 3636,
      "▁luck": 3637,
      "ided": 3638,
      "ili": 3639,
      "▁,T": 3640,
      "▁there.\"\n": 3641,
      "▁vagin": 3642,
      "▁Stephen,": 3643,
      "▁Shelly,": 3644,
      "▁basement": 3645,
      "▁month": 3646,
      "ighborhood": 3647,
      "]and": 3648,
      "for": 3649,
      "▁tape": 3650,
      "▁a-": 3651,
      "▁birth": 3652,
      "▁cir": 3653,
      "▁mur": 3654,
      "▁Ske": 3655,
      "▁that?": 3656,
      "▁reg": 3657,
      "▁Dick": 3658,
      "▁Lad": 3659,
      "▁anyway": 3660,
      "▁dude.\"\n": 3661,
      "▁straight": 3662,
      "▁Tuong": 3663,
      "yl": 3664,
      "▁treat": 3665,
      "▁bike": 3666,
      "▁cart": 3667,
      "▁and...": 3668,
      "▁pant": 3669,
      "ed]\"\n": 3670,
      "▁what?": 3671,
      "iling": 3672,
      "emb": 3673,
      "throws": 3674,
      "▁sorry.": 3675,
      "▁,South": 3676,
      "▁imagin": 3677,
      "annel": 3678,
      "▁Obama": 3679,
      "▁television": 3680,
      "▁typ": 3681,
      "ana": 3682,
      "▁sun": 3683,
      ",\"Mr.": 3684,
      "enter,": 3685,
      "orld": 3686,
      "▁on.\"\n": 3687,
      "▁unc": 3688,
      "urg": 3689,
      "▁shop": 3690,
      "ilt": 3691,
      "▁official": 3692,
      "]They": 3693,
      "▁killing": 3694,
      "▁zoom": 3695,
      "▁restaurant": 3696,
      "Ike": 3697,
      "Sc": 3698,
      "ah,": 3699,
      "gest": 3700,
      "top": 3701,
      "▁ban": 3702,
      "▁bomb": 3703,
      "▁mad": 3704,
      "▁rub": 3705,
      "▁rushes": 3706,
      "▁doorbell": 3707,
      "▁flies": 3708,
      "▁exit": 3709,
      ",\"It": 3710,
      "▁write": 3711,
      "▁feeling": 3712,
      "AAAAAAAA": 3713,
      "Sharon": 3714,
      "▁fault": 3715,
      "drops": 3716,
      "atch": 3717,
      "▁Bon": 3718,
      "![h": 3719,
      "enty": 3720,
      "elp": 3721,
      "s.]\"\n": 3722,
      "▁Stan,\"Oh,": 3723,
      "▁Stre": 3724,
      "▁man.": 3725,
      "berg": 3726,
      "rench": 3727,
      "]Do": 3728,
      "▁destroy": 3729,
      "It": 3730,
      "h!\n": 3731,
      "▁sle": 3732,
      "▁mons": 3733,
      "▁roof": 3734,
      "▁Par": 3735,
      "![\"\"": 3736,
      "▁Stan,\"You": 3737,
      "▁agents": 3738,
      "rince": 3739,
      "anket": 3740,
      "▁Inside,": 3741,
      "Butters'": 3742,
      "▁Dad,": 3743,
      "▁locker": 3744,
      "▁football": 3745,
      "▁epis": 3746,
      "ET": 3747,
      "ring": 3748,
      "voice": 3749,
      "yard": 3750,
      "onon": 3751,
      ",\"He": 3752,
      "▁case": 3753,
      "▁crew": 3754,
      "ess,": 3755,
      "▁loc": 3756,
      "ushing": 3757,
      "gh!": 3758,
      ".[f": 3759,
      "▁Cartman,\"H": 3760,
      "rises": 3761,
      "▁sol": 3762,
      "▁Stan,We": 3763,
      "▁her,": 3764,
      "▁worry": 3765,
      "Butters,": 3766,
      "▁good.": 3767,
      "rincess": 3768,
      "▁cons": 3769,
      "closes": 3770,
      "▁dollar": 3771,
      ",\"Now,": 3772,
      "▁priv": 3773,
      "▁Towns": 3774,
      "▁beautiful": 3775,
      "rushes": 3776,
      "itches": 3777,
      "▁Mus": 3778,
      "▁one,": 3779,
      "▁it]\"\n": 3780,
      "▁stor": 3781,
      "▁joins": 3782,
      "▁out.\"\n": 3783,
      "▁level": 3784,
      "▁sub": 3785,
      "▁vol": 3786,
      "ies.": 3787,
      "▁school,": 3788,
      "▁pract": 3789,
      "play": 3790,
      "▁okay?": 3791,
      "Whoa,": 3792,
      "▁protest": 3793,
      "▁Grandpa": 3794,
      "▁George": 3795,
      "▁tosses": 3796,
      "fully": 3797,
      "-n": 3798,
      "ON": 3799,
      "s!\"\n": 3800,
      "tin'": 3801,
      "ane": 3802,
      "▁holid": 3803,
      "▁foc": 3804,
      "▁farts": 3805,
      "▁main": 3806,
      "artment": 3807,
      "edy": 3808,
      "▁Mims": 3809,
      "oops": 3810,
      "alth": 3811,
      "▁round": 3812,
      "chair": 3813,
      "▁out]\"\n": 3814,
      "▁me!\"\n": 3815,
      "▁right?": 3816,
      "▁Kyle,\"A": 3817,
      "▁blows": 3818,
      "▁girlfriend": 3819,
      "]How": 3820,
      "shows": 3821,
      "iously": 3822,
      "▁inside.": 3823,
      "ucks": 3824,
      "]Now": 3825,
      "▁except": 3826,
      "▁words": 3827,
      "▁event": 3828,
      "ientist": 3829,
      "-sh": 3830,
      "]Uh,": 3831,
      "mo": 3832,
      "wear": 3833,
      ",\"Don't": 3834,
      "▁thro": 3835,
      "▁upon": 3836,
      "▁lets": 3837,
      "sees": 3838,
      "▁now.\n": 3839,
      "▁Chaos": 3840,
      "▁wait,": 3841,
      "▁planet": 3842,
      "Huh?\n": 3843,
      "▁douche": 3844,
      ".[hands": 3845,
      "▁instead": 3846,
      "how": 3847,
      "men,": 3848,
      "ine.": 3849,
      "▁chat": 3850,
      "▁folks": 3851,
      "▁mark": 3852,
      "ass.": 3853,
      "▁Boo": 3854,
      "▁rac": 3855,
      "▁Have": 3856,
      "![t": 3857,
      "▁Daw": 3858,
      "▁Cartman,\"Dude,": 3859,
      "▁guest": 3860,
      ",[s": 3861,
      "]God": 3862,
      "▁Guy": 3863,
      "▁Guard": 3864,
      "▁Towelie,": 3865,
      "▁forever": 3866,
      "▁ridic": 3867,
      "▁Russell": 3868,
      "AH": 3869,
      "kins": 3870,
      "lie": 3871,
      "it!": 3872,
      "▁press": 3873,
      "▁Mur": 3874,
      "▁emb": 3875,
      "amily": 3876,
      "▁Hill": 3877,
      "▁up!": 3878,
      "![f": 3879,
      "raig": 3880,
      "▁asleep": 3881,
      "▁Cartman,\"Okay,": 3882,
      "▁church": 3883,
      "▁spread": 3884,
      "▁ourselves": 3885,
      "er,[": 3886,
      "▁prog": 3887,
      "▁somethin'": 3888,
      "▁glad": 3889,
      "▁calling": 3890,
      "▁milk": 3891,
      "]Uh": 3892,
      ",\"Look,": 3893,
      "▁her.": 3894,
      "ache": 3895,
      "▁gotten": 3896,
      "▁comment": 3897,
      "]Hello": 3898,
      "▁turned": 3899,
      "▁following": 3900,
      "▁broke": 3901,
      "▁Kids,": 3902,
      "sych": 3903,
      "S.": 3904,
      "a.\n": 3905,
      "ced": 3906,
      "ise,": 3907,
      "▁cook": 3908,
      "▁custom": 3909,
      "▁dem": 3910,
      "▁lowers": 3911,
      "▁react": 3912,
      "▁repl": 3913,
      "▁upst": 3914,
      "▁boat": 3915,
      "▁Field": 3916,
      "▁spend": 3917,
      "▁exper": 3918,
      "]So": 3919,
      "appy": 3920,
      ".[she": 3921,
      "▁Hankey,": 3922,
      "▁booth": 3923,
      "▁certainly": 3924,
      "▁clothes": 3925,
      "Cause": 3926,
      "ci": 3927,
      "itter": 3928,
      "▁dam": 3929,
      "▁pool": 3930,
      "▁Sch": 3931,
      "edi": 3932,
      "▁Wall": 3933,
      "▁us.\"\n": 3934,
      "▁agre": 3935,
      "ulf": 3936,
      "▁smok": 3937,
      "▁longer": 3938,
      "]There": 3939,
      "▁passes": 3940,
      "!\"\"\"\n": 3941,
      "RE": 3942,
      "ivers": 3943,
      "reidel": 3944,
      "▁hipp": 3945,
      "ity.": 3946,
      "▁Sw": 3947,
      "▁loud": 3948,
      "ached": 3949,
      "man,": 3950,
      ".[M": 3951,
      ".[looks": 3952,
      "ummer": 3953,
      "▁trash": 3954,
      "▁sometimes": 3955,
      "▁Comm": 3956,
      "▁Hallow": 3957,
      "▁corp": 3958,
      "▁nearby": 3959,
      "▁iP": 3960,
      "fessor": 3961,
      "s]\n": 3962,
      "▁hole": 3963,
      "▁cash": 3964,
      "▁fingers": 3965,
      "▁you?": 3966,
      "al.": 3967,
      "▁R.": 3968,
      "▁Jakov": 3969,
      "▁neighborhood": 3970,
      "▁all,": 3971,
      "ored": 3972,
      "▁,Mr.": 3973,
      "▁alarm": 3974,
      "▁becom": 3975,
      "ING": 3976,
      "▁McCorm": 3977,
      "▁film": 3978,
      "Dad,": 3979,
      "gly": 3980,
      "▁tank": 3981,
      "▁ah": 3982,
      "ounce": 3983,
      ",\"Uh": 3984,
      "▁fif": 3985,
      "icop": 3986,
      "using": 3987,
      "▁,\"Kyle's": 3988,
      "▁Kyle,\"Well,": 3989,
      "ulhu": 3990,
      "▁kids.": 3991,
      "thulhu": 3992,
      "▁block": 3993,
      "▁Park.": 3994,
      "▁Another": 3995,
      "lyde": 3996,
      "]Wait": 3997,
      "▁Phil": 3998,
      "▁driving": 3999,
      "▁happening": 4000,
      "oved": 4001,
      "]What's": 4002,
      "▁fatass": 4003,
      "▁Stevens": 4004,
      "oohoo": 4005,
      "▁corner": 4006,
      "▁sandw": 4007,
      "'am": 4008,
      "aven": 4009,
      "gt.": 4010,
      "kn": 4011,
      "ishes": 4012,
      ",\"...": 4013,
      "itar": 4014,
      "▁pod": 4015,
      "▁lap": 4016,
      "asure": 4017,
      "▁that.\"\n": 4018,
      "▁note": 4019,
      "▁now!\"\n": 4020,
      "▁Kenny.": 4021,
      "▁art": 4022,
      "▁outside.": 4023,
      "▁minutes": 4024,
      "arryl": 4025,
      ",M": 4026,
      "11": 4027,
      "IS": 4028,
      "hehe": 4029,
      "arious": 4030,
      "isand": 4031,
      "▁cold": 4032,
      "▁during": 4033,
      "▁farm": 4034,
      "gh,": 4035,
      "▁weed": 4036,
      "▁we'd": 4037,
      "▁self": 4038,
      "ickly": 4039,
      "▁here.\n": 4040,
      "▁clap": 4041,
      "▁spot": 4042,
      "▁God.": 4043,
      "hhh,": 4044,
      "▁worked": 4045,
      "▁tech": 4046,
      "▁Yates,": 4047,
      "▁bigger": 4048,
      "▁final": 4049,
      "▁homeless": 4050,
      "clud": 4051,
      "▁support": 4052,
      "▁calm": 4053,
      "]Here": 4054,
      "Shut": 4055,
      "▁bottle": 4056,
      "▁throat": 4057,
      "Chef": 4058,
      "go": 4059,
      "uy": 4060,
      "uce": 4061,
      "▁'m": 4062,
      ",\"\"\"": 4063,
      "enri": 4064,
      "▁pul": 4065,
      "▁School": 4066,
      "▁los": 4067,
      "otes": 4068,
      "ider": 4069,
      "▁rat": 4070,
      ".[gets": 4071,
      "What?": 4072,
      "What?\n": 4073,
      "▁worse": 4074,
      "▁spirit": 4075,
      "▁school.": 4076,
      "▁brings": 4077,
      "▁coat": 4078,
      "▁Clin": 4079,
      ",\"You're": 4080,
      ".[puts": 4081,
      "▁Ellen": 4082,
      "CK": 4083,
      "[a": 4084,
      "jumps": 4085,
      "wood": 4086,
      "▁ign": 4087,
      "▁waves": 4088,
      "orth": 4089,
      "▁See": 4090,
      "▁King": 4091,
      "▁it![": 4092,
      "▁speaks": 4093,
      "▁everyone,": 4094,
      "]Alright,": 4095
    },
    "merges": [
      "▁ t",
      "h e",
      "▁ a",
      "i n",
      "a n",
      "o u",
      "▁ s",
      "▁t he",
      "r e",
      "▁ w",
      "e r",
      "o n",
      "a r",
      "i s",
      "▁ b",
      ", \"",
      "\" \n",
      "n d",
      "a t",
      "l e",
      "▁ h",
      "i t",
      "▁ c",
      "in g",
      "l l",
      "▁ d",
      "▁t o",
      "▁ f",
      "▁ m",
      "▁ g",
      "e s",
      "e n",
      "▁ o",
      "▁ y",
      "▁a nd",
      "o r",
      "▁ p",
      "▁y ou",
      "▁ C",
      "o m",
      "o w",
      "▁ S",
      "▁t h",
      "▁ I",
      "▁ l",
      "' s",
      "▁ n",
      "a y",
      ". \"\n",
      "ar t",
      "▁o f",
      "i c",
      "▁ in",
      "u s",
      "e t",
      "▁ T",
      "e d",
      "▁ M",
      "o o",
      "a s",
      "v e",
      "a l",
      "o t",
      "▁ he",
      "u t",
      "i d",
      "a c",
      "m an",
      "▁ on",
      "▁ K",
      "g h",
      "▁ is",
      "i m",
      "art man",
      "▁ it",
      ". .",
      "t an",
      "▁C artman",
      "a d",
      ". \n",
      "ou t",
      "▁ B",
      "▁b e",
      "k e",
      "t er",
      "▁ r",
      "h at",
      "▁ u",
      "▁w e",
      "y le",
      "▁ e",
      "▁s t",
      "v er",
      "' t",
      "▁d o",
      "gh t",
      "▁K yle",
      ". [",
      "▁S tan",
      "l d",
      "k s",
      "▁ W",
      "▁th at",
      "▁ P",
      "an d",
      "a m",
      "▁ re",
      "▁ A",
      "▁ G",
      "e ,",
      "i ght",
      "▁ k",
      "▁h is",
      "i r",
      "y ,",
      "▁ H",
      "o p",
      "▁h a",
      "it h",
      "! \n",
      "▁ R",
      "▁w ith",
      "om e",
      "u r",
      "a ll",
      "! \"\n",
      "] \"\n",
      "▁f or",
      "▁u p",
      "o s",
      "! [",
      "▁a re",
      "en t",
      "c h",
      "l y",
      "▁ j",
      "s ,",
      "▁s h",
      "▁T he",
      "▁a t",
      "h ,",
      "us t",
      "he r",
      "▁ out",
      "Y ou",
      "▁s e",
      "▁a n",
      "▁g o",
      "▁m e",
      "▁ J",
      "e ll",
      "? \n",
      "r i",
      "e l",
      "▁ D",
      "\" \"",
      "▁ha ve",
      ",\" [",
      "u n",
      "r .",
      "ac k",
      "i on",
      "▁ le",
      "i ll",
      "' re",
      "▁l i",
      "s .",
      "▁n e",
      "r o",
      "▁a ll",
      ".. .",
      "▁th is",
      "▁I '",
      "r a",
      "▁ ,\"",
      "? \"\n",
      "▁h im",
      "▁c an",
      "▁B ut",
      "e a",
      "h o",
      "p p",
      "r ou",
      "▁a s",
      "▁g et",
      "▁ L",
      "▁j ust",
      "T he",
      "s t",
      "▁b o",
      "on 't",
      "▁you r",
      "▁m y",
      "on e",
      "▁f r",
      "▁Cartman ,\"",
      "c k",
      "ter s",
      "▁w hat",
      "▁l oo",
      "▁k n",
      "er s",
      "ow n",
      "ar d",
      "▁ N",
      "e p",
      "▁M r.",
      "y s",
      "r is",
      "i l",
      "i g",
      "in d",
      "▁n ot",
      "ou r",
      "o re",
      "an t",
      "s e",
      "i e",
      "▁R and",
      "a k",
      "t he",
      "▁s o",
      "▁ O",
      "u d",
      "a in",
      "o d",
      "c t",
      "a ke",
      "▁of f",
      "ou ld",
      "c e",
      "o l",
      "y ,\"",
      "n a",
      "ver y",
      "▁W e",
      "▁Kyle ,",
      "a g",
      "r y",
      "▁r ight",
      "▁ E",
      "▁kn ow",
      "▁b ack",
      "▁I' m",
      "▁Cartman ,",
      "▁d on't",
      "w ay",
      "i p",
      "▁a b",
      "▁ F",
      "i f",
      "▁H e",
      "▁ ,",
      "u m",
      "en n",
      "▁c h",
      "t o",
      "] \n",
      "▁b ut",
      "n 't",
      "▁Stan ,",
      "▁p l",
      "▁w as",
      "▁the n",
      "▁fr om",
      "id e",
      "▁g u",
      "h ing",
      "▁ You",
      "▁li ke",
      "all y",
      "▁Stan ,\"",
      "▁n ow",
      "ur n",
      "re s",
      "▁s ome",
      "H e",
      "rou nd",
      "v es",
      "t 's",
      "a b",
      "in k",
      "W hat",
      "oo d",
      "ar k",
      "▁But ters",
      "ic k",
      "▁he re",
      "Y ea",
      "▁ab out",
      "o ,",
      "▁ us",
      "▁the m",
      "n t",
      "▁d own",
      "▁the y",
      "on g",
      "▁S t",
      "▁s u",
      "▁c l",
      "e m",
      "al ks",
      "▁he r",
      "▁o ver",
      "f f",
      "e .",
      "▁g ot",
      "▁c om",
      "▁w or",
      "▁p e",
      "k ay",
      "▁the re",
      "a p",
      "▁ v",
      "▁a g",
      "op le",
      "▁K enn",
      "▁w h",
      "▁Kyle ,\"",
      "O h",
      "▁r o",
      "it t",
      "es t",
      "t her",
      "a re",
      "he n",
      "on na",
      "▁a l",
      "▁in to",
      "al k",
      "ar ris",
      "▁g onna",
      "q u",
      "▁loo k",
      "▁s p",
      "▁a way",
      "ar s",
      "▁do or",
      "▁ our",
      "he s",
      "u l",
      "ic e",
      "e e",
      "is t",
      "i le",
      "▁bo ys",
      "▁a round",
      "arris on",
      "ou s",
      "▁w ho",
      "im m",
      "▁th ink",
      "▁o ther",
      "▁ \"\"",
      "▁pe ople",
      "▁C h",
      "in '",
      "on t",
      "▁G arrison",
      "W ell",
      "▁h as",
      "▁t im",
      "▁d ay",
      "▁on e",
      "oo l",
      "as t",
      "i ve",
      "▁w ant",
      "▁k id",
      "W e",
      "▁se e",
      "▁it 's",
      "▁an y",
      "? [",
      "▁e very",
      "as s",
      "▁d e",
      "r ow",
      "u ck",
      "urn s",
      "▁d id",
      "▁the ir",
      "he re",
      "a a",
      "▁m an",
      "er ,",
      "us e",
      "▁ag ain",
      "▁n o",
      "▁s c",
      "ac e",
      "] I",
      "an g",
      "out h",
      "i an",
      "▁b y",
      "e nd",
      "e w",
      "O h,",
      "h is",
      "es s",
      "v en",
      "ak es",
      "▁loo ks",
      "u re",
      "t s",
      "▁s ay",
      "at e",
      "on d",
      "i en",
      "le s",
      "es ,",
      "at ion",
      "t h",
      "itt le",
      "▁w alks",
      "b e",
      "▁S h",
      "a ,",
      "▁can 't",
      "tan d",
      "v ing",
      "w o",
      "u p",
      "▁b l",
      "▁ne ed",
      "▁h and",
      "▁s a",
      "f t",
      "▁a pp",
      "▁to w",
      "▁pl ay",
      "▁go ing",
      "▁Kenn y",
      "r in",
      "' ve",
      "hat 's",
      "▁l ittle",
      "▁f l",
      "u ll",
      "▁S he",
      "▁P ark",
      "o ve",
      "a use",
      "▁ro om",
      "ot her",
      "oo k",
      "am e",
      "ter s,",
      "▁e x",
      "▁c ome",
      "▁ if",
      "▁he ad",
      "op s",
      "i ld",
      "▁ 1",
      "i es",
      "in s",
      "o b",
      "a it",
      "▁ en",
      "▁t r",
      "y .",
      "in e",
      "▁you 're",
      ", [",
      "B ut",
      "ac h",
      "os e",
      ".[ the",
      "re e",
      "] A",
      "os t",
      ",\" I",
      "b le",
      "er al",
      "Yea h",
      "▁tim e",
      "▁m ake",
      "▁w ill",
      "om et",
      "▁Rand y,\"",
      "▁m ore",
      "en s",
      "ic h",
      "▁re ally",
      "u h",
      "Well ,",
      "▁o p",
      "' m",
      "▁G od",
      "e c",
      "t ing",
      "▁sh ow",
      "Yea h,",
      "▁t ake",
      "▁w ay",
      "m ent",
      ",\" A",
      "ar on",
      "he f",
      "b er",
      "▁ qu",
      "![ the",
      "i re",
      "▁st art",
      "' ll",
      "e ar",
      "▁s m",
      "a ve",
      "x t",
      "▁th ing",
      "a h",
      "▁o r",
      "▁a r",
      "▁ne w",
      "s ide",
      "▁h ow",
      "▁p ro",
      "s el",
      "ch ool",
      "re at",
      "le d",
      "ri end",
      "▁But ters,",
      "▁that 's",
      "▁be en",
      "▁s omet",
      "▁Rand y",
      "▁ V",
      "▁ 2",
      "▁s he",
      "h h",
      "▁to o",
      "ir l",
      "ic t",
      "g e",
      "a u",
      "▁A nd",
      "▁Sh aron",
      "o ll",
      "o ld",
      "▁kid s",
      "? !",
      "ou nd",
      "▁gu ys",
      "an s",
      "▁w at",
      "o ck",
      "▁g ood",
      "▁C hef",
      "A A",
      "▁do es",
      "f e",
      "▁I t's",
      "▁t wo",
      "▁day .",
      "▁sh ould",
      "▁M ac",
      "kay ,",
      "▁,\" The",
      "an k",
      "▁s chool",
      "eral d",
      "an ce",
      "S tan",
      "▁Rand y,",
      "▁w ould",
      "▁Mac ke",
      "a ir",
      "r ic",
      "▁t alk",
      "▁wor k",
      "ag e",
      "▁ U",
      "it y",
      "▁t ry",
      "N o",
      "▁p ut",
      "om an",
      "as e",
      "o in",
      "C artman",
      "▁A n",
      "rin c",
      "t hing",
      "is s",
      "▁r un",
      "▁le ft",
      "rou gh",
      "od y",
      "▁t e",
      "▁c ould",
      "g et",
      "ou se",
      "▁b r",
      "▁n ight",
      "▁J imm",
      ", I",
      "▁st op",
      "▁he l",
      "t urns",
      "▁Cartman ,\"[",
      "▁M an",
      "▁c he",
      "i al",
      "▁w hen",
      "ab le",
      "▁a m",
      "▁G erald",
      "re n",
      "re d",
      "or t",
      "▁d r",
      "▁we re",
      "▁ Y",
      "s ]",
      "▁be g",
      "▁th rough",
      "▁be c",
      "▁somet hing",
      "▁t ell",
      "it e",
      "▁gu y",
      "▁The y",
      "▁we 're",
      "it s",
      "▁Butters ,\"",
      "▁c ou",
      "r ight",
      "ud e,",
      "es us",
      "▁Ch ris",
      "▁u nd",
      "▁b et",
      "m er",
      "▁ha pp",
      "▁m o",
      "ol k",
      "r ad",
      "▁We nd",
      "e ct",
      "? !\n",
      "res s",
      "▁s tand",
      "w e",
      "▁g irl",
      "er .",
      "▁on ,",
      "▁f riend",
      "rinc ip",
      "▁he ll",
      "K yle",
      "p s",
      "os s",
      "rincip al",
      "u e",
      "▁bo y",
      "▁w alk",
      "ing ,",
      "h ind",
      "▁it ,",
      "▁c on",
      "▁W hat",
      "or d",
      "▁C ra",
      "h y",
      "i z",
      "▁d is",
      "▁fr ont",
      "ing .",
      "▁m om",
      "au gh",
      "▁me an",
      "▁you ,",
      "▁c ar",
      "im b",
      "▁ne xt",
      "at her",
      "id ent",
      "an na",
      "sel f",
      "▁c r",
      "u b",
      "▁as s",
      "er ,\"",
      "▁a d",
      "o y",
      "ard s",
      "▁hel p",
      "▁ch ild",
      "▁f e",
      "an c",
      "▁w here",
      "▁re ad",
      "▁p r",
      "w alks",
      "olk ien",
      "▁h ad",
      "▁t urns",
      "t y",
      "b ody",
      "▁do ing",
      "o c",
      "▁w ait",
      "▁c am",
      "▁w anna",
      "T hat's",
      "▁go es",
      "▁,\" S",
      "t a",
      "▁b it",
      "ow ,",
      "▁st ill",
      "▁le t",
      "ak ing",
      "▁com p",
      "▁f uck",
      "▁w r",
      "▁se c",
      "at h",
      "▁b ig",
      "▁ ke",
      "▁be hind",
      "p er",
      "N o,",
      "or n",
      "f ore",
      "a w",
      "is h",
      "▁on ly",
      "▁c ont",
      "er r",
      "ed ,",
      "▁su re",
      "▁h ouse",
      "▁right ,",
      "▁b u",
      "▁he 's",
      "▁M ay",
      "▁, The",
      "ar b",
      "e ars",
      "▁be l",
      "He y,",
      "▁T h",
      "ir st",
      "ct or",
      "n e",
      "re t",
      "▁p h",
      "es .",
      "ot t",
      "▁I n",
      "▁P rincipal",
      "▁s l",
      "ac t",
      "▁tow n",
      "▁Cra ig",
      "or m",
      "o g",
      "▁T olkien",
      "▁it .",
      "ad e",
      "a ves",
      "s .\"\n",
      "▁S c",
      "t e",
      "▁ '",
      "ly d",
      "] You",
      "▁f ind",
      "▁get s",
      "T his",
      "i gh",
      "▁T w",
      "n c",
      "▁a f",
      "▁f ace",
      "▁sa id",
      "are nt",
      "p l",
      "▁l at",
      "▁e ven",
      "a v",
      "▁t akes",
      "▁did n't",
      "▁S outh",
      "▁every one",
      "▁J esus",
      "row d",
      "c hes",
      "r s.",
      "u ff",
      "▁I t",
      "▁we ll",
      "ous e,",
      "▁I' ve",
      "] H",
      "ou gh",
      "ent s",
      "ep hen",
      "] W",
      "He y",
      "▁D o",
      "▁wat ch",
      "▁ very",
      "▁be ing",
      "▁I' ll",
      "▁e y",
      "▁f in",
      "▁an other",
      "▁bec ause",
      "ow s",
      "up id",
      "s h",
      "ff ic",
      "▁th an",
      "▁a ct",
      "all s",
      "] S",
      "? !\"\n",
      "▁h ome",
      ",\" Oh,",
      "u g",
      "un n",
      "▁sc re",
      "▁e ach",
      "ac hes",
      "▁St ephen",
      "▁P h",
      "ig n",
      "▁Chris t",
      "im p",
      "▁re s",
      "▁E ric",
      "▁L ian",
      "▁h old",
      "er a",
      "O kay,",
      "l right",
      "i ous",
      "▁be fore",
      "▁h ouse,",
      "▁s or",
      "res ident",
      "▁f irst",
      "o h",
      "ing s",
      "u ch",
      "▁T his",
      "ed .",
      "▁Kenn y,",
      "▁M rs.",
      "▁a c",
      "ee k",
      "▁p art",
      "ra p",
      "▁b us",
      "▁She il",
      "▁J imb",
      "ro om",
      "o or",
      "el s",
      "D ude,",
      "▁w ind",
      "▁op en",
      "oo ks",
      "▁C lyd",
      "▁ne ver",
      "d am",
      "▁g reat",
      "▁l ot",
      "g er",
      "▁re al",
      "▁off ic",
      "d ay",
      "▁d es",
      "▁sh ot",
      "▁g ive",
      "▁B e",
      "▁wh y",
      "▁t urn",
      "▁t able",
      "ep s",
      "at es",
      "▁l augh",
      "▁ar m",
      "re 's",
      "i ly",
      "▁O ffic",
      "▁re m",
      "et 's",
      "▁cl os",
      "ar y",
      "▁the se",
      "▁d ri",
      "ic ks",
      "op e",
      "ull s",
      "▁l ove",
      "le ase",
      "▁m uch",
      "on s",
      "C ome",
      "▁Garrison ,\"",
      "▁,\"S outh",
      "▁g l",
      "a pp",
      "▁c o",
      "w n",
      "▁y ea",
      "▁c rowd",
      ". ]\"\n",
      "▁wh ile",
      "he d",
      "on ,",
      "▁l ong",
      "▁child ren",
      "▁f oll",
      "▁c all",
      "▁bet ter",
      "▁s ide",
      "] Oh",
      "▁does n't",
      "ot h",
      "▁u n",
      "▁o kay",
      "▁sec ond",
      "▁bel ie",
      "i a",
      "▁C an",
      "▁is n't",
      "▁B l",
      "▁s w",
      "ou ght",
      "a le",
      "one y",
      "as h",
      "▁know ,",
      "▁p arent",
      "▁cam era",
      "w w",
      "oo t",
      ",\" S",
      "b s",
      "▁there 's",
      "▁t ri",
      "▁I ke",
      "▁fe el",
      "▁tow ards",
      "▁beg ins",
      "at ing",
      "▁com es",
      "▁M c",
      "at ed",
      "▁got ta",
      "▁d ud",
      "▁op ens",
      "▁May or",
      "M r.",
      "em ber",
      "▁f ew",
      "▁Tw eek",
      "▁happ en",
      "o v",
      "▁m ay",
      "▁le t's",
      "id i",
      "▁sh own",
      "▁th ose",
      "' d",
      "▁ 3",
      "A nd",
      "▁T imm",
      "▁k ind",
      "] The",
      "ar m",
      "▁M s.",
      ",\" Well,",
      "▁in side",
      "I 'm",
      "▁at t",
      "▁m ade",
      "ar n",
      "▁af ter",
      "▁b re",
      "un ch",
      "▁m e,",
      "▁A ll",
      "▁le ave",
      "ut s",
      "▁B arb",
      "▁P C",
      "▁th ree",
      "T h",
      "▁m en",
      "e x",
      "] What",
      "y 's",
      "▁wor ld",
      "▁st ud",
      "▁P resident",
      "▁D r.",
      "▁look ing",
      "▁C l",
      "▁m ust",
      "▁he ard",
      "▁e nd",
      "▁o wn",
      "▁ph one",
      "▁H ow",
      "▁belie ve",
      "▁k ill",
      "▁w oman",
      "o k",
      "▁b ed",
      "us ic",
      "▁st upid",
      ",\" You",
      "▁m in",
      "W ho",
      "▁l ist",
      "▁e ver",
      "▁up ,",
      "▁ke ep",
      "▁Lian e",
      "ou nc",
      "▁b ad",
      "▁ch ang",
      "▁g i",
      "▁get ting",
      "▁h u",
      "▁p ict",
      "w ard",
      "▁s et",
      "▁re p",
      "▁wh ich",
      "▁l ast",
      "ill ip",
      "▁He 's",
      "at or",
      "▁s n",
      "um b",
      "▁S p",
      "▁cl ass",
      "▁T err",
      "▁s on",
      "U h",
      "▁M ars",
      "ers tand",
      "o on",
      "▁app ro",
      "▁night .",
      "▁th ought",
      ",\" H",
      "▁f am",
      "▁re st",
      ", What",
      "- \"\n",
      "mer ic",
      "▁Offic er",
      "r y,",
      "▁le ad",
      "▁any thing",
      "u c",
      "▁St e",
      "▁und erstand",
      "▁wind ow",
      "▁s er",
      "L ook",
      "c l",
      "▁e l",
      "▁T hat's",
      "y !",
      "ac ks",
      "▁they 're",
      "▁c are",
      "▁su pp",
      "▁Ph illip",
      "▁try ing",
      "▁hand s",
      "ers on",
      "is e",
      ".[ s",
      "ou nt",
      "▁thing s",
      "▁now ,",
      "i e,",
      "▁parent s",
      "▁We 're",
      "] D",
      "a z",
      "t ain",
      "▁You 're",
      "re et",
      "re ad",
      "le ment",
      "▁p er",
      "y .\"\n",
      "r and",
      "▁ 4",
      "But ters",
      "▁f our",
      "ho le",
      "▁ -",
      "▁Cartman, [",
      "▁Barb rad",
      "▁He idi",
      "Y es,",
      "▁W oman",
      "re am",
      "▁I f",
      ". \"\"",
      "r id",
      "ac es",
      "▁Stan ,\"[",
      "▁c al",
      "a x",
      "▁b ab",
      "i ke",
      "▁m oney",
      "▁se en",
      "i v",
      "m ore",
      "▁m at",
      "I t's",
      "ar ing",
      "▁Macke y,\"",
      "le as",
      "▁An n",
      ",\" Oh",
      ".. .\n",
      "i k",
      ".[ a",
      "▁T om",
      "▁out side",
      "▁E lement",
      "] G",
      "▁c le",
      "ea k",
      "he ad",
      "am p",
      "▁ey es",
      "▁und er",
      "get her",
      "m m",
      "very one",
      "▁run s",
      "▁f at",
      "▁st ops",
      "s o",
      "▁pl an",
      "v in",
      "▁l ight",
      "▁app ears",
      "▁wr ong",
      "▁to ld",
      "▁m usic",
      "▁Jimb o",
      "a il",
      "u ally",
      "▁f ight",
      "▁him self",
      "ud d",
      "▁s k",
      "or k",
      "▁u h",
      "▁A meric",
      "▁what 's",
      "▁pl ace",
      "▁Sheil a",
      "un s",
      "ble m",
      "s w",
      "Yeah .",
      "0 0",
      "lright ,",
      "▁start s",
      "K enn",
      "▁O h",
      "▁h ard",
      "▁se at",
      "▁sh it",
      "▁foll ow",
      "l ooks",
      "▁st uff",
      "▁every thing",
      "▁Sc ott",
      "▁p ulls",
      "ip s",
      "▁T V",
      "▁it !",
      "e ver",
      "▁m ove",
      ".. .\"\n",
      "▁c ool",
      "▁it s",
      "] Oh,",
      "▁sor ry",
      "▁s ign",
      "▁pro blem",
      "f l",
      "▁p ret",
      "en ,",
      "▁re c",
      ", You",
      "▁T e",
      "▁o ld",
      "ing er",
      "▁talk ing",
      "o ice",
      "▁to gether",
      "▁D ad",
      "rou p",
      "S o",
      "n g",
      "les s",
      "▁m ight",
      "The y",
      "H ow",
      "ion s",
      "s s",
      "▁s it",
      ".[ p",
      "am m",
      "i x",
      "▁ ent",
      "ec ial",
      "] We",
      "m as",
      "id e,",
      "▁do ll",
      "ol ice",
      "] O",
      "T hat",
      "▁u h,",
      "▁gu ess",
      "ict or",
      "we et",
      "▁p ass",
      "ar y,",
      "ie w",
      "▁qu ick",
      "ar r",
      "] M",
      "▁girl s",
      "] N",
      "▁L ind",
      ") \n",
      "▁Can ad",
      "▁el se",
      "m b",
      "it c",
      "▁le aves",
      "▁li ving",
      "▁bo x",
      "▁play ing",
      "▁,\" A",
      "um p",
      "▁S at",
      "U h,",
      "▁Kyle ,\"[",
      "▁s ound",
      "in es",
      "▁b est",
      "▁p lease",
      "im e",
      "▁pict ure",
      "f ul",
      "▁s ur",
      "a .",
      "▁s its",
      "us s",
      "▁a w",
      "in ks",
      "ver s",
      "ap s",
      "ul t",
      "r oss",
      "▁dud e",
      "a -",
      "▁p oin",
      "▁him .",
      "▁as k",
      "ien ce",
      "▁Terr ance",
      "o es",
      "▁Garrison ,",
      "▁Kenny, (",
      "▁N ow",
      "▁beg in",
      "▁C ome",
      "▁n ame",
      "▁c at",
      "▁it .\"\n",
      "e ad",
      "h .",
      "▁st reet",
      "▁not hing",
      "et er",
      "ie ld",
      "▁room .",
      "▁cou nt",
      "▁M om",
      "am n",
      "ow er",
      "▁B r",
      "▁H an",
      "AA AA",
      "▁fl oor",
      "▁ imp",
      "ke y",
      "▁Clyd e",
      "▁min ut",
      "s .\n",
      "▁p re",
      "▁st ay",
      "▁ha ll",
      "▁here ,",
      "is es",
      "▁Jimm y",
      "v ed",
      "l ing",
      "t on",
      ",\" Yeah,",
      "▁d one",
      "and s",
      "▁N ew",
      "▁t ra",
      "▁Cartman 's",
      "▁to day",
      "▁L et's",
      "▁en ough",
      "R and",
      "▁b all",
      "▁B ill",
      "ter ,",
      "▁guy s,",
      "▁T hat",
      "▁A l",
      "row s",
      "oh n",
      "o ves",
      "▁an sw",
      "▁V ictor",
      "d er",
      "▁f ire",
      "▁p erson",
      "▁list en",
      "d y",
      "▁an g",
      "A ll",
      "i pp",
      "w here",
      ".. .[",
      "▁God ,",
      "? ![",
      "▁sm all",
      "O O",
      "▁w on't",
      "▁ex c",
      "▁bit ch",
      "▁Ann ounc",
      "Y es",
      "▁ id",
      "▁m akes",
      "▁ac c",
      "an ks",
      "▁li fe",
      "i et",
      "n er",
      "os ed",
      "▁de ad",
      "▁he ar",
      "▁who le",
      "▁pret ty",
      "c ks",
      "▁h uh",
      "▁m ost",
      "! !",
      "a el",
      "▁W ell",
      "e ople",
      "i b",
      "▁fam ily",
      "▁s ing",
      "▁s ong",
      "▁g roup",
      "tan t",
      "▁cont in",
      "r r",
      "▁f un",
      "aa aa",
      "ich ael",
      "▁stand s",
      "▁c our",
      "▁him ,",
      "way s",
      "▁may be",
      "▁n o,",
      "ct ion",
      "▁se em",
      "ro ll",
      "▁g round",
      "▁M ar",
      "▁li ve",
      "W hy",
      "n ing",
      "▁mo ves",
      "i ,",
      "▁id ea",
      ",\" N",
      "▁p res",
      "▁She ll",
      "▁lat er.",
      "▁N o",
      "▁v ide",
      "▁act ually",
      "c he",
      "ow el",
      "▁us e",
      "▁Christ mas",
      "▁M y",
      "! \"\"",
      "an ,",
      "▁c a",
      "▁G u",
      "op p",
      "▁ch air",
      "re nt",
      "▁s ir",
      "▁Do ctor",
      "▁des k",
      "l y,",
      "o le",
      "▁S o",
      "▁J ew",
      "ic es",
      "▁st r",
      "▁com ing",
      "u es",
      "▁d ad",
      "▁le arn",
      "re st",
      "▁b as",
      "▁e at",
      "▁R e",
      "ell o",
      "p le",
      "▁b ro",
      "▁g ay",
      "▁we e",
      "]A nd",
      "- b",
      "an i",
      ",\" M",
      "▁g ra",
      "ter n",
      "▁ha ving",
      "▁, S",
      "s k",
      "s p",
      "▁se es",
      "ri es",
      "▁wor d",
      "▁bu ild",
      "ra w",
      "▁right .",
      "▁mean ,",
      ",\" The",
      "▁J ohn",
      "nt il",
      "▁you .",
      "▁n ice",
      "▁g un",
      "▁Kyle, [",
      "▁away .",
      "D on't",
      "▁bl ack",
      "a ur",
      "b all",
      "t akes",
      "▁e v",
      "ant s",
      "▁M ichael",
      "▁Macke y",
      "▁friend s",
      "▁m aking",
      "▁J ust",
      "le ep",
      "us h",
      "▁on to",
      "We 're",
      "oo oo",
      "are d",
      "▁1 ,",
      "▁put s",
      "▁d if",
      "oc ks",
      "▁W hy",
      "▁Wend y",
      "▁Wend y,",
      "▁there ,",
      "▁al ong",
      "?[ the",
      "▁Jimm y,\"",
      "▁a ud",
      "i ent",
      "y ou",
      "▁we 've",
      "▁en ter",
      "▁ar ri",
      "▁p ap",
      "v is",
      "en e",
      "▁b ook",
      "▁W h",
      "▁cal led",
      "it ch",
      "▁me et",
      "▁room ,",
      "▁Mc D",
      "f orm",
      "m or",
      "▁R ed",
      "▁t w",
      "▁c rap",
      "▁read y",
      "n ot",
      "it ion",
      "or ter",
      "▁say s",
      "▁Mars h",
      "- [",
      "▁you 've",
      "▁The re's",
      "▁re t",
      ",\"A nd",
      ",\" W",
      "ent ion",
      "ol og",
      "i er",
      ",\" O",
      "▁m outh",
      "▁u ntil",
      "um ps",
      "Kenn y",
      "p h",
      "s ]\"\n",
      "get s",
      "y ing",
      "ro l",
      "▁Randy ,\"[",
      "▁scre en",
      "▁a ir",
      "▁se x",
      "▁en ters",
      "▁f ound",
      "▁b oth",
      ",\" G",
      "▁de al",
      "]I 'm",
      "J ust",
      "or s",
      "▁d ress",
      "▁E l",
      "u al",
      "▁e m",
      "i ble",
      "on e,",
      "id es",
      "▁re d",
      "▁any more",
      "n ce",
      "am a",
      "▁al ways",
      "▁br ing",
      "m y",
      "▁w all",
      "▁that ,",
      "ep t",
      "ac her",
      "▁show s",
      "S t",
      "us hes",
      "▁T owel",
      "] E",
      "g g",
      "▁ ...",
      "▁say ing",
      "ec ause",
      "r u",
      "▁P ip",
      "▁w in",
      "▁m iss",
      "itt ing",
      "ar ge",
      "▁st eps",
      "▁fuck ing",
      "▁supp osed",
      "▁f unn",
      "oo p",
      "▁up .",
      "▁well ,",
      "] T",
      "b r",
      "▁for ward",
      "il led",
      "▁Element ary,",
      "▁2 ,",
      "Look ,",
      "D o",
      "b o",
      "▁me .",
      "▁McD ani",
      "] He",
      "▁b ar",
      "▁are n't",
      "w ,",
      "▁h ur",
      "▁Jimm y,",
      "▁D on't",
      "▁p ark",
      "▁Stan, [",
      "▁m ar",
      "▁A s",
      "▁ro ll",
      "re en",
      "▁I s",
      ".[ turns",
      "▁R ep",
      "No !",
      "i ed",
      "▁p ast",
      "ir d",
      "▁j oin",
      "▁again st",
      "▁h ang",
      "▁p olice",
      "▁C oon",
      "art s",
      "▁res p",
      "▁you .\"\n",
      "ir t",
      "▁j ob",
      "▁de c",
      "▁t aking",
      "▁s ame",
      "sel ves",
      "dam n",
      "▁watch ing",
      "m ,",
      "▁v iew",
      "▁other s",
      "▁p en",
      "▁K e",
      "S h",
      "▁ im",
      ".[ walks",
      "ie f",
      "▁mo v",
      "▁f alls",
      "▁g ame",
      "ld er",
      "itc hen",
      "▁vide o",
      "▁p os",
      "▁we 'll",
      "▁N e",
      ",\"A ll",
      "or y",
      "▁sm ile",
      "C h",
      "▁s weet",
      "▁Sat an",
      "art h",
      "▁F r",
      ", A",
      "r uns",
      "▁m orn",
      "id d",
      "▁al read",
      "▁too k",
      "▁S m",
      "▁Cartman,\" I",
      "ap e",
      "▁sp ecial",
      "▁pr ot",
      "p a",
      "▁ z",
      "▁fin ally",
      "▁f ood",
      "▁l ine",
      "▁yea h",
      "- f",
      ",\" No,",
      "▁D e",
      "if e",
      "- s",
      "▁to t",
      "oo f",
      "▁new s",
      "u res",
      "et ,",
      "▁B o",
      "▁Park ,",
      "▁clos es",
      "▁bre ak",
      "' kay",
      "re w",
      "▁p ay",
      "et s",
      "c ome",
      "▁ 5",
      "an y",
      "ar l",
      "▁B oy",
      "▁che ck",
      "o ke",
      "t .",
      "▁c ho",
      "▁mat ter",
      "▁dif fe",
      "▁C om",
      "▁on ce",
      "▁W ho",
      "▁so f",
      "▁appro aches",
      "▁Lind a",
      "▁st ore",
      "▁Kyle .",
      "▁sh ut",
      "▁ac ross",
      "▁Kyle 's",
      "▁O h,",
      "▁wat er",
      "Rand y",
      "] B",
      "c c",
      "at s",
      "im s",
      "▁, A",
      "▁v oice",
      "▁app ear",
      "le n",
      "▁c ut",
      "▁d in",
      "▁g r",
      "ag in",
      "▁l ock",
      "▁ha ir",
      "![ s",
      "ly .",
      "ing .\"\n",
      "▁Clyd e,",
      "▁yea h,",
      "▁aud ience",
      "it al",
      "▁g rad",
      "▁y ear",
      "▁h igh",
      "▁k itchen",
      "You 're",
      "▁Stan, What",
      "▁comp ut",
      "▁t ur",
      "▁re l",
      "▁h ot",
      "▁c ame",
      "C an",
      "▁ (",
      "▁out ,",
      "▁d ude,",
      "▁C ol",
      "▁G o",
      "▁Chef ,",
      "▁chang e",
      "L et's",
      "▁l ad",
      "ve l",
      "▁on .",
      "▁head s",
      "it ,",
      "am s",
      "▁again ,",
      "▁O n",
      "▁some one",
      "▁com m",
      "▁house .",
      "▁count ry",
      "- h",
      "an n",
      "em ent",
      "▁ad d",
      "▁alread y",
      "i um",
      "▁Butters ,\"[",
      "▁f ree",
      "▁you ng",
      "ic al",
      "▁r a",
      "▁Kyle, I",
      "▁Ste ven",
      "▁se e,",
      "▁pres ent",
      "c er",
      "▁so on",
      "▁Stan, I",
      "iz e",
      "▁f ac",
      "▁f oot",
      "![ p",
      "▁want ed",
      "a !",
      "▁Stan,\" Dude,",
      "▁m ind",
      "▁with out",
      "▁sa w",
      ") \"\n",
      "▁b at",
      "▁b ur",
      "es e",
      "▁M ark",
      "we en",
      "en ce",
      "▁B ob",
      "▁quick ly",
      "it ed",
      "]I t's",
      "▁Victor ia",
      ",\" We",
      "en eral",
      "▁,\" Cartman",
      "c o",
      "▁c ra",
      "▁d ie",
      "▁f ore",
      "▁r id",
      "▁happen ed",
      "- m",
      "![ a",
      "▁Kyle, What",
      "r am",
      "▁f ive",
      "en ter",
      "▁rem ember",
      "▁t ak",
      "is ter",
      "ow ers",
      "▁T wo",
      "▁B ro",
      "▁Stan 's",
      "▁cl ose",
      "O kay",
      "et .",
      "J esus",
      "p t",
      "▁M e",
      "▁Th om",
      "- t",
      "▁c ur",
      "▁out .",
      "ig g",
      "▁guy s.",
      "▁f ather",
      "as on",
      "▁want s",
      "▁bl ood",
      "▁dr ops",
      "▁f ull",
      "▁Kenn y,\"",
      "▁su ch",
      "I n",
      "M y",
      "▁C on",
      "▁G rand",
      "▁D av",
      "▁we aring",
      "▁qu est",
      "▁b ath",
      "▁P ro",
      "▁tim es",
      "▁man ,",
      ",\"I 'm",
      "▁Be be",
      "g round",
      "g ins",
      "i i",
      "▁K id",
      "? ?\n",
      "ut h",
      "▁Macke y,",
      "▁lat er",
      ", Oh",
      "m ost",
      "le ct",
      "▁m other",
      "▁S ant",
      "▁G et",
      "▁che er",
      "l er",
      "▁away ]\"\n",
      "Yeah !",
      "▁They 're",
      "▁to ile",
      "ho ld",
      "He 's",
      "j ect",
      "▁b and",
      ",\" What",
      "▁h ate",
      "▁Sheil a,",
      "c ause",
      "▁b ra",
      "▁c e",
      "ot s",
      "▁Cartman, I",
      "▁sp eak",
      "▁sor ry,",
      "l and",
      "▁c ry",
      "al s",
      "▁it .\n",
      "Stan ,",
      "▁st ri",
      "h -",
      ",\" Hey,",
      ",\" Yes,",
      "ist s",
      "▁Y ates",
      "he st",
      "▁s y",
      "▁p ri",
      "▁al one",
      "▁Wend y,\"",
      "ot e",
      "ion ,",
      "▁she 's",
      "▁Jimb o,",
      "▁g one",
      "or ,",
      "▁M ax",
      "al f",
      ".[ Cartman",
      "▁H at",
      "▁J e",
      "▁ser ious",
      "n ess",
      "oo o",
      "ian s",
      "s ide,",
      "▁o kay,",
      "▁door .",
      "▁mom ent",
      "] This",
      "▁to mor",
      "▁m on",
      "▁L ook",
      "▁here .",
      "▁su ck",
      "▁cont rol",
      "▁tomor row",
      "H uh",
      "k es",
      ",\" E",
      "▁S l",
      "▁P et",
      "▁A re",
      "▁k ick",
      "▁cou ple",
      "on ight",
      "▁h ope",
      "▁S ome",
      "▁away ,",
      "oin ts",
      "▁d amn",
      "▁m ill",
      "om en",
      "▁J enn",
      "▁St r",
      "▁Han ke",
      "▁hall way",
      "▁pap er",
      "t ,",
      "▁h o",
      "▁H all",
      "i o",
      "▁m ic",
      "▁su per",
      "▁man y",
      ",\"I t's",
      "▁tot ally",
      "▁The re",
      ",\"[ s",
      "▁Sharon ,",
      "ex ic",
      "] F",
      "i ves",
      "u nd",
      "▁wait ing",
      "▁stud ents",
      "▁Ste ve",
      "a ving",
      ",\" T",
      "▁A g",
      "▁go in'",
      "▁bet ween",
      "▁con f",
      "▁' cause",
      "▁s leep",
      "▁h or",
      "it her",
      "▁C ho",
      "▁st age",
      "▁Timm y",
      "▁diffe rent",
      "t le",
      "▁ 6",
      "▁do ctor",
      "▁them .",
      "▁wh ite",
      "ov sk",
      "m oves",
      "▁f re",
      "ed .\"\n",
      "▁Kenny,\" (",
      "▁P eople",
      "be gins",
      "▁ex pl",
      "▁h our",
      "ad ,",
      "fl ovsk",
      "[ the",
      "i a,",
      "▁y ears",
      "▁L ord",
      "▁was n't",
      "b y",
      "c e,",
      "▁th ank",
      "]A ll",
      "▁arm s",
      "▁tak en",
      "u h,",
      "▁ Q",
      "leas e,",
      "▁answ er",
      "▁Well ,",
      "- o",
      "S he",
      "▁e ating",
      "ver n",
      "os es",
      "\"\" \"\n",
      "▁now .",
      "▁te acher",
      "▁dr ink",
      "▁hold ing",
      "- w",
      "l ic",
      ",\" B",
      "▁p ie",
      "▁in ter",
      "as ter",
      "am es",
      "▁le g",
      "if f",
      "▁hold s",
      "▁bath room",
      "en se",
      "▁do g",
      "▁Stan,\" Yeah,",
      "▁tri es",
      "▁to p",
      "▁bo ard",
      "▁again .",
      "▁s itting",
      "▁is ,",
      "▁imp or",
      "d uc",
      "o om",
      "in ess",
      "▁w ent",
      "▁d ou",
      "▁g as",
      "▁E veryone",
      "▁work ing",
      "n ow",
      "in ce",
      "▁k illed",
      "▁O ne",
      "ond er",
      ".[the y",
      "os p",
      "ell o,",
      "▁off ice",
      "▁some body",
      "▁d ream",
      "▁he art",
      "▁H is",
      "▁You r",
      "▁us ed",
      "▁boy s,",
      "c om",
      "▁M exic",
      "▁but t",
      "▁down ,",
      "ah ah",
      "hh h",
      "▁te am",
      "] P",
      "▁b ull",
      "▁m ess",
      "ut e",
      "ra id",
      "▁bo dy",
      "▁Gerald ,",
      "idd le",
      "ar ry",
      "▁b oo",
      "▁d umb",
      "▁f ell",
      "▁p ain",
      "▁l arge",
      "ic e,",
      "▁r u",
      "▁al so",
      "▁tim e,",
      "▁contin ues",
      "▁c ol",
      "▁be ll",
      "▁him ]\"\n",
      "▁sl ow",
      "▁pen is",
      "c ial",
      "u art",
      "▁s qu",
      "▁in d",
      "▁D en",
      "ang e",
      "Kyle ,",
      "▁ass hole",
      "▁Craig ,",
      "- p",
      "g oes",
      "▁b ag",
      "▁y a",
      "▁p ull",
      "ut ure",
      "▁your self",
      "ap tain",
      "▁sc ene",
      "▁Kenny 's",
      "▁Towel ie",
      "] Hey,",
      "▁l aw",
      "▁re aches",
      "▁me ans",
      "ep hest",
      "▁sof a",
      "▁Je ff",
      "▁in t",
      "st ops",
      "▁In tern",
      "i ver",
      "r it",
      "le te",
      "▁Ch in",
      "anc e,",
      "g rid",
      "o .",
      "▁th rows",
      "ul ts",
      "▁Bro flovsk",
      "G od",
      "▁ 9",
      "le t",
      "▁h on",
      "ter s.",
      "▁We 've",
      "itt y",
      "▁bu y",
      "▁af raid",
      "▁Timm y,",
      "▁gi ves",
      "▁w ar",
      "▁b ott",
      "le y",
      "▁f all",
      "▁p ower",
      "▁this ,",
      "ath an",
      "▁' em",
      "▁impor tant",
      "- \n",
      "▁R ich",
      "![ walks",
      "▁J ap",
      "▁al right",
      "▁Tolkien ,",
      "] Hey",
      "▁s ick",
      "▁h at",
      "▁I' d",
      "▁off .",
      "▁know .",
      "▁comput er",
      "[ p",
      "▁b alls",
      ".[ he",
      "▁Cartman,\" A",
      "▁Cartman, What",
      "- c",
      "i h",
      "le aves",
      "▁be at",
      "▁Cartman,\" Oh,",
      "▁who 's",
      "x c",
      "om ,",
      "▁an n",
      "ys ter",
      "s c",
      ".[ h",
      "▁A d",
      "▁al most",
      "▁day ,",
      "▁ex p",
      "▁cr oss",
      "anc es",
      "▁ent r",
      "▁ Z",
      "▁in v",
      "▁r ing",
      "▁r ings",
      "▁The n",
      "um m",
      "▁St uart",
      "▁door s",
      "ob ody",
      "] But",
      "ou d",
      "▁w he",
      "▁f ly",
      "▁l ost",
      "at ive",
      "es ome",
      "▁P at",
      "▁back ,",
      "▁h om",
      "▁you ?\"\n",
      "▁M ephest",
      "▁W hat's",
      "▁R ob",
      "all y,",
      "▁me !",
      "R e",
      "▁s imp",
      "▁sh ock",
      "un g",
      "▁like ,",
      "▁stand ing",
      "▁Ne xt",
      "▁t ou",
      "▁a p",
      "▁A t",
      "▁,\" C",
      "▁door ,",
      "▁doll ars",
      "▁d ire",
      "▁br other",
      "▁Jap an",
      "▁p iss",
      "op ens",
      "un k",
      "▁any one",
      "▁ #",
      "▁t re",
      "▁that ?\n",
      "▁se nd",
      "un t",
      "▁every body",
      "▁walk ing",
      ", The",
      "R ight",
      "er k",
      "▁it !\"\n",
      ",\"A lright,",
      "▁qu iet",
      "▁happ y",
      "N ot",
      "in t",
      "▁p ur",
      "▁P r",
      "▁sh oo",
      "ven 't",
      "▁Dav id",
      "O U",
      "b e,",
      "e !",
      "▁f inger",
      "▁o h",
      "▁p ick",
      "▁W here",
      "▁Cartman,\" You",
      "▁them ,",
      "ee z",
      "Th ank",
      "▁Mar vin",
      "▁McDani els",
      "▁Sant a",
      "▁toile t",
      "▁w omen",
      "▁you !",
      ".[ Stan",
      "▁f ine",
      "▁f ish",
      "▁g row",
      "▁g ather",
      "ab ly",
      "▁day s",
      "▁play s",
      "ount ain",
      "▁s ile",
      "oo h",
      "▁K im",
      "▁tr uck",
      "![the y",
      "ne y",
      "▁bed room",
      "h in'",
      "w h",
      "w ith",
      "▁t onight",
      "or ad",
      "▁st at",
      "▁bab y",
      "▁cle ar",
      "▁dress ed",
      "A R",
      "] L",
      "s on",
      "▁w onder",
      "▁m 'kay",
      "![ turns",
      "▁ro ck",
      "▁start ed",
      "▁ret urn",
      "grid y",
      "▁t er",
      "▁s ix",
      "nd red",
      "ad dam",
      "▁Randy, [",
      "▁hu ndred",
      "▁Rep orter",
      "▁t rou",
      "▁a head",
      "er s,",
      "![ he",
      "ig ure",
      "Yeah .\n",
      "Yeah !\n",
      "▁cour se",
      "W here",
      "▁b unch",
      "im es",
      "am ed",
      "▁,\" Stan",
      "▁Cartman,\" Yeah,",
      "▁around ,",
      "▁no body",
      "▁Bl ack",
      "▁Max i",
      "osp ital",
      "E S",
      "p ris",
      "▁d raw",
      "▁R uss",
      "▁kn ew",
      "ope z",
      "a ks",
      "h a",
      "▁ $",
      ",\" Okay,",
      "▁h alf",
      "▁c or",
      "ing .\n",
      "▁C he",
      "▁L ead",
      "▁F or",
      "ob b",
      "▁guys !",
      "▁U n",
      "on es",
      "▁us ,",
      "▁tr ans",
      "▁dri ve",
      "▁mov ie",
      "y p",
      "er t",
      "ot ch",
      "▁ne ar",
      "▁L opez",
      "st eps",
      "if er",
      "ug s",
      "▁dud e.",
      "N ow",
      "Y es.",
      "e red",
      "▁f art",
      "▁you 'll",
      "▁I nd",
      "▁in ,",
      "▁J an",
      "▁down .",
      "Th anks",
      "▁seem s",
      "▁Rich ard",
      "▁Kyle,\" I",
      "ound s",
      "▁than ks",
      "▁foll ows",
      "▁c ost",
      "▁d el",
      "▁d est",
      "▁m et",
      "▁g en",
      "▁p at",
      "▁it !\n",
      "▁him .\"\n",
      "us ed",
      "ks ond",
      "▁co ff",
      "▁wee k",
      "ksond ik",
      "] Well,",
      "▁s ince",
      "on y",
      "it ing",
      "▁d i",
      "▁in st",
      "▁G eneral",
      "▁k iss",
      "▁N els",
      "▁pe e",
      "▁bl ow",
      "▁need s",
      "▁run ning",
      "▁cou n",
      "▁Cho ksondik",
      "it or",
      "▁m ed",
      "▁S k",
      "▁N ow,",
      "ab b",
      "▁would n't",
      "hold s",
      "] \"\"",
      "▁ es",
      "in e,",
      "▁w ife",
      "▁m ont",
      "om b",
      "▁W hen",
      "ch or",
      "em ale",
      "M e",
      "▁t est",
      "re m",
      "▁f a",
      "▁st ick",
      "▁A f",
      "▁E very",
      "▁ch ick",
      "▁gl ass",
      "▁rep ort",
      "▁Americ an",
      "▁Ag ent",
      "G et",
      "] Come",
      "b t",
      "er ry",
      "▁h it",
      "ay ,",
      "▁off ,",
      "u u",
      "▁f uture",
      "▁in .",
      "▁in s",
      "▁on !",
      ".[ Kyle",
      "ri ble",
      "▁God !",
      "▁bec ome",
      "▁rec ord",
      "] C",
      "] Okay,",
      "f riend",
      "s e,",
      "ing ers",
      "▁d ark",
      "▁m il",
      "ra g",
      "pp ed",
      "ress es",
      "iz z",
      "▁dri ver",
      "▁att ention",
      "▁gra bs",
      "▁Str ong",
      "? ?",
      "m en",
      "w ork",
      "▁ imm",
      "▁w ood",
      ",\" Well",
      ",\" That's",
      "▁M yster",
      "▁li f",
      "um ber",
      "▁May be",
      "▁bus iness",
      "▁poin t",
      "vern ment",
      "l o",
      "▁p ar",
      "▁C o",
      "▁Ch ief",
      "▁tim e.",
      "▁Lian e,",
      "r om",
      "▁f aces",
      "▁p a",
      "ay s",
      "▁r ide",
      "▁W ill",
      "▁re turns",
      "ent le",
      "od e",
      "▁Kyle,\" Dude,",
      "▁de f",
      "orm al",
      "▁build ing",
      "▁Col orad",
      "- d",
      "e f",
      "▁d ick",
      "▁f ar",
      "▁Stan,\" I",
      "▁now .\"\n",
      "▁comp lete",
      "▁Jesus ,",
      "b ot",
      "▁c ell",
      "▁y et",
      "▁T ra",
      "▁e as",
      "▁Stan .",
      "I N",
      "e y",
      "v ice",
      "z z",
      "▁th ous",
      "▁B ig",
      "▁Ch ines",
      "b ably",
      "w alk",
      "er g",
      "▁re f",
      "▁me .\"\n",
      "ion .",
      "ud ge",
      "▁, C",
      "▁pl ac",
      "ric ,",
      "udd en",
      "E R",
      "it ies",
      "▁G irl",
      "ur se",
      "![ runs",
      "▁go ,",
      "▁what ever",
      "▁there .",
      "▁hu man",
      "▁light s",
      "bo ard",
      "a f",
      "e en",
      "▁p ack",
      "▁l unch",
      "▁se ll",
      "air s",
      "▁part y",
      "▁p an",
      "▁Canad ian",
      "▁Sl ave",
      "es .\"\n",
      "▁p icks",
      "ic s",
      "▁G e",
      "▁ha ven't",
      "▁R ick",
      "▁But ters.",
      "ire d",
      "▁mom ents",
      "▁,\"Cartman 's",
      "▁entr ance",
      "H H",
      "a res",
      "▁p ants",
      "▁sh ip",
      "▁N ed",
      "▁Barbrad y,",
      "▁poin ts",
      "▁ang ry",
      "▁trou ble",
      "▁c orn",
      "▁m ag",
      "▁o b",
      "▁do ,",
      "▁G ood",
      "▁N athan",
      "▁here .\"\n",
      "r on",
      "▁C ount",
      "▁Cartman,\" Oh",
      "▁He re",
      "▁Butters, [",
      ",I t's",
      "or ts",
      "▁S addam",
      "▁j umps",
      "▁v is",
      "▁al ien",
      "▁U h",
      "▁offic ers",
      "▁second s",
      "▁Mc C",
      "▁Thom as",
      ", We",
      "] That's",
      ",\" But",
      "▁,\" T",
      "▁what ?\n",
      "▁then ,",
      "▁read s",
      "W ait",
      "j oy",
      "n y",
      "▁ \"",
      "ation s",
      "I D",
      "] ...",
      "g an",
      "o e",
      "▁ [",
      "▁D id",
      "un ity",
      "▁O b",
      "▁aw esome",
      "d r",
      "le ,",
      "ri ed",
      "app ro",
      "▁children ,",
      "▁Shell y",
      "▁Intern et",
      "▁p oor",
      "▁st ep",
      "▁me mb",
      "ag e.",
      "fe ct",
      ",I 'm",
      "i -",
      ",\" \"",
      "▁th row",
      "▁fl ag",
      "▁te le",
      "▁cle an",
      "T imm",
      "s y",
      ",\" F",
      ",\" P",
      "le br",
      "▁c ity",
      "▁g rand",
      "▁st e",
      "▁go vernment",
      "▁just ...",
      "▁N ot",
      "▁not ices",
      "▁cl ub",
      "ile s",
      "▁co ver",
      "▁tri ed",
      "▁Barbrad y",
      "i res",
      "p ers",
      "▁to ss",
      "▁th inks",
      "▁j ump",
      "▁,\" B",
      "ag es",
      "▁ab le",
      "▁tell ing",
      "▁Barbrad y,\"",
      ".\"\" \"\n",
      "▁Ke vin",
      "▁Broflovsk i",
      "▁Japan ese",
      ") [",
      "A T",
      "i or",
      "er tain",
      ",\" Come",
      "▁f ield",
      "▁f igure",
      "▁C ar",
      "▁S qu",
      "▁M iss",
      "▁M ember",
      "▁G ore",
      "▁off ]\"\n",
      "▁U h,",
      "▁funn y",
      "- g",
      "k et",
      "t ed",
      "▁m iddle",
      "et h",
      "▁e ither",
      "▁li ves",
      "um e",
      "▁them selves",
      "▁sc ared",
      "▁sa fe",
      "au ght",
      "▁ent ire",
      "▁Chines e",
      ", S",
      "▁s and",
      "▁c enter",
      "ver al",
      "▁re ve",
      "ur ity",
      "rou ght",
      "▁kn ocks",
      "▁scre am",
      "▁sur pris",
      "xc use",
      "▁ ice",
      "▁f air",
      "▁p op",
      "ur ing",
      "ro g",
      "up er",
      "▁att ack",
      "▁Announc er,\"",
      "▁learn ed",
      "lder ly",
      "c hed",
      "s !",
      "▁c ond",
      "▁m ot",
      "▁T own",
      "▁j ack",
      "un ches",
      "He re",
      "]I t",
      "They 're",
      ", H",
      "a .\"\n",
      "u ct",
      "▁in te",
      "▁st ra",
      "▁Butters '",
      "▁pro bably",
      "▁read ing",
      "▁fuck in'",
      "▁fin is",
      "▁stud ent",
      "▁appro ach",
      "] (",
      "b ack",
      "m in",
      "o ff",
      "▁b rought",
      "▁c ap",
      "▁d et",
      "▁J os",
      "ea ks",
      "▁my self",
      "ag g",
      "▁ch ar",
      ",\" L",
      "▁l and",
      "ic e.",
      "▁T r",
      "▁We 'll",
      "▁Th anks",
      "▁offic er",
      "▁Be be,",
      "▁sound s",
      "opp ing",
      "- up",
      "a us",
      "c es",
      "▁any body",
      "ate ly",
      "ation ,",
      "i es,",
      "n o",
      "t en",
      "▁ X",
      "er y",
      "▁d ance",
      "▁th ough",
      "▁T H",
      "▁N o,",
      "▁Han key",
      "u pp",
      "at er",
      "at ic",
      "▁c reat",
      "▁e ar",
      "▁here !",
      "▁cl imb",
      "▁Kyle,\" Yeah,",
      "▁ro ad",
      "]W ho",
      "▁scre w",
      "▁mill ion",
      "▁ 7",
      "▁d ep",
      "▁f il",
      "▁p oss",
      "▁we l",
      "▁for th",
      "▁ne arb",
      "▁so ld",
      "▁think ing",
      "mer cial",
      "O M",
      "▁s ent",
      "▁n ormal",
      "tan ce",
      "▁re ach",
      "▁kn ock",
      "▁F ather",
      "▁sn ow",
      "▁class room",
      "so ft",
      "▁Jenn ifer",
      "▁Den ver",
      "c le",
      "g ra",
      "▁t ick",
      "▁you .\n",
      "▁C aptain",
      "▁r ises",
      "▁re ason",
      "![ Cartman",
      "el s,",
      "▁de ep",
      "err or",
      "▁Sm ith",
      "D id",
      "l ight",
      "▁c ard",
      "ir ,",
      "\"\" ]\"\n",
      "▁le aving",
      "if ul",
      "ug g",
      "▁answ ers",
      "▁hur t",
      "▁roll s",
      "W ow",
      "▁h its",
      "▁in c",
      "▁L et",
      "▁O ur",
      "▁should n't",
      "▁okay .",
      "▁quest ion",
      "▁Nels on",
      "▁p ops",
      "as s,",
      "▁sh irt",
      "▁N O",
      "▁gu ard",
      "▁You 've",
      "▁no !",
      "arr ator",
      "▁ce lebr",
      "- a",
      "a ut",
      "m .",
      "in 't",
      "▁g y",
      "▁g ave",
      "▁Cartman .",
      "▁for get",
      "▁le ast",
      "▁bo y,",
      "▁some where",
      "ff ect",
      "▁qu ite",
      "▁gi ant",
      "b od",
      "ar ri",
      "it y,",
      "▁I ,",
      "▁P ass",
      "ur ch",
      "ust om",
      "tand s",
      "hh hh",
      "▁cam p",
      "▁memb ers",
      "W h",
      "g r",
      "▁ i",
      "▁f ast",
      "▁l o",
      "ac c",
      "▁me m",
      "Kyle 's",
      "m a",
      "▁g rin",
      "en ters",
      "▁be ar",
      "▁se ated",
      "▁,\" P",
      "▁L u",
      "▁, He",
      "▁Garrison ,\"[",
      "iz ed",
      "▁ad ults",
      "e e,",
      "z y",
      "▁you ?\n",
      "▁th ird",
      "▁as ide",
      "▁so ft",
      "▁Kyle, You",
      "▁E x",
      "▁, B",
      "▁app l",
      "▁tr ue",
      "▁or der",
      "Re ally",
      "▁coff ee",
      "- l",
      "h !",
      "▁t en",
      "in ,",
      "le y,",
      "▁c ertain",
      "▁e ight",
      ".[ takes",
      "▁P l",
      "▁R es",
      "▁sh oot",
      "▁se veral",
      "The re",
      "▁should er",
      "▁Lind a,",
      "f ull",
      "m it",
      "▁g at",
      "▁l og",
      "![ Stan",
      "▁sm art",
      "▁pict ures",
      "▁pie ce",
      "▁inte rest",
      "▁o pp",
      "▁y es",
      "▁W ait",
      "▁for m",
      "ak ov",
      "▁thous and",
      "T o",
      "c on",
      "o ins",
      "▁p ig",
      "▁B ecause",
      "No .",
      "▁am az",
      "▁ey e",
      "▁arri ves",
      "▁dest ro",
      "▁tele vis",
      "▁g ro",
      "ay be",
      "am b",
      "ir th",
      "▁j oke",
      "▁D ou",
      "▁N arrator",
      "▁O r",
      "ry ing",
      "What 's",
      "▁en joy",
      "▁Tweek ,",
      "▁hu ge",
      "▁Element ary",
      "O n",
      "i j",
      "l f",
      "in al",
      "▁c ream",
      "▁d ist",
      "▁f ur",
      "▁you !\"\n",
      "▁l ands",
      "ed .\n",
      "▁st unn",
      "▁L es",
      "The re's",
      "ris t",
      "um es",
      "▁boy s.",
      "Hey !",
      "▁Americ a",
      "- I",
      "▁ &",
      "▁b ast",
      "▁c uts",
      "▁m all",
      "▁y ell",
      "▁go d",
      "▁, Cartman",
      "▁but ...",
      "▁sp l",
      "ee f",
      "▁de ath",
      "▁tow el",
      "▁pr op",
      "▁Eric ,",
      "b or",
      "▁t error",
      "▁a in't",
      "▁h ops",
      "▁c and",
      "▁l ab",
      "▁it ?",
      "▁W ith",
      "▁him .\n",
      "▁O kay,",
      "▁back .",
      "▁us ing",
      "▁cl ot",
      "ast ic",
      "ure ,",
      "▁che ers",
      "▁Canad a",
      "▁New s",
      "▁slow ly",
      "gra bs",
      "W ow,",
      "r act",
      "▁b ow",
      "▁d anc",
      "al t",
      "▁e gg",
      "▁R ec",
      ",\"[ p",
      "ag e,",
      "▁know s",
      "▁kid s,",
      "▁She 's",
      "G ood",
      "h ood",
      "▁f ist",
      "▁Kyle .\"\n",
      ".[ t",
      "▁D an",
      ",\"[ walks",
      "▁back ground",
      "▁them .\"\n",
      "ation al",
      "▁ev il",
      "▁Mephest o",
      "! !\n",
      "- M",
      "e veryone",
      "y e",
      "▁t roll",
      "le x",
      "▁e p",
      "ri ly",
      "▁D ri",
      "▁Cartman,\" Well,",
      "▁Stan,\" No,",
      "▁too .",
      "▁could n't",
      "ub lic",
      "▁comp any",
      "▁arri ve",
      "o ly",
      "v il",
      "▁M el",
      "as hes",
      "▁H arris",
      "▁,\" M",
      "▁su cks",
      "▁door ]\"\n",
      "here d",
      "▁offic e,",
      "▁Sp ecial",
      "▁,\"Stan 's",
      "f ess",
      "▁ ed",
      ",\" C",
      "▁W ork",
      "st em",
      "▁so ,",
      "▁com mercial",
      "▁dr op",
      "▁lat er,",
      "▁cat ch",
      "▁piss ed",
      "appro aches",
      "A N",
      "] ,",
      "b ell",
      "at es,",
      "▁h ospital",
      "▁m as",
      "▁g am",
      "al m",
      "ac hing",
      "▁an im",
      "▁v an",
      "B ear",
      "B ecause",
      "G o",
      "▁y es,",
      "▁he y",
      "▁A r",
      "▁A dam",
      "▁F riend",
      "ww w",
      "▁gi ving",
      "]D on't",
      "▁bas ket",
      "▁c ow",
      "▁p our",
      "▁e le",
      "▁H er",
      "▁Stan,\" A",
      "▁sp ace",
      "aa a",
      "aa ah",
      "▁tr u",
      "▁way ,",
      "act ly",
      "▁lead er",
      "r at",
      "▁ ve",
      "▁t ree",
      "▁s ense",
      "▁f act",
      "▁M ic",
      "man d",
      "one y,",
      "ind s",
      "▁ag ent",
      "▁look ,",
      "▁again .\"\n",
      "▁start ing",
      "▁An chor",
      "▁night ,",
      "▁Th ank",
      "00 0",
      "▁Br it",
      "▁Victor ia,",
      "▁Wh ite",
      "▁prot ect",
      "▁es c",
      "[ s",
      "c y",
      "l ine",
      "er ing",
      "▁c op",
      "▁p resident",
      "▁C r",
      "▁it ?\"\n",
      "▁that .",
      "ell y",
      "▁set s",
      "▁whe el",
      "▁b ill",
      "▁b reat",
      "▁m a",
      "▁P ri",
      "▁up .\"\n",
      "▁up ]\"\n",
      "▁can not",
      "▁ch ance",
      "ang er",
      "▁fl o",
      "▁pro duc",
      "▁pr om",
      "▁Ike ,",
      "▁Cl erk",
      "▁wel come",
      "D ud",
      "a ff",
      "in c",
      "ar c",
      "ing ]\"\n",
      "▁C ru",
      "▁S ec",
      "▁T o",
      "ol id",
      "▁Cartman, You",
      "▁F arm",
      "▁away ]\n",
      "▁bl ue",
      "▁stop p",
      "▁mo ving",
      "unn y",
      "▁tur d",
      "▁Colorad o",
      "- y",
      "h aps",
      "▁and ,",
      "▁p ans",
      "▁p leas",
      "▁l ose",
      "et t",
      "▁Kyle !",
      ".[ c",
      "▁P olice",
      "▁A m",
      "▁N ic",
      "▁He y,",
      "▁sa ve",
      "▁good ,",
      "▁Dri ver",
      ". ]\n",
      "a os",
      "v iew",
      "▁s igh",
      "▁b le",
      "▁g entle",
      "▁p ir",
      "▁S uper",
      "▁D ay",
      "▁over ,",
      "Cartman ,",
      "H ello",
      "g l",
      "i ving",
      "m p",
      "z e",
      "▁b urn",
      "▁b acks",
      ",\" Uh,",
      "▁p oop",
      "▁O kay",
      "▁ex t",
      "▁dis c",
      "igh bor",
      "▁lead s",
      "▁ca f",
      "▁chick en",
      "▁reve al",
      "] Yeah,",
      "er v",
      "ar ch",
      "▁c ars",
      "▁c up",
      "▁to o,",
      "or ry",
      "▁l a",
      "▁n in",
      "▁n umber",
      "al ,",
      "▁le ss",
      "ul ar",
      "▁ph ot",
      "▁Sc out",
      "▁Announc er,",
      "▁hour s",
      "▁Myster ion",
      "! )\n",
      "- damn",
      "b l",
      "o ver",
      "▁m ountain",
      "or ge",
      "▁M in",
      "▁go ld",
      "▁D is",
      "▁L e",
      "▁E d",
      "▁us .",
      "▁around .",
      "augh ter",
      "▁clos er",
      "▁rest aur",
      "▁sy stem",
      "▁gat hered",
      "w hat",
      "▁we ar",
      "▁P lease",
      "pp er",
      "▁Cartman,\" No,",
      "▁Cra bt",
      "▁find s",
      "udden ly",
      "v in'",
      "▁ 8",
      "▁s ad",
      "le g",
      "▁to r",
      "▁p ot",
      "▁p rincipal",
      "as hing",
      "▁it ?\n",
      "▁r ush",
      "▁st ory",
      "▁A b",
      "ir it",
      "▁right ?\"\n",
      "ation .",
      "▁put ting",
      "▁real ize",
      "▁Te gridy",
      "▁fell as",
      "▁sile nt",
      "▁caf eter",
      "J imm",
      "l s",
      "us es",
      "oo ,",
      "▁do in'",
      "▁The se",
      "st arts",
      "▁bo d",
      "▁O ther",
      "▁wor ks",
      "▁sp ee",
      "▁tr uth",
      "▁Eric .",
      "amm ad",
      "▁str ong",
      "▁morn ing",
      "▁Boy s,",
      "? \"\"",
      "le ad",
      "▁B rad",
      "▁r ain",
      "▁H u",
      "op h",
      "▁R ight",
      "▁St otch",
      "▁Y OU",
      "▁con cer",
      "]You 're",
      "app ears",
      "▁rep orter",
      "▁Count y",
      "b b",
      "e ed",
      "▁b ooks",
      "▁g reen",
      "▁you 'd",
      "▁this .",
      "▁too .\"\n",
      "▁wee ks",
      "▁Ke ep",
      "▁Mexic an",
      "B o",
      "] Well",
      "c an",
      "r ay",
      "r up",
      "v ent",
      "▁s ou",
      "ar ,",
      "le .",
      "▁g h",
      "▁C ity",
      "▁l ow",
      "▁for g",
      "▁me .\n",
      "▁E arth",
      "▁fl ash",
      "ren ce",
      "▁ke eps",
      "▁3 ,",
      "▁McDani els,",
      "▁pos ition",
      "A S",
      "P ig",
      "▁w ien",
      "er s.",
      "▁m ach",
      "▁I ...",
      "▁l ate",
      "▁be aut",
      "▁do .",
      "▁sh ort",
      "el come",
      "▁all ow",
      "ain s",
      "▁ab ove",
      "▁v o",
      "▁people ,",
      "▁every where",
      "ang s",
      "▁ex actly",
      "ock et",
      "▁four th",
      "▁tra in",
      "Bear Pig",
      "A re",
      "D amn",
      "O ut",
      "] No",
      "h u",
      "on .",
      "▁b udd",
      "▁m ir",
      "▁C rowd",
      "al d",
      "We nd",
      "▁time .\"\n",
      "▁Sharon ,\"",
      "▁pre p",
      "▁meet ing",
      "▁din ner",
      "▁bat tle",
      "] Dude,",
      "b ut",
      "▁ Yeah,",
      "an ch",
      "▁w ish",
      "ic ally",
      "▁P er",
      "▁G ay",
      "![ Kyle",
      "▁kn e",
      "ol ks",
      "▁pl aces",
      "▁show ing",
      "pl oy",
      "▁Announc er",
      "▁ra ises",
      "▁tou ch",
      "▁complete ly",
      "er .\"\n",
      "▁you !\n",
      "id ence",
      "ir ty",
      "ra h",
      "▁,\" H",
      "▁right !",
      "if t",
      "▁, Stan",
      "▁St op",
      "▁see ing",
      "?[ s",
      "▁sec ret",
      "▁bab ies",
      "▁minut e",
      "▁Pet e",
      "y .\n",
      "▁n ose",
      "▁his t",
      "▁are ,",
      "▁ne ck",
      "The n",
      "▁ag o",
      "▁Kyle,\" You",
      "▁\"\" I",
      "▁Garrison 's",
      "▁wat ches",
      "▁Terr ance,",
      "▁per fect",
      "▁Car ol",
      "▁mem ber",
      "b and",
      "g es",
      "en ag",
      "▁C upid",
      "▁T u",
      "id ing",
      "▁re ce",
      "▁sh all",
      "▁go .",
      "▁F l",
      "▁say ,",
      "▁happ ens",
      "▁contin ue",
      "▁Con n",
      "- O",
      "L L",
      "] No,",
      "l augh",
      "▁f ill",
      "id el",
      "▁B ri",
      "ri f",
      "▁,\" D",
      "▁F rid",
      "▁but ,",
      "ber ry",
      "oll y",
      "av or",
      "▁plan e",
      "▁ask ed",
      "▁Q u",
      "▁Nic hole",
      "▁spee ch",
      "] U",
      "re aches",
      "▁p ol",
      "▁M ike",
      "▁he y,",
      "▁B en",
      "▁st ar",
      "▁N obody",
      "ove red",
      "▁1 0",
      ",\"I f",
      "▁pro ject",
      "▁cr ack",
      "ale nt",
      "▁sing ing",
      "▁Pri est",
      "▁b ri",
      ",\" This",
      "▁m ass",
      "▁l uck",
      "id ed",
      "il i",
      "▁, T",
      "▁there .\"\n",
      "▁v agin",
      "▁Stephen ,",
      "▁Shell y,",
      "▁bas ement",
      "▁mont h",
      "ighbor hood",
      "] and",
      "f or",
      "▁t ape",
      "▁a -",
      "▁b irth",
      "▁c ir",
      "▁m ur",
      "▁S ke",
      "▁that ?",
      "▁re g",
      "▁D ick",
      "▁L ad",
      "▁any way",
      "▁dude .\"\n",
      "▁stra ight",
      "▁Tu ong",
      "y l",
      "▁t reat",
      "▁b ike",
      "▁c art",
      "▁and ...",
      "▁p ant",
      "ed ]\"\n",
      "▁what ?",
      "il ing",
      "em b",
      "th rows",
      "▁sorry .",
      "▁,S outh",
      "▁im agin",
      "ann el",
      "▁Ob ama",
      "▁televis ion",
      "▁t yp",
      "an a",
      "▁s un",
      ",\" Mr.",
      "en ter,",
      "or ld",
      "▁on .\"\n",
      "▁u nc",
      "ur g",
      "▁sh op",
      "il t",
      "▁offic ial",
      "]The y",
      "▁kill ing",
      "▁z oom",
      "▁restaur ant",
      "I ke",
      "S c",
      "a h,",
      "g est",
      "t op",
      "▁b an",
      "▁b omb",
      "▁m ad",
      "▁r ub",
      "▁r ushes",
      "▁door bell",
      "▁fl ies",
      "▁ex it",
      ",\"I t",
      "▁wr ite",
      "▁feel ing",
      "AAAA AAAA",
      "Sh aron",
      "▁fa ult",
      "dr ops",
      "at ch",
      "▁B on",
      "![ h",
      "ent y",
      "el p",
      "s. ]\"\n",
      "▁Stan,\" Oh,",
      "▁St re",
      "▁man .",
      "ber g",
      "ren ch",
      "]D o",
      "▁destro y",
      "I t",
      "h !\n",
      "▁s le",
      "▁m ons",
      "▁r oof",
      "▁P ar",
      "![ \"\"",
      "▁Stan,\" You",
      "▁ag ents",
      "rin ce",
      "ank et",
      "▁In side,",
      "Butters '",
      "▁Dad ,",
      "▁lock er",
      "▁foot ball",
      "▁ep is",
      "E T",
      "r ing",
      "v oice",
      "y ard",
      "on on",
      ",\" He",
      "▁c ase",
      "▁c rew",
      "es s,",
      "▁l oc",
      "us hing",
      "gh !",
      ".[ f",
      "▁Cartman,\" H",
      "ris es",
      "▁so l",
      "▁Stan, We",
      "▁her ,",
      "▁wor ry",
      "But ters,",
      "▁good .",
      "rinc ess",
      "▁con s",
      "cl oses",
      "▁doll ar",
      ",\"N ow,",
      "▁pri v",
      "▁Town s",
      "▁beaut iful",
      "r ushes",
      "it ches",
      "▁M us",
      "▁on e,",
      "▁it ]\"\n",
      "▁st or",
      "▁j oins",
      "▁out .\"\n",
      "▁le vel",
      "▁su b",
      "▁v ol",
      "ies .",
      "▁school ,",
      "▁pr act",
      "pl ay",
      "▁okay ?",
      "Who a,",
      "▁prot est",
      "▁Grand pa",
      "▁Ge orge",
      "▁toss es",
      "full y",
      "- n",
      "O N",
      "s !\"\n",
      "t in'",
      "an e",
      "▁h olid",
      "▁f oc",
      "▁f arts",
      "▁m ain",
      "art ment",
      "ed y",
      "▁M ims",
      "oo ps",
      "al th",
      "▁r ound",
      "ch air",
      "▁out ]\"\n",
      "▁me !\"\n",
      "▁right ?",
      "▁Kyle,\" A",
      "▁bl ows",
      "▁girl friend",
      "]H ow",
      "sh ows",
      "ious ly",
      "▁inside .",
      "uc ks",
      "]N ow",
      "▁exc ept",
      "▁word s",
      "▁ev ent",
      "ient ist",
      "- sh",
      "] Uh,",
      "m o",
      "w ear",
      ",\" Don't",
      "▁th ro",
      "▁up on",
      "▁le ts",
      "se es",
      "▁now .\n",
      "▁Ch aos",
      "▁wait ,",
      "▁plan et",
      "Huh ?\n",
      "▁dou che",
      ".[h ands",
      "▁inst ead",
      "h ow",
      "m en,",
      "in e.",
      "▁c hat",
      "▁f olks",
      "▁m ark",
      "as s.",
      "▁B oo",
      "▁r ac",
      "▁H ave",
      "![ t",
      "▁D aw",
      "▁Cartman,\" Dude,",
      "▁gu est",
      ",[ s",
      "]G od",
      "▁Gu y",
      "▁Gu ard",
      "▁Towel ie,",
      "▁fore ver",
      "▁rid ic",
      "▁Russ ell",
      "A H",
      "k ins",
      "l ie",
      "it !",
      "▁p ress",
      "▁M ur",
      "▁e mb",
      "am ily",
      "▁H ill",
      "▁up !",
      "![ f",
      "ra ig",
      "▁as leep",
      "▁Cartman,\" Okay,",
      "▁ch urch",
      "▁sp read",
      "▁our selves",
      "er, [",
      "▁pro g",
      "▁somet hin'",
      "▁gl ad",
      "▁call ing",
      "▁mil k",
      "] Uh",
      ",\" Look,",
      "▁he r.",
      "ac he",
      "▁got ten",
      "▁com ment",
      "]H ello",
      "▁turn ed",
      "▁follow ing",
      "▁bro ke",
      "▁Kid s,",
      "sy ch",
      "S .",
      "a .\n",
      "c ed",
      "is e,",
      "▁c ook",
      "▁c ustom",
      "▁d em",
      "▁l owers",
      "▁re act",
      "▁re pl",
      "▁up st",
      "▁bo at",
      "▁F ield",
      "▁sp end",
      "▁ex per",
      "]S o",
      "app y",
      ".[s he",
      "▁Hanke y,",
      "▁boo th",
      "▁certain ly",
      "▁clot hes",
      "C ause",
      "c i",
      "it ter",
      "▁d am",
      "▁p ool",
      "▁S ch",
      "ed i",
      "▁W all",
      "▁us .\"\n",
      "▁ag re",
      "ul f",
      "▁sm ok",
      "▁long er",
      "]The re",
      "▁pass es",
      "!\"\" \"\n",
      "R E",
      "i vers",
      "re idel",
      "▁h ipp",
      "it y.",
      "▁S w",
      "▁l oud",
      "ac hed",
      "man ,",
      ".[ M",
      ".[ looks",
      "um mer",
      "▁tr ash",
      "▁somet imes",
      "▁Com m",
      "▁Hall ow",
      "▁cor p",
      "▁nearb y",
      "▁i P",
      "fess or",
      "s ]\n",
      "▁h ole",
      "▁c ash",
      "▁f ingers",
      "▁you ?",
      "al .",
      "▁R .",
      "▁J akov",
      "▁ne ighborhood",
      "▁all ,",
      "ore d",
      "▁, Mr.",
      "▁al arm",
      "▁bec om",
      "IN G",
      "▁McC orm",
      "▁fil m",
      "D ad,",
      "g ly",
      "▁t ank",
      "▁a h",
      "ou nce",
      ",\" Uh",
      "▁f if",
      "ic op",
      "us ing",
      "▁,\" Kyle's",
      "▁Kyle,\" Well,",
      "ul hu",
      "▁kid s.",
      "th ulhu",
      "▁bl ock",
      "▁Park .",
      "▁An other",
      "lyd e",
      "]W ait",
      "▁Ph il",
      "▁dri ving",
      "▁happen ing",
      "ov ed",
      "]What 's",
      "▁fat ass",
      "▁Steven s",
      "ooh oo",
      "▁corn er",
      "▁sand w",
      "' am",
      "a ven",
      "g t.",
      "k n",
      "is hes",
      ",\" ...",
      "it ar",
      "▁p od",
      "▁l ap",
      "as ure",
      "▁that .\"\n",
      "▁not e",
      "▁now !\"\n",
      "▁Kenny .",
      "▁ar t",
      "▁outside .",
      "▁minut es",
      "arry l",
      ", M",
      "1 1",
      "I S",
      "he he",
      "ar ious",
      "is and",
      "▁c old",
      "▁d uring",
      "▁f arm",
      "gh ,",
      "▁we ed",
      "▁we 'd",
      "▁se lf",
      "ick ly",
      "▁here .\n",
      "▁cl ap",
      "▁sp ot",
      "▁God .",
      "hh h,",
      "▁work ed",
      "▁te ch",
      "▁Y ates,",
      "▁big ger",
      "▁fin al",
      "▁home less",
      "cl ud",
      "▁supp ort",
      "▁cal m",
      "]He re",
      "Sh ut",
      "▁bott le",
      "▁thro at",
      "C hef",
      "g o",
      "u y",
      "u ce",
      "▁ 'm",
      ",\" \"\"",
      "en ri",
      "▁p ul",
      "▁S chool",
      "▁l os",
      "ot es",
      "id er",
      "▁r at",
      ".[ gets",
      "What ?",
      "What ?\n",
      "▁wor se",
      "▁sp irit",
      "▁school .",
      "▁br ings",
      "▁co at",
      "▁Cl in",
      ",\"You 're",
      ".[p uts",
      "▁El len",
      "C K",
      "[ a",
      "j umps",
      "w ood",
      "▁ ign",
      "▁w aves",
      "or th",
      "▁S ee",
      "▁K ing",
      "▁it ![",
      "▁sp eaks",
      "▁every one,",
      "]A lright,"
    ]
  }
}