{
  "version": "1.0",
  "truncation": null,
  "padding": null,
  "added_tokens": [
    {
      "id": 8190,
      "special": false,
      "content": " ",
      "single_word": false,
      "lstrip": false,
      "rstrip": false,
      "normalized": true
    },
    {
      "id": 8191,
      "special": false,
      "content": "\n",
      "single_word": false,
      "lstrip": false,
      "rstrip": false,
      "normalized": true
    }
  ],
  "normalizer": {
    "type": "Sequence",
    "normalizers": [
      {
        "type": "NFD"
      },
      {
        "type": "StripAccents"
      }
    ]
  },
  "pre_tokenizer": {
    "type": "Sequence",
    "pretokenizers": [
      {
        "type": "Whitespace"
      },
      {
        "type": "Punctuation",
        "behavior": "Isolated"
      }
    ]
  },
  "post_processor": null,
  "decoder": {
    "type": "BPEDecoder",
    "suffix": "</w>"
  },
  "model": {
    "type": "BPE",
    "dropout": null,
    "unk_token": null,
    "continuing_subword_prefix": null,
    "end_of_word_suffix": null,
    "fuse_unk": false,
    "vocab": {
      "!": 0,
      "\"": 1,
      "#": 2,
      "$": 3,
      "%": 4,
      "&": 5,
      "'": 6,
      "(": 7,
      ")": 8,
      "*": 9,
      "+": 10,
      ",": 11,
      "-": 12,
      ".": 13,
      "/": 14,
      "0": 15,
      "1": 16,
      "2": 17,
      "3": 18,
      "4": 19,
      "5": 20,
      "6": 21,
      "7": 22,
      "8": 23,
      "9": 24,
      ":": 25,
      ";": 26,
      "<": 27,
      "=": 28,
      ">": 29,
      "?": 30,
      "@": 31,
      "A": 32,
      "B": 33,
      "C": 34,
      "D": 35,
      "E": 36,
      "F": 37,
      "G": 38,
      "H": 39,
      "I": 40,
      "J": 41,
      "K": 42,
      "L": 43,
      "M": 44,
      "N": 45,
      "O": 46,
      "P": 47,
      "Q": 48,
      "R": 49,
      "S": 50,
      "T": 51,
      "U": 52,
      "V": 53,
      "W": 54,
      "X": 55,
      "Y": 56,
      "Z": 57,
      "[": 58,
      "\\": 59,
      "]": 60,
      "^": 61,
      "_": 62,
      "a": 63,
      "b": 64,
      "c": 65,
      "d": 66,
      "e": 67,
      "f": 68,
      "g": 69,
      "h": 70,
      "i": 71,
      "j": 72,
      "k": 73,
      "l": 74,
      "m": 75,
      "n": 76,
      "o": 77,
      "p": 78,
      "q": 79,
      "r": 80,
      "s": 81,
      "t": 82,
      "u": 83,
      "v": 84,
      "w": 85,
      "x": 86,
      "y": 87,
      "z": 88,
      "{": 89,
      "|": 90,
      "}": 91,
      "he": 92,
      "an": 93,
      "in": 94,
      "the": 95,
      "ou": 96,
      "re": 97,
      "er": 98,
      "on": 99,
      "ar": 100,
      "at": 101,
      "is": 102,
      "to": 103,
      "th": 104,
      "le": 105,
      "and": 106,
      "ing": 107,
      "ll": 108,
      "en": 109,
      "es": 110,
      "it": 111,
      "or": 112,
      "you": 113,
      "st": 114,
      "ow": 115,
      "om": 116,
      "se": 117,
      "of": 118,
      "ay": 119,
      "al": 120,
      "art": 121,
      "ic": 122,
      "as": 123,
      "ve": 124,
      "man": 125,
      "ac": 126,
      "be": 127,
      "oo": 128,
      "id": 129,
      "ut": 130,
      "gh": 131,
      "im": 132,
      "ke": 133,
      "St": 134,
      "Cart": 135,
      "Cartman": 136,
      "ad": 137,
      "all": 138,
      "we": 139,
      "ed": 140,
      "et": 141,
      "ot": 142,
      "The": 143,
      "ha": 144,
      "ri": 145,
      "hat": 146,
      "ter": 147,
      "yle": 148,
      "Stan": 149,
      "Kyle": 150,
      "his": 151,
      "out": 152,
      "ver": 153,
      "do": 154,
      "wi": 155,
      "are": 156,
      "ch": 157,
      "up": 158,
      "ro": 159,
      "ght": 160,
      "me": 161,
      "ld": 162,
      "that": 163,
      "ks": 164,
      "ome": 165,
      "sh": 166,
      "li": 167,
      "nd": 168,
      "ir": 169,
      "for": 170,
      "with": 171,
      "am": 172,
      "bo": 173,
      "ly": 174,
      "ur": 175,
      "He": 176,
      "We": 177,
      "one": 178,
      "ne": 179,
      "now": 180,
      "ent": 181,
      "us": 182,
      "go": 183,
      "my": 184,
      "ho": 185,
      "ta": 186,
      "You": 187,
      "ust": 188,
      "un": 189,
      "But": 190,
      "pe": 191,
      "ag": 192,
      "ters": 193,
      "ab": 194,
      "have": 195,
      "ther": 196,
      "op": 197,
      "de": 198,
      "ap": 199,
      "get": 200,
      "Mr": 201,
      "ack": 202,
      "ion": 203,
      "can": 204,
      "this": 205,
      "lo": 206,
      "mo": 207,
      "loo": 208,
      "him": 209,
      "ys": 210,
      "Oh": 211,
      "ah": 212,
      "Butters": 213,
      "just": 214,
      "ce": 215,
      "fr": 216,
      "way": 217,
      "here": 218,
      "right": 219,
      "own": 220,
      "your": 221,
      "ry": 222,
      "what": 223,
      "ris": 224,
      "andy": 225,
      "ers": 226,
      "some": 227,
      "Randy": 228,
      "ard": 229,
      "pl": 230,
      "ound": 231,
      "ts": 232,
      "ind": 233,
      "ide": 234,
      "na": 235,
      "off": 236,
      "thing": 237,
      "our": 238,
      "What": 239,
      "no": 240,
      "so": 241,
      "ill": 242,
      "ig": 243,
      "not": 244,
      "king": 245,
      "end": 246,
      "il": 247,
      "ny": 248,
      "ps": 249,
      "fe": 250,
      "au": 251,
      "wal": 252,
      "ould": 253,
      "back": 254,
      "very": 255,
      "know": 256,
      "don": 257,
      "her": 258,
      "res": 259,
      "gu": 260,
      "It": 261,
      "eah": 262,
      "ie": 263,
      "ain": 264,
      "but": 265,
      "te": 266,
      "ight": 267,
      "ant": 268,
      "uc": 269,
      "from": 270,
      "ally": 271,
      "then": 272,
      "like": 273,
      "um": 274,
      "they": 275,
      "was": 276,
      "gr": 277,
      "ma": 278,
      "other": 279,
      "over": 280,
      "tur": 281,
      "ep": 282,
      "enny": 283,
      "po": 284,
      "wor": 285,
      "ves": 286,
      "Kenny": 287,
      "com": 288,
      "day": 289,
      "con": 290,
      "ice": 291,
      "about": 292,
      "ass": 293,
      "ra": 294,
      "down": 295,
      "if": 296,
      "them": 297,
      "ip": 298,
      "Yeah": 299,
      "No": 300,
      "got": 301,
      "see": 302,
      "turn": 303,
      "sto": 304,
      "el": 305,
      "there": 306,
      "thin": 307,
      "che": 308,
      "ark": 309,
      "boys": 310,
      "kay": 311,
      "ins": 312,
      "ge": 313,
      "walks": 314,
      "Go": 315,
      "ople": 316,
      "ol": 317,
      "ong": 318,
      "ble": 319,
      "ure": 320,
      "lea": 321,
      "Well": 322,
      "ood": 323,
      "ick": 324,
      "uh": 325,
      "Gar": 326,
      "itt": 327,
      "wh": 328,
      "into": 329,
      "onna": 330,
      "And": 331,
      "tim": 332,
      "by": 333,
      "gonna": 334,
      "away": 335,
      "qu": 336,
      "any": 337,
      "tr": 338,
      "door": 339,
      "rison": 340,
      "who": 341,
      "people": 342,
      "Ch": 343,
      "ex": 344,
      "around": 345,
      "ace": 346,
      "room": 347,
      "Garrison": 348,
      "ile": 349,
      "has": 350,
      "sc": 351,
      "looks": 352,
      "pro": 353,
      "est": 354,
      "ff": 355,
      "kes": 356,
      "every": 357,
      "That": 358,
      "ive": 359,
      "hen": 360,
      "ast": 361,
      "ars": 362,
      "kid": 363,
      "think": 364,
      "ool": 365,
      "Sh": 366,
      "sa": 367,
      "dy": 368,
      "ul": 369,
      "come": 370,
      "br": 371,
      "fo": 372,
      "did": 373,
      "ine": 374,
      "Jim": 375,
      "She": 376,
      "head": 377,
      "their": 378,
      "turns": 379,
      "ess": 380,
      "time": 381,
      "cr": 382,
      "ans": 383,
      "again": 384,
      "outh": 385,
      "ough": 386,
      "key": 387,
      "more": 388,
      "want": 389,
      "cl": 390,
      "ist": 391,
      "ouse": 392,
      "ss": 393,
      "hand": 394,
      "ate": 395,
      "ven": 396,
      "Hey": 397,
      "look": 398,
      "guys": 399,
      "sed": 400,
      "say": 401,
      "wo": 402,
      "play": 403,
      "ude": 404,
      "oun": 405,
      "ation": 406,
      "uck": 407,
      "ment": 408,
      "ree": 409,
      "God": 410,
      "ittle": 411,
      "ang": 412,
      "ause": 413,
      "ving": 414,
      "let": 415,
      "stand": 416,
      "Park": 417,
      "bl": 418,
      "ach": 419,
      "need": 420,
      "going": 421,
      "sp": 422,
      "side": 423,
      "ct": 424,
      "pp": 425,
      "ien": 426,
      "its": 427,
      "ous": 428,
      "put": 429,
      "They": 430,
      "thr": 431,
      "little": 432,
      "house": 433,
      "red": 434,
      "ber": 435,
      "ull": 436,
      "ck": 437,
      "Che": 438,
      "rin": 439,
      "run": 440,
      "ian": 441,
      "tow": 442,
      "wa": 443,
      "ren": 444,
      "ud": 445,
      "tor": 446,
      "ows": 447,
      "she": 448,
      "new": 449,
      "South": 450,
      "hes": 451,
      "ance": 452,
      "really": 453,
      "aa": 454,
      "start": 455,
      "ens": 456,
      "ting": 457,
      "will": 458,
      "too": 459,
      "try": 460,
      "Be": 461,
      "make": 462,
      "body": 463,
      "This": 464,
      "take": 465,
      "eral": 466,
      "kids": 467,
      "ild": 468,
      "read": 469,
      "All": 470,
      "how": 471,
      "sel": 472,
      "und": 473,
      "ook": 474,
      "tal": 475,
      "ee": 476,
      "cause": 477,
      "em": 478,
      "aron": 479,
      "ies": 480,
      "act": 481,
      "ity": 482,
      "lie": 483,
      "age": 484,
      "co": 485,
      "Chef": 486,
      "Sharon": 487,
      "per": 488,
      "Uh": 489,
      "led": 490,
      "Th": 491,
      "ft": 492,
      "AA": 493,
      "two": 494,
      "chool": 495,
      "Okay": 496,
      "riend": 497,
      "ty": 498,
      "been": 499,
      "wat": 500,
      "sm": 501,
      "reat": 502,
      "where": 503,
      "Do": 504,
      "beg": 505,
      "jo": 506,
      "clo": 507,
      "So": 508,
      "does": 509,
      "In": 510,
      "arm": 511,
      "good": 512,
      "ls": 513,
      "les": 514,
      "night": 515,
      "Mac": 516,
      "should": 517,
      "school": 518,
      "Jimmy": 519,
      "Bo": 520,
      "Man": 521,
      "hh": 522,
      "wan": 523,
      "ite": 524,
      "Yes": 525,
      "Wh": 526,
      "ph": 527,
      "would": 528,
      "ric": 529,
      "Mackey": 530,
      "Geral": 531,
      "ak": 532,
      "ca": 533,
      "hel": 534,
      "aren": 535,
      "por": 536,
      "friend": 537,
      "How": 538,
      "Wend": 539,
      "Gerald": 540,
      "Now": 541,
      "ked": 542,
      "Wendy": 543,
      "An": 544,
      "oman": 545,
      "takes": 546,
      "could": 547,
      "left": 548,
      "show": 549,
      "mer": 550,
      "gets": 551,
      "Al": 552,
      "tell": 553,
      "Chris": 554,
      "ont": 555,
      "fore": 556,
      "ire": 557,
      "rinc": 558,
      "goes": 559,
      "wee": 560,
      "through": 561,
      "ue": 562,
      "There": 563,
      "aw": 564,
      "ary": 565,
      "son": 566,
      "even": 567,
      "ye": 568,
      "something": 569,
      "when": 570,
      "Come": 571,
      "ial": 572,
      "dam": 573,
      "xt": 574,
      "bet": 575,
      "happ": 576,
      "wr": 577,
      "spe": 578,
      "under": 579,
      "Jes": 580,
      "bu": 581,
      "pr": 582,
      "ade": 583,
      "Tim": 584,
      "ich": 585,
      "Jesus": 586,
      "gir": 587,
      "self": 588,
      "dis": 589,
      "olk": 590,
      "May": 591,
      "Who": 592,
      "ank": 593,
      "bit": 594,
      "were": 595,
      "hell": 596,
      "ards": 597,
      "everyone": 598,
      "next": 599,
      "doing": 600,
      "work": 601,
      "mom": 602,
      "air": 603,
      "car": 604,
      "hind": 605,
      "iss": 606,
      "rincip": 607,
      "ru": 608,
      "pic": 609,
      "rincipal": 610,
      "ga": 611,
      "sl": 612,
      "front": 613,
      "ents": 614,
      "ste": 615,
      "face": 616,
      "Sc": 617,
      "Eric": 618,
      "ball": 619,
      "ever": 620,
      "pre": 621,
      "ings": 622,
      "fl": 623,
      "My": 624,
      "hold": 625,
      "ath": 626,
      "ater": 627,
      "augh": 628,
      "ew": 629,
      "uch": 630,
      "oh": 631,
      "still": 632,
      "sure": 633,
      "mean": 634,
      "lease": 635,
      "child": 636,
      "help": 637,
      "had": 638,
      "appe": 639,
      "wait": 640,
      "ning": 641,
      "Cra": 642,
      "behind": 643,
      "Mar": 644,
      "cam": 645,
      "Tolk": 646,
      "Tolkien": 647,
      "Dude": 648,
      "pres": 649,
      "Craig": 650,
      "stop": 651,
      "week": 652,
      "yes": 653,
      "Let": 654,
      "wanna": 655,
      "okay": 656,
      "Can": 657,
      "lly": 658,
      "big": 659,
      "town": 660,
      "boy": 661,
      "only": 662,
      "cer": 663,
      "ident": 664,
      "iz": 665,
      "Don": 666,
      "orry": 667,
      "ish": 668,
      "rest": 669,
      "scre": 670,
      "begins": 671,
      "Principal": 672,
      "ches": 673,
      "walk": 674,
      "Br": 675,
      "well": 676,
      "ses": 677,
      "pull": 678,
      "men": 679,
      "dude": 680,
      "Why": 681,
      "Re": 682,
      "irst": 683,
      "cha": 684,
      "ond": 685,
      "af": 686,
      "home": 687,
      "opens": 688,
      "cont": 689,
      "another": 690,
      "ctor": 691,
      "find": 692,
      "oney": 693,
      "ple": 694,
      "ord": 695,
      "uff": 696,
      "ates": 697,
      "mon": 698,
      "sk": 699,
      "icer": 700,
      "mem": 701,
      "igh": 702,
      "rance": 703,
      "Cly": 704,
      "Clyde": 705,
      "owd": 706,
      "said": 707,
      "Ike": 708,
      "didn": 709,
      "cond": 710,
      "ket": 711,
      "If": 712,
      "laugh": 713,
      "av": 714,
      "Step": 715,
      "Mrs": 716,
      "being": 717,
      "table": 718,
      "ser": 719,
      "Christ": 720,
      "des": 721,
      "gl": 722,
      "ger": 723,
      "ady": 724,
      "watch": 725,
      "ton": 726,
      "ought": 727,
      "because": 728,
      "ash": 729,
      "part": 730,
      "sup": 731,
      "iane": 732,
      "Liane": 733,
      "Stephen": 734,
      "Co": 735,
      "era": 736,
      "runs": 737,
      "hands": 738,
      "fin": 739,
      "long": 740,
      "bed": 741,
      "shot": 742,
      "than": 743,
      "Ph": 744,
      "Jimbo": 745,
      "Off": 746,
      "real": 747,
      "love": 748,
      "ila": 749,
      "stops": 750,
      "call": 751,
      "upid": 752,
      "tri": 753,
      "use": 754,
      "comes": 755,
      "Sheila": 756,
      "ner": 757,
      "aches": 758,
      "each": 759,
      "before": 760,
      "ose": 761,
      "why": 762,
      "att": 763,
      "never": 764,
      "gi": 765,
      "Bar": 766,
      "Look": 767,
      "later": 768,
      "set": 769,
      "give": 770,
      "anc": 771,
      "paren": 772,
      "lot": 773,
      "Hell": 774,
      "poin": 775,
      "while": 776,
      "min": 777,
      "dri": 778,
      "first": 779,
      "sho": 780,
      "Alright": 781,
      "appro": 782,
      "bus": 783,
      "ily": 784,
      "wind": 785,
      "coun": 786,
      "light": 787,
      "yeah": 788,
      "Dr": 789,
      "feel": 790,
      "cle": 791,
      "foll": 792,
      "great": 793,
      "ott": 794,
      "ious": 795,
      "fun": 796,
      "Te": 797,
      "belie": 798,
      "Tweek": 799,
      "sorry": 800,
      "ated": 801,
      "camera": 802,
      "these": 803,
      "ather": 804,
      "ned": 805,
      "talk": 806,
      "Ho": 807,
      "open": 808,
      "ready": 809,
      "pers": 810,
      "Ms": 811,
      "may": 812,
      "roll": 813,
      "la": 814,
      "ating": 815,
      "much": 816,
      "enter": 817,
      "crowd": 818,
      "class": 819,
      "inside": 820,
      "Aw": 821,
      "appears": 822,
      "Just": 823,
      "ub": 824,
      "Ter": 825,
      "better": 826,
      "children": 827,
      "Mayor": 828,
      "cial": 829,
      "sing": 830,
      "doesn": 831,
      "tain": 832,
      "phone": 833,
      "moves": 834,
      "second": 835,
      "pulls": 836,
      "Every": 837,
      "place": 838,
      "port": 839,
      "isn": 840,
      "vie": 841,
      "bre": 842,
      "mor": 843,
      "shown": 844,
      "three": 845,
      "looking": 846,
      "Mc": 847,
      "PC": 848,
      "after": 849,
      "vin": 850,
      "cal": 851,
      "kind": 852,
      "Dad": 853,
      "Officer": 854,
      "lead": 855,
      "towards": 856,
      "Pres": 857,
      "those": 858,
      "leaves": 859,
      "gotta": 860,
      "most": 861,
      "Tom": 862,
      "few": 863,
      "bab": 864,
      "money": 865,
      "Bl": 866,
      "made": 867,
      "oice": 868,
      "parents": 869,
      "care": 870,
      "move": 871,
      "ground": 872,
      "Mom": 873,
      "mm": 874,
      "bro": 875,
      "idi": 876,
      "Timmy": 877,
      "ug": 878,
      "Ha": 879,
      "pan": 880,
      "ign": 881,
      "owe": 882,
      "getting": 883,
      "Terrance": 884,
      "dro": 885,
      "sit": 886,
      "world": 887,
      "aring": 888,
      "ross": 889,
      "keep": 890,
      "fuck": 891,
      "happen": 892,
      "believe": 893,
      "str": 894,
      "starts": 895,
      "ster": 896,
      "things": 897,
      "President": 898,
      "kill": 899,
      "leave": 900,
      "must": 901,
      "Ma": 902,
      "woman": 903,
      "sof": 904,
      "eyes": 905,
      "last": 906,
      "fall": 907,
      "list": 908,
      "heard": 909,
      "pa": 910,
      "outside": 911,
      "Ro": 912,
      "stupid": 913,
      "sy": 914,
      "less": 915,
      "len": 916,
      "ise": 917,
      "ange": 918,
      "pt": 919,
      "bad": 920,
      "window": 921,
      "Hello": 922,
      "mat": 923,
      "usic": 924,
      "Cl": 925,
      "which": 926,
      "Heidi": 927,
      "pict": 928,
      "ions": 929,
      "stre": 930,
      "plan": 931,
      "four": 932,
      "oot": 933,
      "Get": 934,
      "puts": 935,
      "member": 936,
      "arri": 937,
      "Phill": 938,
      "trying": 939,
      "stands": 940,
      "ator": 941,
      "flo": 942,
      "unt": 943,
      "thought": 944,
      "cks": 945,
      "ute": 946,
      "fam": 947,
      "anything": 948,
      "Amer": 949,
      "aces": 950,
      "please": 951,
      "sits": 952,
      "shit": 953,
      "cre": 954,
      "mas": 955,
      "Americ": 956,
      "steps": 957,
      "Me": 958,
      "Phillip": 959,
      "old": 960,
      "eter": 961,
      "mi": 962,
      "friends": 963,
      "ait": 964,
      "brady": 965,
      "Barbrady": 966,
      "ama": 967,
      "ually": 968,
      "top": 969,
      "understand": 970,
      "bs": 971,
      "Fr": 972,
      "girls": 973,
      "girl": 974,
      "Mic": 975,
      "os": 976,
      "vis": 977,
      "seen": 978,
      "di": 979,
      "mentary": 980,
      "noun": 981,
      "ba": 982,
      "stud": 983,
      "quick": 984,
      "Woman": 985,
      "life": 986,
      "unch": 987,
      "Scott": 988,
      "able": 989,
      "Ele": 990,
      "ese": 991,
      "bur": 992,
      "enters": 993,
      "ms": 994,
      "land": 995,
      "Gr": 996,
      "line": 997,
      "acks": 998,
      "music": 999,
      "app": 1000,
      "Ke": 1001,
      "si": 1002,
      "guy": 1003,
      "told": 1004,
      "Here": 1005,
      "ats": 1006,
      "coming": 1007,
      "ley": 1008,
      "screen": 1009,
      "arr": 1010,
      "Is": 1011,
      "fight": 1012,
      "Dan": 1013,
      "cor": 1014,
      "dres": 1015,
      "ways": 1016,
      "Elementary": 1017,
      "TV": 1018,
      "box": 1019,
      "On": 1020,
      "Sat": 1021,
      "fat": 1022,
      "ward": 1023,
      "gether": 1024,
      "talking": 1025,
      "huh": 1026,
      "wrong": 1027,
      "To": 1028,
      "hard": 1029,
      "Gu": 1030,
      "ience": 1031,
      "oup": 1032,
      "Cr": 1033,
      "himself": 1034,
      "playing": 1035,
      "pret": 1036,
      "cool": 1037,
      "Marsh": 1038,
      "arms": 1039,
      "name": 1040,
      "00": 1041,
      "sw": 1042,
      "won": 1043,
      "together": 1044,
      "cur": 1045,
      "chair": 1046,
      "stuff": 1047,
      "Where": 1048,
      "cut": 1049,
      "sees": 1050,
      "word": 1051,
      "everything": 1052,
      "ful": 1053,
      "inda": 1054,
      "guess": 1055,
      "Bebe": 1056,
      "proble": 1057,
      "De": 1058,
      "Bill": 1059,
      "Linda": 1060,
      "Canad": 1061,
      "Are": 1062,
      "Mo": 1063,
      "New": 1064,
      "makes": 1065,
      "might": 1066,
      "pass": 1067,
      "gun": 1068,
      "sur": 1069,
      "AAAA": 1070,
      "live": 1071,
      "else": 1072,
      "Red": 1073,
      "hu": 1074,
      "person": 1075,
      "Lo": 1076,
      "Wait": 1077,
      "form": 1078,
      "dr": 1079,
      "doll": 1080,
      "Huh": 1081,
      "abs": 1082,
      "follow": 1083,
      "ia": 1084,
      "Some": 1085,
      "best": 1086,
      "sound": 1087,
      "Shelly": 1088,
      "win": 1089,
      "living": 1090,
      "nice": 1091,
      "voice": 1092,
      "done": 1093,
      "ike": 1094,
      "icto": 1095,
      "office": 1096,
      "nothing": 1097,
      "Wow": 1098,
      "ken": 1099,
      "sign": 1100,
      "ower": 1101,
      "shows": 1102,
      "ries": 1103,
      "approaches": 1104,
      "listen": 1105,
      "io": 1106,
      "book": 1107,
      "Good": 1108,
      "ik": 1109,
      "Then": 1110,
      "cour": 1111,
      "inger": 1112,
      "contin": 1113,
      "jum": 1114,
      "ote": 1115,
      "smile": 1116,
      "stage": 1117,
      "pol": 1118,
      "Han": 1119,
      "answ": 1120,
      "sha": 1121,
      "stay": 1122,
      "ler": 1123,
      "row": 1124,
      "ene": 1125,
      "street": 1126,
      "family": 1127,
      "Pe": 1128,
      "Po": 1129,
      "swe": 1130,
      "full": 1131,
      "hall": 1132,
      "maybe": 1133,
      "Le": 1134,
      "tly": 1135,
      "ues": 1136,
      "floor": 1137,
      "raw": 1138,
      "fire": 1139,
      "picture": 1140,
      "holds": 1141,
      "nouncer": 1142,
      "used": 1143,
      "lear": 1144,
      "ices": 1145,
      "game": 1146,
      "points": 1147,
      "ww": 1148,
      "Chin": 1149,
      "pie": 1150,
      "Satan": 1151,
      "mouth": 1152,
      "hed": 1153,
      "dead": 1154,
      "closes": 1155,
      "cat": 1156,
      "icks": 1157,
      "crap": 1158,
      "damn": 1159,
      "bitch": 1160,
      "hear": 1161,
      "today": 1162,
      "enough": 1163,
      "Your": 1164,
      "Joh": 1165,
      "ort": 1166,
      "Victo": 1167,
      "band": 1168,
      "ria": 1169,
      "Christmas": 1170,
      "board": 1171,
      "view": 1172,
      "vide": 1173,
      "ield": 1174,
      "small": 1175,
      "Doctor": 1176,
      "OO": 1177,
      "gy": 1178,
      "umb": 1179,
      "Ex": 1180,
      "song": 1181,
      "wall": 1182,
      "Everyone": 1183,
      "pretty": 1184,
      "Jew": 1185,
      "tot": 1186,
      "aud": 1187,
      "whole": 1188,
      "Victoria": 1189,
      "Please": 1190,
      "fuc": 1191,
      "says": 1192,
      "actually": 1193,
      "ext": 1194,
      "Ah": 1195,
      "Jo": 1196,
      "Announcer": 1197,
      "hang": 1198,
      "John": 1199,
      "ev": 1200,
      "Hankey": 1201,
      "bar": 1202,
      "hor": 1203,
      "ear": 1204,
      "sn": 1205,
      "anks": 1206,
      "begin": 1207,
      "med": 1208,
      "ides": 1209,
      "others": 1210,
      "Micha": 1211,
      "group": 1212,
      "Michael": 1213,
      "idea": 1214,
      "dad": 1215,
      "pop": 1216,
      "both": 1217,
      "news": 1218,
      "pen": 1219,
      "drops": 1220,
      "Two": 1221,
      "wel": 1222,
      "falls": 1223,
      "mar": 1224,
      "lder": 1225,
      "feren": 1226,
      "gay": 1227,
      "build": 1228,
      "lar": 1229,
      "ping": 1230,
      "As": 1231,
      "suppo": 1232,
      "quickly": 1233,
      "At": 1234,
      "ink": 1235,
      "having": 1236,
      "boo": 1237,
      "low": 1238,
      "making": 1239,
      "rr": 1240,
      "cus": 1241,
      "sir": 1242,
      "ams": 1243,
      "iet": 1244,
      "ared": 1245,
      "je": 1246,
      "shut": 1247,
      "desk": 1248,
      "Not": 1249,
      "black": 1250,
      "Coon": 1251,
      "rec": 1252,
      "onto": 1253,
      "dif": 1254,
      "ith": 1255,
      "Did": 1256,
      "udd": 1257,
      "Con": 1258,
      "gent": 1259,
      "mit": 1260,
      "int": 1261,
      "saying": 1262,
      "sex": 1263,
      "als": 1264,
      "lock": 1265,
      "El": 1266,
      "Pip": 1267,
      "San": 1268,
      "Towe": 1269,
      "gen": 1270,
      "miss": 1271,
      "ons": 1272,
      "Towelie": 1273,
      "kno": 1274,
      "ling": 1275,
      "par": 1276,
      "duc": 1277,
      "ier": 1278,
      "itche": 1279,
      "For": 1280,
      "pap": 1281,
      "oooo": 1282,
      "amp": 1283,
      "iv": 1284,
      "free": 1285,
      "along": 1286,
      "change": 1287,
      "heads": 1288,
      "called": 1289,
      "leg": 1290,
      "times": 1291,
      "Because": 1292,
      "sle": 1293,
      "near": 1294,
      "Yates": 1295,
      "meet": 1296,
      "water": 1297,
      "found": 1298,
      "Tr": 1299,
      "One": 1300,
      "ush": 1301,
      "balls": 1302,
      "problem": 1303,
      "Danie": 1304,
      "until": 1305,
      "net": 1306,
      "ures": 1307,
      "itch": 1308,
      "aps": 1309,
      "Ste": 1310,
      "ete": 1311,
      "police": 1312,
      "always": 1313,
      "Thanks": 1314,
      "came": 1315,
      "hur": 1316,
      "ence": 1317,
      "Com": 1318,
      "Un": 1319,
      "ips": 1320,
      "same": 1321,
      "ction": 1322,
      "fucking": 1323,
      "Boy": 1324,
      "Whoa": 1325,
      "col": 1326,
      "went": 1327,
      "airs": 1328,
      "watching": 1329,
      "bring": 1330,
      "ng": 1331,
      "plays": 1332,
      "taking": 1333,
      "anymore": 1334,
      "mind": 1335,
      "rol": 1336,
      "hey": 1337,
      "finally": 1338,
      "matter": 1339,
      "itting": 1340,
      "ten": 1341,
      "reaches": 1342,
      "Thank": 1343,
      "die": 1344,
      "fine": 1345,
      "hair": 1346,
      "video": 1347,
      "supposed": 1348,
      "Daniels": 1349,
      "eat": 1350,
      "ushes": 1351,
      "Pr": 1352,
      "cou": 1353,
      "fart": 1354,
      "inter": 1355,
      "der": 1356,
      "past": 1357,
      "throws": 1358,
      "suc": 1359,
      "acher": 1360,
      "close": 1361,
      "seat": 1362,
      "forward": 1363,
      "When": 1364,
      "deal": 1365,
      "dre": 1366,
      "fi": 1367,
      "once": 1368,
      "illed": 1369,
      "tries": 1370,
      "rings": 1371,
      "bell": 1372,
      "ake": 1373,
      "ists": 1374,
      "orm": 1375,
      "McDaniels": 1376,
      "lood": 1377,
      "grabs": 1378,
      "comp": 1379,
      "break": 1380,
      "Kid": 1381,
      "Rep": 1382,
      "aks": 1383,
      "stairs": 1384,
      "Right": 1385,
      "ved": 1386,
      "Har": 1387,
      "pay": 1388,
      "selves": 1389,
      "against": 1390,
      "Maybe": 1391,
      "happened": 1392,
      "Dam": 1393,
      "fli": 1394,
      "war": 1395,
      "ention": 1396,
      "exc": 1397,
      "His": 1398,
      "ones": 1399,
      "cept": 1400,
      "offic": 1401,
      "doors": 1402,
      "five": 1403,
      "country": 1404,
      "Sp": 1405,
      "gre": 1406,
      "rid": 1407,
      "audience": 1408,
      "People": 1409,
      "food": 1410,
      "haha": 1411,
      "ship": 1412,
      "aaaa": 1413,
      "special": 1414,
      "already": 1415,
      "itchen": 1416,
      "ual": 1417,
      "vers": 1418,
      "soon": 1419,
      "Ned": 1420,
      "took": 1421,
      "pants": 1422,
      "Se": 1423,
      "high": 1424,
      "ya": 1425,
      "Grand": 1426,
      "Hi": 1427,
      "gg": 1428,
      "across": 1429,
      "someone": 1430,
      "gas": 1431,
      "xi": 1432,
      "Col": 1433,
      "cover": 1434,
      "itty": 1435,
      "students": 1436,
      "ird": 1437,
      "funny": 1438,
      "continues": 1439,
      "din": 1440,
      "wearing": 1441,
      "ours": 1442,
      "course": 1443,
      "ness": 1444,
      "ited": 1445,
      "alone": 1446,
      "differen": 1447,
      "hot": 1448,
      "ient": 1449,
      "ends": 1450,
      "wanted": 1451,
      "present": 1452,
      "remember": 1453,
      "ister": 1454,
      "baby": 1455,
      "ason": 1456,
      "everybody": 1457,
      "smiles": 1458,
      "ooo": 1459,
      "agin": 1460,
      "draw": 1461,
      "sell": 1462,
      "year": 1463,
      "ering": 1464,
      "irt": 1465,
      "Boys": 1466,
      "ize": 1467,
      "Santa": 1468,
      "Je": 1469,
      "Steven": 1470,
      "fra": 1471,
      "minute": 1472,
      "tree": 1473,
      "cho": 1474,
      "bor": 1475,
      "comput": 1476,
      "wood": 1477,
      "ises": 1478,
      "ible": 1479,
      "kitchen": 1480,
      "oud": 1481,
      "ney": 1482,
      "years": 1483,
      "morning": 1484,
      "sweet": 1485,
      "drin": 1486,
      "gone": 1487,
      "iness": 1488,
      "follows": 1489,
      "paper": 1490,
      "Mark": 1491,
      "Mem": 1492,
      "bot": 1493,
      "lt": 1494,
      "mic": 1495,
      "ying": 1496,
      "quest": 1497,
      "wants": 1498,
      "rises": 1499,
      "sofa": 1500,
      "Big": 1501,
      "Wor": 1502,
      "father": 1503,
      "point": 1504,
      "Dav": 1505,
      "su": 1506,
      "ouble": 1507,
      "ames": 1508,
      "mother": 1509,
      "job": 1510,
      "rem": 1511,
      "assho": 1512,
      "saw": 1513,
      "slow": 1514,
      "serious": 1515,
      "pri": 1516,
      "enn": 1517,
      "days": 1518,
      "happy": 1519,
      "rolls": 1520,
      "ces": 1521,
      "ef": 1522,
      "acc": 1523,
      "idd": 1524,
      "cry": 1525,
      "shop": 1526,
      "Thom": 1527,
      "join": 1528,
      "picks": 1529,
      "without": 1530,
      "aur": 1531,
      "hate": 1532,
      "gives": 1533,
      "ween": 1534,
      "Next": 1535,
      "young": 1536,
      "Car": 1537,
      "waiting": 1538,
      "fast": 1539,
      "stri": 1540,
      "seconds": 1541,
      "bath": 1542,
      "ager": 1543,
      "scene": 1544,
      "white": 1545,
      "jumps": 1546,
      "heart": 1547,
      "hole": 1548,
      "working": 1549,
      "reads": 1550,
      "many": 1551,
      "ilen": 1552,
      "ker": 1553,
      "squ": 1554,
      "toile": 1555,
      "walking": 1556,
      "Bob": 1557,
      "ime": 1558,
      "See": 1559,
      "fre": 1560,
      "ations": 1561,
      "holding": 1562,
      "Den": 1563,
      "such": 1564,
      "hope": 1565,
      "ror": 1566,
      "sim": 1567,
      "store": 1568,
      "Cho": 1569,
      "eating": 1570,
      "ital": 1571,
      "aking": 1572,
      "round": 1573,
      "chang": 1574,
      "order": 1575,
      "Hall": 1576,
      "athan": 1577,
      "hal": 1578,
      "pain": 1579,
      "pee": 1580,
      "ski": 1581,
      "Steve": 1582,
      "bag": 1583,
      "faces": 1584,
      "sin": 1585,
      "Our": 1586,
      "vice": 1587,
      "arry": 1588,
      "check": 1589,
      "cked": 1590,
      "fish": 1591,
      "ingers": 1592,
      "Inter": 1593,
      "omen": 1594,
      "ham": 1595,
      "log": 1596,
      "ask": 1597,
      "fect": 1598,
      "plo": 1599,
      "vel": 1600,
      "taken": 1601,
      "thinks": 1602,
      "computer": 1603,
      "poo": 1604,
      "zy": 1605,
      "char": 1606,
      "ances": 1607,
      "Gen": 1608,
      "NO": 1609,
      "laughs": 1610,
      "super": 1611,
      "morrow": 1612,
      "power": 1613,
      "beat": 1614,
      "notices": 1615,
      "conf": 1616,
      "Hat": 1617,
      "ele": 1618,
      "alright": 1619,
      "mill": 1620,
      "returns": 1621,
      "party": 1622,
      "leader": 1623,
      "Will": 1624,
      "ret": 1625,
      "male": 1626,
      "ult": 1627,
      "bers": 1628,
      "between": 1629,
      "six": 1630,
      "mun": 1631,
      "tomorrow": 1632,
      "ical": 1633,
      "dog": 1634,
      "true": 1635,
      "ults": 1636,
      "totally": 1637,
      "goin": 1638,
      "dec": 1639,
      "control": 1640,
      "Mex": 1641,
      "foot": 1642,
      "Maxi": 1643,
      "sitting": 1644,
      "means": 1645,
      "somebody": 1646,
      "writ": 1647,
      "America": 1648,
      "building": 1649,
      "couple": 1650,
      "cross": 1651,
      "ze": 1652,
      "pect": 1653,
      "dollars": 1654,
      "sleep": 1655,
      "toilet": 1656,
      "Mexic": 1657,
      "iday": 1658,
      "lov": 1659,
      "resp": 1660,
      "appear": 1661,
      "yet": 1662,
      "wasn": 1663,
      "standing": 1664,
      "hops": 1665,
      "ief": 1666,
      "Brof": 1667,
      "dressed": 1668,
      "doctor": 1669,
      "ped": 1670,
      "ines": 1671,
      "thank": 1672,
      "import": 1673,
      "teacher": 1674,
      "Kids": 1675,
      "With": 1676,
      "also": 1677,
      "ooh": 1678,
      "Jeff": 1679,
      "Broflov": 1680,
      "Rich": 1681,
      "ili": 1682,
      "ither": 1683,
      "ians": 1684,
      "silen": 1685,
      "whe": 1686,
      "ense": 1687,
      "bles": 1688,
      "moment": 1689,
      "Out": 1690,
      "bull": 1691,
      "Ne": 1692,
      "aah": 1693,
      "lights": 1694,
      "Repor": 1695,
      "Coun": 1696,
      "ib": 1697,
      "ob": 1698,
      "business": 1699,
      "ave": 1700,
      "vol": 1701,
      "omet": 1702,
      "add": 1703,
      "chor": 1704,
      "fle": 1705,
      "itor": 1706,
      "ots": 1707,
      "bathroom": 1708,
      "Stu": 1709,
      "answer": 1710,
      "blood": 1711,
      "fly": 1712,
      "killed": 1713,
      "hon": 1714,
      "lay": 1715,
      "imes": 1716,
      "ado": 1717,
      "wife": 1718,
      "glass": 1719,
      "Stop": 1720,
      "ago": 1721,
      "esome": 1722,
      "large": 1723,
      "different": 1724,
      "Pat": 1725,
      "cap": 1726,
      "whis": 1727,
      "fell": 1728,
      "hallway": 1729,
      "TH": 1730,
      "reading": 1731,
      "Member": 1732,
      "OU": 1733,
      "ring": 1734,
      "running": 1735,
      "Marvin": 1736,
      "ail": 1737,
      "wond": 1738,
      "Cap": 1739,
      "shoo": 1740,
      "anger": 1741,
      "hhh": 1742,
      "half": 1743,
      "IN": 1744,
      "bra": 1745,
      "law": 1746,
      "grid": 1747,
      "base": 1748,
      "important": 1749,
      "grad": 1750,
      "started": 1751,
      "penis": 1752,
      "fraid": 1753,
      "David": 1754,
      "Nathan": 1755,
      "field": 1756,
      "ky": 1757,
      "yourself": 1758,
      "ti": 1759,
      "almost": 1760,
      "uture": 1761,
      "movie": 1762,
      "Reporter": 1763,
      "Mep": 1764,
      "cra": 1765,
      "issed": 1766,
      "Canada": 1767,
      "Stuart": 1768,
      "Mephe": 1769,
      "Jap": 1770,
      "fig": 1771,
      "park": 1772,
      "inc": 1773,
      "using": 1774,
      "Inside": 1775,
      "News": 1776,
      "iddle": 1777,
      "Mephesto": 1778,
      "Sup": 1779,
      "ior": 1780,
      "team": 1781,
      "els": 1782,
      "asshole": 1783,
      "Japan": 1784,
      "Ind": 1785,
      "afraid": 1786,
      "mall": 1787,
      "tin": 1788,
      "ted": 1789,
      "buy": 1790,
      "gridy": 1791,
      "sick": 1792,
      "sigh": 1793,
      "Str": 1794,
      "thinking": 1795,
      "Black": 1796,
      "ony": 1797,
      "stu": 1798,
      "moments": 1799,
      "approach": 1800,
      "ares": 1801,
      "anyone": 1802,
      "speak": 1803,
      "dumb": 1804,
      "zing": 1805,
      "ics": 1806,
      "lost": 1807,
      "Or": 1808,
      "ition": 1809,
      "urse": 1810,
      "poss": 1811,
      "ately": 1812,
      "ii": 1813,
      "rushes": 1814,
      "quiet": 1815,
      "udge": 1816,
      "Internet": 1817,
      "cop": 1818,
      "arrives": 1819,
      "Ad": 1820,
      "Back": 1821,
      "Fuck": 1822,
      "Sure": 1823,
      "dire": 1824,
      "women": 1825,
      "hol": 1826,
      "giving": 1827,
      "slowly": 1828,
      "Pro": 1829,
      "Rus": 1830,
      "pes": 1831,
      "repor": 1832,
      "trans": 1833,
      "apped": 1834,
      "Mon": 1835,
      "grow": 1836,
      "comple": 1837,
      "Kim": 1838,
      "tou": 1839,
      "entrance": 1840,
      "Nobody": 1841,
      "sounds": 1842,
      "ase": 1843,
      "finger": 1844,
      "pat": 1845,
      "ages": 1846,
      "gather": 1847,
      "brother": 1848,
      "bas": 1849,
      "lad": 1850,
      "mess": 1851,
      "road": 1852,
      "angry": 1853,
      "Richard": 1854,
      "city": 1855,
      "cket": 1856,
      "knew": 1857,
      "kiss": 1858,
      "case": 1859,
      "Tegridy": 1860,
      "Spe": 1861,
      "tru": 1862,
      "undred": 1863,
      "van": 1864,
      "tom": 1865,
      "nobody": 1866,
      "truck": 1867,
      "American": 1868,
      "Broflovski": 1869,
      "Jan": 1870,
      "hi": 1871,
      "toss": 1872,
      "worry": 1873,
      "aim": 1874,
      "cy": 1875,
      "smo": 1876,
      "Stanley": 1877,
      "AT": 1878,
      "Sorry": 1879,
      "mur": 1880,
      "chick": 1881,
      "ES": 1882,
      "aming": 1883,
      "Myster": 1884,
      "tonight": 1885,
      "General": 1886,
      "Sad": 1887,
      "Ye": 1888,
      "tion": 1889,
      "bedroom": 1890,
      "ometimes": 1891,
      "hundred": 1892,
      "ride": 1893,
      "zz": 1894,
      "raises": 1895,
      "needs": 1896,
      "ame": 1897,
      "pops": 1898,
      "AR": 1899,
      "ahead": 1900,
      "gar": 1901,
      "suck": 1902,
      "sets": 1903,
      "elson": 1904,
      "Nelson": 1905,
      "norm": 1906,
      "pur": 1907,
      "return": 1908,
      "cell": 1909,
      "Saddam": 1910,
      "Gir": 1911,
      "These": 1912,
      "safe": 1913,
      "knocks": 1914,
      "pris": 1915,
      "pez": 1916,
      "Color": 1917,
      "Sir": 1918,
      "bow": 1919,
      "bunch": 1920,
      "mach": 1921,
      "ative": 1922,
      "ump": 1923,
      "seems": 1924,
      "cheer": 1925,
      "ousand": 1926,
      "Lead": 1927,
      "Qu": 1928,
      "cup": 1929,
      "gest": 1930,
      "hit": 1931,
      "ifer": 1932,
      "thanks": 1933,
      "drive": 1934,
      "Have": 1935,
      "Mysterion": 1936,
      "eye": 1937,
      "lets": 1938,
      "vern": 1939,
      "produc": 1940,
      "since": 1941,
      "Per": 1942,
      "Rick": 1943,
      "leads": 1944,
      "Lopez": 1945,
      "Strong": 1946,
      "Ob": 1947,
      "mag": 1948,
      "erk": 1949,
      "iling": 1950,
      "umber": 1951,
      "clear": 1952,
      "figure": 1953,
      "Ge": 1954,
      "fac": 1955,
      "gan": 1956,
      "blow": 1957,
      "action": 1958,
      "members": 1959,
      "AN": 1960,
      "coff": 1961,
      "clim": 1962,
      "damnit": 1963,
      "Colorado": 1964,
      "met": 1965,
      "pack": 1966,
      "ities": 1967,
      "ksond": 1968,
      "posit": 1969,
      "wouldn": 1970,
      "udden": 1971,
      "Choksond": 1972,
      "Choksondik": 1973,
      "Fe": 1974,
      "Ow": 1975,
      "pun": 1976,
      "wear": 1977,
      "story": 1978,
      "awesome": 1979,
      "Kevin": 1980,
      "curity": 1981,
      "Denver": 1982,
      "complete": 1983,
      "kick": 1984,
      "pped": 1985,
      "rug": 1986,
      "human": 1987,
      "ER": 1988,
      "Mart": 1989,
      "Miss": 1990,
      "future": 1991,
      "pu": 1992,
      "heh": 1993,
      "tory": 1994,
      "become": 1995,
      "answers": 1996,
      "Town": 1997,
      "center": 1998,
      "hours": 1999,
      "ress": 2000,
      "spital": 2001,
      "officers": 2002,
      "pound": 2003,
      "inte": 2004,
      "tage": 2005,
      "sighs": 2006,
      "Agent": 2007,
      "dark": 2008,
      "kne": 2009,
      "report": 2010,
      "rible": 2011,
      "Chief": 2012,
      "company": 2013,
      "cent": 2014,
      "fair": 2015,
      "mil": 2016,
      "uu": 2017,
      "anybody": 2018,
      "trouble": 2019,
      "White": 2020,
      "attention": 2021,
      "fully": 2022,
      "dream": 2023,
      "City": 2024,
      "gie": 2025,
      "sun": 2026,
      "butt": 2027,
      "cheers": 2028,
      "driver": 2029,
      "farts": 2030,
      "Pete": 2031,
      "cast": 2032,
      "stick": 2033,
      "ried": 2034,
      "govern": 2035,
      "officer": 2036,
      "Loo": 2037,
      "bing": 2038,
      "lim": 2039,
      "river": 2040,
      "Chinese": 2041,
      "10": 2042,
      "far": 2043,
      "ashes": 2044,
      "clean": 2045,
      "ennifer": 2046,
      "Thomas": 2047,
      "Ar": 2048,
      "hee": 2049,
      "thousand": 2050,
      "Stre": 2051,
      "tried": 2052,
      "Her": 2053,
      "Sla": 2054,
      "ov": 2055,
      "utes": 2056,
      "haven": 2057,
      "god": 2058,
      "ched": 2059,
      "Shut": 2060,
      "Really": 2061,
      "NA": 2062,
      "dick": 2063,
      "eas": 2064,
      "hood": 2065,
      "tic": 2066,
      "yard": 2067,
      "whatever": 2068,
      "sol": 2069,
      "gram": 2070,
      "bably": 2071,
      "record": 2072,
      "Grandpa": 2073,
      "coffee": 2074,
      "nin": 2075,
      "tra": 2076,
      "shoulder": 2077,
      "Japanese": 2078,
      "Af": 2079,
      "ID": 2080,
      "ges": 2081,
      "lunch": 2082,
      "inal": 2083,
      "Billy": 2084,
      "Slave": 2085,
      "Day": 2086,
      "Elder": 2087,
      "Lord": 2088,
      "ding": 2089,
      "ors": 2090,
      "appl": 2091,
      "throw": 2092,
      "vision": 2093,
      "abo": 2094,
      "cts": 2095,
      "stun": 2096,
      "seem": 2097,
      "softly": 2098,
      "Squ": 2099,
      "cking": 2100,
      "gro": 2101,
      "kins": 2102,
      "aside": 2103,
      "wed": 2104,
      "Gary": 2105,
      "telling": 2106,
      "press": 2107,
      "fuckin": 2108,
      "surpris": 2109,
      "Captain": 2110,
      "HH": 2111,
      "Jennifer": 2112,
      "cess": 2113,
      "tele": 2114,
      "mith": 2115,
      "alien": 2116,
      "grand": 2117,
      "lowers": 2118,
      "ject": 2119,
      "Ear": 2120,
      "Fo": 2121,
      "Father": 2122,
      "dance": 2123,
      "reach": 2124,
      "idence": 2125,
      "attle": 2126,
      "Damn": 2127,
      "Tur": 2128,
      "ran": 2129,
      "send": 2130,
      "ery": 2131,
      "ains": 2132,
      "Gore": 2133,
      "pping": 2134,
      "Canadian": 2135,
      "learned": 2136,
      "pig": 2137,
      "stem": 2138,
      "sever": 2139,
      "quite": 2140,
      "scared": 2141,
      "normal": 2142,
      "sudden": 2143,
      "seated": 2144,
      "shirt": 2145,
      "fill": 2146,
      "hits": 2147,
      "ono": 2148,
      "amed": 2149,
      "poor": 2150,
      "club": 2151,
      "Mor": 2152,
      "neck": 2153,
      "hoto": 2154,
      "joy": 2155,
      "pictures": 2156,
      "cuse": 2157,
      "dist": 2158,
      "fil": 2159,
      "reason": 2160,
      "though": 2161,
      "works": 2162,
      "Bear": 2163,
      "drink": 2164,
      "government": 2165,
      "Aaa": 2166,
      "ishes": 2167,
      "leaving": 2168,
      "space": 2169,
      "flag": 2170,
      "words": 2171,
      "learn": 2172,
      "dest": 2173,
      "ming": 2174,
      "pir": 2175,
      "snow": 2176,
      "ically": 2177,
      "nearby": 2178,
      "Of": 2179,
      "Take": 2180,
      "middle": 2181,
      "sent": 2182,
      "arch": 2183,
      "adults": 2184,
      "lives": 2185,
      "entire": 2186,
      "places": 2187,
      "nose": 2188,
      "teen": 2189,
      "themselves": 2190,
      "truth": 2191,
      "Friend": 2192,
      "Les": 2193,
      "mot": 2194,
      "reve": 2195,
      "meeting": 2196,
      "Any": 2197,
      "IT": 2198,
      "Lu": 2199,
      "either": 2200,
      "kee": 2201,
      "forth": 2202,
      "munity": 2203,
      "Like": 2204,
      "ium": 2205,
      "mand": 2206,
      "sand": 2207,
      "myself": 2208,
      "lose": 2209,
      "million": 2210,
      "several": 2211,
      "bat": 2212,
      "rew": 2213,
      "deep": 2214,
      "piece": 2215,
      "Excuse": 2216,
      "Obama": 2217,
      "AL": 2218,
      "pissed": 2219,
      "za": 2220,
      "step": 2221,
      "otes": 2222,
      "death": 2223,
      "probably": 2224,
      "plane": 2225,
      "Crab": 2226,
      "nother": 2227,
      "brought": 2228,
      "singing": 2229,
      "Pass": 2230,
      "Tu": 2231,
      "rush": 2232,
      "dinner": 2233,
      "stunned": 2234,
      "Another": 2235,
      "IS": 2236,
      "Smith": 2237,
      "ener": 2238,
      "agree": 2239,
      "sold": 2240,
      "aster": 2241,
      "yell": 2242,
      "cuts": 2243,
      "Eh": 2244,
      "Give": 2245,
      "ju": 2246,
      "umes": 2247,
      "bye": 2248,
      "smart": 2249,
      "ized": 2250,
      "interest": 2251,
      "Boo": 2252,
      "creat": 2253,
      "hy": 2254,
      "cele": 2255,
      "prom": 2256,
      "hello": 2257,
      "Keep": 2258,
      "dou": 2259,
      "gle": 2260,
      "mp": 2261,
      "test": 2262,
      "prep": 2263,
      "area": 2264,
      "uses": 2265,
      "angri": 2266,
      "mercial": 2267,
      "celebr": 2268,
      "backs": 2269,
      "ply": 2270,
      "spl": 2271,
      "seats": 2272,
      "somewhere": 2273,
      "shouldn": 2274,
      "certain": 2275,
      "classroom": 2276,
      "lands": 2277,
      "hurt": 2278,
      "Center": 2279,
      "Mel": 2280,
      "OM": 2281,
      "Pol": 2282,
      "Stot": 2283,
      "thes": 2284,
      "uts": 2285,
      "ucks": 2286,
      "tosses": 2287,
      "cars": 2288,
      "moving": 2289,
      "iful": 2290,
      "sky": 2291,
      "laughing": 2292,
      "11": 2293,
      "Run": 2294,
      "stat": 2295,
      "omb": 2296,
      "McC": 2297,
      "suit": 2298,
      "Earth": 2299,
      "Larry": 2300,
      "anket": 2301,
      "hamm": 2302,
      "least": 2303,
      "ountain": 2304,
      "spir": 2305,
      "cret": 2306,
      "arrator": 2307,
      "question": 2308,
      "Ben": 2309,
      "state": 2310,
      "bear": 2311,
      "rog": 2312,
      "guard": 2313,
      "gave": 2314,
      "Brit": 2315,
      "giant": 2316,
      "Hold": 2317,
      "Awww": 2318,
      "hangs": 2319,
      "Super": 2320,
      "possible": 2321,
      "Cha": 2322,
      "fs": 2323,
      "tw": 2324,
      "third": 2325,
      "load": 2326,
      "Anchor": 2327,
      "ancing": 2328,
      "huge": 2329,
      "locker": 2330,
      "crying": 2331,
      "Hu": 2332,
      "eight": 2333,
      "late": 2334,
      "mis": 2335,
      "inde": 2336,
      "urch": 2337,
      "tee": 2338,
      "dammit": 2339,
      "prote": 2340,
      "respon": 2341,
      "wonder": 2342,
      "Great": 2343,
      "aven": 2344,
      "ci": 2345,
      "pick": 2346,
      "sense": 2347,
      "inv": 2348,
      "shoot": 2349,
      "ils": 2350,
      "knows": 2351,
      "blue": 2352,
      "Special": 2353,
      "Jer": 2354,
      "anne": 2355,
      "bea": 2356,
      "plain": 2357,
      "eez": 2358,
      "finds": 2359,
      "eteria": 2360,
      "bum": 2361,
      "card": 2362,
      "yed": 2363,
      "terror": 2364,
      "waves": 2365,
      "closer": 2366,
      "destro": 2367,
      "hammad": 2368,
      "Dou": 2369,
      "tre": 2370,
      "lemen": 2371,
      "ica": 2372,
      "angrily": 2373,
      "fa": 2374,
      "hun": 2375,
      "hug": 2376,
      "acy": 2377,
      "chance": 2378,
      "background": 2379,
      "akov": 2380,
      "damned": 2381,
      "YOU": 2382,
      "ni": 2383,
      "oom": 2384,
      "weed": 2385,
      "lif": 2386,
      "Child": 2387,
      "ments": 2388,
      "joke": 2389,
      "joins": 2390,
      "Dis": 2391,
      "Narrator": 2392,
      "cough": 2393,
      "ished": 2394,
      "allow": 2395,
      "ault": 2396,
      "starting": 2397,
      "actly": 2398,
      "carry": 2399,
      "soft": 2400,
      "Joe": 2401,
      "welcome": 2402,
      "basket": 2403,
      "bast": 2404,
      "cu": 2405,
      "cau": 2406,
      "fur": 2407,
      "mir": 2408,
      "rain": 2409,
      "kets": 2410,
      "forget": 2411,
      "uring": 2412,
      "Harris": 2413,
      "Nic": 2414,
      "PS": 2415,
      "ban": 2416,
      "Wel": 2417,
      "tape": 2418,
      "seeing": 2419,
      "watches": 2420,
      "minutes": 2421,
      "Tell": 2422,
      "dress": 2423,
      "catch": 2424,
      "County": 2425,
      "chicken": 2426,
      "gers": 2427,
      "anim": 2428,
      "towel": 2429,
      "ths": 2430,
      "irth": 2431,
      "unny": 2432,
      "brings": 2433,
      "happens": 2434,
      "flash": 2435,
      "ighbor": 2436,
      "cream": 2437,
      "Guy": 2438,
      "evil": 2439,
      "Outside": 2440,
      "crazy": 2441,
      "reporter": 2442,
      "keeps": 2443,
      "Mim": 2444,
      "Pig": 2445,
      "egg": 2446,
      "lin": 2447,
      "ana": 2448,
      "rel": 2449,
      "ict": 2450,
      "weet": 2451,
      "haps": 2452,
      "rian": 2453,
      "iles": 2454,
      "Box": 2455,
      "couldn": 2456,
      "gym": 2457,
      "Adam": 2458,
      "En": 2459,
      "Gay": 2460,
      "Ser": 2461,
      "bin": 2462,
      "sub": 2463,
      "Ohhh": 2464,
      "ational": 2465,
      "lent": 2466,
      "sucks": 2467,
      "television": 2468,
      "Other": 2469,
      "cow": 2470,
      "ost": 2471,
      "erson": 2472,
      "commercial": 2473,
      "blic": 2474,
      "arrive": 2475,
      "rap": 2476,
      "thered": 2477,
      "blows": 2478,
      "amazing": 2479,
      "Police": 2480,
      "Welcome": 2481,
      "pus": 2482,
      "sad": 2483,
      "sight": 2484,
      "vo": 2485,
      "concer": 2486,
      "berry": 2487,
      "Time": 2488,
      "Cupid": 2489,
      "Min": 2490,
      "bud": 2491,
      "bott": 2492,
      "weak": 2493,
      "button": 2494,
      "caf": 2495,
      "Friends": 2496,
      "King": 2497,
      "Ske": 2498,
      "bul": 2499,
      "ied": 2500,
      "vil": 2501,
      "excited": 2502,
      "Pri": 2503,
      "bill": 2504,
      "train": 2505,
      "rincess": 2506,
      "drop": 2507,
      "planet": 2508,
      "green": 2509,
      "confused": 2510,
      "Stotch": 2511,
      "Cru": 2512,
      "eh": 2513,
      "gn": 2514,
      "pans": 2515,
      "sometimes": 2516,
      "cannot": 2517,
      "Timmi": 2518,
      "000": 2519,
      "aff": 2520,
      "ced": 2521,
      "dies": 2522,
      "ns": 2523,
      "turd": 2524,
      "save": 2525,
      "showing": 2526,
      "Pi": 2527,
      "doin": 2528,
      "deli": 2529,
      "gotten": 2530,
      "president": 2531,
      "Clerk": 2532,
      "Driver": 2533,
      "Sky": 2534,
      "az": 2535,
      "fag": 2536,
      "kin": 2537,
      "number": 2538,
      "lla": 2539,
      "stra": 2540,
      "ofess": 2541,
      "rince": 2542,
      "Scout": 2543,
      "attack": 2544,
      "babies": 2545,
      "system": 2546,
      "More": 2547,
      "Cruise": 2548,
      "Ugh": 2549,
      "bust": 2550,
      "cher": 2551,
      "edy": 2552,
      "grins": 2553,
      "rent": 2554,
      "cake": 2555,
      "camp": 2556,
      "fourth": 2557,
      "corner": 2558,
      "Crowd": 2559,
      "cir": 2560,
      "hip": 2561,
      "putting": 2562,
      "stead": 2563,
      "Clin": 2564,
      "pounds": 2565,
      "Mike": 2566,
      "cli": 2567,
      "treat": 2568,
      "ided": 2569,
      "realize": 2570,
      "moved": 2571,
      "jump": 2572,
      "stume": 2573,
      "reveal": 2574,
      "Skeeter": 2575,
      "bang": 2576,
      "val": 2577,
      "vent": 2578,
      "wish": 2579,
      "gold": 2580,
      "hospital": 2581,
      "quart": 2582,
      "exactly": 2583,
      "clothes": 2584,
      "weeks": 2585,
      "aughter": 2586,
      "happening": 2587,
      "books": 2588,
      "colle": 2589,
      "above": 2590,
      "Bur": 2591,
      "Ed": 2592,
      "Kitty": 2593,
      "Par": 2594,
      "bri": 2595,
      "principal": 2596,
      "photo": 2597,
      "sme": 2598,
      "itches": 2599,
      "orge": 2600,
      "whoa": 2601,
      "costume": 2602,
      "gathered": 2603,
      "restaur": 2604,
      "flies": 2605,
      "fellas": 2606,
      "Nichole": 2607,
      "fet": 2608,
      "ases": 2609,
      "rock": 2610,
      "neighbor": 2611,
      "que": 2612,
      "explo": 2613,
      "reath": 2614,
      "strong": 2615,
      "wheel": 2616,
      "Patr": 2617,
      "After": 2618,
      "beaut": 2619,
      "Peter": 2620,
      "ech": 2621,
      "fic": 2622,
      "fist": 2623,
      "ging": 2624,
      "mine": 2625,
      "ners": 2626,
      "zoom": 2627,
      "ility": 2628,
      "brid": 2629,
      "crack": 2630,
      "perfect": 2631,
      "calling": 2632,
      "Class": 2633,
      "seriously": 2634,
      "Carol": 2635,
      "completely": 2636,
      "cafeteria": 2637,
      "gig": 2638,
      "ives": 2639,
      "pet": 2640,
      "rer": 2641,
      "station": 2642,
      "asked": 2643,
      "irty": 2644,
      "agon": 2645,
      "agents": 2646,
      "grade": 2647,
      "covers": 2648,
      "suddenly": 2649,
      "Crabtree": 2650,
      "Fine": 2651,
      "First": 2652,
      "List": 2653,
      "bi": 2654,
      "lan": 2655,
      "rup": 2656,
      "iso": 2657,
      "star": 2658,
      "asure": 2659,
      "ghost": 2660,
      "choice": 2661,
      "roof": 2662,
      "raise": 2663,
      "Char": 2664,
      "burger": 2665,
      "appy": 2666,
      "Kelly": 2667,
      "fighting": 2668,
      "continue": 2669,
      "simple": 2670,
      "20": 2671,
      "Ab": 2672,
      "Brian": 2673,
      "Dick": 2674,
      "School": 2675,
      "Wha": 2676,
      "birth": 2677,
      "iver": 2678,
      "non": 2679,
      "sne": 2680,
      "tu": 2681,
      "tle": 2682,
      "ref": 2683,
      "rece": 2684,
      "iting": 2685,
      "iding": 2686,
      "grap": 2687,
      "aaa": 2688,
      "emp": 2689,
      "avor": 2690,
      "struc": 2691,
      "writing": 2692,
      "ais": 2693,
      "battle": 2694,
      "pot": 2695,
      "hose": 2696,
      "feeling": 2697,
      "Mexican": 2698,
      "rugs": 2699,
      "Mimsy": 2700,
      "ON": 2701,
      "Put": 2702,
      "rat": 2703,
      "ants": 2704,
      "agent": 2705,
      "Nothing": 2706,
      "everywhere": 2707,
      "ManBear": 2708,
      "presses": 2709,
      "catches": 2710,
      "position": 2711,
      "ManBearPig": 2712,
      "Daw": 2713,
      "lady": 2714,
      "gue": 2715,
      "except": 2716,
      "Johnson": 2717,
      "protect": 2718,
      "Would": 2719,
      "wha": 2720,
      "orde": 2721,
      "sey": 2722,
      "olks": 2723,
      "ulous": 2724,
      "Three": 2725,
      "longer": 2726,
      "AAAAAAAA": 2727,
      "Josh": 2728,
      "graders": 2729,
      "touch": 2730,
      "punches": 2731,
      "Towns": 2732,
      "straight": 2733,
      "Listen": 2734,
      "fit": 2735,
      "hom": 2736,
      "mark": 2737,
      "site": 2738,
      "bert": 2739,
      "cove": 2740,
      "Everything": 2741,
      "Friday": 2742,
      "problems": 2743,
      "Girl": 2744,
      "Res": 2745,
      "breath": 2746,
      "page": 2747,
      "vagin": 2748,
      "leans": 2749,
      "ider": 2750,
      "imagin": 2751,
      "boat": 2752,
      "tem": 2753,
      "Does": 2754,
      "crew": 2755,
      "From": 2756,
      "Worker": 2757,
      "Russell": 2758,
      "Priest": 2759,
      "AW": 2760,
      "RE": 2761,
      "Wo": 2762,
      "cab": 2763,
      "folk": 2764,
      "kicks": 2765,
      "luck": 2766,
      "leep": 2767,
      "security": 2768,
      "ending": 2769,
      "phy": 2770,
      "write": 2771,
      "speech": 2772,
      "poop": 2773,
      "nie": 2774,
      "sum": 2775,
      "note": 2776,
      "George": 2777,
      "easy": 2778,
      "Could": 2779,
      "Lad": 2780,
      "Mur": 2781,
      "bal": 2782,
      "bike": 2783,
      "fed": 2784,
      "fingers": 2785,
      "fault": 2786,
      "hum": 2787,
      "mass": 2788,
      "vious": 2789,
      "oop": 2790,
      "shall": 2791,
      "speaks": 2792,
      "shocked": 2793,
      "counter": 2794,
      "Teen": 2795,
      "Tuong": 2796,
      "Nurse": 2797,
      "hero": 2798,
      "thro": 2799,
      "search": 2800,
      "imp": 2801,
      "episo": 2802,
      "deser": 2803,
      "killing": 2804,
      "Americans": 2805,
      "wenty": 2806,
      "basement": 2807,
      "Leslie": 2808,
      "lifts": 2809,
      "covered": 2810,
      "Gre": 2811,
      "feet": 2812,
      "teach": 2813,
      "forest": 2814,
      "Stevens": 2815,
      "Farms": 2816,
      "Mars": 2817,
      "ST": 2818,
      "ape": 2819,
      "har": 2820,
      "honey": 2821,
      "lies": 2822,
      "ury": 2823,
      "exits": 2824,
      "rich": 2825,
      "fatass": 2826,
      "passes": 2827,
      "priv": 2828,
      "Looks": 2829,
      "beautiful": 2830,
      "Cause": 2831,
      "upon": 2832,
      "ummy": 2833,
      "worked": 2834,
      "clap": 2835,
      "pract": 2836,
      "bigger": 2837,
      "ashing": 2838,
      "official": 2839,
      "Mmm": 2840,
      "Wall": 2841,
      "cul": 2842,
      "dancing": 2843,
      "mad": 2844,
      "nat": 2845,
      "yy": 2846,
      "hears": 2847,
      "itter": 2848,
      "owers": 2849,
      "rip": 2850,
      "locks": 2851,
      "doorbell": 2852,
      "gasps": 2853,
      "Chaos": 2854,
      "Fl": 2855,
      "Fam": 2856,
      "Hen": 2857,
      "Jakov": 2858,
      "Prince": 2859,
      "cred": 2860,
      "ole": 2861,
      "anda": 2862,
      "sticks": 2863,
      "asleep": 2864,
      "Heh": 2865,
      "respect": 2866,
      "tray": 2867,
      "rench": 2868,
      "screams": 2869,
      "drives": 2870,
      "following": 2871,
      "football": 2872,
      "oohoo": 2873,
      "applause": 2874,
      "Hill": 2875,
      "Um": 2876,
      "bbing": 2877,
      "chat": 2878,
      "seven": 2879,
      "alth": 2880,
      "robot": 2881,
      "ift": 2882,
      "checks": 2883,
      "sco": 2884,
      "ously": 2885,
      "waits": 2886,
      "Janet": 2887,
      "distance": 2888,
      "App": 2889,
      "Ba": 2890,
      "Four": 2891,
      "Mus": 2892,
      "ja": 2893,
      "ane": 2894,
      "instead": 2895,
      "keys": 2896,
      "short": 2897,
      "host": 2898,
      "psy": 2899,
      "Gob": 2900,
      "whips": 2901,
      "trash": 2902,
      "player": 2903,
      "forever": 2904,
      "driving": 2905,
      "breaks": 2906,
      "Guys": 2907,
      "ientist": 2908,
      "douche": 2909,
      "spirit": 2910,
      "AH": 2911,
      "Jared": 2912,
      "War": 2913,
      "ben": 2914,
      "elder": 2915,
      "sou": 2916,
      "tun": 2917,
      "turned": 2918,
      "berg": 2919,
      "oween": 2920,
      "Jews": 2921,
      "iety": 2922,
      "legs": 2923,
      "fires": 2924,
      "holiday": 2925,
      "games": 2926,
      "main": 2927,
      "od": 2928,
      "ests": 2929,
      "secret": 2930,
      "somethin": 2931,
      "resumes": 2932,
      "post": 2933,
      "talks": 2934,
      "homeless": 2935,
      "glad": 2936,
      "booth": 2937,
      "Halloween": 2938,
      "silence": 2939,
      "machine": 2940,
      "Adams": 2941,
      "bottle": 2942,
      "ET": 2943,
      "Got": 2944,
      "Say": 2945,
      "fan": 2946,
      "loud": 2947,
      "pool": 2948,
      "announ": 2949,
      "idel": 2950,
      "notice": 2951,
      "exper": 2952,
      "Guard": 2953,
      "snif": 2954,
      "ival": 2955,
      "Field": 2956,
      "cash": 2957,
      "farm": 2958,
      "folks": 2959,
      "push": 2960,
      "iner": 2961,
      "removes": 2962,
      "church": 2963,
      "ford": 2964,
      "tains": 2965,
      "hhhh": 2966,
      "Phil": 2967,
      "calm": 2968,
      "student": 2969,
      "missing": 2970,
      "excuse": 2971,
      "ridic": 2972,
      "annel": 2973,
      "restaurant": 2974,
      "Ale": 2975,
      "Cool": 2976,
      "Free": 2977,
      "Tra": 2978,
      "favor": 2979,
      "ix": 2980,
      "pal": 2981,
      "erry": 2982,
      "ory": 2983,
      "beer": 2984,
      "upstairs": 2985,
      "ourselves": 2986,
      "stor": 2987,
      "skin": 2988,
      "broke": 2989,
      "certainly": 2990,
      "Clinton": 2991,
      "Cat": 2992,
      "Im": 2993,
      "Sch": 2994,
      "cro": 2995,
      "hus": 2996,
      "icking": 2997,
      "ammy": 2998,
      "focus": 2999,
      "sheet": 3000,
      "cold": 3001,
      "calls": 3002,
      "count": 3003,
      "Blanket": 3004,
      "changes": 3005,
      "Sha": 3006,
      "fact": 3007,
      "ram": 3008,
      "ork": 3009,
      "worse": 3010,
      "screw": 3011,
      "Britney": 3012,
      "ofessor": 3013,
      "Family": 3014,
      "Air": 3015,
      "Bro": 3016,
      "Ooo": 3017,
      "Sally": 3018,
      "det": 3019,
      "fif": 3020,
      "jac": 3021,
      "py": 3022,
      "pul": 3023,
      "wich": 3024,
      "sea": 3025,
      "assed": 3026,
      "Star": 3027,
      "otest": 3028,
      "upset": 3029,
      "tech": 3030,
      "anyway": 3031,
      "tract": 3032,
      "support": 3033,
      "Holy": 3034,
      "girlfriend": 3035,
      "formation": 3036,
      "flips": 3037,
      "crosses": 3038,
      "silent": 3039,
      "McCorm": 3040,
      "teeth": 3041,
      "House": 3042,
      "during": 3043,
      "hide": 3044,
      "sion": 3045,
      "sem": 3046,
      "acist": 3047,
      "ached": 3048,
      "wiener": 3049,
      "grab": 3050,
      "exit": 3051,
      "anson": 3052,
      "coat": 3053,
      "monitor": 3054,
      "shakes": 3055,
      "strikes": 3056,
      "changed": 3057,
      "shoots": 3058,
      "producer": 3059,
      "surprised": 3060,
      "Ama": 3061,
      "Tes": 3062,
      "du": 3063,
      "fu": 3064,
      "jam": 3065,
      "pac": 3066,
      "pause": 3067,
      "arious": 3068,
      "lying": 3069,
      "Head": 3070,
      "leased": 3071,
      "spot": 3072,
      "Rob": 3073,
      "etect": 3074,
      "ING": 3075,
      "Timmih": 3076,
      "neighborhood": 3077,
      "Cth": 3078,
      "Nor": 3079,
      "erg": 3080,
      "atic": 3081,
      "ised": 3082,
      "icop": 3083,
      "asking": 3084,
      "oops": 3085,
      "among": 3086,
      "apart": 3087,
      "logy": 3088,
      "ulhu": 3089,
      "Only": 3090,
      "Ellen": 3091,
      "aims": 3092,
      "zooms": 3093,
      "Cthulhu": 3094,
      "AID": 3095,
      "DO": 3096,
      "Darry": 3097,
      "EN": 3098,
      "KK": 3099,
      "Sg": 3100,
      "lap": 3101,
      "onde": 3102,
      "itar": 3103,
      "history": 3104,
      "apo": 3105,
      "female": 3106,
      "Daddy": 3107,
      "Darryl": 3108,
      "Sgt": 3109,
      "Hand": 3110,
      "Sweet": 3111,
      "Those": 3112,
      "pin": 3113,
      "ray": 3114,
      "tank": 3115,
      "troll": 3116,
      "yan": 3117,
      "isand": 3118,
      "alarm": 3119,
      "chal": 3120,
      "chuck": 3121,
      "agg": 3122,
      "final": 3123,
      "Frank": 3124,
      "died": 3125,
      "burst": 3126,
      "drum": 3127,
      "event": 3128,
      "mari": 3129,
      "draws": 3130,
      "Adler": 3131,
      "empty": 3132,
      "Aide": 3133,
      "Cam": 3134,
      "cord": 3135,
      "daughter": 3136,
      "lines": 3137,
      "inst": 3138,
      "enger": 3139,
      "etta": 3140,
      "rietta": 3141,
      "Hel": 3142,
      "closed": 3143,
      "lots": 3144,
      "gentlemen": 3145,
      "Professor": 3146,
      "woods": 3147,
      "questions": 3148,
      "climbs": 3149,
      "milk": 3150,
      "Streisand": 3151,
      "episode": 3152,
      "Henrietta": 3153,
      "CK": 3154,
      "Li": 3155,
      "Men": 3156,
      "Mag": 3157,
      "sal": 3158,
      "warm": 3159,
      "incl": 3160,
      "omin": 3161,
      "oper": 3162,
      "tooth": 3163,
      "protest": 3164,
      "studio": 3165,
      "earth": 3166,
      "shooting": 3167,
      "Down": 3168,
      "bes": 3169,
      "bac": 3170,
      "bright": 3171,
      "bucks": 3172,
      "da": 3173,
      "pair": 3174,
      "rab": 3175,
      "ugh": 3176,
      "anno": 3177,
      "alive": 3178,
      "ads": 3179,
      "lyn": 3180,
      "nothin": 3181,
      "helicop": 3182,
      "charge": 3183,
      "Skyler": 3184,
      "throat": 3185,
      "Home": 3186,
      "lab": 3187,
      "twenty": 3188,
      "bel": 3189,
      "ades": 3190,
      "terrible": 3191,
      "lips": 3192,
      "quee": 3193,
      "Show": 3194,
      "ruin": 3195,
      "izza": 3196,
      "finish": 3197,
      "court": 3198,
      "19": 3199,
      "ki": 3200,
      "yer": 3201,
      "def": 3202,
      "apparen": 3203,
      "ilt": 3204,
      "aine": 3205,
      "pose": 3206,
      "worth": 3207,
      "knock": 3208,
      "decided": 3209,
      "respond": 3210,
      "glasses": 3211,
      "Leader": 3212,
      "Mu": 3213,
      "Mal": 3214,
      "gles": 3215,
      "vic": 3216,
      "vacc": 3217,
      "eron": 3218,
      "orn": 3219,
      "immed": 3220,
      "wig": 3221,
      "lds": 3222,
      "Weather": 3223,
      "stool": 3224,
      "Brad": 3225,
      "lax": 3226,
      "Haha": 3227,
      "Somebody": 3228,
      "dining": 3229,
      "charac": 3230,
      "French": 3231,
      "LE": 3232,
      "Lorde": 3233,
      "danger": 3234,
      "rist": 3235,
      "pson": 3236,
      "worried": 3237,
      "ucker": 3238,
      "tors": 3239,
      "emplo": 3240,
      "closet": 3241,
      "presents": 3242,
      "towns": 3243,
      "dollar": 3244,
      "iod": 3245,
      "hanging": 3246,
      "strike": 3247,
      "message": 3248,
      "Elderly": 3249,
      "juana": 3250,
      "Minister": 3251,
      "ergart": 3252,
      "Mill": 3253,
      "Ten": 3254,
      "cart": 3255,
      "icked": 3256,
      "sidewalk": 3257,
      "laughter": 3258,
      "Barbra": 3259,
      "breast": 3260,
      "Mommy": 3261,
      "mission": 3262,
      "Jersey": 3263,
      "Paris": 3264,
      "brief": 3265,
      "vagina": 3266,
      "McCormick": 3267,
      "immedi": 3268,
      "Bet": 3269,
      "Dire": 3270,
      "Face": 3271,
      "Hind": 3272,
      "Little": 3273,
      "Very": 3274,
      "nuts": 3275,
      "enjoy": 3276,
      "orts": 3277,
      "apper": 3278,
      "cancer": 3279,
      "plant": 3280,
      "guards": 3281,
      "dying": 3282,
      "slams": 3283,
      "desc": 3284,
      "breaking": 3285,
      "shopping": 3286,
      "coughs": 3287,
      "caught": 3288,
      "12": 3289,
      "Am": 3290,
      "Bu": 3291,
      "Budd": 3292,
      "Princess": 3293,
      "Sim": 3294,
      "Wal": 3295,
      "cum": 3296,
      "dig": 3297,
      "race": 3298,
      "bec": 3299,
      "rips": 3300,
      "urday": 3301,
      "rise": 3302,
      "itten": 3303,
      "brown": 3304,
      "biggest": 3305,
      "shots": 3306,
      "Saturday": 3307,
      "surround": 3308,
      "simply": 3309,
      "tired": 3310,
      "Produc": 3311,
      "quarters": 3312,
      "AIDS": 3313,
      "Ey": 3314,
      "Happy": 3315,
      "wast": 3316,
      "zon": 3317,
      "health": 3318,
      "image": 3319,
      "Stud": 3320,
      "aul": 3321,
      "backyard": 3322,
      "turkey": 3323,
      "track": 3324,
      "crit": 3325,
      "period": 3326,
      "swim": 3327,
      "bottom": 3328,
      "ESOM": 3329,
      "responsi": 3330,
      "AWESOM": 3331,
      "bench": 3332,
      "SA": 3333,
      "Sho": 3334,
      "cows": 3335,
      "mountain": 3336,
      "heav": 3337,
      "weren": 3338,
      "force": 3339,
      "logram": 3340,
      "chest": 3341,
      "selor": 3342,
      "Sold": 3343,
      "monster": 3344,
      "dium": 3345,
      "Isn": 3346,
      "Once": 3347,
      "horrible": 3348,
      "sexual": 3349,
      "Dep": 3350,
      "Lem": 3351,
      "Nice": 3352,
      "Rab": 3353,
      "dances": 3354,
      "nurse": 3355,
      "sus": 3356,
      "wide": 3357,
      "tomer": 3358,
      "irts": 3359,
      "explain": 3360,
      "finished": 3361,
      "strange": 3362,
      "horse": 3363,
      "parking": 3364,
      "writes": 3365,
      "Dougie": 3366,
      "basketball": 3367,
      "buddy": 3368,
      "Mitch": 3369,
      "Play": 3370,
      "cure": 3371,
      "fir": 3372,
      "pour": 3373,
      "spo": 3374,
      "relax": 3375,
      "thor": 3376,
      "eng": 3377,
      "acting": 3378,
      "ution": 3379,
      "weight": 3380,
      "peace": 3381,
      "thers": 3382,
      "podium": 3383,
      "iley": 3384,
      "famili": 3385,
      "switch": 3386,
      "horn": 3387,
      "ridiculous": 3388,
      "Vamp": 3389,
      "candy": 3390,
      "double": 3391,
      "ginger": 3392,
      "iers": 3393,
      "sen": 3394,
      "weap": 3395,
      "rope": 3396,
      "ender": 3397,
      "known": 3398,
      "grin": 3399,
      "pok": 3400,
      "assist": 3401,
      "anywhere": 3402,
      "pper": 3403,
      "given": 3404,
      "OOOO": 3405,
      "sweetie": 3406,
      "World": 3407,
      "flying": 3408,
      "apparently": 3409,
      "Director": 3410,
      "Producer": 3411,
      "Fire": 3412,
      "Ryan": 3413,
      "bomb": 3414,
      "ered": 3415,
      "hic": 3416,
      "jack": 3417,
      "map": 3418,
      "named": 3419,
      "phe": 3420,
      "vote": 3421,
      "heaven": 3422,
      "oray": 3423,
      "likes": 3424,
      "dear": 3425,
      "illy": 3426,
      "notic": 3427,
      "playground": 3428,
      "smiling": 3429,
      "evening": 3430,
      "windows": 3431,
      "mmm": 3432,
      "Mickey": 3433,
      "China": 3434,
      "Chinpok": 3435,
      "ception": 3436,
      "HA": 3437,
      "Ju": 3438,
      "Son": 3439,
      "Too": 3440,
      "nic": 3441,
      "hehe": 3442,
      "oppo": 3443,
      "trust": 3444,
      "coll": 3445,
      "proud": 3446,
      "izes": 3447,
      "shock": 3448,
      "Aww": 3449,
      "broken": 3450,
      "listening": 3451,
      "Trapper": 3452,
      "yellow": 3453,
      "Keeper": 3454,
      "Children": 3455,
      "Muhammad": 3456,
      "immediately": 3457,
      "Bre": 3458,
      "Det": 3459,
      "Ko": 3460,
      "Sk": 3461,
      "bly": 3462,
      "drugs": 3463,
      "jail": 3464,
      "inks": 3465,
      "isa": 3466,
      "shield": 3467,
      "pocket": 3468,
      "ific": 3469,
      "bling": 3470,
      "runch": 3471,
      "wake": 3472,
      "couch": 3473,
      "Grandma": 3474,
      "Jefferson": 3475,
      "THE": 3476,
      "Girls": 3477,
      "Female": 3478,
      "Buddha": 3479,
      "Cait": 3480,
      "Voice": 3481,
      "filled": 3482,
      "glo": 3483,
      "ih": 3484,
      "pi": 3485,
      "sna": 3486,
      "level": 3487,
      "belong": 3488,
      "adow": 3489,
      "device": 3490,
      "master": 3491,
      "iled": 3492,
      "ensive": 3493,
      "cost": 3494,
      "Rebec": 3495,
      "Hooray": 3496,
      "Male": 3497,
      "older": 3498,
      "public": 3499,
      "motion": 3500,
      "birthday": 3501,
      "jacket": 3502,
      "includ": 3503,
      "Rebecca": 3504,
      "BC": 3505,
      "Jon": 3506,
      "barr": 3507,
      "dry": 3508,
      "rally": 3509,
      "rect": 3510,
      "arrest": 3511,
      "llins": 3512,
      "below": 3513,
      "chin": 3514,
      "demon": 3515,
      "noon": 3516,
      "umbles": 3517,
      "cheering": 3518,
      "wrote": 3519,
      "workers": 3520,
      "Brid": 3521,
      "Remember": 3522,
      "months": 3523,
      "Collins": 3524,
      "cares": 3525,
      "Deck": 3526,
      "fix": 3527,
      "film": 3528,
      "bastards": 3529,
      "further": 3530,
      "North": 3531,
      "Hindsight": 3532,
      "30": 3533,
      "Old": 3534,
      "Opr": 3535,
      "ale": 3536,
      "den": 3537,
      "rey": 3538,
      "ened": 3539,
      "eds": 3540,
      "ustr": 3541,
      "unte": 3542,
      "gettin": 3543,
      "plat": 3544,
      "residence": 3545,
      "community": 3546,
      "cru": 3547,
      "perform": 3548,
      "jobs": 3549,
      "apping": 3550,
      "Thompson": 3551,
      "direct": 3552,
      "ticket": 3553,
      "Oprah": 3554,
      "Call": 3555,
      "Even": 3556,
      "Jacks": 3557,
      "Mall": 3558,
      "Over": 3559,
      "Oho": 3560,
      "Sn": 3561,
      "York": 3562,
      "boun": 3563,
      "cas": 3564,
      "lit": 3565,
      "pies": 3566,
      "sug": 3567,
      "wrest": 3568,
      "zes": 3569,
      "ache": 3570,
      "ching": 3571,
      "tered": 3572,
      "wakes": 3573,
      "worker": 3574,
      "rules": 3575,
      "Real": 3576,
      "Coach": 3577,
      "finishes": 3578,
      "guns": 3579,
      "winks": 3580,
      "shuts": 3581,
      "colate": 3582,
      "aura": 3583,
      "retard": 3584,
      "Human": 3585,
      "carrying": 3586,
      "Murphy": 3587,
      "marijuana": 3588,
      "Jackson": 3589,
      "Crunch": 3590,
      "Jenny": 3591,
      "Pu": 3592,
      "fake": 3593,
      "ito": 3594,
      "ald": 3595,
      "choo": 3596,
      "Heather": 3597,
      "somehow": 3598,
      "trick": 3599,
      "prove": 3600,
      "screaming": 3601,
      "clears": 3602,
      "Franc": 3603,
      "Crowe": 3604,
      "share": 3605,
      "whispers": 3606,
      "ladder": 3607,
      "twice": 3608,
      "Amazon": 3609,
      "ceptionist": 3610,
      "Cal": 3611,
      "Woohoo": 3612,
      "ax": 3613,
      "ease": 3614,
      "gang": 3615,
      "punch": 3616,
      "tour": 3617,
      "vio": 3618,
      "esy": 3619,
      "vest": 3620,
      "stopped": 3621,
      "oods": 3622,
      "chase": 3623,
      "Someone": 3624,
      "legal": 3625,
      "hurry": 3626,
      "incred": 3627,
      "Help": 3628,
      "Francis": 3629,
      "Cher": 3630,
      "Hum": 3631,
      "Judge": 3632,
      "Luc": 3633,
      "block": 3634,
      "cig": 3635,
      "cult": 3636,
      "ek": 3637,
      "organ": 3638,
      "adio": 3639,
      "moon": 3640,
      "Ohh": 3641,
      "ended": 3642,
      "claps": 3643,
      "handle": 3644,
      "Goddamnit": 3645,
      "Both": 3646,
      "built": 3647,
      "Brown": 3648,
      "Reiner": 3649,
      "Make": 3650,
      "born": 3651,
      "cops": 3652,
      "smoke": 3653,
      "smell": 3654,
      "Caitlyn": 3655,
      "BI": 3656,
      "Bi": 3657,
      "FO": 3658,
      "Law": 3659,
      "Sar": 3660,
      "cil": 3661,
      "cook": 3662,
      "equ": 3663,
      "fro": 3664,
      "ius": 3665,
      "pill": 3666,
      "vies": 3667,
      "antly": 3668,
      "cons": 3669,
      "players": 3670,
      "Howard": 3671,
      "ueer": 3672,
      "monkey": 3673,
      "glances": 3674,
      "feels": 3675,
      "talkin": 3676,
      "Robert": 3677,
      "Jewish": 3678,
      "United": 3679,
      "dreidel": 3680,
      "Space": 3681,
      "Security": 3682,
      "kisses": 3683,
      "knees": 3684,
      "Scouts": 3685,
      "Lam": 3686,
      "NN": 3687,
      "gain": 3688,
      "nine": 3689,
      "various": 3690,
      "anchor": 3691,
      "ato": 3692,
      "tha": 3693,
      "staff": 3694,
      "wipes": 3695,
      "shitty": 3696,
      "locked": 3697,
      "movies": 3698,
      "plac": 3699,
      "soc": 3700,
      "stomach": 3701,
      "saved": 3702,
      "brain": 3703,
      "ouses": 3704,
      "Uhh": 3705,
      "spec": 3706,
      "prof": 3707,
      "drag": 3708,
      "Mexico": 3709,
      "terrorists": 3710,
      "pussy": 3711,
      "Patrick": 3712,
      "annoyed": 3713,
      "Deckter": 3714,
      "Aaah": 3715,
      "Hot": 3716,
      "Tre": 3717,
      "cries": 3718,
      "hoo": 3719,
      "accept": 3720,
      "addres": 3721,
      "dol": 3722,
      "urry": 3723,
      "tast": 3724,
      "crime": 3725,
      "angle": 3726,
      "Annie": 3727,
      "nerv": 3728,
      "Canadians": 3729,
      "signs": 3730,
      "freak": 3731,
      "honor": 3732,
      "direction": 3733,
      "surprise": 3734,
      "hung": 3735,
      "psych": 3736,
      "victim": 3737,
      "Hoh": 3738,
      "Hav": 3739,
      "LA": 3740,
      "Music": 3741,
      "Manson": 3742,
      "Sw": 3743,
      "Trent": 3744,
      "Washing": 3745,
      "fest": 3746,
      "pleased": 3747,
      "meant": 3748,
      "aged": 3749,
      "abort": 3750,
      "ional": 3751,
      "guitar": 3752,
      "program": 3753,
      "coach": 3754,
      "pray": 3755,
      "afternoon": 3756,
      "swings": 3757,
      "surv": 3758,
      "Love": 3759,
      "general": 3760,
      "study": 3761,
      "smoking": 3762,
      "facing": 3763,
      "pirate": 3764,
      "sandwich": 3765,
      "elderly": 3766,
      "announce": 3767,
      "Soldier": 3768,
      "Bridon": 3769,
      "Bush": 3770,
      "Easter": 3771,
      "Jason": 3772,
      "Kill": 3773,
      "Roman": 3774,
      "Sl": 3775,
      "Sand": 3776,
      "Van": 3777,
      "Wuh": 3778,
      "aides": 3779,
      "coo": 3780,
      "hill": 3781,
      "nn": 3782,
      "oc": 3783,
      "sat": 3784,
      "zen": 3785,
      "ert": 3786,
      "online": 3787,
      "yours": 3788,
      "plast": 3789,
      "fear": 3790,
      "butth": 3791,
      "ular": 3792,
      "Check": 3793,
      "talked": 3794,
      "opening": 3795,
      "grounded": 3796,
      "Maury": 3797,
      "arrow": 3798,
      "medic": 3799,
      "priest": 3800,
      "Indian": 3801,
      "Perhaps": 3802,
      "including": 3803,
      "Este": 3804,
      "Fin": 3805,
      "Honey": 3806,
      "Lisa": 3807,
      "Laura": 3808,
      "Mary": 3809,
      "Sto": 3810,
      "Singer": 3811,
      "Sometimes": 3812,
      "bon": 3813,
      "fal": 3814,
      "prison": 3815,
      "sort": 3816,
      "tac": 3817,
      "reme": 3818,
      "icy": 3819,
      "becomes": 3820,
      "admit": 3821,
      "lion": 3822,
      "hob": 3823,
      "taps": 3824,
      "unk": 3825,
      "conom": 3826,
      "expect": 3827,
      "spread": 3828,
      "shed": 3829,
      "Marcus": 3830,
      "trip": 3831,
      "ancy": 3832,
      "ancher": 3833,
      "Something": 3834,
      "Att": 3835,
      "grader": 3836,
      "craft": 3837,
      "bowl": 3838,
      "animals": 3839,
      "favorite": 3840,
      "Washington": 3841,
      "Ac": 3842,
      "Bab": 3843,
      "Best": 3844,
      "CH": 3845,
      "Evil": 3846,
      "GO": 3847,
      "Nooo": 3848,
      "Spie": 3849,
      "gift": 3850,
      "vir": 3851,
      "toy": 3852,
      "stit": 3853,
      "omon": 3854,
      "social": 3855,
      "grat": 3856,
      "spend": 3857,
      "written": 3858,
      "rubs": 3859,
      "flute": 3860,
      "Holly": 3861,
      "singer": 3862,
      "strap": 3863,
      "followed": 3864,
      "streets": 3865,
      "drinking": 3866,
      "Martin": 3867,
      "Spiel": 3868,
      "EE": 3869,
      "Em": 3870,
      "Hm": 3871,
      "Jack": 3872,
      "Ming": 3873,
      "Mother": 3874,
      "Mint": 3875,
      "Paul": 3876,
      "Troll": 3877,
      "foo": 3878,
      "tough": 3879,
      "enjo": 3880,
      "ites": 3881,
      "ican": 3882,
      "assem": 3883,
      "rocket": 3884,
      "boss": 3885,
      "hologram": 3886,
      "oph": 3887,
      "loc": 3888,
      "poster": 3889,
      "turning": 3890,
      "quit": 3891,
      "Channel": 3892,
      "cloud": 3893,
      "blind": 3894,
      "slaps": 3895,
      "flat": 3896,
      "Offic": 3897,
      "Poof": 3898,
      "Thanksgiving": 3899,
      "micro": 3900,
      "magic": 3901,
      "statue": 3902,
      "Hollywood": 3903,
      "Spielberg": 3904,
      "Afr": 3905,
      "Aaaaa": 3906,
      "Ger": 3907,
      "bird": 3908,
      "dar": 3909,
      "frog": 3910,
      "hunt": 3911,
      "iP": 3912,
      "pit": 3913,
      "sian": 3914,
      "sled": 3915,
      "wow": 3916,
      "ita": 3917,
      "stro": 3918,
      "aret": 3919,
      "hop": 3920,
      "deb": 3921,
      "aper": 3922,
      "feed": 3923,
      "hasn": 3924,
      "proper": 3925,
      "spin": 3926,
      "emot": 3927,
      "perhaps": 3928,
      "cave": 3929,
      "miwinks": 3930,
      "inky": 3931,
      "rrrr": 3932,
      "obvious": 3933,
      "interesting": 3934,
      "Chinpokomon": 3935,
      "Lucas": 3936,
      "Aunt": 3937,
      "Bed": 3938,
      "Hang": 3939,
      "Pil": 3940,
      "WH": 3941,
      "jaw": 3942,
      "vom": 3943,
      "yee": 3944,
      "reg": 3945,
      "reli": 3946,
      "threat": 3947,
      "itself": 3948,
      "kept": 3949,
      "lier": 3950,
      "sobbing": 3951,
      "lame": 3952,
      "pajam": 3953,
      "Moses": 3954,
      "ference": 3955,
      "success": 3956,
      "Dammit": 3957,
      "ibly": 3958,
      "husband": 3959,
      "dangerous": 3960,
      "Estella": 3961,
      "pajamas": 3962,
      "AS": 3963,
      "By": 3964,
      "FC": 3965,
      "IV": 3966,
      "Night": 3967,
      "Oo": 3968,
      "Pa": 3969,
      "Ron": 3970,
      "Singers": 3971,
      "Up": 3972,
      "cand": 3973,
      "nu": 3974,
      "national": 3975,
      "oid": 3976,
      "ssed": 3977,
      "tight": 3978,
      "ture": 3979,
      "hearing": 3980,
      "reco": 3981,
      "atch": 3982,
      "stares": 3983,
      "edge": 3984,
      "tering": 3985,
      "decor": 3986,
      "felt": 3987,
      "pole": 3988,
      "comedy": 3989,
      "embarr": 3990,
      "Manager": 3991,
      "Blaine": 3992,
      "mask": 3993,
      "corpor": 3994,
      "iker": 3995,
      "stays": 3996,
      "Community": 3997,
      "compet": 3998,
      "Sea": 3999,
      "AND": 4000,
      "grandpa": 4001,
      "promise": 4002,
      "destroy": 4003,
      "Service": 4004,
      "practice": 4005,
      "Gobbles": 4006,
      "soul": 4007,
      "opposite": 4008,
      "WW": 4009,
      "ec": 4010,
      "fool": 4011,
      "hour": 4012,
      "jar": 4013,
      "piss": 4014,
      "ism": 4015,
      "isham": 4016,
      "esar": 4017,
      "arts": 4018,
      "terri": 4019,
      "defin": 4020,
      "tears": 4021,
      "berries": 4022,
      "speaking": 4023,
      "loved": 4024,
      "Everybody": 4025,
      "burn": 4026,
      "parade": 4027,
      "remain": 4028,
      "assholes": 4029,
      "joined": 4030,
      "sleeping": 4031,
      "Janus": 4032,
      "Townsman": 4033,
      "snake": 4034,
      "cigaret": 4035,
      "Havisham": 4036,
      "Die": 4037,
      "James": 4038,
      "Native": 4039,
      "OC": 4040,
      "Os": 4041,
      "Power": 4042,
      "Sr": 4043,
      "Sy": 4044,
      "Tammy": 4045,
      "XBox": 4046,
      "craw": 4047,
      "ears": 4048,
      "lower": 4049,
      "marri": 4050,
      "pours": 4051,
      "rep": 4052,
      "llow": 4053,
      "hah": 4054,
      "tracks": 4055,
      "Should": 4056,
      "eeee": 4057,
      "emer": 4058,
      "Think": 4059,
      "disease": 4060,
      "Screw": 4061,
      "pressed": 4062,
      "Bron": 4063,
      "pulling": 4064,
      "Club": 4065,
      "babe": 4066,
      "drone": 4067,
      "Uncle": 4068,
      "Protes": 4069,
      "peeks": 4070,
      "Peru": 4071,
      "soldiers": 4072,
      "hugs": 4073,
      "sneak": 4074,
      "Travis": 4075,
      "Bradley": 4076,
      "Lemmiwinks": 4077,
      "gratul": 4078,
      "Cesar": 4079,
      "Funny": 4080,
      "Jones": 4081,
      "Try": 4082,
      "Yel": 4083,
      "fists": 4084,
      "ka": 4085,
      "kni": 4086,
      "ume": 4087,
      "wards": 4088,
      "orman": 4089,
      "stuck": 4090,
      "imm": 4091,
      "forms": 4092,
      "nowhere": 4093,
      "plate": 4094,
      "Whatever": 4095,
      "notes": 4096,
      "Goddammit": 4097,
      "aaah": 4098,
      "activ": 4099,
      "phones": 4100,
      "cape": 4101,
      "kinda": 4102,
      "ugly": 4103,
      "keeping": 4104,
      "Today": 4105,
      "swing": 4106,
      "Mohammad": 4107,
      "climb": 4108,
      "index": 4109,
      "wheelchair": 4110,
      "giggles": 4111,
      "Charlie": 4112,
      "Ladies": 4113,
      "15": 4114,
      "Cows": 4115,
      "Goo": 4116,
      "Game": 4117,
      "Kany": 4118,
      "Win": 4119,
      "Yo": 4120,
      "aves": 4121,
      "dum": 4122,
      "deter": 4123,
      "moun": 4124,
      "pup": 4125,
      "sword": 4126,
      "tub": 4127,
      "ara": 4128,
      "thumb": 4129,
      "mode": 4130,
      "author": 4131,
      "comment": 4132,
      "asses": 4133,
      "ified": 4134,
      "eline": 4135,
      "spins": 4136,
      "Cheesy": 4137,
      "clock": 4138,
      "carries": 4139,
      "helping": 4140,
      "busy": 4141,
      "Team": 4142,
      "ugs": 4143,
      "swear": 4144,
      "Spark": 4145,
      "faster": 4146,
      "tied": 4147,
      "Aaaah": 4148,
      "sniffs": 4149,
      "pulled": 4150,
      "Testa": 4151,
      "helicopter": 4152,
      "Facebook": 4153,
      "iPad": 4154,
      "Kanye": 4155,
      "Gor": 4156,
      "Hit": 4157,
      "Net": 4158,
      "Rom": 4159,
      "Six": 4160,
      "Tony": 4161,
      "cing": 4162,
      "ged": 4163,
      "judge": 4164,
      "rides": 4165,
      "rager": 4166,
      "ining": 4167,
      "orig": 4168,
      "album": 4169,
      "nder": 4170,
      "appoint": 4171,
      "mob": 4172,
      "offer": 4173,
      "igned": 4174,
      "comin": 4175,
      "gee": 4176,
      "trapped": 4177,
      "cock": 4178,
      "underwear": 4179,
      "issue": 4180,
      "Scientist": 4181,
      "Record": 4182,
      "McG": 4183,
      "panic": 4184,
      "paid": 4185,
      "Death": 4186,
      "Move": 4187,
      "NOT": 4188,
      "wondering": 4189,
      "trail": 4190,
      "aliens": 4191,
      "mirac": 4192,
      "apolog": 4193,
      "placed": 4194,
      "Bedrager": 4195,
      "Testaburger": 4196,
      "200": 4197,
      "Ass": 4198,
      "Bono": 4199,
      "DA": 4200,
      "Ham": 4201,
      "Jose": 4202,
      "Kind": 4203,
      "Last": 4204,
      "MB": 4205,
      "cute": 4206,
      "jas": 4207,
      "pushes": 4208,
      "sour": 4209,
      "sides": 4210,
      "rele": 4211,
      "doorway": 4212,
      "needed": 4213,
      "itely": 4214,
      "counselor": 4215,
      "Hospital": 4216,
      "Rock": 4217,
      "interrup": 4218,
      "ladies": 4219,
      "weapons": 4220,
      "FBI": 4221,
      "Gueer": 4222,
      "Whe": 4223,
      "ctr": 4224,
      "gust": 4225,
      "hm": 4226,
      "lic": 4227,
      "powers": 4228,
      "uation": 4229,
      "itary": 4230,
      "alt": 4231,
      "asaur": 4232,
      "Stand": 4233,
      "Their": 4234,
      "tern": 4235,
      "mast": 4236,
      "Chip": 4237,
      "showed": 4238,
      "disappears": 4239,
      "lesson": 4240,
      "Chinstrap": 4241,
      "gener": 4242,
      "Marklar": 4243,
      "remote": 4244,
      "changing": 4245,
      "murder": 4246,
      "figured": 4247,
      "motions": 4248,
      "wonderful": 4249,
      "allowed": 4250,
      "bridge": 4251,
      "Wok": 4252,
      "Sarah": 4253,
      "enjoying": 4254,
      "Gueermo": 4255,
      "Cow": 4256,
      "CAR": 4257,
      "ED": 4258,
      "Fil": 4259,
      "Foods": 4260,
      "GH": 4261,
      "LL": 4262,
      "Ooooo": 4263,
      "Water": 4264,
      "Yep": 4265,
      "date": 4266,
      "lu": 4267,
      "mid": 4268,
      "nor": 4269,
      "rum": 4270,
      "tles": 4271,
      "invol": 4272,
      "States": 4273,
      "Stupid": 4274,
      "logo": 4275,
      "loves": 4276,
      "looked": 4277,
      "frustr": 4278,
      "wash": 4279,
      "grim": 4280,
      "rather": 4281,
      "stopping": 4282,
      "Chick": 4283,
      "letter": 4284,
      "joint": 4285,
      "Soon": 4286,
      "protes": 4287,
      "izz": 4288,
      "Receptionist": 4289,
      "kindergart": 4290,
      "leading": 4291,
      "floats": 4292,
      "snaps": 4293,
      "beginning": 4294,
      "sleigh": 4295,
      "eleph": 4296,
      "heehee": 4297,
      "interested": 4298,
      "Dawkins": 4299,
      "massive": 4300,
      "Marshes": 4301,
      "Muslim": 4302,
      "Alex": 4303,
      "dolph": 4304,
      "knife": 4305,
      "13": 4306,
      "Ball": 4307,
      "Cots": 4308,
      "Gent": 4309,
      "OV": 4310,
      "Oper": 4311,
      "SH": 4312,
      "theater": 4313,
      "review": 4314,
      "reaction": 4315,
      "stars": 4316,
      "acked": 4317,
      "idents": 4318,
      "Stay": 4319,
      "owner": 4320,
      "comfor": 4321,
      "compan": 4322,
      "project": 4323,
      "clicks": 4324,
      "wolds": 4325,
      "Before": 4326,
      "montage": 4327,
      "service": 4328,
      "songs": 4329,
      "Davis": 4330,
      "square": 4331,
      "Russian": 4332,
      "garage": 4333,
      "Apple": 4334,
      "butthole": 4335,
      "Cotswolds": 4336,
      "Bye": 4337,
      "Cut": 4338,
      "Kat": 4339,
      "Rese": 4340,
      "TO": 4341,
      "Ta": 4342,
      "Tad": 4343,
      "ey": 4344,
      "pizza": 4345,
      "sings": 4346,
      "suff": 4347,
      "vamp": 4348,
      "zos": 4349,
      "anal": 4350,
      "information": 4351,
      "ision": 4352,
      "toff": 4353,
      "otch": 4354,
      "wild": 4355,
      "ops": 4356,
      "mail": 4357,
      "consc": 4358,
      "whore": 4359,
      "brace": 4360,
      "played": 4361,
      "cohol": 4362,
      "bush": 4363,
      "Hahaha": 4364,
      "Roger": 4365,
      "Mean": 4366,
      "www": 4367,
      "Exper": 4368,
      "welve": 4369,
      "gency": 4370,
      "applaud": 4371,
      "response": 4372,
      "trees": 4373,
      "bastard": 4374,
      "voices": 4375,
      "venture": 4376,
      "Edward": 4377,
      "society": 4378,
      "Funnybot": 4379,
      "40": 4380,
      "CD": 4381,
      "Cour": 4382,
      "HBC": 4383,
      "aver": 4384,
      "bare": 4385,
      "border": 4386,
      "dial": 4387,
      "goo": 4388,
      "hig": 4389,
      "jun": 4390,
      "lor": 4391,
      "mah": 4392,
      "sar": 4393,
      "sens": 4394,
      "silly": 4395,
      "ught": 4396,
      "wart": 4397,
      "arium": 4398,
      "weird": 4399,
      "ounds": 4400,
      "naked": 4401,
      "Garth": 4402,
      "wave": 4403,
      "Bezos": 4404,
      "rub": 4405,
      "greatest": 4406,
      "fucked": 4407,
      "Stevenson": 4408,
      "chocolate": 4409,
      "sixth": 4410,
      "honest": 4411,
      "pirates": 4412,
      "Aboot": 4413,
      "natur": 4414,
      "Imagin": 4415,
      "laptop": 4416,
      "Tenorman": 4417,
      "hungry": 4418,
      "Mingie": 4419,
      "Bon": 4420,
      "Bark": 4421,
      "Dah": 4422,
      "Ira": 4423,
      "Lee": 4424,
      "Ree": 4425,
      "Was": 4426,
      "bage": 4427,
      "bought": 4428,
      "cub": 4429,
      "cable": 4430,
      "gly": 4431,
      "gate": 4432,
      "lun": 4433,
      "sue": 4434,
      "wine": 4435,
      "yo": 4436,
      "ero": 4437,
      "oring": 4438,
      "ideas": 4439,
      "noise": 4440,
      "grun": 4441,
      "assment": 4442,
      "ansen": 4443,
      "blinks": 4444,
      "startled": 4445,
      "tryin": 4446,
      "Behind": 4447,
      "smacks": 4448,
      "Whole": 4449,
      "slides": 4450,
      "flu": 4451,
      "scream": 4452,
      "controll": 4453,
      "glares": 4454,
      "pointing": 4455,
      "based": 4456,
      "boxes": 4457,
      "drawing": 4458,
      "selling": 4459,
      "accident": 4460,
      "volunte": 4461,
      "addic": 4462,
      "growing": 4463,
      "mirror": 4464,
      "Teenager": 4465,
      "violen": 4466,
      "Chertoff": 4467,
      "frozen": 4468,
      "addresses": 4469,
      "Abootman": 4470,
      "Iraq": 4471,
      "18": 4472,
      "Agh": 4473,
      "Jam": 4474,
      "Jun": 4475,
      "Ooh": 4476,
      "Pl": 4477,
      "Small": 4478,
      "US": 4479,
      "Wi": 4480,
      "Woo": 4481,
      "agh": 4482,
      "ds": 4483,
      "dirty": 4484,
      "houses": 4485,
      "ipl": 4486,
      "som": 4487,
      "sister": 4488,
      "tall": 4489,
      "relie": 4490,
      "thirty": 4491,
      "stare": 4492,
      "icide": 4493,
      "mansion": 4494,
      "Station": 4495,
      "ets": 4496,
      "terday": 4497,
      "Weight": 4498,
      "cel": 4499,
      "sobs": 4500,
      "auto": 4501,
      "text": 4502,
      "proje": 4503,
      "headquarters": 4504,
      "spent": 4505,
      "shel": 4506,
      "stret": 4507,
      "switches": 4508,
      "diffic": 4509,
      "remains": 4510,
      "approaching": 4511,
      "faith": 4512,
      "Green": 4513,
      "chuckles": 4514,
      "Biker": 4515,
      "Hil": 4516,
      "Hurry": 4517,
      "Lex": 4518,
      "Rancher": 4519,
      "Smur": 4520,
      "athe": 4521,
      "ired": 4522,
      "lately": 4523,
      "uuh": 4524,
      "vot": 4525,
      "vior": 4526,
      "yah": 4527,
      "ino": 4528,
      "sters": 4529,
      "separ": 4530,
      "actor": 4531,
      "adv": 4532,
      "havin": 4533,
      "boom": 4534,
      "knowing": 4535,
      "guest": 4536,
      "uct": 4537,
      "click": 4538,
      "Uhhh": 4539,
      "causing": 4540,
      "helmet": 4541,
      "restroom": 4542,
      "screwed": 4543,
      "homework": 4544,
      "iously": 4545,
      "lake": 4546,
      "listens": 4547,
      "matters": 4548,
      "ators": 4549,
      "earlier": 4550,
      "drinks": 4551,
      "Nell": 4552,
      "NAMB": 4553,
      "soldier": 4554,
      "collect": 4555,
      "Skank": 4556,
      "Official": 4557,
      "Poofs": 4558,
      "NAMBLA": 4559,
      "Act": 4560,
      "Aud": 4561,
      "DNA": 4562,
      "Noooo": 4563,
      "Sister": 4564,
      "Tw": 4565,
      "bunny": 4566,
      "dust": 4567,
      "detect": 4568,
      "hiding": 4569,
      "none": 4570,
      "rot": 4571,
      "thum": 4572,
      "bears": 4573,
      "outta": 4574,
      "talent": 4575,
      "herself": 4576,
      "ola": 4577,
      "inea": 4578,
      "newsp": 4579,
      "Anne": 4580,
      "happily": 4581,
      "speed": 4582,
      "disgust": 4583,
      "month": 4584,
      "careful": 4585,
      "mix": 4586,
      "visit": 4587,
      "burgers": 4588,
      "personal": 4589,
      "Prime": 4590,
      "gasp": 4591,
      "itors": 4592,
      "brave": 4593,
      "Quick": 4594,
      "military": 4595,
      "banner": 4596,
      "deserve": 4597,
      "Schwart": 4598,
      "heavy": 4599,
      "plastic": 4600,
      "Nellie": 4601,
      "Schwartz": 4602,
      "14": 4603,
      "Blood": 4604,
      "Fre": 4605,
      "Frog": 4606,
      "GG": 4607,
      "Mm": 4608,
      "Sa": 4609,
      "Ugly": 4610,
      "bars": 4611,
      "cats": 4612,
      "drun": 4613,
      "flight": 4614,
      "fudge": 4615,
      "pile": 4616,
      "prin": 4617,
      "pink": 4618,
      "passed": 4619,
      "racist": 4620,
      "inno": 4621,
      "aser": 4622,
      "iment": 4623,
      "ette": 4624,
      "upper": 4625,
      "lip": 4626,
      "oneer": 4627,
      "fects": 4628,
      "guests": 4629,
      "Goth": 4630,
      "discus": 4631,
      "serves": 4632,
      "reality": 4633,
      "setting": 4634,
      "entering": 4635,
      "Guess": 4636,
      "passenger": 4637,
      "choir": 4638,
      "effect": 4639,
      "access": 4640,
      "Denmark": 4641,
      "logist": 4642,
      "solute": 4643,
      "ninjas": 4644,
      "hybrid": 4645,
      "queef": 4646,
      "engine": 4647,
      "incredible": 4648,
      "footage": 4649,
      "FU": 4650,
      "Long": 4651,
      "Pan": 4652,
      "Part": 4653,
      "Que": 4654,
      "Ton": 4655,
      "Tool": 4656,
      "UPS": 4657,
      "bank": 4658,
      "file": 4659,
      "harm": 4660,
      "sip": 4661,
      "vill": 4662,
      "wit": 4663,
      "zomb": 4664,
      "research": 4665,
      "itiz": 4666,
      "State": 4667,
      "chips": 4668,
      "bored": 4669,
      "goat": 4670,
      "ague": 4671,
      "downstairs": 4672,
      "ived": 4673,
      "handic": 4674,
      "code": 4675,
      "smug": 4676,
      "jokes": 4677,
      "Which": 4678,
      "Ang": 4679,
      "yees": 4680,
      "bitches": 4681,
      "partner": 4682,
      "arrived": 4683,
      "corn": 4684,
      "harder": 4685,
      "bands": 4686,
      "early": 4687,
      "custom": 4688,
      "Elon": 4689,
      "papers": 4690,
      "frame": 4691,
      "electr": 4692,
      "whisper": 4693,
      "ALL": 4694,
      "energy": 4695,
      "crossed": 4696,
      "Depart": 4697,
      "suggest": 4698,
      "Bronco": 4699,
      "Sparky": 4700,
      "Joseph": 4701,
      "Lexus": 4702,
      "Aah": 4703,
      "Ahhh": 4704,
      "End": 4705,
      "Fat": 4706,
      "Jeez": 4707,
      "Kip": 4708,
      "Oooo": 4709,
      "Oooh": 4710,
      "Poo": 4711,
      "Soph": 4712,
      "Yup": 4713,
      "cris": 4714,
      "gingers": 4715,
      "ral": 4716,
      "lest": 4717,
      "lling": 4718,
      "eno": 4719,
      "stru": 4720,
      "section": 4721,
      "beha": 4722,
      "rifle": 4723,
      "ships": 4724,
      "Heaven": 4725,
      "demand": 4726,
      "appre": 4727,
      "endant": 4728,
      "guide": 4729,
      "command": 4730,
      "cheese": 4731,
      "scary": 4732,
      "shower": 4733,
      "bub": 4734,
      "buries": 4735,
      "skis": 4736,
      "situation": 4737,
      "famous": 4738,
      "Leave": 4739,
      "media": 4740,
      "march": 4741,
      "rrr": 4742,
      "recess": 4743,
      "Conne": 4744,
      "knocking": 4745,
      "Damien": 4746,
      "whistle": 4747,
      "circle": 4748,
      "aisle": 4749,
      "challen": 4750,
      "families": 4751,
      "Toolshed": 4752,
      "Sophie": 4753,
      "Ahh": 4754,
      "Cash": 4755,
      "Camp": 4756,
      "Jen": 4757,
      "Lady": 4758,
      "OH": 4759,
      "Tweak": 4760,
      "Val": 4761,
      "Ya": 4762,
      "hides": 4763,
      "nam": 4764,
      "ron": 4765,
      "tro": 4766,
      "till": 4767,
      "onscreen": 4768,
      "total": 4769,
      "llum": 4770,
      "alcohol": 4771,
      "asing": 4772,
      "address": 4773,
      "ett": 4774,
      "roars": 4775,
      "shine": 4776,
      "within": 4777,
      "ently": 4778,
      "uss": 4779,
      "defe": 4780,
      "yourselves": 4781,
      "rish": 4782,
      "Gollum": 4783,
      "scrat": 4784,
      "spray": 4785,
      "sports": 4786,
      "Tech": 4787,
      "passing": 4788,
      "boobs": 4789,
      "bringing": 4790,
      "tiny": 4791,
      "director": 4792,
      "sending": 4793,
      "mistake": 4794,
      "indeed": 4795,
      "concert": 4796,
      "score": 4797,
      "Magic": 4798,
      "character": 4799,
      "townsfolk": 4800,
      "noticed": 4801,
      "definitely": 4802,
      "apologize": 4803,
      "newspaper": 4804,
      "drunk": 4805,
      "Department": 4806,
      "behavior": 4807,
      "50": 4808,
      "Bus": 4809,
      "Flo": 4810,
      "Gi": 4811,
      "Hus": 4812,
      "Kick": 4813,
      "Middle": 4814,
      "Tou": 4815,
      "UT": 4816,
      "Wars": 4817,
      "ai": 4818,
      "fans": 4819,
      "gress": 4820,
      "hook": 4821,
      "nation": 4822,
      "sooo": 4823,
      "til": 4824,
      "held": 4825,
      "repe": 4826,
      "oned": 4827,
      "army": 4828,
      "orange": 4829,
      "season": 4830,
      "icing": 4831,
      "belly": 4832,
      "ooz": 4833,
      "rious": 4834,
      "shadow": 4835,
      "lift": 4836,
      "forgot": 4837,
      "neither": 4838,
      "illa": 4839,
      "antic": 4840,
      "conne": 4841,
      "brush": 4842,
      "AAA": 4843,
      "closing": 4844,
      "buying": 4845,
      "flames": 4846,
      "weekend": 4847,
      "rests": 4848,
      "skins": 4849,
      "Christian": 4850,
      "mayor": 4851,
      "leaders": 4852,
      "ugger": 4853,
      "falling": 4854,
      "Room": 4855,
      "stream": 4856,
      "lived": 4857,
      "extreme": 4858,
      "network": 4859,
      "fied": 4860,
      "breakfast": 4861,
      "captain": 4862,
      "ghosts": 4863,
      "Hillary": 4864,
      "conomy": 4865,
      "Meanwhile": 4866,
      "Asl": 4867,
      "CE": 4868,
      "Di": 4869,
      "Farm": 4870,
      "Gib": 4871,
      "Kath": 4872,
      "Pir": 4873,
      "SCAR": 4874,
      "Watch": 4875,
      "aith": 4876,
      "bun": 4877,
      "ecut": 4878,
      "missed": 4879,
      "path": 4880,
      "roo": 4881,
      "heck": 4882,
      "rev": 4883,
      "argu": 4884,
      "vels": 4885,
      "acts": 4886,
      "ading": 4887,
      "rif": 4888,
      "uni": 4889,
      "convers": 4890,
      "safet": 4891,
      "brand": 4892,
      "clam": 4893,
      "blanket": 4894,
      "display": 4895,
      "Scene": 4896,
      "afford": 4897,
      "uffy": 4898,
      "Office": 4899,
      "attached": 4900,
      "Hope": 4901,
      "Blue": 4902,
      "suppose": 4903,
      "Conner": 4904,
      "hurts": 4905,
      "paying": 4906,
      "accent": 4907,
      "paint": 4908,
      "Mexicans": 4909,
      "teachers": 4910,
      "Memberberry": 4911,
      "lawyer": 4912,
      "Mongo": 4913,
      "magaz": 4914,
      "tickets": 4915,
      "grocer": 4916,
      "celebrities": 4917,
      "Disney": 4918,
      "hippie": 4919,
      "hippies": 4920,
      "imaginary": 4921,
      "Laden": 4922,
      "detention": 4923,
      "employees": 4924,
      "Osama": 4925,
      "gratulations": 4926,
      "immig": 4927,
      "Gentlemen": 4928,
      "Operator": 4929,
      "difficult": 4930,
      "Aslan": 4931,
      "safety": 4932,
      "6th": 4933,
      "Fred": 4934,
      "Jooz": 4935,
      "La": 4936,
      "Sm": 4937,
      "Sen": 4938,
      "Tru": 4939,
      "Tucker": 4940,
      "Whis": 4941,
      "bass": 4942,
      "bread": 4943,
      "cot": 4944,
      "cles": 4945,
      "kers": 4946,
      "pand": 4947,
      "radio": 4948,
      "size": 4949,
      "tie": 4950,
      "wing": 4951,
      "inches": 4952,
      "react": 4953,
      "ising": 4954,
      "lete": 4955,
      "escape": 4956,
      "item": 4957,
      "vehic": 4958,
      "account": 4959,
      "ghan": 4960,
      "impossible": 4961,
      "ador": 4962,
      "chief": 4963,
      "lied": 4964,
      "bodies": 4965,
      "absolute": 4966,
      "losing": 4967,
      "tear": 4968,
      "trap": 4969,
      "brary": 4970,
      "crashes": 4971,
      "ports": 4972,
      "slide": 4973,
      "ization": 4974,
      "Donald": 4975,
      "condition": 4976,
      "mustache": 4977,
      "plants": 4978,
      "Post": 4979,
      "Pope": 4980,
      "customer": 4981,
      "difference": 4982,
      "Turner": 4983,
      "split": 4984,
      "terrorist": 4985,
      "relation": 4986,
      "concerned": 4987,
      "cabin": 4988,
      "summer": 4989,
      "KKK": 4990,
      "determin": 4991,
      "Audience": 4992,
      "Tonight": 4993,
      "Gibson": 4994,
      "Mongoli": 4995,
      "Ber": 4996,
      "Cond": 4997,
      "Five": 4998,
      "Kite": 4999,
      "ME": 5000,
      "Nat": 5001,
      "Never": 5002,
      "Tay": 5003,
      "cri": 5004,
      "fer": 5005,
      "fail": 5006,
      "mouse": 5007,
      "muff": 5008,
      "pum": 5009,
      "uk": 5010,
      "archer": 5011,
      "owing": 5012,
      "kew": 5013,
      "ligh": 5014,
      "ample": 5015,
      "urt": 5016,
      "ceiling": 5017,
      "results": 5018,
      "worst": 5019,
      "science": 5020,
      "sake": 5021,
      "Shel": 5022,
      "headed": 5023,
      "eee": 5024,
      "forehead": 5025,
      "Ready": 5026,
      "shoes": 5027,
      "osse": 5028,
      "landing": 5029,
      "Redskins": 5030,
      "Leon": 5031,
      "intro": 5032,
      "fired": 5033,
      "fresh": 5034,
      "Nelly": 5035,
      "knee": 5036,
      "NASCAR": 5037,
      "Afghan": 5038,
      "creature": 5039,
      "prepares": 5040,
      "caused": 5041,
      "Pioneer": 5042,
      "private": 5043,
      "storm": 5044,
      "Handic": 5045,
      "breasts": 5046,
      "FOX": 5047,
      "married": 5048,
      "barely": 5049,
      "sarcast": 5050,
      "Ali": 5051,
      "Bart": 5052,
      "Berry": 5053,
      "Fort": 5054,
      "Karen": 5055,
      "Ner": 5056,
      "Prem": 5057,
      "Sex": 5058,
      "Vis": 5059,
      "bom": 5060,
      "fence": 5061,
      "gin": 5062,
      "lone": 5063,
      "pony": 5064,
      "panda": 5065,
      "wand": 5066,
      "lect": 5067,
      "staring": 5068,
      "aya": 5069,
      "aling": 5070,
      "usion": 5071,
      "hoho": 5072,
      "agre": 5073,
      "depart": 5074,
      "rights": 5075,
      "illegal": 5076,
      "letting": 5077,
      "portal": 5078,
      "distr": 5079,
      "realizes": 5080,
      "minor": 5081,
      "belief": 5082,
      "Host": 5083,
      "Moments": 5084,
      "Group": 5085,
      "color": 5086,
      "exciting": 5087,
      "riding": 5088,
      "wheels": 5089,
      "copy": 5090,
      "kneels": 5091,
      "Squirt": 5092,
      "Damnit": 5093,
      "status": 5094,
      "Burger": 5095,
      "responsib": 5096,
      "assistant": 5097,
      "retarded": 5098,
      "miracle": 5099,
      "Filmore": 5100,
      "Katie": 5101,
      "Imagination": 5102,
      "Reeve": 5103,
      "customers": 5104,
      "Bad": 5105,
      "CI": 5106,
      "Der": 5107,
      "Gab": 5108,
      "Hansen": 5109,
      "OP": 5110,
      "Open": 5111,
      "RA": 5112,
      "bik": 5113,
      "blocks": 5114,
      "dom": 5115,
      "jor": 5116,
      "pad": 5117,
      "princess": 5118,
      "trolls": 5119,
      "twelve": 5120,
      "vian": 5121,
      "oups": 5122,
      "onono": 5123,
      "isters": 5124,
      "itive": 5125,
      "sequ": 5126,
      "semen": 5127,
      "uten": 5128,
      "liqu": 5129,
      "amatic": 5130,
      "los": 5131,
      "loses": 5132,
      "local": 5133,
      "loose": 5134,
      "resa": 5135,
      "guinea": 5136,
      "turkeys": 5137,
      "trad": 5138,
      "scient": 5139,
      "scientist": 5140,
      "bler": 5141,
      "award": 5142,
      "yesterday": 5143,
      "boyfriend": 5144,
      "feelings": 5145,
      "Teacher": 5146,
      "match": 5147,
      "Most": 5148,
      "formed": 5149,
      "Secret": 5150,
      "ggles": 5151,
      "shoppers": 5152,
      "hammer": 5153,
      "lawn": 5154,
      "package": 5155,
      "clubhouse": 5156,
      "Mormon": 5157,
      "Running": 5158,
      "rainforest": 5159,
      "Patron": 5160,
      "tube": 5161,
      "graph": 5162,
      "credit": 5163,
      "Shake": 5164,
      "Airsoft": 5165,
      "Weatherhead": 5166,
      "SpaceX": 5167,
      "stitute": 5168,
      "trailer": 5169,
      "Chicken": 5170,
      "Hilton": 5171,
      "Premise": 5172,
      "Cas": 5173,
      "Cus": 5174,
      "Celine": 5175,
      "DV": 5176,
      "Dem": 5177,
      "Gn": 5178,
      "Hmmm": 5179,
      "Live": 5180,
      "Lola": 5181,
      "MY": 5182,
      "Med": 5183,
      "Som": 5184,
      "eks": 5185,
      "gth": 5186,
      "jeez": 5187,
      "nap": 5188,
      "nip": 5189,
      "pse": 5190,
      "rac": 5191,
      "tip": 5192,
      "vi": 5193,
      "witch": 5194,
      "zips": 5195,
      "arf": 5196,
      "leaps": 5197,
      "lls": 5198,
      "alal": 5199,
      "Stri": 5200,
      "chi": 5201,
      "cano": 5202,
      "igno": 5203,
      "posed": 5204,
      "contain": 5205,
      "quito": 5206,
      "exas": 5207,
      "Shitty": 5208,
      "SoPa": 5209,
      "tells": 5210,
      "parts": 5211,
      "realized": 5212,
      "Blond": 5213,
      "killer": 5214,
      "correct": 5215,
      "Goodbye": 5216,
      "iki": 5217,
      "walls": 5218,
      "barn": 5219,
      "Trace": 5220,
      "clearly": 5221,
      "fifth": 5222,
      "bursts": 5223,
      "festival": 5224,
      "competition": 5225,
      "source": 5226,
      "Alexa": 5227,
      "Expert": 5228,
      "natural": 5229,
      "Smalls": 5230,
      "Cashier": 5231,
      "Detect": 5232,
      "Faith": 5233,
      "Fosse": 5234,
      "Later": 5235,
      "National": 5236,
      "OR": 5237,
      "Ram": 5238,
      "SP": 5239,
      "Sund": 5240,
      "Wing": 5241,
      "blo": 5242,
      "echo": 5243,
      "rage": 5244,
      "shat": 5245,
      "tamp": 5246,
      "yal": 5247,
      "anch": 5248,
      "iser": 5249,
      "llis": 5250,
      "escor": 5251,
      "fortun": 5252,
      "Helen": 5253,
      "neg": 5254,
      "cans": 5255,
      "whose": 5256,
      "scen": 5257,
      "progress": 5258,
      "angel": 5259,
      "blast": 5260,
      "rink": 5261,
      "iance": 5262,
      "types": 5263,
      "damage": 5264,
      "contest": 5265,
      "suppor": 5266,
      "lovely": 5267,
      "triangle": 5268,
      "minis": 5269,
      "entertain": 5270,
      "bros": 5271,
      "lessly": 5272,
      "dia": 5273,
      "burning": 5274,
      "curtain": 5275,
      "shame": 5276,
      "pieces": 5277,
      "dreams": 5278,
      "squir": 5279,
      "bags": 5280,
      "fishsticks": 5281,
      "superhero": 5282,
      "election": 5283,
      "quietly": 5284,
      "gathers": 5285,
      "groans": 5286,
      "doub": 5287,
      "McCain": 5288,
      "Douche": 5289,
      "Engl": 5290,
      "bullet": 5291,
      "whale": 5292,
      "loudly": 5293,
      "tracted": 5294,
      "rabbit": 5295,
      "TrollTrace": 5296,
      "Peruvian": 5297,
      "elephant": 5298,
      "Twitter": 5299,
      "thumbs": 5300,
      "Kathie": 5301,
      "Harri": 5302,
      "Isl": 5303,
      "Matt": 5304,
      "Mos": 5305,
      "OF": 5306,
      "Pet": 5307,
      "Paren": 5308,
      "Photo": 5309,
      "Tal": 5310,
      "eats": 5311,
      "fund": 5312,
      "fades": 5313,
      "jing": 5314,
      "lice": 5315,
      "mate": 5316,
      "nas": 5317,
      "nut": 5318,
      "nger": 5319,
      "pant": 5320,
      "rand": 5321,
      "sau": 5322,
      "swee": 5323,
      "sends": 5324,
      "une": 5325,
      "anx": 5326,
      "anz": 5327,
      "ina": 5328,
      "invest": 5329,
      "remind": 5330,
      "onstage": 5331,
      "ature": 5332,
      "stal": 5333,
      "Stark": 5334,
      "Stru": 5335,
      "etic": 5336,
      "meat": 5337,
      "urinal": 5338,
      "unless": 5339,
      "noises": 5340,
      "convin": 5341,
      "bleed": 5342,
      "claim": 5343,
      "blame": 5344,
      "blonde": 5345,
      "spots": 5346,
      "armacist": 5347,
      "nightm": 5348,
      "dish": 5349,
      "prec": 5350,
      "helped": 5351,
      "served": 5352,
      "Phone": 5353,
      "bushes": 5354,
      "opened": 5355,
      "single": 5356,
      "Tommy": 5357,
      "Blonde": 5358,
      "mature": 5359,
      "curtains": 5360,
      "learning": 5361,
      "mouths": 5362,
      "extra": 5363,
      "market": 5364,
      "aaaaaaaa": 5365,
      "idden": 5366,
      "NOW": 5367,
      "grandma": 5368,
      "celebrate": 5369,
      "Jerry": 5370,
      "destroyed": 5371,
      "delivers": 5372,
      "Fourth": 5373,
      "Cameron": 5374,
      "Betsy": 5375,
      "cookies": 5376,
      "strokes": 5377,
      "original": 5378,
      "Jambu": 5379,
      "handicapped": 5380,
      "Joozian": 5381,
      "kewl": 5382,
      "16": 5383,
      "Bund": 5384,
      "Fun": 5385,
      "KFC": 5386,
      "MC": 5387,
      "Pers": 5388,
      "Sus": 5389,
      "daw": 5390,
      "fright": 5391,
      "lts": 5392,
      "moo": 5393,
      "names": 5394,
      "pudd": 5395,
      "tum": 5396,
      "victo": 5397,
      "refle": 5398,
      "ison": 5399,
      "style": 5400,
      "stif": 5401,
      "ada": 5402,
      "eday": 5403,
      "chan": 5404,
      "aging": 5405,
      "umbus": 5406,
      "groups": 5407,
      "commit": 5408,
      "uhh": 5409,
      "Church": 5410,
      "typing": 5411,
      "helle": 5412,
      "Martha": 5413,
      "champ": 5414,
      "osex": 5415,
      "shove": 5416,
      "clearing": 5417,
      "atory": 5418,
      "floating": 5419,
      "Michelle": 5420,
      "array": 5421,
      "curb": 5422,
      "chairs": 5423,
      "Elton": 5424,
      "sucked": 5425,
      "Columbus": 5426,
      "drawn": 5427,
      "fected": 5428,
      "Indians": 5429,
      "cells": 5430,
      "Street": 5431,
      "Squirts": 5432,
      "jected": 5433,
      "creatures": 5434,
      "imagination": 5435,
      "Bailey": 5436,
      "Musk": 5437,
      "bacco": 5438,
      "descends": 5439,
      "firing": 5440,
      "species": 5441,
      "psychic": 5442,
      "Attention": 5443,
      "African": 5444,
      "Pilgrim": 5445,
      "cigarette": 5446,
      "appreci": 5447,
      "absolutely": 5448,
      "DVD": 5449,
      "Harriet": 5450,
      "Mosquito": 5451,
      "Buff": 5452,
      "Lin": 5453,
      "Moo": 5454,
      "Plan": 5455,
      "Rais": 5456,
      "SU": 5457,
      "Tour": 5458,
      "Tugger": 5459,
      "Veron": 5460,
      "bloo": 5461,
      "citiz": 5462,
      "jud": 5463,
      "kicked": 5464,
      "mummy": 5465,
      "paces": 5466,
      "pump": 5467,
      "sink": 5468,
      "tit": 5469,
      "tweet": 5470,
      "wrist": 5471,
      "lean": 5472,
      "orrow": 5473,
      "alous": 5474,
      "alley": 5475,
      "bee": 5476,
      "beating": 5477,
      "idge": 5478,
      "etie": 5479,
      "wir": 5480,
      "amond": 5481,
      "Hee": 5482,
      "Web": 5483,
      "Butt": 5484,
      "iger": 5485,
      "ildo": 5486,
      "feree": 5487,
      "conso": 5488,
      "ifts": 5489,
      "kidding": 5490,
      "Shit": 5491,
      "istic": 5492,
      "DoSoPa": 5493,
      "SoDoSoPa": 5494,
      "underpants": 5495,
      "disappoint": 5496,
      "izing": 5497,
      "chaun": 5498,
      "avoid": 5499,
      "tables": 5500,
      "gling": 5501,
      "tongue": 5502,
      "Cos": 5503,
      "shoves": 5504,
      "kills": 5505,
      "Clark": 5506,
      "arriving": 5507,
      "polit": 5508,
      "Peetie": 5509,
      "buildings": 5510,
      "Asian": 5511,
      "Confed": 5512,
      "Harry": 5513,
      "wooden": 5514,
      "velop": 5515,
      "garbage": 5516,
      "Runs": 5517,
      "bills": 5518,
      "iverse": 5519,
      "Townsfolk": 5520,
      "chalk": 5521,
      "characters": 5522,
      "collap": 5523,
      "wrestling": 5524,
      "profile": 5525,
      "FUCK": 5526,
      "lighter": 5527,
      "Struthers": 5528,
      "Veronica": 5529,
      "17": 5530,
      "Cor": 5531,
      "Cont": 5532,
      "DE": 5533,
      "Gates": 5534,
      "II": 5535,
      "Its": 5536,
      "Nut": 5537,
      "Sin": 5538,
      "Snow": 5539,
      "Way": 5540,
      "aide": 5541,
      "buc": 5542,
      "cuff": 5543,
      "gion": 5544,
      "ties": 5545,
      "yummy": 5546,
      "ints": 5547,
      "essed": 5548,
      "itters": 5549,
      "stall": 5550,
      "stone": 5551,
      "icle": 5552,
      "ety": 5553,
      "ambul": 5554,
      "lope": 5555,
      "butter": 5556,
      "commun": 5557,
      "stories": 5558,
      "express": 5559,
      "process": 5560,
      "sale": 5561,
      "brah": 5562,
      "clown": 5563,
      "iano": 5564,
      "perse": 5565,
      "ledge": 5566,
      "causes": 5567,
      "awful": 5568,
      "pregn": 5569,
      "walkie": 5570,
      "condom": 5571,
      "kinds": 5572,
      "uggets": 5573,
      "float": 5574,
      "popular": 5575,
      "squeez": 5576,
      "fellow": 5577,
      "baseball": 5578,
      "hito": 5579,
      "metal": 5580,
      "ninja": 5581,
      "kinson": 5582,
      "raped": 5583,
      "struction": 5584,
      "homosex": 5585,
      "Malkinson": 5586,
      "vaccin": 5587,
      "surrounded": 5588,
      "healthy": 5589,
      "senior": 5590,
      "Tooth": 5591,
      "platform": 5592,
      "Gordon": 5593,
      "releases": 5594,
      "grunts": 5595,
      "Sunday": 5596,
      "diabet": 5597,
      "victory": 5598,
      "Confeder": 5599,
      "Au": 5600,
      "Corn": 5601,
      "Gover": 5602,
      "Hard": 5603,
      "High": 5604,
      "Jess": 5605,
      "Kurt": 5606,
      "Labo": 5607,
      "Ok": 5608,
      "Pond": 5609,
      "Pret": 5610,
      "Tee": 5611,
      "ded": 5612,
      "dun": 5613,
      "dang": 5614,
      "math": 5615,
      "sil": 5616,
      "tes": 5617,
      "xes": 5618,
      "zer": 5619,
      "thi": 5620,
      "becoming": 5621,
      "fort": 5622,
      "boards": 5623,
      "ental": 5624,
      "abra": 5625,
      "psons": 5626,
      "common": 5627,
      "troops": 5628,
      "scri": 5629,
      "proce": 5630,
      "crotch": 5631,
      "ucky": 5632,
      "Whites": 5633,
      "slap": 5634,
      "Bring": 5635,
      "Brady": 5636,
      "serv": 5637,
      "Awesome": 5638,
      "jealous": 5639,
      "genius": 5640,
      "Comp": 5641,
      "coln": 5642,
      "Harrison": 5643,
      "prize": 5644,
      "effects": 5645,
      "bullhorn": 5646,
      "vanishes": 5647,
      "throwing": 5648,
      "promised": 5649,
      "prepared": 5650,
      "Disarray": 5651,
      "golden": 5652,
      "college": 5653,
      "teaching": 5654,
      "Jonathan": 5655,
      "Biber": 5656,
      "equip": 5657,
      "abortion": 5658,
      "WHAT": 5659,
      "Romper": 5660,
      "conscious": 5661,
      "higher": 5662,
      "Skankhunt": 5663,
      "conversation": 5664,
      "Taylor": 5665,
      "responsibility": 5666,
      "Bundy": 5667,
      "Lincoln": 5668,
      "Raisins": 5669,
      "Cosby": 5670,
      "Laborer": 5671,
      "Again": 5672,
      "Dave": 5673,
      "Gul": 5674,
      "Hal": 5675,
      "Hol": 5676,
      "Nuh": 5677,
      "OW": 5678,
      "Sal": 5679,
      "UAA": 5680,
      "Wood": 5681,
      "bian": 5682,
      "dge": 5683,
      "numb": 5684,
      "replaced": 5685,
      "omes": 5686,
      "icate": 5687,
      "ids": 5688,
      "haul": 5689,
      "outs": 5690,
      "outfit": 5691,
      "chases": 5692,
      "Weed": 5693,
      "agers": 5694,
      "somewhat": 5695,
      "plans": 5696,
      "walked": 5697,
      "aint": 5698,
      "temp": 5699,
      "grown": 5700,
      "raised": 5701,
      "bled": 5702,
      "bless": 5703,
      "heading": 5704,
      "blond": 5705,
      "cted": 5706,
      "toward": 5707,
      "udes": 5708,
      "Ange": 5709,
      "disbelief": 5710,
      "rule": 5711,
      "sym": 5712,
      "Meow": 5713,
      "div": 5714,
      "siren": 5715,
      "passion": 5716,
      "evidence": 5717,
      "Congratulations": 5718,
      "version": 5719,
      "highway": 5720,
      "covering": 5721,
      "hearts": 5722,
      "patient": 5723,
      "thousands": 5724,
      "Hero": 5725,
      "Anyway": 5726,
      "batter": 5727,
      "invited": 5728,
      "commercials": 5729,
      "ruined": 5730,
      "critic": 5731,
      "responsible": 5732,
      "Kore": 5733,
      "bounces": 5734,
      "Public": 5735,
      "tastic": 5736,
      "Finally": 5737,
      "involved": 5738,
      "innocent": 5739,
      "Truth": 5740,
      "Handicar": 5741,
      "Nerd": 5742,
      "Asp": 5743,
      "Bum": 5744,
      "Brun": 5745,
      "Ghost": 5746,
      "HE": 5747,
      "Hon": 5748,
      "Merry": 5749,
      "Ose": 5750,
      "Pie": 5751,
      "SM": 5752,
      "Sony": 5753,
      "Ty": 5754,
      "Top": 5755,
      "Vo": 5756,
      "Vice": 5757,
      "WAT": 5758,
      "cous": 5759,
      "flood": 5760,
      "mber": 5761,
      "oil": 5762,
      "pond": 5763,
      "inic": 5764,
      "rely": 5765,
      "remove": 5766,
      "eras": 5767,
      "asha": 5768,
      "nel": 5769,
      "necess": 5770,
      "opport": 5771,
      "dep": 5772,
      "lob": 5773,
      "arden": 5774,
      "offers": 5775,
      "backwards": 5776,
      "hers": 5777,
      "resume": 5778,
      "residents": 5779,
      "assing": 5780,
      "checking": 5781,
      "qual": 5782,
      "fold": 5783,
      "waving": 5784,
      "ooky": 5785,
      "emic": 5786,
      "spect": 5787,
      "Timmah": 5788,
      "orders": 5789,
      "laun": 5790,
      "ignor": 5791,
      "dropped": 5792,
      "Danish": 5793,
      "corpse": 5794,
      "welry": 5795,
      "dealing": 5796,
      "drawer": 5797,
      "suicide": 5798,
      "decide": 5799,
      "Indy": 5800,
      "positions": 5801,
      "humans": 5802,
      "wedding": 5803,
      "rants": 5804,
      "splash": 5805,
      "treasure": 5806,
      "palm": 5807,
      "DOI": 5808,
      "Maltin": 5809,
      "cument": 5810,
      "medicine": 5811,
      "Mintberry": 5812,
      "location": 5813,
      "clouds": 5814,
      "applauds": 5815,
      "bikers": 5816,
      "Customer": 5817,
      "Gnome": 5818,
      "ambulance": 5819,
      "AY": 5820,
      "Aa": 5821,
      "Aren": 5822,
      "Book": 5823,
      "Bible": 5824,
      "Emo": 5825,
      "Fer": 5826,
      "Hip": 5827,
      "Los": 5828,
      "Older": 5829,
      "Pal": 5830,
      "UP": 5831,
      "bits": 5832,
      "cards": 5833,
      "lers": 5834,
      "lau": 5835,
      "vention": 5836,
      "yama": 5837,
      "hea": 5838,
      "theme": 5839,
      "ouder": 5840,
      "tobacco": 5841,
      "thy": 5842,
      "stab": 5843,
      "icut": 5844,
      "ashed": 5845,
      "aco": 5846,
      "bey": 5847,
      "imin": 5848,
      "rose": 5849,
      "usual": 5850,
      "gosh": 5851,
      "loving": 5852,
      "conference": 5853,
      "ively": 5854,
      "brows": 5855,
      "brains": 5856,
      "clue": 5857,
      "Goddamn": 5858,
      "spill": 5859,
      "porn": 5860,
      "carto": 5861,
      "issues": 5862,
      "prechaun": 5863,
      "plen": 5864,
      "avail": 5865,
      "atherine": 5866,
      "Critters": 5867,
      "pretend": 5868,
      "Joker": 5869,
      "events": 5870,
      "freeze": 5871,
      "freed": 5872,
      "powerful": 5873,
      "Willy": 5874,
      "possibly": 5875,
      "Montage": 5876,
      "truly": 5877,
      "centr": 5878,
      "Herbert": 5879,
      "Turd": 5880,
      "prepare": 5881,
      "British": 5882,
      "loaded": 5883,
      "PS4": 5884,
      "delivery": 5885,
      "langu": 5886,
      "officials": 5887,
      "Downtown": 5888,
      "Rabble": 5889,
      "Humme": 5890,
      "nervous": 5891,
      "tacos": 5892,
      "darling": 5893,
      "debate": 5894,
      "emotional": 5895,
      "mountains": 5896,
      "magazine": 5897,
      "Leonard": 5898,
      "Detective": 5899,
      "bloody": 5900,
      "squeezes": 5901,
      "Pretty": 5902,
      "Company": 5903,
      "opportun": 5904,
      "Cham": 5905,
      "CNN": 5906,
      "Future": 5907,
      "Kinc": 5908,
      "Katherine": 5909,
      "Si": 5910,
      "bene": 5911,
      "cage": 5912,
      "coup": 5913,
      "ckets": 5914,
      "dare": 5915,
      "dump": 5916,
      "emo": 5917,
      "ires": 5918,
      "mus": 5919,
      "ramp": 5920,
      "vit": 5921,
      "ller": 5922,
      "beach": 5923,
      "images": 5924,
      "riot": 5925,
      "channe": 5926,
      "rocks": 5927,
      "library": 5928,
      "universe": 5929,
      "motor": 5930,
      "offensive": 5931,
      "uction": 5932,
      "grave": 5933,
      "poses": 5934,
      "comments": 5935,
      "itted": 5936,
      "whip": 5937,
      "exist": 5938,
      "rooms": 5939,
      "scat": 5940,
      "ulty": 5941,
      "ession": 5942,
      "spark": 5943,
      "Thr": 5944,
      "Things": 5945,
      "goodness": 5946,
      "Howdy": 5947,
      "disab": 5948,
      "dishes": 5949,
      "flashes": 5950,
      "finding": 5951,
      "gluten": 5952,
      "gery": 5953,
      "thoughts": 5954,
      "fulfill": 5955,
      "Dean": 5956,
      "Didn": 5957,
      "eteor": 5958,
      "hahahaha": 5959,
      "rett": 5960,
      "bullcrap": 5961,
      "purple": 5962,
      "returned": 5963,
      "fills": 5964,
      "clip": 5965,
      "Resident": 5966,
      "Gobbler": 5967,
      "alarmed": 5968,
      "Weathers": 5969,
      "firm": 5970,
      "pipe": 5971,
      "nervously": 5972,
      "freakin": 5973,
      "satis": 5974,
      "obviously": 5975,
      "recogn": 5976,
      "emergency": 5977,
      "Protester": 5978,
      "protesters": 5979,
      "companies": 5980,
      "Farmer": 5981,
      "Mongolians": 5982,
      "agreed": 5983,
      "random": 5984,
      "Susan": 5985,
      "pregnant": 5986,
      "plenty": 5987,
      "Kincade": 5988,
      "Aha": 5989,
      "Cross": 5990,
      "Ever": 5991,
      "Ethi": 5992,
      "Ih": 5993,
      "Mer": 5994,
      "Mat": 5995,
      "Mitche": 5996,
      "Mountain": 5997,
      "Noo": 5998,
      "Pap": 5999,
      "Pizza": 6000,
      "RR": 6001,
      "Stom": 6002,
      "Tak": 6003,
      "Under": 6004,
      "Vlad": 6005,
      "West": 6006,
      "cack": 6007,
      "due": 6008,
      "hidden": 6009,
      "jabs": 6010,
      "jakov": 6011,
      "lat": 6012,
      "mal": 6013,
      "mut": 6014,
      "miles": 6015,
      "meteor": 6016,
      "pub": 6017,
      "pitch": 6018,
      "piano": 6019,
      "rack": 6020,
      "races": 6021,
      "sac": 6022,
      "wagon": 6023,
      "zed": 6024,
      "reply": 6025,
      "ari": 6026,
      "leprechaun": 6027,
      "ora": 6028,
      "younger": 6029,
      "secure": 6030,
      "ofa": 6031,
      "betray": 6032,
      "imag": 6033,
      "impress": 6034,
      "adult": 6035,
      "rito": 6036,
      "meal": 6037,
      "forced": 6038,
      "Heheh": 6039,
      "entagon": 6040,
      "guil": 6041,
      "ured": 6042,
      "Shhh": 6043,
      "headset": 6044,
      "lookin": 6045,
      "AAAH": 6046,
      "type": 6047,
      "Dog": 6048,
      "arently": 6049,
      "resting": 6050,
      "serve": 6051,
      "destr": 6052,
      "mostly": 6053,
      "Tomorrow": 6054,
      "Clar": 6055,
      "Grammy": 6056,
      "musical": 6057,
      "Token": 6058,
      "curse": 6059,
      "Pocket": 6060,
      "Jewpac": 6061,
      "evol": 6062,
      "achers": 6063,
      "hotel": 6064,
      "Biggle": 6065,
      "Russi": 6066,
      "Monday": 6067,
      "darkness": 6068,
      "fairy": 6069,
      "Aaaaah": 6070,
      "cially": 6071,
      "animal": 6072,
      "fetus": 6073,
      "tempt": 6074,
      "privacy": 6075,
      "Apparently": 6076,
      "pushing": 6077,
      "Cathol": 6078,
      "Brothers": 6079,
      "fifty": 6080,
      "employee": 6081,
      "pillow": 6082,
      "German": 6083,
      "vomits": 6084,
      "Queen": 6085,
      "witness": 6086,
      "ashamed": 6087,
      "Ethiop": 6088,
      "Mitchell": 6089,
      "jakovasaur": 6090,
      "imagine": 6091,
      "Cop": 6092,
      "DJ": 6093,
      "Dare": 6094,
      "Dion": 6095,
      "Fight": 6096,
      "Hay": 6097,
      "Jud": 6098,
      "Lion": 6099,
      "Main": 6100,
      "Mine": 6101,
      "Mouse": 6102,
      "Nn": 6103,
      "Nah": 6104,
      "Ogh": 6105,
      "Panda": 6106,
      "Pentagon": 6107,
      "Sny": 6108,
      "Sounds": 6109,
      "Twig": 6110,
      "Us": 6111,
      "Wiki": 6112,
      "Yay": 6113,
      "Yee": 6114,
      "domin": 6115,
      "gross": 6116,
      "louder": 6117,
      "pil": 6118,
      "sch": 6119,
      "tar": 6120,
      "trem": 6121,
      "vac": 6122,
      "zipl": 6123,
      "inum": 6124,
      "inner": 6125,
      "reached": 6126,
      "isher": 6127,
      "ishop": 6128,
      "ening": 6129,
      "alian": 6130,
      "bein": 6131,
      "beats": 6132,
      "belt": 6133,
      "advis": 6134,
      "wears": 6135,
      "vert": 6136,
      "robe": 6137,
      "Young": 6138,
      "aping": 6139,
      "moan": 6140,
      "tea": 6141,
      "tequ": 6142,
      "grass": 6143,
      "exter": 6144,
      "prophe": 6145,
      "mental": 6146,
      "aaaah": 6147,
      "core": 6148,
      "armchair": 6149,
      "throughout": 6150,
      "price": 6151,
      "Mays": 6152,
      "flowers": 6153,
      "ava": 6154,
      "ancient": 6155,
      "shoe": 6156,
      "Hollis": 6157,
      "Mega": 6158,
      "surgery": 6159,
      "Redneck": 6160,
      "winner": 6161,
      "shake": 6162,
      "staying": 6163,
      "horror": 6164,
      "genu": 6165,
      "Command": 6166,
      "greet": 6167,
      "Hiro": 6168,
      "millions": 6169,
      "decision": 6170,
      "ATF": 6171,
      "purpose": 6172,
      "limo": 6173,
      "recording": 6174,
      "Square": 6175,
      "HHHH": 6176,
      "Foofa": 6177,
      "statement": 6178,
      "bino": 6179,
      "refer": 6180,
      "structor": 6181,
      "scope": 6182,
      "Maggie": 6183,
      "warming": 6184,
      "Breaking": 6185,
      "Baby": 6186,
      "comfortable": 6187,
      "controller": 6188,
      "Actually": 6189,
      "Pirate": 6190,
      "immigrants": 6191,
      "Casa": 6192,
      "doubt": 6193,
      "sauce": 6194,
      "diabetes": 6195,
      "symbo": 6196,
      "channels": 6197,
      "Stomper": 6198,
      "Jewpacabra": 6199,
      "Snyder": 6200,
      "0s": 6201,
      "911": 6202,
      "BB": 6203,
      "Ca": 6204,
      "Glen": 6205,
      "Ginger": 6206,
      "GET": 6207,
      "NOO": 6208,
      "Oly": 6209,
      "RI": 6210,
      "Silen": 6211,
      "Sports": 6212,
      "Tiger": 6213,
      "Vag": 6214,
      "civ": 6215,
      "ere": 6216,
      "fare": 6217,
      "gri": 6218,
      "lled": 6219,
      "nival": 6220,
      "soo": 6221,
      "vig": 6222,
      "release": 6223,
      "lemon": 6224,
      "orial": 6225,
      "sty": 6226,
      "sew": 6227,
      "chant": 6228,
      "channel": 6229,
      "shar": 6230,
      "amid": 6231,
      "lyric": 6232,
      "urb": 6233,
      "usually": 6234,
      "aband": 6235,
      "gular": 6236,
      "comm": 6237,
      "leaks": 6238,
      "Change": 6239,
      "execut": 6240,
      "proof": 6241,
      "clerk": 6242,
      "thrown": 6243,
      "willing": 6244,
      "smoo": 6245,
      "lesman": 6246,
      "Board": 6247,
      "Mantequ": 6248,
      "tellig": 6249,
      "Science": 6250,
      "pressure": 6251,
      "chain": 6252,
      "ordin": 6253,
      "skull": 6254,
      "memory": 6255,
      "tons": 6256,
      "shovel": 6257,
      "talkie": 6258,
      "cutting": 6259,
      "fireworks": 6260,
      "videot": 6261,
      "freaking": 6262,
      "painting": 6263,
      "Willi": 6264,
      "added": 6265,
      "dumbass": 6266,
      "travel": 6267,
      "Passion": 6268,
      "revealing": 6269,
      "tune": 6270,
      "receiver": 6271,
      "holidays": 6272,
      "sniff": 6273,
      "hushed": 6274,
      "duce": 6275,
      "pacing": 6276,
      "eventually": 6277,
      "responds": 6278,
      "briefs": 6279,
      "suspic": 6280,
      "Cali": 6281,
      "culture": 6282,
      "Bonita": 6283,
      "relief": 6284,
      "projector": 6285,
      "relationship": 6286,
      "Imaginationland": 6287,
      "scenes": 6288,
      "citizens": 6289,
      "Gulf": 6290,
      "available": 6291,
      "Wikileaks": 6292,
      "Cong": 6293,
      "Crew": 6294,
      "Found": 6295,
      "Gee": 6296,
      "Hare": 6297,
      "Nono": 6298,
      "Nancy": 6299,
      "PA": 6300,
      "Pur": 6301,
      "Pep": 6302,
      "Ru": 6303,
      "Su": 6304,
      "Suck": 6305,
      "SWAT": 6306,
      "Tic": 6307,
      "Zucker": 6308,
      "eth": 6309,
      "een": 6310,
      "gal": 6311,
      "jour": 6312,
      "ware": 6313,
      "wise": 6314,
      "ancho": 6315,
      "isil": 6316,
      "stad": 6317,
      "alie": 6318,
      "icated": 6319,
      "asy": 6320,
      "manate": 6321,
      "beard": 6322,
      "riel": 6323,
      "hats": 6324,
      "amph": 6325,
      "hoping": 6326,
      "loss": 6327,
      "rising": 6328,
      "plates": 6329,
      "aught": 6330,
      "teams": 6331,
      "concentr": 6332,
      "goti": 6333,
      "bleachers": 6334,
      "icker": 6335,
      "scare": 6336,
      "Shh": 6337,
      "crab": 6338,
      "sayin": 6339,
      "Goddamned": 6340,
      "torney": 6341,
      "perfor": 6342,
      "buried": 6343,
      "stein": 6344,
      "Brand": 6345,
      "serving": 6346,
      "ashion": 6347,
      "attacked": 6348,
      "rolling": 6349,
      "Blow": 6350,
      "idiot": 6351,
      "owered": 6352,
      "fucker": 6353,
      "dramatic": 6354,
      "gentle": 6355,
      "Stella": 6356,
      "warn": 6357,
      "presentation": 6358,
      "boring": 6359,
      "computers": 6360,
      "Broflovskis": 6361,
      "Country": 6362,
      "lays": 6363,
      "tossing": 6364,
      "cycle": 6365,
      "zzle": 6366,
      "product": 6367,
      "rushing": 6368,
      "Anchorman": 6369,
      "eggs": 6370,
      "quarter": 6371,
      "bikes": 6372,
      "received": 6373,
      "potato": 6374,
      "Dawson": 6375,
      "desert": 6376,
      "amongst": 6377,
      "trolling": 6378,
      "defense": 6379,
      "Buy": 6380,
      "swimming": 6381,
      "noticing": 6382,
      "costumes": 6383,
      "taco": 6384,
      "virus": 6385,
      "Hitler": 6386,
      "washing": 6387,
      "vampire": 6388,
      "Dahmer": 6389,
      "violence": 6390,
      "someday": 6391,
      "Broncos": 6392,
      "trophy": 6393,
      "ministr": 6394,
      "equipment": 6395,
      "numbers": 6396,
      "language": 6397,
      "binocul": 6398,
      "Vagisil": 6399,
      "Zuckerberg": 6400,
      "47": 6401,
      "AD": 6402,
      "Dre": 6403,
      "Dumb": 6404,
      "Each": 6405,
      "Hor": 6406,
      "Lenn": 6407,
      "Mil": 6408,
      "Ranger": 6409,
      "Sing": 6410,
      "Sit": 6411,
      "aid": 6412,
      "bie": 6413,
      "cue": 6414,
      "duck": 6415,
      "dudes": 6416,
      "fits": 6417,
      "figh": 6418,
      "gger": 6419,
      "iest": 6420,
      "iPhone": 6421,
      "lf": 6422,
      "mers": 6423,
      "mister": 6424,
      "tent": 6425,
      "ule": 6426,
      "hest": 6427,
      "rever": 6428,
      "removed": 6429,
      "toler": 6430,
      "thri": 6431,
      "itation": 6432,
      "stir": 6433,
      "immer": 6434,
      "Still": 6435,
      "chop": 6436,
      "ami": 6437,
      "neath": 6438,
      "hoh": 6439,
      "thern": 6440,
      "dev": 6441,
      "dejected": 6442,
      "develop": 6443,
      "cean": 6444,
      "ilities": 6445,
      "anti": 6446,
      "likely": 6447,
      "compl": 6448,
      "Nope": 6449,
      "uhhh": 6450,
      "whoever": 6451,
      "scoo": 6452,
      "torture": 6453,
      "sheep": 6454,
      "cocks": 6455,
      "percent": 6456,
      "smashes": 6457,
      "aker": 6458,
      "helps": 6459,
      "areness": 6460,
      "aware": 6461,
      "rubbing": 6462,
      "flame": 6463,
      "waiter": 6464,
      "attacks": 6465,
      "council": 6466,
      "broad": 6467,
      "bury": 6468,
      "drones": 6469,
      "Poe": 6470,
      "hallways": 6471,
      "Trans": 6472,
      "joining": 6473,
      "onym": 6474,
      "speaker": 6475,
      "touched": 6476,
      "blowing": 6477,
      "Ark": 6478,
      "Army": 6479,
      "Foley": 6480,
      "agreement": 6481,
      "glee": 6482,
      "trend": 6483,
      "deliver": 6484,
      "rers": 6485,
      "homes": 6486,
      "lucky": 6487,
      "furi": 6488,
      "Camera": 6489,
      "vaccines": 6490,
      "arrested": 6491,
      "consider": 6492,
      "hobbit": 6493,
      "religion": 6494,
      "corporate": 6495,
      "masturb": 6496,
      "whispering": 6497,
      "crisis": 6498,
      "Valmer": 6499,
      "CIA": 6500,
      "negative": 6501,
      "nasium": 6502,
      "nightmare": 6503,
      "disappointed": 6504,
      "Angeles": 6505,
      "cousin": 6506,
      "opportunity": 6507,
      "Commander": 6508,
      "Mantequilla": 6509,
      "binoculars": 6510,
      "Chair": 6511,
      "Dance": 6512,
      "EV": 6513,
      "Gacy": 6514,
      "Has": 6515,
      "HIV": 6516,
      "Money": 6517,
      "Miles": 6518,
      "NSA": 6519,
      "Por": 6520,
      "Pew": 6521,
      "Pink": 6522,
      "PET": 6523,
      "WE": 6524,
      "awake": 6525,
      "bends": 6526,
      "ckey": 6527,
      "dim": 6528,
      "fashion": 6529,
      "gment": 6530,
      "iyama": 6531,
      "mood": 6532,
      "mpic": 6533,
      "pens": 6534,
      "swell": 6535,
      "tits": 6536,
      "tests": 6537,
      "intellig": 6538,
      "arl": 6539,
      "thus": 6540,
      "itated": 6541,
      "manager": 6542,
      "iden": 6543,
      "allows": 6544,
      "wet": 6545,
      "hates": 6546,
      "measure": 6547,
      "forty": 6548,
      "amoun": 6549,
      "taste": 6550,
      "taught": 6551,
      "cane": 6552,
      "cancel": 6553,
      "fru": 6554,
      "frown": 6555,
      "ille": 6556,
      "grav": 6557,
      "insane": 6558,
      "saving": 6559,
      "ula": 6560,
      "crut": 6561,
      "cracks": 6562,
      "clapping": 6563,
      "handed": 6564,
      "ullicut": 6565,
      "nights": 6566,
      "sliding": 6567,
      "Scuse": 6568,
      "contact": 6569,
      "lotte": 6570,
      "drivers": 6571,
      "strum": 6572,
      "Rod": 6573,
      "matic": 6574,
      "create": 6575,
      "fights": 6576,
      "dolls": 6577,
      "gently": 6578,
      "greens": 6579,
      "Work": 6580,
      "freaks": 6581,
      "Jeffrey": 6582,
      "bullying": 6583,
      "Loogie": 6584,
      "groin": 6585,
      "neckl": 6586,
      "created": 6587,
      "planetarium": 6588,
      "fags": 6589,
      "Charlotte": 6590,
      "whales": 6591,
      "souls": 6592,
      "odd": 6593,
      "helicopters": 6594,
      "Shopper": 6595,
      "familiar": 6596,
      "Jonas": 6597,
      "Calm": 6598,
      "Slash": 6599,
      "DiePie": 6600,
      "McGullicut": 6601,
      "Kindergart": 6602,
      "struggles": 6603,
      "Connelly": 6604,
      "Jenner": 6605,
      "vehicle": 6606,
      "Alien": 6607,
      "precious": 6608,
      "appreciate": 6609,
      "chalkboard": 6610,
      "bucket": 6611,
      "necessary": 6612,
      "ignorant": 6613,
      "Takiyama": 6614,
      "Claridge": 6615,
      "genufle": 6616,
      "Olympic": 6617,
      "McGullicutty": 6618,
      "AM": 6619,
      "BO": 6620,
      "Dar": 6621,
      "Des": 6622,
      "Dildo": 6623,
      "East": 6624,
      "Fon": 6625,
      "Hut": 6626,
      "Hun": 6627,
      "Hmm": 6628,
      "ILL": 6629,
      "Land": 6630,
      "Pre": 6631,
      "Ret": 6632,
      "Sur": 6633,
      "Sun": 6634,
      "Tot": 6635,
      "Vill": 6636,
      "Viet": 6637,
      "Wy": 6638,
      "Women": 6639,
      "Wii": 6640,
      "bows": 6641,
      "bite": 6642,
      "dough": 6643,
      "ially": 6644,
      "laser": 6645,
      "oon": 6646,
      "pha": 6647,
      "ples": 6648,
      "rom": 6649,
      "sins": 6650,
      "tions": 6651,
      "twir": 6652,
      "ued": 6653,
      "zard": 6654,
      "reen": 6655,
      "oner": 6656,
      "island": 6657,
      "itions": 6658,
      "sein": 6659,
      "acing": 6660,
      "beam": 6661,
      "beep": 6662,
      "became": 6663,
      "beef": 6664,
      "uty": 6665,
      "ghh": 6666,
      "adjust": 6667,
      "educ": 6668,
      "wipe": 6669,
      "chart": 6670,
      "shri": 6671,
      "forces": 6672,
      "amps": 6673,
      "Butter": 6674,
      "Butler": 6675,
      "molest": 6676,
      "nolly": 6677,
      "audi": 6678,
      "raising": 6679,
      "downtown": 6680,
      "ify": 6681,
      "ipul": 6682,
      "cheeks": 6683,
      "icky": 6684,
      "trag": 6685,
      "folder": 6686,
      "istant": 6687,
      "shoulders": 6688,
      "awk": 6689,
      "slut": 6690,
      "Corey": 6691,
      "appropri": 6692,
      "lightning": 6693,
      "viewed": 6694,
      "Hawa": 6695,
      "paign": 6696,
      "Roy": 6697,
      "Robin": 6698,
      "stuffing": 6699,
      "shaking": 6700,
      "jelly": 6701,
      "Connolly": 6702,
      "ivid": 6703,
      "pays": 6704,
      "Carl": 6705,
      "Yea": 6706,
      "cups": 6707,
      "cleaning": 6708,
      "Squir": 6709,
      "pigs": 6710,
      "Morgan": 6711,
      "teenager": 6712,
      "deeply": 6713,
      "Passenger": 6714,
      "preparing": 6715,
      "cardinal": 6716,
      "Seriously": 6717,
      "cliff": 6718,
      "bangs": 6719,
      "About": 6720,
      "temple": 6721,
      "chatting": 6722,
      "experiment": 6723,
      "focuses": 6724,
      "Miller": 6725,
      "Millie": 6726,
      "Better": 6727,
      "waste": 6728,
      "grinning": 6729,
      "global": 6730,
      "demonstr": 6731,
      "liter": 6732,
      "drags": 6733,
      "Romania": 6734,
      "fallen": 6735,
      "Babies": 6736,
      "mobile": 6737,
      "frustrated": 6738,
      "dolphins": 6739,
      "Barkley": 6740,
      "Wife": 6741,
      "Greenfield": 6742,
      "detectives": 6743,
      "zombies": 6744,
      "extremely": 6745,
      "fortunately": 6746,
      "investig": 6747,
      "freedom": 6748,
      "Catholic": 6749,
      "Califor": 6750,
      "PewDiePie": 6751,
      "21": 6752,
      "Finger": 6753,
      "Hah": 6754,
      "Many": 6755,
      "PT": 6756,
      "Ple": 6757,
      "Spr": 6758,
      "Sub": 6759,
      "Wr": 6760,
      "Wed": 6761,
      "bil": 6762,
      "cto": 6763,
      "cents": 6764,
      "fountain": 6765,
      "kle": 6766,
      "mumbles": 6767,
      "nes": 6768,
      "san": 6769,
      "wins": 6770,
      "west": 6771,
      "yaw": 6772,
      "heim": 6773,
      "theart": 6774,
      "manipul": 6775,
      "wels": 6776,
      "ripped": 6777,
      "chicks": 6778,
      "onel": 6779,
      "tax": 6780,
      "tail": 6781,
      "unle": 6782,
      "unci": 6783,
      "depressed": 6784,
      "acky": 6785,
      "makin": 6786,
      "pope": 6787,
      "gear": 6788,
      "itties": 6789,
      "prov": 6790,
      "fft": 6791,
      "crappy": 6792,
      "wanting": 6793,
      "mention": 6794,
      "spring": 6795,
      "spending": 6796,
      "berts": 6797,
      "rence": 6798,
      "shell": 6799,
      "aaay": 6800,
      "Beaver": 6801,
      "goodbye": 6802,
      "Whoo": 6803,
      "While": 6804,
      "phys": 6805,
      "cakes": 6806,
      "wrapped": 6807,
      "buzz": 6808,
      "steal": 6809,
      "meaning": 6810,
      "walker": 6811,
      "Referee": 6812,
      "gious": 6813,
      "anced": 6814,
      "shocking": 6815,
      "laid": 6816,
      "Haven": 6817,
      "dropping": 6818,
      "Roberts": 6819,
      "bail": 6820,
      "dressing": 6821,
      "Dec": 6822,
      "shape": 6823,
      "enemy": 6824,
      "wallis": 6825,
      "sucking": 6826,
      "Colonel": 6827,
      "Members": 6828,
      "rette": 6829,
      "dogs": 6830,
      "bullshit": 6831,
      "laying": 6832,
      "touches": 6833,
      "murde": 6834,
      "easily": 6835,
      "solution": 6836,
      "Anybody": 6837,
      "invite": 6838,
      "buttons": 6839,
      "client": 6840,
      "perfectly": 6841,
      "giggle": 6842,
      "summon": 6843,
      "techno": 6844,
      "Walgreens": 6845,
      "Vampir": 6846,
      "Francisco": 6847,
      "assembly": 6848,
      "embarrassed": 6849,
      "kindergartners": 6850,
      "Researcher": 6851,
      "Smurf": 6852,
      "disgusting": 6853,
      "discuss": 6854,
      "Hussein": 6855,
      "department": 6856,
      "Since": 6857,
      "Cornwallis": 6858,
      "PETA": 6859,
      "24": 6860,
      "AK": 6861,
      "Bull": 6862,
      "Baah": 6863,
      "Case": 6864,
      "Eu": 6865,
      "IM": 6866,
      "Kay": 6867,
      "Must": 6868,
      "Naw": 6869,
      "Ot": 6870,
      "RP": 6871,
      "Reno": 6872,
      "UR": 6873,
      "avery": 6874,
      "doo": 6875,
      "fancy": 6876,
      "hay": 6877,
      "mult": 6878,
      "nit": 6879,
      "rout": 6880,
      "signed": 6881,
      "tuh": 6882,
      "taya": 6883,
      "vs": 6884,
      "heat": 6885,
      "levels": 6886,
      "ories": 6887,
      "straw": 6888,
      "iches": 6889,
      "asc": 6890,
      "vey": 6891,
      "Stew": 6892,
      "meme": 6893,
      "shh": 6894,
      "negoti": 6895,
      "golin": 6896,
      "pects": 6897,
      "ably": 6898,
      "yson": 6899,
      "igan": 6900,
      "males": 6901,
      "worm": 6902,
      "complain": 6903,
      "condo": 6904,
      "construction": 6905,
      "stores": 6906,
      "cheek": 6907,
      "exec": 6908,
      "clinic": 6909,
      "spooky": 6910,
      "Allyson": 6911,
      "watched": 6912,
      "Christop": 6913,
      "sons": 6914,
      "profess": 6915,
      "ichi": 6916,
      "disperse": 6917,
      "anker": 6918,
      "picked": 6919,
      "gaze": 6920,
      "ishment": 6921,
      "attend": 6922,
      "settles": 6923,
      "counts": 6924,
      "Tele": 6925,
      "Teresa": 6926,
      "panel": 6927,
      "pangolin": 6928,
      "ption": 6929,
      "Clone": 6930,
      "arring": 6931,
      "Dane": 6932,
      "signal": 6933,
      "jumping": 6934,
      "horri": 6935,
      "snap": 6936,
      "jewelry": 6937,
      "recover": 6938,
      "Truck": 6939,
      "interior": 6940,
      "Sphere": 6941,
      "ometime": 6942,
      "Patty": 6943,
      "reporting": 6944,
      "normally": 6945,
      "Quint": 6946,
      "positive": 6947,
      "Fell": 6948,
      "yells": 6949,
      "juice": 6950,
      "celebrity": 6951,
      "Melancho": 6952,
      "gymnasium": 6953,
      "Putin": 6954,
      "credits": 6955,
      "Hilling": 6956,
      "townspeople": 6957,
      "announcement": 6958,
      "Sandwich": 6959,
      "GameSphere": 6960,
      "Network": 6961,
      "Research": 6962,
      "scratches": 6963,
      "Tourette": 6964,
      "sequence": 6965,
      "liquid": 6966,
      "nipples": 6967,
      "frightened": 6968,
      "champion": 6969,
      "pubes": 6970,
      "exterior": 6971,
      "Hirohito": 6972,
      "Ticket": 6973,
      "Chairman": 6974,
      "Baahir": 6975,
      "Stewart": 6976,
      "Christopher": 6977,
      "Melancholy": 6978,
      "Aven": 6979,
      "Bat": 6980,
      "Care": 6981,
      "Cent": 6982,
      "DM": 6983,
      "Dum": 6984,
      "Eve": 6985,
      "Fir": 6986,
      "Gingers": 6987,
      "Galt": 6988,
      "Radio": 6989,
      "Sever": 6990,
      "Sav": 6991,
      "VE": 6992,
      "Yah": 6993,
      "bark": 6994,
      "fries": 6995,
      "gender": 6996,
      "ko": 6997,
      "lid": 6998,
      "lord": 6999,
      "nib": 7000,
      "tan": 7001,
      "tlin": 7002,
      "tugs": 7003,
      "uzzle": 7004,
      "vans": 7005,
      "vation": 7006,
      "wre": 7007,
      "wiches": 7008,
      "het": 7009,
      "thee": 7010,
      "rear": 7011,
      "toys": 7012,
      "stinky": 7013,
      "icles": 7014,
      "Start": 7015,
      "weep": 7016,
      "weather": 7017,
      "dock": 7018,
      "meth": 7019,
      "bother": 7020,
      "ability": 7021,
      "therap": 7022,
      "demo": 7023,
      "cep": 7024,
      "risk": 7025,
      "tex": 7026,
      "assure": 7027,
      "ickers": 7028,
      "crash": 7029,
      "atell": 7030,
      "letters": 7031,
      "ookie": 7032,
      "Information": 7033,
      "armed": 7034,
      "phin": 7035,
      "bug": 7036,
      "disappear": 7037,
      "bites": 7038,
      "Scuzzle": 7039,
      "ishing": 7040,
      "series": 7041,
      "desks": 7042,
      "Redford": 7043,
      "drown": 7044,
      "farted": 7045,
      "bells": 7046,
      "Carlos": 7047,
      "logists": 7048,
      "obli": 7049,
      "Suppor": 7050,
      "gathering": 7051,
      "driveway": 7052,
      "humanity": 7053,
      "HHH": 7054,
      "ranch": 7055,
      "suitcase": 7056,
      "destroying": 7057,
      "flashlight": 7058,
      "pushed": 7059,
      "faggot": 7060,
      "ratings": 7061,
      "chatter": 7062,
      "fantastic": 7063,
      "drums": 7064,
      "operation": 7065,
      "Simpsons": 7066,
      "Students": 7067,
      "heavily": 7068,
      "cruiser": 7069,
      "Hummer": 7070,
      "smells": 7071,
      "Lamond": 7072,
      "Romanian": 7073,
      "GOD": 7074,
      "vomit": 7075,
      "terrific": 7076,
      "model": 7077,
      "Sixth": 7078,
      "Assistant": 7079,
      "addiction": 7080,
      "argument": 7081,
      "items": 7082,
      "minorities": 7083,
      "tradition": 7084,
      "squirrel": 7085,
      "English": 7086,
      "Parents": 7087,
      "anxiety": 7088,
      "console": 7089,
      "homosexual": 7090,
      "Jessica": 7091,
      "Aspen": 7092,
      "lobby": 7093,
      "destruction": 7094,
      "Silence": 7095,
      "lyrics": 7096,
      "onymous": 7097,
      "genuflects": 7098,
      "Village": 7099,
      "Galtman": 7100,
      "Several": 7101,
      "Scuzzlebutt": 7102,
      "100": 7103,
      "Bay": 7104,
      "Border": 7105,
      "Chat": 7106,
      "Cast": 7107,
      "Dark": 7108,
      "IC": 7109,
      "Lat": 7110,
      "Light": 7111,
      "Mad": 7112,
      "Mah": 7113,
      "Mister": 7114,
      "None": 7115,
      "NOOOO": 7116,
      "Nuggets": 7117,
      "Praise": 7118,
      "Stor": 7119,
      "Uuuh": 7120,
      "Vide": 7121,
      "Vatic": 7122,
      "Zimmer": 7123,
      "asel": 7124,
      "buh": 7125,
      "eld": 7126,
      "economy": 7127,
      "jand": 7128,
      "jet": 7129,
      "ku": 7130,
      "mama": 7131,
      "messed": 7132,
      "ocean": 7133,
      "pure": 7134,
      "pats": 7135,
      "pages": 7136,
      "pimp": 7137,
      "tone": 7138,
      "virt": 7139,
      "replace": 7140,
      "represent": 7141,
      "regular": 7142,
      "atop": 7143,
      "tool": 7144,
      "stack": 7145,
      "beings": 7146,
      "keem": 7147,
      "Stinky": 7148,
      "haw": 7149,
      "rig": 7150,
      "riff": 7151,
      "chip": 7152,
      "livin": 7153,
      "forgive": 7154,
      "myster": 7155,
      "unky": 7156,
      "pel": 7157,
      "abag": 7158,
      "decl": 7159,
      "cere": 7160,
      "arding": 7161,
      "umper": 7162,
      "gray": 7163,
      "grows": 7164,
      "cheat": 7165,
      "Gold": 7166,
      "Goths": 7167,
      "trou": 7168,
      "Chuck": 7169,
      "sail": 7170,
      "britches": 7171,
      "venge": 7172,
      "eegan": 7173,
      "schools": 7174,
      "Bos": 7175,
      "merry": 7176,
      "Alan": 7177,
      "awareness": 7178,
      "underneath": 7179,
      "dismay": 7180,
      "campaign": 7181,
      "Brah": 7182,
      "skate": 7183,
      "desper": 7184,
      "Pharmacist": 7185,
      "useum": 7186,
      "anciful": 7187,
      "Teabag": 7188,
      "singers": 7189,
      "Hakeem": 7190,
      "creep": 7191,
      "current": 7192,
      "Dear": 7193,
      "lockers": 7194,
      "nearly": 7195,
      "hurries": 7196,
      "sque": 7197,
      "confess": 7198,
      "silently": 7199,
      "bulldo": 7200,
      "THC": 7201,
      "laws": 7202,
      "reports": 7203,
      "Spears": 7204,
      "murmur": 7205,
      "zzled": 7206,
      "Quee": 7207,
      "packages": 7208,
      "sunset": 7209,
      "filling": 7210,
      "mpire": 7211,
      "OME": 7212,
      "Bened": 7213,
      "curious": 7214,
      "gnomes": 7215,
      "busted": 7216,
      "ordered": 7217,
      "impact": 7218,
      "harassment": 7219,
      "nature": 7220,
      "Alejand": 7221,
      "Airport": 7222,
      "instantly": 7223,
      "directly": 7224,
      "punching": 7225,
      "Treasure": 7226,
      "Seaman": 7227,
      "crawls": 7228,
      "GHT": 7229,
      "volunteer": 7230,
      "groceries": 7231,
      "Whistlin": 7232,
      "determined": 7233,
      "scientists": 7234,
      "Strike": 7235,
      "seniors": 7236,
      "performan": 7237,
      "Vietnam": 7238,
      "appropriate": 7239,
      "Fellas": 7240,
      "atellite": 7241,
      "Vatican": 7242,
      "Zimmerman": 7243,
      "Alejandro": 7244,
      "300": 7245,
      "42": 7246,
      "Ak": 7247,
      "BA": 7248,
      "Eye": 7249,
      "FL": 7250,
      "Far": 7251,
      "Fed": 7252,
      "Fanciful": 7253,
      "Jar": 7254,
      "Kom": 7255,
      "Pop": 7256,
      "Rain": 7257,
      "Rel": 7258,
      "SNN": 7259,
      "UN": 7260,
      "YE": 7261,
      "Year": 7262,
      "bout": 7263,
      "bump": 7264,
      "dated": 7265,
      "dwar": 7266,
      "dirt": 7267,
      "drug": 7268,
      "gifts": 7269,
      "jer": 7270,
      "jama": 7271,
      "mates": 7272,
      "nur": 7273,
      "oven": 7274,
      "ovan": 7275,
      "pries": 7276,
      "pensive": 7277,
      "rad": 7278,
      "sor": 7279,
      "swat": 7280,
      "satellite": 7281,
      "uled": 7282,
      "yers": 7283,
      "hem": 7284,
      "rels": 7285,
      "tox": 7286,
      "oww": 7287,
      "semi": 7288,
      "alert": 7289,
      "ication": 7290,
      "asso": 7291,
      "aca": 7292,
      "impressed": 7293,
      "advan": 7294,
      "adventure": 7295,
      "administr": 7296,
      "chili": 7297,
      "chran": 7298,
      "role": 7299,
      "shark": 7300,
      "liary": 7301,
      "amy": 7302,
      "Hehe": 7303,
      "abduc": 7304,
      "delic": 7305,
      "acking": 7306,
      "cereal": 7307,
      "backpack": 7308,
      "Italian": 7309,
      "umn": 7310,
      "congre": 7311,
      "raz": 7312,
      "chef": 7313,
      "trace": 7314,
      "Chang": 7315,
      "estate": 7316,
      "ffic": 7317,
      "claims": 7318,
      "mentator": 7319,
      "spit": 7320,
      "sport": 7321,
      "Chew": 7322,
      "however": 7323,
      "actual": 7324,
      "smen": 7325,
      "wraps": 7326,
      "spell": 7327,
      "workin": 7328,
      "ballots": 7329,
      "flan": 7330,
      "identity": 7331,
      "Donovan": 7332,
      "Cochran": 7333,
      "parent": 7334,
      "portra": 7335,
      "Blain": 7336,
      "Mecha": 7337,
      "Franz": 7338,
      "studies": 7339,
      "AAAAA": 7340,
      "personally": 7341,
      "winning": 7342,
      "Polly": 7343,
      "Except": 7344,
      "Jobs": 7345,
      "missile": 7346,
      "freezes": 7347,
      "slee": 7348,
      "Commentator": 7349,
      "rolled": 7350,
      "versity": 7351,
      "Second": 7352,
      "xiliary": 7353,
      "volcano": 7354,
      "THIS": 7355,
      "OUT": 7356,
      "Adventure": 7357,
      "purity": 7358,
      "magical": 7359,
      "pounding": 7360,
      "ninety": 7361,
      "Morning": 7362,
      "sandwiches": 7363,
      "yelling": 7364,
      "raping": 7365,
      "bottles": 7366,
      "bullets": 7367,
      "excitedly": 7368,
      "turds": 7369,
      "circles": 7370,
      "explodes": 7371,
      "graphic": 7372,
      "Doesn": 7373,
      "Mmmm": 7374,
      "aggins": 7375,
      "beside": 7376,
      "Rabbi": 7377,
      "shields": 7378,
      "Lawyer": 7379,
      "viron": 7380,
      "property": 7381,
      "religious": 7382,
      "successful": 7383,
      "corporations": 7384,
      "remaining": 7385,
      "Muslims": 7386,
      "bracelet": 7387,
      "voting": 7388,
      "Party": 7389,
      "anticip": 7390,
      "Postum": 7391,
      "civili": 7392,
      "stadium": 7393,
      "necklace": 7394,
      "Decay": 7395,
      "DMV": 7396,
      "virtual": 7397,
      "ceremon": 7398,
      "2000": 7399,
      "Abra": 7400,
      "Block": 7401,
      "Crips": 7402,
      "Pull": 7403,
      "Sou": 7404,
      "Smo": 7405,
      "Ted": 7406,
      "Uuu": 7407,
      "Vol": 7408,
      "Wild": 7409,
      "aan": 7410,
      "bile": 7411,
      "caine": 7412,
      "danc": 7413,
      "hou": 7414,
      "ias": 7415,
      "lamp": 7416,
      "lava": 7417,
      "pon": 7418,
      "sometime": 7419,
      "va": 7420,
      "vor": 7421,
      "vich": 7422,
      "woo": 7423,
      "wad": 7424,
      "anny": 7425,
      "ination": 7426,
      "erc": 7427,
      "isto": 7428,
      "towels": 7429,
      "escap": 7430,
      "orp": 7431,
      "secre": 7432,
      "alo": 7433,
      "iche": 7434,
      "Staff": 7435,
      "adows": 7436,
      "docks": 7437,
      "document": 7438,
      "rob": 7439,
      "shrugs": 7440,
      "liber": 7441,
      "lions": 7442,
      "forgotten": 7443,
      "amuse": 7444,
      "agger": 7445,
      "deck": 7446,
      "owners": 7447,
      "indic": 7448,
      "naught": 7449,
      "igning": 7450,
      "nyah": 7451,
      "feces": 7452,
      "liked": 7453,
      "overhead": 7454,
      "rape": 7455,
      "seemed": 7456,
      "Gosh": 7457,
      "sciss": 7458,
      "scram": 7459,
      "thinkin": 7460,
      "essay": 7461,
      "crush": 7462,
      "spreads": 7463,
      "Beef": 7464,
      "agement": 7465,
      "itement": 7466,
      "ials": 7467,
      "pride": 7468,
      "hella": 7469,
      "stere": 7470,
      "flush": 7471,
      "monsters": 7472,
      "McDonald": 7473,
      "lenn": 7474,
      "migod": 7475,
      "diamond": 7476,
      "Grade": 7477,
      "Billings": 7478,
      "paramed": 7479,
      "Forget": 7480,
      "Train": 7481,
      "Unless": 7482,
      "Until": 7483,
      "minds": 7484,
      "interviewed": 7485,
      "Choir": 7486,
      "rounds": 7487,
      "Counselor": 7488,
      "whistles": 7489,
      "THAT": 7490,
      "incidence": 7491,
      "copies": 7492,
      "kissing": 7493,
      "faculty": 7494,
      "Turn": 7495,
      "miser": 7496,
      "flashback": 7497,
      "attacking": 7498,
      "Clinic": 7499,
      "humming": 7500,
      "practicing": 7501,
      "experience": 7502,
      "Headquarters": 7503,
      "besides": 7504,
      "briefcase": 7505,
      "nician": 7506,
      "collar": 7507,
      "belongs": 7508,
      "organization": 7509,
      "assembled": 7510,
      "candles": 7511,
      "volunteers": 7512,
      "shelter": 7513,
      "Giant": 7514,
      "Senator": 7515,
      "bassador": 7516,
      "Shelley": 7517,
      "Demon": 7518,
      "chanic": 7519,
      "collapses": 7520,
      "Auxiliary": 7521,
      "guilty": 7522,
      "abandoned": 7523,
      "videotape": 7524,
      "Totally": 7525,
      "Firkle": 7526,
      "advantage": 7527,
      "Blainto": 7528,
      "Abraham": 7529,
      "22": 7530,
      "45": 7531,
      "600": 7532,
      "Action": 7533,
      "Boun": 7534,
      "Brol": 7535,
      "Clo": 7536,
      "Eee": 7537,
      "Fart": 7538,
      "Gas": 7539,
      "IL": 7540,
      "Kno": 7541,
      "Lout": 7542,
      "Near": 7543,
      "Niles": 7544,
      "OK": 7545,
      "Oz": 7546,
      "Pooh": 7547,
      "Rn": 7548,
      "Tard": 7549,
      "Ver": 7550,
      "YES": 7551,
      "awed": 7552,
      "dess": 7553,
      "fant": 7554,
      "ibel": 7555,
      "jou": 7556,
      "lam": 7557,
      "lair": 7558,
      "mop": 7559,
      "nal": 7560,
      "puff": 7561,
      "sie": 7562,
      "slips": 7563,
      "tack": 7564,
      "tips": 7565,
      "vy": 7566,
      "vict": 7567,
      "vape": 7568,
      "wuh": 7569,
      "wings": 7570,
      "waggins": 7571,
      "xy": 7572,
      "remembers": 7573,
      "arc": 7574,
      "thick": 7575,
      "lli": 7576,
      "llip": 7577,
      "eners": 7578,
      "engers": 7579,
      "enunci": 7580,
      "environ": 7581,
      "stumbles": 7582,
      "ascal": 7583,
      "shirts": 7584,
      "liar": 7585,
      "holy": 7586,
      "hostage": 7587,
      "tails": 7588,
      "uncle": 7589,
      "aball": 7590,
      "haveto": 7591,
      "individ": 7592,
      "offscreen": 7593,
      "sore": 7594,
      "soda": 7595,
      "tearing": 7596,
      "anted": 7597,
      "seek": 7598,
      "stood": 7599,
      "Shwaggins": 7600,
      "crown": 7601,
      "crimin": 7602,
      "istan": 7603,
      "venile": 7604,
      "angels": 7605,
      "tower": 7606,
      "smack": 7607,
      "Whoever": 7608,
      "airport": 7609,
      "prease": 7610,
      "flower": 7611,
      "contro": 7612,
      "Christmast": 7613,
      "glow": 7614,
      "trips": 7615,
      "drill": 7616,
      "approval": 7617,
      "otted": 7618,
      "Haman": 7619,
      "string": 7620,
      "syring": 7621,
      "Getting": 7622,
      "Front": 7623,
      "dih": 7624,
      "burrito": 7625,
      "Devil": 7626,
      "Waiter": 7627,
      "dragon": 7628,
      "Poor": 7629,
      "smaller": 7630,
      "ivity": 7631,
      "Prof": 7632,
      "succe": 7633,
      "heartily": 7634,
      "hamburgers": 7635,
      "volta": 7636,
      "factory": 7637,
      "puzzled": 7638,
      "Streibel": 7639,
      "solve": 7640,
      "solid": 7641,
      "teenagers": 7642,
      "Anyone": 7643,
      "Anything": 7644,
      "twist": 7645,
      "YOUR": 7646,
      "treated": 7647,
      "photos": 7648,
      "sneaks": 7649,
      "AAAAAAAAAAAAAAAA": 7650,
      "Warcraft": 7651,
      "Travolta": 7652,
      "deton": 7653,
      "apology": 7654,
      "bacca": 7655,
      "wasting": 7656,
      "critters": 7657,
      "KoRn": 7658,
      "fixed": 7659,
      "Emplo": 7660,
      "Africa": 7661,
      "activity": 7662,
      "frustration": 7663,
      "Talent": 7664,
      "Court": 7665,
      "Iraqi": 7666,
      "separate": 7667,
      "Panther": 7668,
      "Angel": 7669,
      "electric": 7670,
      "pandemic": 7671,
      "Natalie": 7672,
      "Visitors": 7673,
      "lonely": 7674,
      "exasper": 7675,
      "entertainment": 7676,
      "Governor": 7677,
      "latest": 7678,
      "Dreidel": 7679,
      "amount": 7680,
      "Beaverton": 7681,
      "Dumont": 7682,
      "Benedict": 7683,
      "performance": 7684,
      "priests": 7685,
      "portrait": 7686,
      "naughty": 7687,
      "llipop": 7688,
      "Christmastime": 7689,
      "AI": 7690,
      "BE": 7691,
      "BP": 7692,
      "Band": 7693,
      "Cre": 7694,
      "Cir": 7695,
      "Cla": 7696,
      "Crip": 7697,
      "COV": 7698,
      "Ee": 7699,
      "Es": 7700,
      "Fair": 7701,
      "Gree": 7702,
      "Ken": 7703,
      "LO": 7704,
      "Link": 7705,
      "MJ": 7706,
      "MM": 7707,
      "Ol": 7708,
      "SE": 7709,
      "Scr": 7710,
      "Save": 7711,
      "Taco": 7712,
      "Ve": 7713,
      "bay": 7714,
      "cases": 7715,
      "dd": 7716,
      "dat": 7717,
      "dict": 7718,
      "fy": 7719,
      "gap": 7720,
      "han": 7721,
      "ients": 7722,
      "kicking": 7723,
      "lowered": 7724,
      "mist": 7725,
      "oles": 7726,
      "pisto": 7727,
      "rome": 7728,
      "slight": 7729,
      "sisters": 7730,
      "tissue": 7731,
      "titties": 7732,
      "vul": 7733,
      "infected": 7734,
      "requ": 7735,
      "released": 7736,
      "thouse": 7737,
      "enve": 7738,
      "endo": 7739,
      "ency": 7740,
      "stren": 7741,
      "stance": 7742,
      "states": 7743,
      "stamp": 7744,
      "veled": 7745,
      "haa": 7746,
      "wizard": 7747,
      "chasing": 7748,
      "irr": 7749,
      "necks": 7750,
      "hockey": 7751,
      "ahh": 7752,
      "sob": 7753,
      "notep": 7754,
      "poll": 7755,
      "poof": 7756,
      "commen": 7757,
      "cheating": 7758,
      "intoler": 7759,
      "exha": 7760,
      "exam": 7761,
      "exposed": 7762,
      "ffle": 7763,
      "headphones": 7764,
      "crapped": 7765,
      "blan": 7766,
      "blank": 7767,
      "ppin": 7768,
      "iento": 7769,
      "Being": 7770,
      "Bell": 7771,
      "coincidence": 7772,
      "Third": 7773,
      "AARP": 7774,
      "Into": 7775,
      "lesbian": 7776,
      "Geraldo": 7777,
      "Almost": 7778,
      "airplane": 7779,
      "Sciento": 7780,
      "previous": 7781,
      "cameras": 7782,
      "chains": 7783,
      "owder": 7784,
      "glue": 7785,
      "shotgun": 7786,
      "shore": 7787,
      "counting": 7788,
      "carefully": 7789,
      "dresser": 7790,
      "mighty": 7791,
      "AAAAH": 7792,
      "Pearl": 7793,
      "sweater": 7794,
      "recently": 7795,
      "genetic": 7796,
      "Unnamed": 7797,
      "interview": 7798,
      "dealer": 7799,
      "flip": 7800,
      "excitement": 7801,
      "Spir": 7802,
      "painted": 7803,
      "sixteen": 7804,
      "appearance": 7805,
      "whether": 7806,
      "speakers": 7807,
      "patch": 7808,
      "hundreds": 7809,
      "Follow": 7810,
      "films": 7811,
      "Luke": 7812,
      "deeper": 7813,
      "Awwww": 7814,
      "Specialist": 7815,
      "sadly": 7816,
      "temper": 7817,
      "Fluffy": 7818,
      "hostages": 7819,
      "douchebag": 7820,
      "Gotta": 7821,
      "ENT": 7822,
      "pinches": 7823,
      "Living": 7824,
      "labor": 7825,
      "queefs": 7826,
      "wasted": 7827,
      "performing": 7828,
      "choose": 7829,
      "Bijou": 7830,
      "survive": 7831,
      "surviv": 7832,
      "occur": 7833,
      "Attendant": 7834,
      "flatly": 7835,
      "pitcher": 7836,
      "embarrassing": 7837,
      "cigarettes": 7838,
      "Protesters": 7839,
      "midnight": 7840,
      "suffering": 7841,
      "violently": 7842,
      "Junjun": 7843,
      "bubble": 7844,
      "introduce": 7845,
      "Sexual": 7846,
      "Island": 7847,
      "sweetheart": 7848,
      "pudding": 7849,
      "SUV": 7850,
      "political": 7851,
      "proceeds": 7852,
      "beyond": 7853,
      "cartoon": 7854,
      "pilot": 7855,
      "Congress": 7856,
      "Lennart": 7857,
      "Olympics": 7858,
      "yawns": 7859,
      "technology": 7860,
      "Queef": 7861,
      "amusement": 7862,
      "miserable": 7863,
      "Claus": 7864,
      "envelope": 7865,
      "Auss": 7866,
      "Bright": 7867,
      "Bitch": 7868,
      "Benn": 7869,
      "Caf": 7870,
      "Eng": 7871,
      "Economy": 7872,
      "Find": 7873,
      "Foot": 7874,
      "Hoo": 7875,
      "Louse": 7876,
      "Mi": 7877,
      "Nin": 7878,
      "Non": 7879,
      "Oval": 7880,
      "Pay": 7881,
      "Pab": 7882,
      "Sid": 7883,
      "Sag": 7884,
      "Spo": 7885,
      "Sphin": 7886,
      "Wings": 7887,
      "Yum": 7888,
      "aked": 7889,
      "bound": 7890,
      "buck": 7891,
      "fate": 7892,
      "gage": 7893,
      "ggy": 7894,
      "hitting": 7895,
      "ihh": 7896,
      "kit": 7897,
      "mart": 7898,
      "mug": 7899,
      "noo": 7900,
      "pff": 7901,
      "rah": 7902,
      "rari": 7903,
      "scan": 7904,
      "ini": 7905,
      "ern": 7906,
      "attemp": 7907,
      "attempt": 7908,
      "toe": 7909,
      "threw": 7910,
      "alia": 7911,
      "icaca": 7912,
      "beams": 7913,
      "ghhh": 7914,
      "Stall": 7915,
      "advice": 7916,
      "histor": 7917,
      "wieners": 7918,
      "urs": 7919,
      "usive": 7920,
      "golf": 7921,
      "tag": 7922,
      "unfair": 7923,
      "ags": 7924,
      "abama": 7925,
      "opin": 7926,
      "illness": 7927,
      "backup": 7928,
      "resent": 7929,
      "resist": 7930,
      "gum": 7931,
      "uclear": 7932,
      "download": 7933,
      "stole": 7934,
      "inspir": 7935,
      "olf": 7936,
      "expl": 7937,
      "scar": 7938,
      "probe": 7939,
      "crow": 7940,
      "handcuff": 7941,
      "ppers": 7942,
      "puter": 7943,
      "torn": 7944,
      "starter": 7945,
      "tellin": 7946,
      "speeds": 7947,
      "discovered": 7948,
      "hadn": 7949,
      "appearing": 7950,
      "skips": 7951,
      "Christine": 7952,
      "tones": 7953,
      "morr": 7954,
      "calf": 7955,
      "panics": 7956,
      "struck": 7957,
      "length": 7958,
      "badge": 7959,
      "streaming": 7960,
      "masks": 7961,
      "arrhea": 7962,
      "Isra": 7963,
      "Guitar": 7964,
      "Dead": 7965,
      "ikin": 7966,
      "courage": 7967,
      "videos": 7968,
      "horses": 7969,
      "Attorney": 7970,
      "oooooooo": 7971,
      "True": 7972,
      "Computer": 7973,
      "eaten": 7974,
      "farting": 7975,
      "interrog": 7976,
      "closely": 7977,
      "warning": 7978,
      "riders": 7979,
      "foods": 7980,
      "Biggie": 7981,
      "Willzy": 7982,
      "writer": 7983,
      "capable": 7984,
      "Orange": 7985,
      "transplant": 7986,
      "Monster": 7987,
      "brothers": 7988,
      "packing": 7989,
      "Aaaa": 7990,
      "reveals": 7991,
      "subject": 7992,
      "billion": 7993,
      "grapher": 7994,
      "humor": 7995,
      "natives": 7996,
      "sheets": 7997,
      "Life": 7998,
      "protesting": 7999,
      "brightens": 8000,
      "Homeless": 8001,
      "suspect": 8002,
      "weapon": 8003,
      "Fireman": 8004,
      "unteer": 8005,
      "Sandler": 8006,
      "birds": 8007,
      "crawl": 8008,
      "puppy": 8009,
      "Hammer": 8010,
      "Cowboys": 8011,
      "rumors": 8012,
      "SHUT": 8013,
      "suffer": 8014,
      "Salesman": 8015,
      "print": 8016,
      "defeated": 8017,
      "cripp": 8018,
      "Afghanistan": 8019,
      "ignore": 8020,
      "supporters": 8021,
      "convince": 8022,
      "dawn": 8023,
      "silhou": 8024,
      "script": 8025,
      "Ferrari": 8026,
      "Hummels": 8027,
      "gravy": 8028,
      "literally": 8029,
      "Fingerbang": 8030,
      "Volunteer": 8031,
      "Staffer": 8032,
      "Tardicaca": 8033,
      "COVID": 8034,
      "Aussie": 8035,
      "Bennigan": 8036,
      "Cafeteria": 8037,
      "Saget": 8038,
      "Sphinx": 8039,
      "32": 8040,
      "Ap": 8041,
      "Athe": 8042,
      "Eight": 8043,
      "Gl": 8044,
      "Gal": 8045,
      "KY": 8046,
      "Pot": 8047,
      "Puff": 8048,
      "Rac": 8049,
      "River": 8050,
      "Swi": 8051,
      "Umpire": 8052,
      "Word": 8053,
      "Yan": 8054,
      "bone": 8055,
      "fri": 8056,
      "fab": 8057,
      "ganker": 8058,
      "hil": 8059,
      "huff": 8060,
      "iLink": 8061,
      "mac": 8062,
      "mkay": 8063,
      "nia": 8064,
      "sample": 8065,
      "uum": 8066,
      "uals": 8067,
      "votes": 8068,
      "hemorr": 8069,
      "inct": 8070,
      "instrum": 8071,
      "rehears": 8072,
      "onic": 8073,
      "atures": 8074,
      "attering": 8075,
      "andal": 8076,
      "llo": 8077,
      "stub": 8078,
      "segment": 8079,
      "often": 8080,
      "artist": 8081,
      "bean": 8082,
      "otters": 8083,
      "roast": 8084,
      "melt": 8085,
      "urine": 8086,
      "holes": 8087,
      "taun": 8088,
      "taxi": 8089,
      "agram": 8090,
      "sored": 8091,
      "ills": 8092,
      "herd": 8093,
      "ucking": 8094,
      "grace": 8095,
      "major": 8096,
      "maaan": 8097,
      "poem": 8098,
      "combust": 8099,
      "conver": 8100,
      "Nothin": 8101,
      "checked": 8102,
      "anyany": 8103,
      "trade": 8104,
      "exerc": 8105,
      "Shoot": 8106,
      "handing": 8107,
      "Parker": 8108,
      "spits": 8109,
      "throne": 8110,
      "torch": 8111,
      "makeup": 8112,
      "active": 8113,
      "cocaine": 8114,
      "Uhuh": 8115,
      "Intell": 8116,
      "Incred": 8117,
      "Instructor": 8118,
      "Alabama": 8119,
      "awards": 8120,
      "buff": 8121,
      "displays": 8122,
      "carnival": 8123,
      "steak": 8124,
      "appeared": 8125,
      "design": 8126,
      "gerbil": 8127,
      "partic": 8128,
      "caller": 8129,
      "counsel": 8130,
      "crowds": 8131,
      "pajama": 8132,
      "planned": 8133,
      "understanding": 8134,
      "diarrhea": 8135,
      "Left": 8136,
      "Exec": 8137,
      "marh": 8138,
      "marry": 8139,
      "Elway": 8140,
      "Sanct": 8141,
      "Coming": 8142,
      "closeup": 8143,
      "Report": 8144,
      "flix": 8145,
      "suits": 8146,
      "logical": 8147,
      "poops": 8148,
      "doctors": 8149,
      "Without": 8150,
      "Council": 8151,
      "fields": 8152,
      "quiets": 8153,
      "Advis": 8154,
      "complex": 8155,
      "ARE": 8156,
      "Quiet": 8157,
      "Gelder": 8158,
      "sticker": 8159,
      "goddamn": 8160,
      "lunchtime": 8161,
      "groan": 8162,
      "Morphe": 8163,
      "ALF": 8164,
      "cardboard": 8165,
      "hunting": 8166,
      "rainbow": 8167,
      "PSP": 8168,
      "cowboy": 8169,
      "buddih": 8170,
      "training": 8171,
      "cedes": 8172,
      "treatment": 8173,
      "restaurants": 8174,
      "fetuses": 8175,
      "cracker": 8176,
      "starving": 8177,
      "refu": 8178,
      "Grey": 8179,
      "privile": 8180,
      "Catat": 8181,
      "chuckle": 8182,
      "sugar": 8183,
      "Lamb": 8184,
      "Trek": 8185,
      "Netflix": 8186,
      "McGee": 8187,
      "generation": 8188,
      "advances": 8189
    },
    "merges": [
      "h e",
      "a n",
      "i n",
      "t he",
      "o u",
      "r e",
      "e r",
      "o n",
      "a r",
      "a t",
      "i s",
      "t o",
      "t h",
      "l e",
      "an d",
      "in g",
      "l l",
      "e n",
      "e s",
      "i t",
      "o r",
      "y ou",
      "s t",
      "o w",
      "o m",
      "s e",
      "o f",
      "a y",
      "a l",
      "ar t",
      "i c",
      "a s",
      "v e",
      "m an",
      "a c",
      "b e",
      "o o",
      "i d",
      "u t",
      "g h",
      "i m",
      "k e",
      "S t",
      "C art",
      "Cart man",
      "a d",
      "a ll",
      "w e",
      "e d",
      "e t",
      "o t",
      "T he",
      "h a",
      "r i",
      "h at",
      "t er",
      "y le",
      "St an",
      "K yle",
      "h is",
      "ou t",
      "v er",
      "d o",
      "w i",
      "a re",
      "c h",
      "u p",
      "r o",
      "gh t",
      "m e",
      "l d",
      "th at",
      "k s",
      "om e",
      "s h",
      "l i",
      "n d",
      "i r",
      "f or",
      "wi th",
      "a m",
      "b o",
      "l y",
      "u r",
      "H e",
      "W e",
      "on e",
      "n e",
      "n ow",
      "en t",
      "u s",
      "g o",
      "m y",
      "h o",
      "t a",
      "Y ou",
      "u st",
      "u n",
      "B ut",
      "p e",
      "a g",
      "ter s",
      "a b",
      "ha ve",
      "the r",
      "o p",
      "d e",
      "a p",
      "g et",
      "M r",
      "ac k",
      "i on",
      "c an",
      "th is",
      "l o",
      "m o",
      "l oo",
      "h im",
      "y s",
      "O h",
      "a h",
      "But ters",
      "j ust",
      "c e",
      "f r",
      "w ay",
      "he re",
      "ri ght",
      "ow n",
      "you r",
      "r y",
      "w hat",
      "r is",
      "and y",
      "er s",
      "s ome",
      "R andy",
      "ar d",
      "p l",
      "ou nd",
      "t s",
      "in d",
      "id e",
      "n a",
      "of f",
      "th ing",
      "ou r",
      "W hat",
      "n o",
      "s o",
      "i ll",
      "i g",
      "n ot",
      "k ing",
      "en d",
      "i l",
      "n y",
      "p s",
      "f e",
      "a u",
      "w al",
      "ou ld",
      "b ack",
      "ver y",
      "k now",
      "d on",
      "he r",
      "re s",
      "g u",
      "I t",
      "e ah",
      "i e",
      "a in",
      "b ut",
      "t e",
      "i ght",
      "an t",
      "u c",
      "fr om",
      "all y",
      "the n",
      "li ke",
      "u m",
      "the y",
      "w as",
      "g r",
      "m a",
      "o ther",
      "o ver",
      "t ur",
      "e p",
      "en ny",
      "p o",
      "w or",
      "v es",
      "K enny",
      "c om",
      "d ay",
      "c on",
      "ic e",
      "ab out",
      "as s",
      "r a",
      "d own",
      "i f",
      "the m",
      "i p",
      "Y eah",
      "N o",
      "g ot",
      "se e",
      "tur n",
      "s to",
      "e l",
      "the re",
      "th in",
      "c he",
      "ar k",
      "bo ys",
      "k ay",
      "in s",
      "g e",
      "wal ks",
      "G o",
      "op le",
      "o l",
      "on g",
      "b le",
      "u re",
      "le a",
      "We ll",
      "oo d",
      "ic k",
      "u h",
      "G ar",
      "it t",
      "w h",
      "in to",
      "on na",
      "A nd",
      "t im",
      "b y",
      "g onna",
      "a way",
      "q u",
      "an y",
      "t r",
      "do or",
      "ris on",
      "w ho",
      "pe ople",
      "C h",
      "e x",
      "ar ound",
      "ac e",
      "ro om",
      "Gar rison",
      "i le",
      "h as",
      "s c",
      "loo ks",
      "p ro",
      "es t",
      "f f",
      "k es",
      "e very",
      "T hat",
      "i ve",
      "he n",
      "a st",
      "ar s",
      "k id",
      "thin k",
      "oo l",
      "S h",
      "s a",
      "d y",
      "u l",
      "c ome",
      "b r",
      "f o",
      "d id",
      "in e",
      "J im",
      "S he",
      "he ad",
      "the ir",
      "turn s",
      "es s",
      "tim e",
      "c r",
      "an s",
      "ag ain",
      "ou th",
      "ou gh",
      "ke y",
      "mo re",
      "w ant",
      "c l",
      "is t",
      "ou se",
      "s s",
      "h and",
      "at e",
      "v en",
      "He y",
      "loo k",
      "gu ys",
      "se d",
      "s ay",
      "w o",
      "pl ay",
      "u de",
      "ou n",
      "at ion",
      "uc k",
      "m ent",
      "re e",
      "Go d",
      "itt le",
      "an g",
      "au se",
      "v ing",
      "le t",
      "st and",
      "P ark",
      "b l",
      "ac h",
      "ne ed",
      "go ing",
      "s p",
      "s ide",
      "c t",
      "p p",
      "i en",
      "it s",
      "ou s",
      "p ut",
      "The y",
      "th r",
      "l ittle",
      "h ouse",
      "re d",
      "b er",
      "u ll",
      "c k",
      "C he",
      "r in",
      "r un",
      "i an",
      "to w",
      "w a",
      "re n",
      "u d",
      "to r",
      "ow s",
      "s he",
      "ne w",
      "S outh",
      "he s",
      "an ce",
      "re ally",
      "a a",
      "st art",
      "en s",
      "t ing",
      "wi ll",
      "to o",
      "t ry",
      "B e",
      "ma ke",
      "bo dy",
      "T his",
      "ta ke",
      "er al",
      "kid s",
      "i ld",
      "re ad",
      "A ll",
      "h ow",
      "se l",
      "u nd",
      "oo k",
      "t al",
      "e e",
      "c ause",
      "e m",
      "ar on",
      "i es",
      "ac t",
      "it y",
      "li e",
      "ag e",
      "c o",
      "Che f",
      "Sh aron",
      "p er",
      "U h",
      "le d",
      "T h",
      "f t",
      "A A",
      "t wo",
      "ch ool",
      "O kay",
      "ri end",
      "t y",
      "be en",
      "w at",
      "s m",
      "re at",
      "w here",
      "D o",
      "be g",
      "j o",
      "c lo",
      "S o",
      "do es",
      "I n",
      "ar m",
      "g ood",
      "l s",
      "le s",
      "n ight",
      "M ac",
      "sh ould",
      "s chool",
      "Jim my",
      "B o",
      "M an",
      "h h",
      "w an",
      "it e",
      "Y es",
      "W h",
      "p h",
      "w ould",
      "r ic",
      "Mac key",
      "G eral",
      "a k",
      "c a",
      "he l",
      "are n",
      "p or",
      "f riend",
      "H ow",
      "W end",
      "Geral d",
      "N ow",
      "ke d",
      "Wend y",
      "A n",
      "om an",
      "ta kes",
      "c ould",
      "le ft",
      "sh ow",
      "m er",
      "get s",
      "A l",
      "te ll",
      "Ch ris",
      "on t",
      "fo re",
      "i re",
      "rin c",
      "go es",
      "we e",
      "thr ough",
      "u e",
      "The re",
      "a w",
      "ar y",
      "s on",
      "e ven",
      "y e",
      "some thing",
      "w hen",
      "C ome",
      "i al",
      "d am",
      "x t",
      "be t",
      "ha pp",
      "w r",
      "s pe",
      "und er",
      "J es",
      "b u",
      "p r",
      "ad e",
      "T im",
      "ic h",
      "Jes us",
      "g ir",
      "sel f",
      "d is",
      "ol k",
      "M ay",
      "W ho",
      "an k",
      "b it",
      "we re",
      "he ll",
      "ard s",
      "every one",
      "ne xt",
      "do ing",
      "wor k",
      "m om",
      "a ir",
      "c ar",
      "h ind",
      "is s",
      "rinc ip",
      "r u",
      "p ic",
      "rincip al",
      "g a",
      "s l",
      "fr ont",
      "ent s",
      "st e",
      "f ace",
      "S c",
      "E ric",
      "b all",
      "e ver",
      "p re",
      "ing s",
      "f l",
      "M y",
      "ho ld",
      "at h",
      "at er",
      "au gh",
      "e w",
      "u ch",
      "o h",
      "st ill",
      "s ure",
      "me an",
      "lea se",
      "ch ild",
      "hel p",
      "h ad",
      "ap pe",
      "wa it",
      "n ing",
      "C ra",
      "be hind",
      "M ar",
      "c am",
      "T olk",
      "Tolk ien",
      "D ude",
      "p res",
      "Cra ig",
      "sto p",
      "wee k",
      "y es",
      "L et",
      "wan na",
      "o kay",
      "C an",
      "ll y",
      "b ig",
      "tow n",
      "bo y",
      "on ly",
      "c er",
      "id ent",
      "i z",
      "D on",
      "or ry",
      "is h",
      "re st",
      "sc re",
      "beg ins",
      "P rincipal",
      "che s",
      "wal k",
      "B r",
      "we ll",
      "s es",
      "p ull",
      "m en",
      "d ude",
      "Wh y",
      "R e",
      "ir st",
      "c ha",
      "on d",
      "a f",
      "h ome",
      "op ens",
      "con t",
      "an other",
      "c tor",
      "f ind",
      "one y",
      "p le",
      "or d",
      "u ff",
      "at es",
      "m on",
      "s k",
      "ic er",
      "me m",
      "i gh",
      "r ance",
      "C ly",
      "Cly de",
      "ow d",
      "sa id",
      "I ke",
      "did n",
      "con d",
      "ke t",
      "I f",
      "l augh",
      "a v",
      "St ep",
      "Mr s",
      "be ing",
      "ta ble",
      "s er",
      "Chris t",
      "d es",
      "g l",
      "g er",
      "ad y",
      "wat ch",
      "t on",
      "ou ght",
      "be cause",
      "as h",
      "p art",
      "s up",
      "ian e",
      "L iane",
      "Step hen",
      "C o",
      "er a",
      "run s",
      "hand s",
      "f in",
      "l ong",
      "be d",
      "sh ot",
      "th an",
      "P h",
      "Jim bo",
      "O ff",
      "re al",
      "lo ve",
      "il a",
      "sto ps",
      "c all",
      "up id",
      "t ri",
      "u se",
      "com es",
      "She ila",
      "n er",
      "ac hes",
      "e ach",
      "be fore",
      "o se",
      "wh y",
      "at t",
      "ne ver",
      "g i",
      "B ar",
      "L ook",
      "l ater",
      "se t",
      "g ive",
      "an c",
      "p aren",
      "l ot",
      "He ll",
      "po in",
      "wh ile",
      "m in",
      "d ri",
      "f irst",
      "sh o",
      "Al right",
      "ap pro",
      "b us",
      "i ly",
      "w ind",
      "c oun",
      "li ght",
      "y eah",
      "D r",
      "fe el",
      "c le",
      "fo ll",
      "g reat",
      "ot t",
      "i ous",
      "f un",
      "T e",
      "be lie",
      "T week",
      "s orry",
      "at ed",
      "cam era",
      "the se",
      "a ther",
      "n ed",
      "tal k",
      "H o",
      "op en",
      "read y",
      "p ers",
      "M s",
      "m ay",
      "ro ll",
      "l a",
      "at ing",
      "m uch",
      "en ter",
      "cr owd",
      "cl ass",
      "ins ide",
      "A w",
      "appe ars",
      "J ust",
      "u b",
      "T er",
      "bet ter",
      "child ren",
      "May or",
      "c ial",
      "s ing",
      "does n",
      "ta in",
      "ph one",
      "mo ves",
      "se cond",
      "pull s",
      "E very",
      "pl ace",
      "por t",
      "is n",
      "v ie",
      "b re",
      "m or",
      "sh own",
      "th ree",
      "loo king",
      "M c",
      "P C",
      "af ter",
      "v in",
      "c al",
      "k ind",
      "D ad",
      "Off icer",
      "le ad",
      "tow ards",
      "P res",
      "th ose",
      "lea ves",
      "got ta",
      "mo st",
      "T om",
      "fe w",
      "b ab",
      "m oney",
      "B l",
      "m ade",
      "o ice",
      "paren ts",
      "c are",
      "mo ve",
      "gr ound",
      "M om",
      "m m",
      "b ro",
      "id i",
      "Tim my",
      "u g",
      "H a",
      "p an",
      "ig n",
      "ow e",
      "get ting",
      "Ter rance",
      "d ro",
      "s it",
      "wor ld",
      "ar ing",
      "ro ss",
      "ke ep",
      "f uck",
      "happ en",
      "belie ve",
      "st r",
      "start s",
      "st er",
      "thing s",
      "Pres ident",
      "k ill",
      "lea ve",
      "m ust",
      "M a",
      "w oman",
      "s of",
      "e yes",
      "l ast",
      "f all",
      "l ist",
      "he ard",
      "p a",
      "out side",
      "R o",
      "st upid",
      "s y",
      "le ss",
      "le n",
      "is e",
      "an ge",
      "p t",
      "b ad",
      "wind ow",
      "Hell o",
      "m at",
      "us ic",
      "C l",
      "wh ich",
      "He idi",
      "pic t",
      "ion s",
      "st re",
      "pl an",
      "f our",
      "oo t",
      "G et",
      "put s",
      "mem ber",
      "ar ri",
      "Ph ill",
      "try ing",
      "stand s",
      "at or",
      "f lo",
      "un t",
      "th ought",
      "c ks",
      "ut e",
      "f am",
      "any thing",
      "A mer",
      "ac es",
      "p lease",
      "s its",
      "sh it",
      "c re",
      "m as",
      "Amer ic",
      "ste ps",
      "M e",
      "Phill ip",
      "o ld",
      "et er",
      "m i",
      "friend s",
      "a it",
      "br ady",
      "Bar brady",
      "am a",
      "u ally",
      "to p",
      "under stand",
      "b s",
      "F r",
      "gir ls",
      "gir l",
      "M ic",
      "o s",
      "v is",
      "se en",
      "d i",
      "ment ary",
      "n oun",
      "b a",
      "st ud",
      "qu ick",
      "W oman",
      "li fe",
      "un ch",
      "Sc ott",
      "ab le",
      "E le",
      "es e",
      "b ur",
      "en ters",
      "m s",
      "l and",
      "G r",
      "l ine",
      "ac ks",
      "m usic",
      "ap p",
      "K e",
      "s i",
      "gu y",
      "to ld",
      "He re",
      "at s",
      "com ing",
      "le y",
      "scre en",
      "ar r",
      "I s",
      "f ight",
      "D an",
      "c or",
      "d res",
      "way s",
      "Ele mentary",
      "T V",
      "bo x",
      "O n",
      "S at",
      "f at",
      "w ard",
      "ge ther",
      "tal king",
      "h uh",
      "wr ong",
      "T o",
      "h ard",
      "G u",
      "ien ce",
      "ou p",
      "C r",
      "him self",
      "play ing",
      "pre t",
      "c ool",
      "Mar sh",
      "arm s",
      "na me",
      "0 0",
      "s w",
      "w on",
      "to gether",
      "c ur",
      "cha ir",
      "st uff",
      "W here",
      "c ut",
      "se es",
      "wor d",
      "every thing",
      "f ul",
      "ind a",
      "gu ess",
      "Be be",
      "pro ble",
      "D e",
      "B ill",
      "L inda",
      "Can ad",
      "A re",
      "M o",
      "N ew",
      "ma kes",
      "m ight",
      "p ass",
      "g un",
      "s ur",
      "AA AA",
      "li ve",
      "el se",
      "R ed",
      "h u",
      "pers on",
      "L o",
      "W ait",
      "for m",
      "d r",
      "do ll",
      "H uh",
      "ab s",
      "foll ow",
      "i a",
      "S ome",
      "b est",
      "s ound",
      "She lly",
      "w in",
      "li ving",
      "n ice",
      "v oice",
      "d one",
      "i ke",
      "ic to",
      "off ice",
      "no thing",
      "W ow",
      "k en",
      "s ign",
      "ow er",
      "sh ows",
      "ri es",
      "appro aches",
      "list en",
      "i o",
      "b ook",
      "G ood",
      "i k",
      "The n",
      "c our",
      "ing er",
      "cont in",
      "j um",
      "ot e",
      "sm ile",
      "st age",
      "po l",
      "H an",
      "ans w",
      "s ha",
      "st ay",
      "l er",
      "r ow",
      "en e",
      "stre et",
      "fam ily",
      "P e",
      "P o",
      "s we",
      "f ull",
      "h all",
      "may be",
      "L e",
      "t ly",
      "u es",
      "flo or",
      "ra w",
      "f ire",
      "pict ure",
      "hold s",
      "noun cer",
      "u sed",
      "le ar",
      "ic es",
      "ga me",
      "poin ts",
      "w w",
      "Ch in",
      "p ie",
      "Sat an",
      "m outh",
      "he d",
      "de ad",
      "clo ses",
      "c at",
      "ic ks",
      "cr ap",
      "dam n",
      "bit ch",
      "he ar",
      "to day",
      "en ough",
      "You r",
      "J oh",
      "or t",
      "V icto",
      "b and",
      "ri a",
      "Christ mas",
      "bo ard",
      "vie w",
      "v ide",
      "ie ld",
      "sm all",
      "Do ctor",
      "O O",
      "g y",
      "um b",
      "E x",
      "s ong",
      "w all",
      "Every one",
      "pret ty",
      "J ew",
      "to t",
      "au d",
      "who le",
      "Victo ria",
      "P lease",
      "f uc",
      "say s",
      "act ually",
      "ex t",
      "A h",
      "J o",
      "An nouncer",
      "h ang",
      "Joh n",
      "e v",
      "Han key",
      "b ar",
      "h or",
      "e ar",
      "s n",
      "an ks",
      "beg in",
      "m ed",
      "id es",
      "other s",
      "Mic ha",
      "gr oup",
      "Micha el",
      "ide a",
      "d ad",
      "p op",
      "bo th",
      "new s",
      "p en",
      "dro ps",
      "T wo",
      "we l",
      "fall s",
      "m ar",
      "ld er",
      "fe ren",
      "g ay",
      "bu ild",
      "l ar",
      "p ing",
      "A s",
      "sup po",
      "quick ly",
      "A t",
      "in k",
      "ha ving",
      "b oo",
      "l ow",
      "ma king",
      "r r",
      "c us",
      "s ir",
      "am s",
      "i et",
      "are d",
      "j e",
      "sh ut",
      "des k",
      "N ot",
      "bl ack",
      "Co on",
      "re c",
      "on to",
      "d if",
      "i th",
      "D id",
      "ud d",
      "C on",
      "g ent",
      "m it",
      "in t",
      "say ing",
      "se x",
      "al s",
      "lo ck",
      "E l",
      "P ip",
      "S an",
      "T owe",
      "g en",
      "m iss",
      "on s",
      "Towe lie",
      "k no",
      "l ing",
      "p ar",
      "d uc",
      "i er",
      "it che",
      "F or",
      "p ap",
      "oo oo",
      "am p",
      "i v",
      "f ree",
      "al ong",
      "ch ange",
      "head s",
      "cal led",
      "le g",
      "tim es",
      "Be cause",
      "s le",
      "ne ar",
      "Y ates",
      "me et",
      "wat er",
      "f ound",
      "T r",
      "O ne",
      "u sh",
      "ball s",
      "proble m",
      "Dan ie",
      "unt il",
      "n et",
      "u res",
      "it ch",
      "ap s",
      "St e",
      "et e",
      "pol ice",
      "al ways",
      "Th anks",
      "ca me",
      "h ur",
      "en ce",
      "C om",
      "U n",
      "i ps",
      "sa me",
      "ct ion",
      "fuc king",
      "Bo y",
      "Who a",
      "c ol",
      "w ent",
      "air s",
      "watch ing",
      "br ing",
      "n g",
      "play s",
      "ta king",
      "any more",
      "m ind",
      "ro l",
      "he y",
      "fin ally",
      "mat ter",
      "itt ing",
      "t en",
      "re aches",
      "Th ank",
      "d ie",
      "f ine",
      "ha ir",
      "vide o",
      "suppo sed",
      "Danie ls",
      "e at",
      "us hes",
      "P r",
      "c ou",
      "f art",
      "in ter",
      "d er",
      "p ast",
      "thr ows",
      "s uc",
      "ac her",
      "clo se",
      "se at",
      "for ward",
      "W hen",
      "de al",
      "d re",
      "f i",
      "on ce",
      "il led",
      "tri es",
      "r ings",
      "be ll",
      "a ke",
      "is ts",
      "or m",
      "Mc Daniels",
      "loo d",
      "gr abs",
      "com p",
      "bre ak",
      "K id",
      "R ep",
      "a ks",
      "st airs",
      "R ight",
      "ve d",
      "H ar",
      "p ay",
      "sel ves",
      "again st",
      "May be",
      "happen ed",
      "D am",
      "f li",
      "w ar",
      "ent ion",
      "ex c",
      "H is",
      "on es",
      "ce pt",
      "off ic",
      "door s",
      "f ive",
      "coun try",
      "S p",
      "g re",
      "r id",
      "aud ience",
      "Pe ople",
      "f ood",
      "ha ha",
      "sh ip",
      "aa aa",
      "spe cial",
      "al ready",
      "itche n",
      "u al",
      "ver s",
      "so on",
      "N ed",
      "too k",
      "pan ts",
      "S e",
      "h igh",
      "y a",
      "Gr and",
      "H i",
      "g g",
      "ac ross",
      "some one",
      "g as",
      "x i",
      "C ol",
      "c over",
      "itt y",
      "stud ents",
      "ir d",
      "fun ny",
      "contin ues",
      "d in",
      "we aring",
      "our s",
      "cour se",
      "n ess",
      "it ed",
      "al one",
      "dif feren",
      "h ot",
      "i ent",
      "end s",
      "want ed",
      "pres ent",
      "re member",
      "is ter",
      "bab y",
      "as on",
      "every body",
      "smile s",
      "oo o",
      "ag in",
      "d raw",
      "se ll",
      "ye ar",
      "er ing",
      "ir t",
      "Bo ys",
      "iz e",
      "San ta",
      "J e",
      "St even",
      "fr a",
      "min ute",
      "t ree",
      "ch o",
      "b or",
      "com put",
      "w ood",
      "is es",
      "i ble",
      "k itchen",
      "ou d",
      "ne y",
      "ye ars",
      "mor ning",
      "swe et",
      "d rin",
      "g one",
      "in ess",
      "foll ows",
      "pap er",
      "M ark",
      "M em",
      "b ot",
      "l t",
      "m ic",
      "y ing",
      "qu est",
      "wan ts",
      "ris es",
      "sof a",
      "B ig",
      "W or",
      "f ather",
      "poin t",
      "D av",
      "s u",
      "ou ble",
      "am es",
      "mo ther",
      "jo b",
      "re m",
      "as sho",
      "sa w",
      "sl ow",
      "ser ious",
      "p ri",
      "en n",
      "day s",
      "happ y",
      "roll s",
      "c es",
      "e f",
      "ac c",
      "id d",
      "c ry",
      "sh op",
      "Th om",
      "jo in",
      "pic ks",
      "with out",
      "a ur",
      "hat e",
      "gi ves",
      "we en",
      "N ext",
      "you ng",
      "C ar",
      "wait ing",
      "f ast",
      "st ri",
      "second s",
      "b ath",
      "ag er",
      "sc ene",
      "wh ite",
      "jum ps",
      "he art",
      "ho le",
      "wor king",
      "read s",
      "man y",
      "ile n",
      "k er",
      "s qu",
      "to ile",
      "wal king",
      "Bo b",
      "im e",
      "S ee",
      "f re",
      "ation s",
      "hold ing",
      "D en",
      "s uch",
      "ho pe",
      "r or",
      "s im",
      "sto re",
      "C ho",
      "e ating",
      "it al",
      "a king",
      "r ound",
      "ch ang",
      "ord er",
      "H all",
      "ath an",
      "h al",
      "p ain",
      "pe e",
      "sk i",
      "Ste ve",
      "b ag",
      "f aces",
      "s in",
      "O ur",
      "v ice",
      "ar ry",
      "che ck",
      "c ked",
      "f ish",
      "ing ers",
      "In ter",
      "om en",
      "ha m",
      "lo g",
      "as k",
      "fe ct",
      "p lo",
      "ve l",
      "ta ken",
      "thin ks",
      "comput er",
      "p oo",
      "z y",
      "ch ar",
      "anc es",
      "G en",
      "N O",
      "laugh s",
      "sup er",
      "mor row",
      "p ower",
      "be at",
      "not ices",
      "con f",
      "H at",
      "e le",
      "al right",
      "m ill",
      "re turns",
      "part y",
      "lead er",
      "W ill",
      "re t",
      "ma le",
      "ul t",
      "b ers",
      "bet ween",
      "si x",
      "m un",
      "to morrow",
      "ic al",
      "do g",
      "tr ue",
      "ul ts",
      "tot ally",
      "go in",
      "de c",
      "cont rol",
      "M ex",
      "f oot",
      "Ma xi",
      "s itting",
      "me ans",
      "some body",
      "wr it",
      "Americ a",
      "build ing",
      "cou ple",
      "c ross",
      "z e",
      "pe ct",
      "doll ars",
      "sle ep",
      "toile t",
      "Mex ic",
      "id ay",
      "lo v",
      "res p",
      "appe ar",
      "y et",
      "was n",
      "stand ing",
      "ho ps",
      "ie f",
      "Br of",
      "dres sed",
      "do ctor",
      "p ed",
      "in es",
      "th ank",
      "im port",
      "te acher",
      "Kid s",
      "W ith",
      "al so",
      "oo h",
      "Je ff",
      "Brof lov",
      "R ich",
      "i li",
      "i ther",
      "i ans",
      "s ilen",
      "w he",
      "en se",
      "ble s",
      "mom ent",
      "O ut",
      "b ull",
      "N e",
      "a ah",
      "light s",
      "Rep or",
      "C oun",
      "i b",
      "o b",
      "bus iness",
      "a ve",
      "v ol",
      "om et",
      "ad d",
      "ch or",
      "f le",
      "i tor",
      "ot s",
      "bath room",
      "St u",
      "answ er",
      "b lood",
      "f ly",
      "k illed",
      "h on",
      "l ay",
      "im es",
      "ad o",
      "wi fe",
      "gl ass",
      "S top",
      "a go",
      "es ome",
      "lar ge",
      "differen t",
      "P at",
      "c ap",
      "w his",
      "fe ll",
      "hall way",
      "T H",
      "read ing",
      "Mem ber",
      "O U",
      "r ing",
      "run ning",
      "Mar vin",
      "a il",
      "w ond",
      "C ap",
      "sh oo",
      "ang er",
      "hh h",
      "hal f",
      "I N",
      "b ra",
      "l aw",
      "gr id",
      "ba se",
      "import ant",
      "gr ad",
      "start ed",
      "pen is",
      "fra id",
      "Dav id",
      "N athan",
      "f ield",
      "k y",
      "your self",
      "t i",
      "al most",
      "ut ure",
      "mo vie",
      "Repor ter",
      "M ep",
      "c ra",
      "is sed",
      "Canad a",
      "Stu art",
      "Mep he",
      "J ap",
      "f ig",
      "p ark",
      "in c",
      "us ing",
      "In side",
      "New s",
      "idd le",
      "Mephe sto",
      "S up",
      "i or",
      "te am",
      "el s",
      "assho le",
      "Jap an",
      "I nd",
      "a fraid",
      "m all",
      "t in",
      "t ed",
      "bu y",
      "grid y",
      "s ick",
      "s igh",
      "St r",
      "thin king",
      "Bl ack",
      "on y",
      "st u",
      "mom ents",
      "appro ach",
      "are s",
      "any one",
      "spe ak",
      "d umb",
      "z ing",
      "ic s",
      "lo st",
      "O r",
      "it ion",
      "ur se",
      "po ss",
      "ate ly",
      "i i",
      "r ushes",
      "qu iet",
      "ud ge",
      "Inter net",
      "c op",
      "arri ves",
      "A d",
      "B ack",
      "F uck",
      "S ure",
      "d ire",
      "w omen",
      "ho l",
      "gi ving",
      "slow ly",
      "P ro",
      "R us",
      "p es",
      "re por",
      "tr ans",
      "app ed",
      "M on",
      "gr ow",
      "com ple",
      "K im",
      "t ou",
      "ent rance",
      "No body",
      "sound s",
      "a se",
      "f inger",
      "p at",
      "ag es",
      "ga ther",
      "bro ther",
      "b as",
      "l ad",
      "m ess",
      "ro ad",
      "ang ry",
      "Rich ard",
      "c ity",
      "c ket",
      "k new",
      "k iss",
      "ca se",
      "Te gridy",
      "S pe",
      "tr u",
      "und red",
      "v an",
      "to m",
      "no body",
      "tr uck",
      "Americ an",
      "Broflov ski",
      "J an",
      "h i",
      "to ss",
      "wor ry",
      "a im",
      "c y",
      "s mo",
      "Stan ley",
      "A T",
      "S orry",
      "m ur",
      "ch ick",
      "E S",
      "am ing",
      "My ster",
      "ton ight",
      "Gen eral",
      "S ad",
      "Y e",
      "t ion",
      "bed room",
      "omet imes",
      "h undred",
      "r ide",
      "z z",
      "ra ises",
      "need s",
      "a me",
      "pop s",
      "A R",
      "a head",
      "g ar",
      "s uck",
      "se ts",
      "el son",
      "N elson",
      "n orm",
      "p ur",
      "re turn",
      "ce ll",
      "Sad dam",
      "G ir",
      "The se",
      "sa fe",
      "kno cks",
      "p ris",
      "pe z",
      "Col or",
      "S ir",
      "b ow",
      "b unch",
      "m ach",
      "at ive",
      "um p",
      "see ms",
      "che er",
      "ous and",
      "Le ad",
      "Q u",
      "c up",
      "g est",
      "h it",
      "if er",
      "than ks",
      "dri ve",
      "Ha ve",
      "Myster ion",
      "e ye",
      "le ts",
      "ver n",
      "pro duc",
      "sin ce",
      "P er",
      "R ick",
      "lead s",
      "Lo pez",
      "Str ong",
      "O b",
      "m ag",
      "er k",
      "il ing",
      "um ber",
      "cle ar",
      "fig ure",
      "G e",
      "f ac",
      "g an",
      "bl ow",
      "act ion",
      "mem bers",
      "A N",
      "c off",
      "cl im",
      "damn it",
      "Color ado",
      "m et",
      "p ack",
      "it ies",
      "ks ond",
      "po sit",
      "would n",
      "udd en",
      "Cho ksond",
      "Choksond ik",
      "F e",
      "O w",
      "p un",
      "we ar",
      "sto ry",
      "aw esome",
      "Ke vin",
      "cur ity",
      "Den ver",
      "comple te",
      "k ick",
      "pp ed",
      "ru g",
      "hu man",
      "E R",
      "M art",
      "M iss",
      "f uture",
      "p u",
      "he h",
      "to ry",
      "be come",
      "answ ers",
      "T own",
      "c enter",
      "h ours",
      "res s",
      "sp ital",
      "offic ers",
      "p ound",
      "in te",
      "ta ge",
      "sigh s",
      "A gent",
      "d ark",
      "k ne",
      "re port",
      "ri ble",
      "Ch ief",
      "comp any",
      "c ent",
      "f air",
      "m il",
      "u u",
      "any body",
      "tr ouble",
      "Wh ite",
      "att ention",
      "full y",
      "dre am",
      "C ity",
      "g ie",
      "s un",
      "but t",
      "che ers",
      "dri ver",
      "fart s",
      "P ete",
      "c ast",
      "st ick",
      "ri ed",
      "go vern",
      "off icer",
      "L oo",
[...]
