{
  "version": "1.0",
  "truncation": null,
  "padding": null,
  "added_tokens": [],
  "normalizer": {
    "type": "Sequence",
    "normalizers": [
      {
        "type": "NFD"
      },
      {
        "type": "StripAccents"
      }
    ]
  },
  "pre_tokenizer": {
    "type": "Sequence",
    "pretokenizers": [
      {
        "type": "Metaspace",
        "replacement": "▁",
        "add_prefix_space": true
      },
      {
        "type": "Punctuation",
        "behavior": "Isolated"
      }
    ]
  },
  "post_processor": null,
  "decoder": {
    "type": "Metaspace",
    "replacement": "▁",
    "add_prefix_space": true
  },
  "model": {
    "type": "BPE",
    "dropout": null,
    "unk_token": null,
    "continuing_subword_prefix": null,
    "end_of_word_suffix": null,
    "fuse_unk": false,
    "vocab": {
      "\n": 0,
      "!": 1,
      "\"": 2,
      "#": 3,
      "$": 4,
      "%": 5,
      "&": 6,
      "'": 7,
      "(": 8,
      ")": 9,
      "*": 10,
      "+": 11,
      ",": 12,
      "-": 13,
      ".": 14,
      "/": 15,
      "0": 16,
      "1": 17,
      "2": 18,
      "3": 19,
      "4": 20,
      "5": 21,
      "6": 22,
      "7": 23,
      "8": 24,
      "9": 25,
      ":": 26,
      ";": 27,
      "<": 28,
      "=": 29,
      ">": 30,
      "?": 31,
      "@": 32,
      "A": 33,
      "B": 34,
      "C": 35,
      "D": 36,
      "E": 37,
      "F": 38,
      "G": 39,
      "H": 40,
      "I": 41,
      "J": 42,
      "K": 43,
      "L": 44,
      "M": 45,
      "N": 46,
      "O": 47,
      "P": 48,
      "Q": 49,
      "R": 50,
      "S": 51,
      "T": 52,
      "U": 53,
      "V": 54,
      "W": 55,
      "X": 56,
      "Y": 57,
      "Z": 58,
      "[": 59,
      "\\": 60,
      "]": 61,
      "^": 62,
      "_": 63,
      "a": 64,
      "b": 65,
      "c": 66,
      "d": 67,
      "e": 68,
      "f": 69,
      "g": 70,
      "h": 71,
      "i": 72,
      "j": 73,
      "k": 74,
      "l": 75,
      "m": 76,
      "n": 77,
      "o": 78,
      "p": 79,
      "q": 80,
      "r": 81,
      "s": 82,
      "t": 83,
      "u": 84,
      "v": 85,
      "w": 86,
      "x": 87,
      "y": 88,
      "z": 89,
      "{": 90,
      "|": 91,
      "}": 92,
      "▁": 93,
      "▁t": 94,
      "he": 95,
      "▁a": 96,
      "in": 97,
      "an": 98,
      "ou": 99,
      "▁s": 100,
      "▁the": 101,
      "re": 102,
      "▁w": 103,
      "er": 104,
      "on": 105,
      "ar": 106,
      "is": 107,
      "▁b": 108,
      "nd": 109,
      "at": 110,
      "le": 111,
      "▁h": 112,
      "it": 113,
      "▁c": 114,
      "ing": 115,
      "ll": 116,
      "▁d": 117,
      "▁to": 118,
      "▁f": 119,
      "▁m": 120,
      "▁g": 121,
      "es": 122,
      "en": 123,
      "▁o": 124,
      "▁y": 125,
      "▁and": 126,
      "or": 127,
      "▁p": 128,
      "▁you": 129,
      "▁C": 130,
      "om": 131,
      "ow": 132,
      "▁S": 133,
      "▁th": 134,
      "▁I": 135,
      "▁l": 136,
      "▁n": 137,
      "ay": 138,
      "art": 139,
      "▁of": 140,
      "ic": 141,
      "▁in": 142,
      "us": 143,
      "et": 144,
      "▁T": 145,
      "ed": 146,
      "▁M": 147,
      "oo": 148,
      "as": 149,
      "ve": 150,
      "al": 151,
      "ot": 152,
      "▁he": 153,
      "ut": 154,
      "id": 155,
      "ac": 156,
      "man": 157,
      "▁on": 158,
      "▁K": 159,
      "gh": 160,
      "▁is": 161,
      "im": 162,
      "artman": 163,
      "▁it": 164,
      "tan": 165,
      "▁Cartman": 166,
      "ad": 167,
      "out": 168,
      "▁B": 169,
      "▁be": 170,
      "ke": 171,
      "ter": 172,
      "▁r": 173,
      "hat": 174,
      "▁u": 175,
      "▁we": 176,
      "yle": 177,
      "▁e": 178,
      "▁st": 179,
      "ver": 180,
      "▁do": 181,
      "ght": 182,
      "▁Kyle": 183,
      "▁Stan": 184,
      "ld": 185,
      "ks": 186,
      "▁W": 187,
      "▁that": 188,
      "▁P": 189,
      "and": 190,
      "am": 191,
      "▁re": 192,
      "▁A": 193,
      "▁G": 194,
      "ight": 195,
      "▁k": 196,
      "▁his": 197,
      "ir": 198,
      "▁H": 199,
      "op": 200,
      "▁ha": 201,
      "ith": 202,
      "se": 203,
      "ome": 204,
      "▁R": 205,
      "▁with": 206,
      "ur": 207,
      "all": 208,
      "ly": 209,
      "▁for": 210,
      "▁up": 211,
      "▁are": 212,
      "ent": 213,
      "ch": 214,
      "▁j": 215,
      "▁sh": 216,
      "▁The": 217,
      "ee": 218,
      "▁at": 219,
      "ust": 220,
      "her": 221,
      "▁out": 222,
      "▁me": 223,
      "You": 224,
      "ie": 225,
      "st": 226,
      "▁go": 227,
      "▁an": 228,
      "ro": 229,
      "ters": 230,
      "▁J": 231,
      "ell": 232,
      "▁D": 233,
      "▁have": 234,
      "un": 235,
      "ack": 236,
      "ill": 237,
      "ion": 238,
      "▁le": 239,
      "▁fr": 240,
      "ah": 241,
      "ys": 242,
      "ho": 243,
      "▁ne": 244,
      "▁li": 245,
      "▁all": 246,
      "▁this": 247,
      "▁him": 248,
      "Oh": 249,
      "▁can": 250,
      "▁But": 251,
      "pp": 252,
      "rou": 253,
      "ra": 254,
      "▁get": 255,
      "▁L": 256,
      "▁as": 257,
      "▁Mr": 258,
      "one": 259,
      "▁just": 260,
      "ers": 261,
      "The": 262,
      "▁bo": 263,
      "ce": 264,
      "▁your": 265,
      "▁my": 266,
      "ck": 267,
      "andy": 268,
      "ak": 269,
      "▁Butters": 270,
      "▁what": 271,
      "▁loo": 272,
      "▁kn": 273,
      "ri": 274,
      "own": 275,
      "ard": 276,
      "▁N": 277,
      "ry": 278,
      "ris": 279,
      "ide": 280,
      "ig": 281,
      "ind": 282,
      "our": 283,
      "▁not": 284,
      "il": 285,
      "ore": 286,
      "ant": 287,
      "▁Randy": 288,
      "the": 289,
      "▁so": 290,
      "ud": 291,
      "ain": 292,
      "ny": 293,
      "ec": 294,
      "od": 295,
      "ake": 296,
      "▁off": 297,
      "ould": 298,
      "ol": 299,
      "ag": 300,
      "▁We": 301,
      "very": 302,
      "na": 303,
      "▁right": 304,
      "▁E": 305,
      "eah": 306,
      "▁don": 307,
      "▁know": 308,
      "▁He": 309,
      "▁back": 310,
      "ep": 311,
      "to": 312,
      "way": 313,
      "ip": 314,
      "▁ab": 315,
      "▁F": 316,
      "if": 317,
      "um": 318,
      "▁ch": 319,
      "ally": 320,
      "▁but": 321,
      "▁pl": 322,
      "▁was": 323,
      "▁then": 324,
      "ts": 325,
      "▁from": 326,
      "▁gu": 327,
      "hing": 328,
      "▁You": 329,
      "os": 330,
      "▁like": 331,
      "res": 332,
      "▁now": 333,
      "urn": 334,
      "▁O": 335,
      "enny": 336,
      "el": 337,
      "▁some": 338,
      "He": 339,
      "round": 340,
      "ves": 341,
      "ab": 342,
      "ink": 343,
      "What": 344,
      "ood": 345,
      "ice": 346,
      "ark": 347,
      "ick": 348,
      "▁here": 349,
      "▁about": 350,
      "▁us": 351,
      "Yeah": 352,
      "▁them": 353,
      "▁down": 354,
      "▁her": 355,
      "▁they": 356,
      "▁St": 357,
      "ong": 358,
      "▁see": 359,
      "▁su": 360,
      "▁cl": 361,
      "alks": 362,
      "▁over": 363,
      "ff": 364,
      "▁got": 365,
      "▁com": 366,
      "▁wor": 367,
      "ap": 368,
      "ars": 369,
      "kay": 370,
      "▁there": 371,
      "▁boys": 372,
      "eop": 373,
      "▁v": 374,
      "▁se": 375,
      "▁ag": 376,
      "eople": 377,
      "▁ro": 378,
      "▁Kenny": 379,
      "▁wh": 380,
      "ct": 381,
      "itt": 382,
      "are": 383,
      "hes": 384,
      "ther": 385,
      "hen": 386,
      "onna": 387,
      "▁al": 388,
      "▁no": 389,
      "▁into": 390,
      "alk": 391,
      "arris": 392,
      "qu": 393,
      "▁gonna": 394,
      "▁look": 395,
      "▁sp": 396,
      "my": 397,
      "▁away": 398,
      "est": 399,
      "▁door": 400,
      "les": 401,
      "▁our": 402,
      "▁one": 403,
      "ime": 404,
      "ul": 405,
      "em": 406,
      "▁who": 407,
      "▁around": 408,
      "arrison": 409,
      "ass": 410,
      "▁think": 411,
      "▁other": 412,
      "ace": 413,
      "▁people": 414,
      "▁Ch": 415,
      "▁Garrison": 416,
      "ont": 417,
      "Well": 418,
      "▁has": 419,
      "▁day": 420,
      "ool": 421,
      "nt": 422,
      "ive": 423,
      "▁want": 424,
      "We": 425,
      "▁kid": 426,
      "ast": 427,
      "No": 428,
      "▁any": 429,
      "use": 430,
      "ess": 431,
      "▁every": 432,
      "urns": 433,
      "ist": 434,
      "row": 435,
      "uck": 436,
      "▁did": 437,
      "ine": 438,
      "ate": 439,
      "▁their": 440,
      "here": 441,
      "outh": 442,
      "▁It": 443,
      "▁by": 444,
      "▁man": 445,
      "▁again": 446,
      "ge": 447,
      "key": 448,
      "▁sc": 449,
      "ile": 450,
      "ian": 451,
      "▁mo": 452,
      "ouse": 453,
      "ew": 454,
      "his": 455,
      "be": 456,
      "▁time": 457,
      "▁Jim": 458,
      "▁guys": 459,
      "ven": 460,
      "▁lo": 461,
      "akes": 462,
      "▁looks": 463,
      "ins": 464,
      "▁say": 465,
      "ude": 466,
      "th": 467,
      "ien": 468,
      "ond": 469,
      "ame": 470,
      "ure": 471,
      "ation": 472,
      "wo": 473,
      "ittle": 474,
      "▁walks": 475,
      "▁Sh": 476,
      "ies": 477,
      "tand": 478,
      "ause": 479,
      "uh": 480,
      "ving": 481,
      "up": 482,
      "▁bl": 483,
      "ops": 484,
      "▁need": 485,
      "▁sa": 486,
      "ree": 487,
      "▁hand": 488,
      "ft": 489,
      "▁app": 490,
      "It": 491,
      "▁tow": 492,
      "▁play": 493,
      "▁going": 494,
      "ous": 495,
      "▁little": 496,
      "Hey": 497,
      "▁fl": 498,
      "ull": 499,
      "▁She": 500,
      "▁Park": 501,
      "aa": 502,
      "▁room": 503,
      "▁de": 504,
      "side": 505,
      "other": 506,
      "ran": 507,
      "ook": 508,
      "▁come": 509,
      "ber": 510,
      "▁ex": 511,
      "▁if": 512,
      "▁head": 513,
      "ach": 514,
      "ild": 515,
      "▁1": 516,
      "▁house": 517,
      "ens": 518,
      "ait": 519,
      "ase": 520,
      "ings": 521,
      "But": 522,
      "▁en": 523,
      "rin": 524,
      "▁really": 525,
      "ich": 526,
      "▁make": 527,
      "▁let": 528,
      "▁will": 529,
      "hh": 530,
      "eral": 531,
      "ble": 532,
      "omet": 533,
      "ting": 534,
      "▁more": 535,
      "▁kids": 536,
      "age": 537,
      "ady": 538,
      "▁op": 539,
      "▁God": 540,
      "▁show": 541,
      "ave": 542,
      "▁take": 543,
      "▁way": 544,
      "ment": 545,
      "aron": 546,
      "hef": 547,
      "ity": 548,
      "▁pro": 549,
      "▁too": 550,
      "▁qu": 551,
      "▁start": 552,
      "▁sm": 553,
      "xt": 554,
      "ire": 555,
      "▁ar": 556,
      "▁new": 557,
      "▁how": 558,
      "ang": 559,
      "sel": 560,
      "▁tr": 561,
      "chool": 562,
      "reat": 563,
      "led": 564,
      "▁or": 565,
      "iend": 566,
      "That": 567,
      "▁been": 568,
      "▁somet": 569,
      "▁V": 570,
      "▁2": 571,
      "ater": 572,
      "AA": 573,
      "▁she": 574,
      "▁ho": 575,
      "ody": 576,
      "au": 577,
      "irl": 578,
      "And": 579,
      "ict": 580,
      "ary": 581,
      "▁And": 582,
      "▁Sharon": 583,
      "▁te": 584,
      "body": 585,
      "Uh": 586,
      "▁two": 587,
      "ound": 588,
      "▁co": 589,
      "ndy": 590,
      "▁does": 591,
      "▁good": 592,
      "▁Chef": 593,
      "ss": 594,
      "▁should": 595,
      "▁Mac": 596,
      "ren": 597,
      "Yes": 598,
      "fe": 599,
      "▁school": 600,
      "we": 601,
      "erald": 602,
      "ose": 603,
      "▁br": 604,
      "Stan": 605,
      "bo": 606,
      "▁would": 607,
      "air": 608,
      "ite": 609,
      "▁Mackey": 610,
      "▁try": 611,
      "▁talk": 612,
      "▁What": 613,
      "▁work": 614,
      "ue": 615,
      "oman": 616,
      "ps": 617,
      "ric": 618,
      "iss": 619,
      "▁mean": 620,
      "oll": 621,
      "▁put": 622,
      "▁Man": 623,
      "its": 624,
      "Cartman": 625,
      "de": 626,
      "thing": 627,
      "▁run": 628,
      "▁left": 629,
      "rough": 630,
      "get": 631,
      "▁could": 632,
      "▁night": 633,
      "rinc": 634,
      "oin": 635,
      "te": 636,
      "turns": 637,
      "mer": 638,
      "▁Jimmy": 639,
      "▁hel": 640,
      "hy": 641,
      "▁che": 642,
      "ial": 643,
      "▁when": 644,
      "▁dr": 645,
      "atch": 646,
      "ress": 647,
      "▁am": 648,
      "▁Gerald": 649,
      "able": 650,
      "ob": 651,
      "Okay": 652,
      "▁beg": 653,
      "▁through": 654,
      "▁bec": 655,
      "▁something": 656,
      "▁tell": 657,
      "▁An": 658,
      "▁They": 659,
      "red": 660,
      "ort": 661,
      "ank": 662,
      "right": 663,
      "▁cou": 664,
      "esus": 665,
      "▁Chris": 666,
      "▁und": 667,
      "ect": 668,
      "per": 669,
      "▁ass": 670,
      "▁bet": 671,
      "▁happ": 672,
      "olk": 673,
      "ade": 674,
      "▁stop": 675,
      "▁Wendy": 676,
      "ne": 677,
      "▁stand": 678,
      "ards": 679,
      "▁girl": 680,
      "▁were": 681,
      "▁friend": 682,
      "ents": 683,
      "rincip": 684,
      "ty": 685,
      "▁hell": 686,
      "Kyle": 687,
      "rincipal": 688,
      "▁walk": 689,
      "hind": 690,
      "aking": 691,
      "ear": 692,
      "▁doing": 693,
      "ears": 694,
      "iz": 695,
      "▁Cra": 696,
      "▁con": 697,
      "▁dis": 698,
      "br": 699,
      "▁front": 700,
      "▁mom": 701,
      "augh": 702,
      "▁next": 703,
      "self": 704,
      "ather": 705,
      "ta": 706,
      "lease": 707,
      "ms": 708,
      "▁turns": 709,
      "anna": 710,
      "▁ad": 711,
      "▁child": 712,
      "▁help": 713,
      "▁Y": 714,
      "▁where": 715,
      "▁car": 716,
      "ub": 717,
      "walks": 718,
      "▁face": 719,
      "olkien": 720,
      "▁had": 721,
      "alls": 722,
      "ish": 723,
      "ath": 724,
      "cer": 725,
      "▁wait": 726,
      "▁goes": 727,
      "▁wanna": 728,
      "▁That": 729,
      "▁cam": 730,
      "ger": 731,
      "▁still": 732,
      "▁comp": 733,
      "All": 734,
      "▁fuck": 735,
      "▁sec": 736,
      "▁bit": 737,
      "ident": 738,
      "▁big": 739,
      "▁wr": 740,
      "ord": 741,
      "orry": 742,
      "▁behind": 743,
      "ock": 744,
      "▁only": 745,
      "fore": 746,
      "ows": 747,
      "aw": 748,
      "ning": 749,
      "▁everyone": 750,
      "lie": 751,
      "▁okay": 752,
      "▁cont": 753,
      "▁uh": 754,
      "ches": 755,
      "▁sure": 756,
      "ia": 757,
      "▁im": 758,
      "▁bu": 759,
      "▁dude": 760,
      "▁May": 761,
      "eel": 762,
      "oy": 763,
      "▁pr": 764,
      "irst": 765,
      "ates": 766,
      "mo": 767,
      "Dude": 768,
      "ctor": 769,
      "▁ph": 770,
      "▁pre": 771,
      "▁In": 772,
      "▁Principal": 773,
      "▁sl": 774,
      "▁home": 775,
      "▁town": 776,
      "▁U": 777,
      "ott": 778,
      "oney": 779,
      "▁boy": 780,
      "▁Craig": 781,
      "▁Tolkien": 782,
      "act": 783,
      "▁Do": 784,
      "aves": 785,
      "rance": 786,
      "icer": 787,
      "ans": 788,
      "▁Sc": 789,
      "cks": 790,
      "lyde": 791,
      "▁gets": 792,
      "▁find": 793,
      "▁thing": 794,
      "This": 795,
      "av": 796,
      "igh": 797,
      "▁ke": 798,
      "▁af": 799,
      "▁said": 800,
      "sh": 801,
      "▁even": 802,
      "▁takes": 803,
      "South": 804,
      "pl": 805,
      "▁gr": 806,
      "ious": 807,
      "▁didn": 808,
      "▁South": 809,
      "▁Th": 810,
      "oh": 811,
      "▁Jesus": 812,
      "rowd": 813,
      "uff": 814,
      "▁well": 815,
      "bs": 816,
      "ough": 817,
      "iane": 818,
      "▁because": 819,
      "▁very": 820,
      "ephen": 821,
      "▁watch": 822,
      "ila": 823,
      "▁ey": 824,
      "▁Oh": 825,
      "▁another": 826,
      "upid": 827,
      "wee": 828,
      "era": 829,
      "ope": 830,
      "ons": 831,
      "▁than": 832,
      "aches": 833,
      "▁being": 834,
      "So": 835,
      "▁Christ": 836,
      "▁Be": 837,
      "▁un": 838,
      "▁scre": 839,
      "orm": 840,
      "oun": 841,
      "▁each": 842,
      "▁act": 843,
      "ug": 844,
      "▁later": 845,
      "▁Stephen": 846,
      "▁Ph": 847,
      "▁res": 848,
      "Al": 849,
      "▁Eric": 850,
      "immy": 851,
      "▁Liane": 852,
      "▁ac": 853,
      "▁hold": 854,
      "ily": 855,
      "▁before": 856,
      "▁Mrs": 857,
      "aren": 858,
      "▁first": 859,
      "▁why": 860,
      "uch": 861,
      "▁This": 862,
      "eps": 863,
      "▁Off": 864,
      "▁side": 865,
      "resident": 866,
      "Who": 867,
      "ated": 868,
      "▁part": 869,
      "▁bus": 870,
      "ign": 871,
      "Mr": 872,
      "▁Sheila": 873,
      "room": 874,
      "▁Jimbo": 875,
      "rap": 876,
      "▁wind": 877,
      "ooks": 878,
      "oor": 879,
      "▁Clyde": 880,
      "▁never": 881,
      "week": 882,
      "dam": 883,
      "▁great": 884,
      "▁lot": 885,
      "▁real": 886,
      "day": 887,
      "▁des": 888,
      "▁bed": 889,
      "▁shot": 890,
      "▁cr": 891,
      "▁give": 892,
      "▁Bar": 893,
      "▁sorry": 894,
      "▁laugh": 895,
      "▁these": 896,
      "▁feel": 897,
      "Butters": 898,
      "▁table": 899,
      "▁fun": 900,
      "icks": 901,
      "Come": 902,
      "ner": 903,
      "▁turn": 904,
      "ulls": 905,
      "oth": 906,
      "ating": 907,
      "▁love": 908,
      "▁open": 909,
      "▁much": 910,
      "ember": 911,
      "app": 912,
      "▁Dr": 913,
      "▁gl": 914,
      "▁camera": 915,
      "▁crowd": 916,
      "▁begins": 917,
      "▁while": 918,
      "ash": 919,
      "▁long": 920,
      "▁children": 921,
      "▁foll": 922,
      "hed": 923,
      "▁opens": 924,
      "▁better": 925,
      "▁class": 926,
      "ise": 927,
      "▁doesn": 928,
      "▁yeah": 929,
      "▁Can": 930,
      "ross": 931,
      "▁clos": 932,
      "▁fin": 933,
      "▁inside": 934,
      "▁isn": 935,
      "Alright": 936,
      "▁second": 937,
      "arents": 938,
      "▁belie": 939,
      "▁dri": 940,
      "▁call": 941,
      "▁comes": 942,
      "▁Bl": 943,
      "▁hands": 944,
      "ought": 945,
      "▁No": 946,
      "ww": 947,
      "They": 948,
      "▁Ike": 949,
      "▁towards": 950,
      "vin": 951,
      "ads": 952,
      "▁Mc": 953,
      "▁gotta": 954,
      "▁Mayor": 955,
      "▁tri": 956,
      "▁those": 957,
      "▁few": 958,
      "▁Tweek": 959,
      "gr": 960,
      "ned": 961,
      "▁may": 962,
      "dy": 963,
      "▁money": 964,
      "oot": 965,
      "idi": 966,
      "▁shown": 967,
      "▁3": 968,
      "▁parents": 969,
      "▁phone": 970,
      "How": 971,
      "▁made": 972,
      "errance": 973,
      "▁Ms": 974,
      "▁Br": 975,
      "▁kind": 976,
      "ale": 977,
      "▁three": 978,
      "▁ow": 979,
      "anc": 980,
      "▁happen": 981,
      "▁Officer": 982,
      "Hell": 983,
      "Now": 984,
      "ved": 985,
      "▁son": 986,
      "▁after": 987,
      "▁bre": 988,
      "ets": 989,
      "unch": 990,
      "ance": 991,
      "▁things": 992,
      "▁All": 993,
      "▁leave": 994,
      "▁PC": 995,
      "oon": 996,
      "▁place": 997,
      "▁Now": 998,
      "▁looking": 999,
      "▁men": 1000,
      "ions": 1001,
      "▁world": 1002,
      "uts": 1003,
      "▁stud": 1004,
      "▁Cl": 1005,
      "▁must": 1006,
      "▁heard": 1007,
      "▁end": 1008,
      "▁How": 1009,
      "▁sw": 1010,
      "aring": 1011,
      "▁President": 1012,
      "imes": 1013,
      "▁believe": 1014,
      "▁eyes": 1015,
      "pt": 1016,
      "▁kill": 1017,
      "▁woman": 1018,
      "▁window": 1019,
      "ats": 1020,
      "usic": 1021,
      "▁stupid": 1022,
      "There": 1023,
      "erson": 1024,
      "▁ever": 1025,
      "▁There": 1026,
      "▁keep": 1027,
      "▁bad": 1028,
      "▁gi": 1029,
      "▁list": 1030,
      "▁which": 1031,
      "▁getting": 1032,
      "▁pict": 1033,
      "▁rep": 1034,
      "ute": 1035,
      "Th": 1036,
      "illip": 1037,
      "▁rem": 1038,
      "ator": 1039,
      "▁stops": 1040,
      "▁Sp": 1041,
      "▁Mars": 1042,
      "▁last": 1043,
      "ple": 1044,
      "▁min": 1045,
      "▁outside": 1046,
      "lo": 1047,
      "▁att": 1048,
      "▁appears": 1049,
      "erstand": 1050,
      "▁appro": 1051,
      "▁thought": 1052,
      "umb": 1053,
      "ls": 1054,
      "aces": 1055,
      "▁Timmy": 1056,
      "▁fam": 1057,
      "▁rest": 1058,
      "▁Let": 1059,
      "meric": 1060,
      "▁Ste": 1061,
      "ok": 1062,
      "eter": 1063,
      "▁anything": 1064,
      "▁trying": 1065,
      "▁understand": 1066,
      "▁ser": 1067,
      "Look": 1068,
      "brady": 1069,
      "ually": 1070,
      "acks": 1071,
      "▁el": 1072,
      "▁supp": 1073,
      "▁Phillip": 1074,
      "▁stre": 1075,
      "▁per": 1076,
      "ward": 1077,
      "▁please": 1078,
      "▁care": 1079,
      "▁own": 1080,
      "▁Terrance": 1081,
      "veryone": 1082,
      "az": 1083,
      "ex": 1084,
      "▁girls": 1085,
      "Don": 1086,
      "tain": 1087,
      "lly": 1088,
      "mentary": 1089,
      "oice": 1090,
      "so": 1091,
      "more": 1092,
      "▁four": 1093,
      "less": 1094,
      "▁4": 1095,
      "▁friends": 1096,
      "by": 1097,
      "▁hu": 1098,
      "noun": 1099,
      "St": 1100,
      "▁Barbrady": 1101,
      "lementary": 1102,
      "ory": 1103,
      "▁Heidi": 1104,
      "cl": 1105,
      "▁Woman": 1106,
      "son": 1107,
      "▁If": 1108,
      "ips": 1109,
      "hole": 1110,
      "Hello": 1111,
      "▁cal": 1112,
      "ax": 1113,
      "▁bab": 1114,
      "▁seen": 1115,
      "ike": 1116,
      "ley": 1117,
      "▁spe": 1118,
      "ount": 1119,
      "they": 1120,
      "og": 1121,
      "uns": 1122,
      "▁guy": 1123,
      "ik": 1124,
      "Why": 1125,
      "▁runs": 1126,
      "▁So": 1127,
      "ants": 1128,
      "sw": 1129,
      "▁Tom": 1130,
      "▁life": 1131,
      "inger": 1132,
      "▁Elementary": 1133,
      "▁cle": 1134,
      "▁under": 1135,
      "gether": 1136,
      "der": 1137,
      "ience": 1138,
      "▁starts": 1139,
      "mm": 1140,
      "▁Te": 1141,
      "▁light": 1142,
      "ail": 1143,
      "▁wrong": 1144,
      "▁told": 1145,
      "▁music": 1146,
      "▁fight": 1147,
      "▁himself": 1148,
      "▁Scott": 1149,
      "▁sk": 1150,
      "ork": 1151,
      "▁Americ": 1152,
      "▁plan": 1153,
      "▁Al": 1154,
      "00": 1155,
      "Do": 1156,
      "▁fat": 1157,
      "▁talking": 1158,
      "Sh": 1159,
      "▁hard": 1160,
      "Kenny": 1161,
      "▁sn": 1162,
      "olice": 1163,
      "aps": 1164,
      "ever": 1165,
      "▁pulls": 1166,
      "▁name": 1167,
      "▁shit": 1168,
      "inda": 1169,
      "looks": 1170,
      "▁stuff": 1171,
      "▁everything": 1172,
      "▁won": 1173,
      "arm": 1174,
      "▁guess": 1175,
      "▁playing": 1176,
      "▁TV": 1177,
      "ling": 1178,
      "ese": 1179,
      "▁move": 1180,
      "▁cool": 1181,
      "▁Marsh": 1182,
      "▁its": 1183,
      "ton": 1184,
      "▁proble": 1185,
      "vers": 1186,
      "▁old": 1187,
      "▁Re": 1188,
      "▁else": 1189,
      "▁together": 1190,
      "▁pass": 1191,
      "▁might": 1192,
      "▁Dad": 1193,
      "ises": 1194,
      "atter": 1195,
      "▁sign": 1196,
      "amp": 1197,
      "ix": 1198,
      "mas": 1199,
      "▁ent": 1200,
      "ream": 1201,
      "ecial": 1202,
      "roup": 1203,
      "iv": 1204,
      "▁news": 1205,
      "AAAA": 1206,
      "▁huh": 1207,
      "▁pos": 1208,
      "iew": 1209,
      "▁office": 1210,
      "▁quick": 1211,
      "▁ide": 1212,
      "ands": 1213,
      "elie": 1214,
      "ler": 1215,
      "▁sits": 1216,
      "▁rec": 1217,
      "▁follow": 1218,
      "▁set": 1219,
      "ng": 1220,
      "▁done": 1221,
      "▁Linda": 1222,
      "▁Canad": 1223,
      "orn": 1224,
      "▁leaves": 1225,
      "▁living": 1226,
      "▁box": 1227,
      "▁doll": 1228,
      "weet": 1229,
      "ha": 1230,
      "rr": 1231,
      "ower": 1232,
      "ier": 1233,
      "▁Sat": 1234,
      "▁nice": 1235,
      "tty": 1236,
      "ways": 1237,
      "▁sound": 1238,
      "▁best": 1239,
      "▁listen": 1240,
      "ful": 1241,
      "▁aw": 1242,
      "▁sur": 1243,
      "My": 1244,
      "ues": 1245,
      "▁sit": 1246,
      "▁Come": 1247,
      "▁coming": 1248,
      "inks": 1249,
      "iles": 1250,
      "▁lead": 1251,
      "▁Bebe": 1252,
      "▁poin": 1253,
      "▁ask": 1254,
      "rows": 1255,
      "▁bro": 1256,
      "itc": 1257,
      "▁Han": 1258,
      "▁nothing": 1259,
      "▁family": 1260,
      "ield": 1261,
      "She": 1262,
      "mb": 1263,
      "▁person": 1264,
      "▁Mom": 1265,
      "ump": 1266,
      "ange": 1267,
      "▁floor": 1268,
      "nouncer": 1269,
      "ices": 1270,
      "▁stay": 1271,
      "▁hall": 1272,
      "▁imp": 1273,
      "head": 1274,
      "ors": 1275,
      "▁picture": 1276,
      "raw": 1277,
      "▁Vict": 1278,
      "Wow": 1279,
      "▁tra": 1280,
      "▁New": 1281,
      "▁count": 1282,
      "▁stands": 1283,
      "▁today": 1284,
      "oria": 1285,
      "▁enough": 1286,
      "Randy": 1287,
      "ove": 1288,
      "▁Bill": 1289,
      "ohn": 1290,
      "▁answ": 1291,
      "▁maybe": 1292,
      "Let": 1293,
      "als": 1294,
      "▁Fr": 1295,
      "ipp": 1296,
      "ama": 1297,
      "▁Red": 1298,
      "osed": 1299,
      "go": 1300,
      "where": 1301,
      "ush": 1302,
      "▁ready": 1303,
      "OO": 1304,
      "▁fire": 1305,
      "▁small": 1306,
      "In": 1307,
      "▁dam": 1308,
      "▁bitch": 1309,
      "▁Victoria": 1310,
      "▁makes": 1311,
      "ene": 1312,
      "▁pretty": 1313,
      "▁Don": 1314,
      "▁dead": 1315,
      "▁Announcer": 1316,
      "▁whole": 1317,
      "▁actually": 1318,
      "ael": 1319,
      "▁most": 1320,
      "▁says": 1321,
      "anks": 1322,
      "arts": 1323,
      "▁hear": 1324,
      "▁Well": 1325,
      "▁ang": 1326,
      "▁game": 1327,
      "▁Hankey": 1328,
      "▁song": 1329,
      "du": 1330,
      "ides": 1331,
      "▁Chin": 1332,
      "ichael": 1333,
      "▁begin": 1334,
      "▁contin": 1335,
      "▁cour": 1336,
      "tant": 1337,
      "ries": 1338,
      "ult": 1339,
      "roll": 1340,
      "▁use": 1341,
      "ied": 1342,
      "▁group": 1343,
      "orter": 1344,
      "▁Why": 1345,
      "udd": 1346,
      "sy": 1347,
      "▁ground": 1348,
      "▁live": 1349,
      "▁mouth": 1350,
      "▁My": 1351,
      "ared": 1352,
      "▁moves": 1353,
      "▁pres": 1354,
      "▁idea": 1355,
      "arr": 1356,
      "▁Shelly": 1357,
      "ying": 1358,
      "▁read": 1359,
      "▁vide": 1360,
      "▁others": 1361,
      "lder": 1362,
      "▁Christmas": 1363,
      "Aw": 1364,
      "pa": 1365,
      "▁enters": 1366,
      "Huh": 1367,
      "▁Mar": 1368,
      "▁chair": 1369,
      "▁screen": 1370,
      "enter": 1371,
      "iet": 1372,
      "▁sees": 1373,
      "oc": 1374,
      "▁sir": 1375,
      "▁Doctor": 1376,
      "▁desk": 1377,
      "rent": 1378,
      "▁Jew": 1379,
      "▁wee": 1380,
      "▁Gu": 1381,
      "▁lear": 1382,
      "rest": 1383,
      "▁ca": 1384,
      "▁gay": 1385,
      "sk": 1386,
      "▁Gr": 1387,
      "▁having": 1388,
      "sp": 1389,
      "▁word": 1390,
      "▁build": 1391,
      "▁bar": 1392,
      "▁gra": 1393,
      "▁steps": 1394,
      "▁John": 1395,
      "ife": 1396,
      "ntil": 1397,
      "▁saying": 1398,
      "owelie": 1399,
      "opp": 1400,
      "ecause": 1401,
      "ball": 1402,
      "▁black": 1403,
      "aur": 1404,
      "takes": 1405,
      "▁sing": 1406,
      "▁line": 1407,
      "▁Michael": 1408,
      "▁ev": 1409,
      "▁making": 1410,
      "rof": 1411,
      "▁Just": 1412,
      "ction": 1413,
      "▁onto": 1414,
      "any": 1415,
      "▁dad": 1416,
      "oooo": 1417,
      "udience": 1418,
      "God": 1419,
      "ape": 1420,
      "▁puts": 1421,
      "▁Satan": 1422,
      "▁times": 1423,
      "▁dif": 1424,
      "▁Uh": 1425,
      "leep": 1426,
      "▁gun": 1427,
      "▁street": 1428,
      "aper": 1429,
      "▁along": 1430,
      "anie": 1431,
      "▁Le": 1432,
      "tern": 1433,
      "▁arri": 1434,
      "▁problem": 1435,
      "vis": 1436,
      "umps": 1437,
      "gets": 1438,
      "len": 1439,
      "▁book": 1440,
      "▁dress": 1441,
      "▁Coon": 1442,
      "▁called": 1443,
      "itch": 1444,
      "ams": 1445,
      "ence": 1446,
      "aks": 1447,
      "▁bas": 1448,
      "ures": 1449,
      "▁Yates": 1450,
      "ib": 1451,
      "▁crap": 1452,
      "▁enter": 1453,
      "ient": 1454,
      "mit": 1455,
      "▁water": 1456,
      "▁voice": 1457,
      "▁arms": 1458,
      "▁Bo": 1459,
      "▁until": 1460,
      "▁near": 1461,
      "io": 1462,
      "old": 1463,
      "▁ter": 1464,
      "ention": 1465,
      "ph": 1466,
      "▁dec": 1467,
      "▁meet": 1468,
      "▁shows": 1469,
      "▁both": 1470,
      "you": 1471,
      "▁air": 1472,
      "▁police": 1473,
      "▁sex": 1474,
      "▁always": 1475,
      "▁found": 1476,
      "▁same": 1477,
      "Just": 1478,
      "fr": 1479,
      "ief": 1480,
      "fa": 1481,
      "▁ret": 1482,
      "▁stage": 1483,
      "airs": 1484,
      "not": 1485,
      "arge": 1486,
      "▁El": 1487,
      "▁anymore": 1488,
      "▁bring": 1489,
      "gg": 1490,
      "rong": 1491,
      "ition": 1492,
      "itting": 1493,
      "ible": 1494,
      "ru": 1495,
      "reen": 1496,
      "▁falls": 1497,
      "▁change": 1498,
      "▁matter": 1499,
      "acher": 1500,
      "aniels": 1501,
      "Not": 1502,
      "arry": 1503,
      "▁miss": 1504,
      "ushes": 1505,
      "▁arm": 1506,
      "▁mor": 1507,
      "nit": 1508,
      "ists": 1509,
      "▁Pip": 1510,
      "come": 1511,
      "sc": 1512,
      "▁cor": 1513,
      "▁yes": 1514,
      "▁fucking": 1515,
      "▁watching": 1516,
      "▁supposed": 1517,
      "▁em": 1518,
      "▁McD": 1519,
      "▁video": 1520,
      "If": 1521,
      "▁fine": 1522,
      "illed": 1523,
      "▁seat": 1524,
      "aaaa": 1525,
      "hhh": 1526,
      "▁cho": 1527,
      "▁Towelie": 1528,
      "▁forward": 1529,
      "▁aren": 1530,
      "ids": 1531,
      "▁McDaniels": 1532,
      "atches": 1533,
      "▁hur": 1534,
      "rew": 1535,
      "▁wall": 1536,
      "▁deal": 1537,
      "▁park": 1538,
      "▁red": 1539,
      "▁finally": 1540,
      "Wait": 1541,
      "che": 1542,
      "▁Is": 1543,
      "▁roll": 1544,
      "▁Rep": 1545,
      "▁join": 1546,
      "▁balls": 1547,
      "▁past": 1548,
      "▁On": 1549,
      "▁against": 1550,
      "▁happened": 1551,
      "Ah": 1552,
      "form": 1553,
      "▁taking": 1554,
      "ready": 1555,
      "▁hang": 1556,
      "ird": 1557,
      "▁resp": 1558,
      "co": 1559,
      "ret": 1560,
      "▁die": 1561,
      "▁pen": 1562,
      "▁tw": 1563,
      "▁job": 1564,
      "▁De": 1565,
      "▁heads": 1566,
      "Get": 1567,
      "cept": 1568,
      "▁offic": 1569,
      "selves": 1570,
      "▁eat": 1571,
      "▁rings": 1572,
      "▁view": 1573,
      "▁audience": 1574,
      "▁As": 1575,
      "ians": 1576,
      "▁closes": 1577,
      "▁approaches": 1578,
      "itchen": 1579,
      "▁country": 1580,
      "ual": 1581,
      "mor": 1582,
      "▁ball": 1583,
      "▁once": 1584,
      "▁acc": 1585,
      "runs": 1586,
      "▁win": 1587,
      "idd": 1588,
      "▁doors": 1589,
      "▁Me": 1590,
      "oop": 1591,
      "anta": 1592,
      "▁already": 1593,
      "▁took": 1594,
      "▁special": 1595,
      "▁prot": 1596,
      "rol": 1597,
      "▁z": 1598,
      "▁sweet": 1599,
      "▁close": 1600,
      "▁plays": 1601,
      "▁food": 1602,
      "arth": 1603,
      "▁Two": 1604,
      "▁soon": 1605,
      "ize": 1606,
      "▁free": 1607,
      "itty": 1608,
      "moves": 1609,
      "imm": 1610,
      "▁across": 1611,
      "Whoa": 1612,
      "men": 1613,
      "▁tot": 1614,
      "▁mar": 1615,
      "ason": 1616,
      "Ch": 1617,
      "▁pay": 1618,
      "▁quickly": 1619,
      "▁5": 1620,
      "▁oh": 1621,
      "▁check": 1622,
      "▁students": 1623,
      "cuse": 1624,
      "ness": 1625,
      "ister": 1626,
      "▁Who": 1627,
      "▁diffe": 1628,
      "▁Wh": 1629,
      "▁Go": 1630,
      "Here": 1631,
      "▁break": 1632,
      "▁Ne": 1633,
      "▁funny": 1634,
      "▁remember": 1635,
      "▁alone": 1636,
      "▁came": 1637,
      "enn": 1638,
      "▁store": 1639,
      "▁shut": 1640,
      "▁body": 1641,
      "agin": 1642,
      "▁everybody": 1643,
      "ots": 1644,
      "irt": 1645,
      "▁din": 1646,
      "uter": 1647,
      "▁mov": 1648,
      "▁hair": 1649,
      "▁lock": 1650,
      "Can": 1651,
      "▁wanted": 1652,
      "iness": 1653,
      "▁high": 1654,
      "▁Sm": 1655,
      "▁kitchen": 1656,
      "ost": 1657,
      "▁tur": 1658,
      "▁Com": 1659,
      "▁someone": 1660,
      "▁years": 1661,
      "owers": 1662,
      "▁baby": 1663,
      "ces": 1664,
      "▁war": 1665,
      "▁sofa": 1666,
      "▁morning": 1667,
      "Good": 1668,
      "▁hot": 1669,
      "▁gone": 1670,
      "▁Col": 1671,
      "ooo": 1672,
      "oke": 1673,
      "▁course": 1674,
      "ames": 1675,
      "▁wants": 1676,
      "poin": 1677,
      "ium": 1678,
      "▁drops": 1679,
      "▁add": 1680,
      "▁minute": 1681,
      "Where": 1682,
      "ering": 1683,
      "▁paper": 1684,
      "uth": 1685,
      "ement": 1686,
      "▁Steven": 1687,
      "att": 1688,
      "▁ra": 1689,
      "▁saw": 1690,
      "▁hey": 1691,
      "▁foot": 1692,
      "aken": 1693,
      "▁days": 1694,
      "ih": 1695,
      "rying": 1696,
      "▁serious": 1697,
      "▁mind": 1698,
      "▁ya": 1699,
      "▁young": 1700,
      "▁without": 1701,
      "▁bur": 1702,
      "▁Mark": 1703,
      "ote": 1704,
      "▁Boy": 1705,
      "▁Ned": 1706,
      "ween": 1707,
      "ney": 1708,
      "▁seconds": 1709,
      "cle": 1710,
      "eneral": 1711,
      "ical": 1712,
      "▁cra": 1713,
      "▁fore": 1714,
      "gins": 1715,
      "▁five": 1716,
      "axi": 1717,
      "igg": 1718,
      "Jesus": 1719,
      "oof": 1720,
      "▁Thom": 1721,
      "▁cur": 1722,
      "▁rid": 1723,
      "kes": 1724,
      "▁father": 1725,
      "ations": 1726,
      "▁blood": 1727,
      "▁happy": 1728,
      "no": 1729,
      "▁full": 1730,
      "▁wearing": 1731,
      "ours": 1732,
      "els": 1733,
      "▁hope": 1734,
      "ital": 1735,
      "▁Okay": 1736,
      "▁such": 1737,
      "▁scene": 1738,
      "▁Con": 1739,
      "▁Dav": 1740,
      "▁Grand": 1741,
      "▁hate": 1742,
      "▁fe": 1743,
      "aster": 1744,
      "oses": 1745,
      "▁present": 1746,
      "Eric": 1747,
      "▁bath": 1748,
      "ilet": 1749,
      "athan": 1750,
      "▁continues": 1751,
      "ground": 1752,
      "ror": 1753,
      "▁Yeah": 1754,
      "▁Bob": 1755,
      "▁waiting": 1756,
      "elly": 1757,
      "▁quest": 1758,
      "ii": 1759,
      "▁mother": 1760,
      "▁Get": 1761,
      "▁comm": 1762,
      "▁white": 1763,
      "▁working": 1764,
      "most": 1765,
      "ingers": 1766,
      "land": 1767,
      "▁sim": 1768,
      "omen": 1769,
      "▁eating": 1770,
      "hold": 1771,
      "olog": 1772,
      "▁Santa": 1773,
      "eep": 1774,
      "hin": 1775,
      "she": 1776,
      "▁ce": 1777,
      "▁chang": 1778,
      "▁computer": 1779,
      "cause": 1780,
      "▁inter": 1781,
      "▁stri": 1782,
      "▁hor": 1783,
      "▁Everyone": 1784,
      "hest": 1785,
      "▁sy": 1786,
      "ults": 1787,
      "▁many": 1788,
      "ense": 1789,
      "alf": 1790,
      "Is": 1791,
      "Are": 1792,
      "▁tomor": 1793,
      "▁mon": 1794,
      "▁Hat": 1795,
      "▁Look": 1796,
      "▁suck": 1797,
      "lov": 1798,
      "▁tomorrow": 1799,
      "Me": 1800,
      "▁band": 1801,
      "▁pants": 1802,
      "▁Sl": 1803,
      "ics": 1804,
      "ete": 1805,
      "▁kick": 1806,
      "▁goin": 1807,
      "▁super": 1808,
      "aah": 1809,
      "onight": 1810,
      "▁Some": 1811,
      "▁Je": 1812,
      "ugs": 1813,
      "▁party": 1814,
      "▁totally": 1815,
      "ony": 1816,
      "▁mill": 1817,
      "▁One": 1818,
      "▁Cho": 1819,
      "▁Hall": 1820,
      "ov": 1821,
      "ones": 1822,
      "▁couple": 1823,
      "iting": 1824,
      "uss": 1825,
      "exic": 1826,
      "▁dollars": 1827,
      "points": 1828,
      "ives": 1829,
      "iday": 1830,
      "▁somebody": 1831,
      "▁Steve": 1832,
      "▁boo": 1833,
      "▁toilet": 1834,
      "▁Ag": 1835,
      "▁means": 1836,
      "▁between": 1837,
      "▁building": 1838,
      "▁Hey": 1839,
      "▁conf": 1840,
      "▁different": 1841,
      "Re": 1842,
      "cial": 1843,
      "▁6": 1844,
      "ither": 1845,
      "▁yet": 1846,
      "▁power": 1847,
      "▁Maxi": 1848,
      "▁doctor": 1849,
      "yster": 1850,
      "▁taken": 1851,
      "▁mic": 1852,
      "▁year": 1853,
      "▁pie": 1854,
      "iff": 1855,
      "begins": 1856,
      "▁true": 1857,
      "▁follows": 1858,
      "Hi": 1859,
      "now": 1860,
      "used": 1861,
      "ooh": 1862,
      "▁People": 1863,
      "▁expl": 1864,
      "roflov": 1865,
      "▁butt": 1866,
      "▁leader": 1867,
      "roflovsk": 1868,
      "▁sleep": 1869,
      "▁cut": 1870,
      "▁pri": 1871,
      "▁Car": 1872,
      "▁rel": 1873,
      "▁wasn": 1874,
      "▁moment": 1875,
      "▁holding": 1876,
      "▁thank": 1877,
      "vel": 1878,
      "▁Q": 1879,
      "ines": 1880,
      "▁holds": 1881,
      "lete": 1882,
      "▁teacher": 1883,
      "▁drink": 1884,
      "ternet": 1885,
      "aving": 1886,
      "oe": 1887,
      "ince": 1888,
      "▁sitting": 1889,
      "stops": 1890,
      "▁tries": 1891,
      "▁bathroom": 1892,
      "Go": 1893,
      "zy": 1894,
      "▁mess": 1895,
      "vern": 1896,
      "▁dog": 1897,
      "amm": 1898,
      "▁coun": 1899,
      "▁top": 1900,
      "▁ru": 1901,
      "▁business": 1902,
      "esome": 1903,
      "Then": 1904,
      "▁used": 1905,
      "▁also": 1906,
      "▁control": 1907,
      "▁impor": 1908,
      "▁answer": 1909,
      "me": 1910,
      "ted": 1911,
      "▁went": 1912,
      "▁dou": 1913,
      "▁gas": 1914,
      "lic": 1915,
      "▁draw": 1916,
      "▁large": 1917,
      "▁killed": 1918,
      "▁walking": 1919,
      "ited": 1920,
      "▁cross": 1921,
      "ahah": 1922,
      "▁slow": 1923,
      "▁hallway": 1924,
      "vice": 1925,
      "▁dream": 1926,
      "▁His": 1927,
      "▁Your": 1928,
      "▁wife": 1929,
      "▁Mexic": 1930,
      "iddle": 1931,
      "ject": 1932,
      "▁bull": 1933,
      "▁Are": 1934,
      "raid": 1935,
      "▁board": 1936,
      "Mom": 1937,
      "puts": 1938,
      "▁wond": 1939,
      "erry": 1940,
      "▁fell": 1941,
      "▁pain": 1942,
      "▁leg": 1943,
      "▁col": 1944,
      "▁dumb": 1945,
      "idy": 1946,
      "▁Den": 1947,
      "uart": 1948,
      "▁squ": 1949,
      "urity": 1950,
      "▁Here": 1951,
      "ky": 1952,
      "▁bag": 1953,
      "uture": 1954,
      "▁yourself": 1955,
      "aptain": 1956,
      "▁appear": 1957,
      "goes": 1958,
      "ocks": 1959,
      "▁law": 1960,
      "▁reaches": 1961,
      "ephest": 1962,
      "osp": 1963,
      "▁America": 1964,
      "▁Reporter": 1965,
      "▁Jeff": 1966,
      "▁hon": 1967,
      "▁movie": 1968,
      "ephesto": 1969,
      "▁fly": 1970,
      "▁pull": 1971,
      "▁throws": 1972,
      "▁ele": 1973,
      "apan": 1974,
      "▁started": 1975,
      "iver": 1976,
      "let": 1977,
      "▁heart": 1978,
      "▁Broflovsk": 1979,
      "gridy": 1980,
      "▁penis": 1981,
      "Dam": 1982,
      "▁9": 1983,
      "tend": 1984,
      "▁afraid": 1985,
      "▁gives": 1986,
      "▁bott": 1987,
      "▁Rich": 1988,
      "urse": 1989,
      "▁buy": 1990,
      "▁important": 1991,
      "▁bra": 1992,
      "▁fre": 1993,
      "▁pee": 1994,
      "ado": 1995,
      "▁alright": 1996,
      "oom": 1997,
      "ann": 1998,
      "▁sick": 1999,
      "▁team": 2000,
      "▁asshole": 2001,
      "▁standing": 2002,
      "▁ear": 2003,
      "chor": 2004,
      "ately": 2005,
      "leaves": 2006,
      "▁Japan": 2007,
      "▁pe": 2008,
      "▁anyone": 2009,
      "An": 2010,
      "▁fish": 2011,
      "ager": 2012,
      "▁almost": 2013,
      "▁exp": 2014,
      "Please": 2015,
      "▁Z": 2016,
      "▁inv": 2017,
      "▁bel": 2018,
      "▁Ad": 2019,
      "▁Then": 2020,
      "unt": 2021,
      "▁Stuart": 2022,
      "rans": 2023,
      "▁whe": 2024,
      "nder": 2025,
      "▁lost": 2026,
      "ances": 2027,
      "Aww": 2028,
      "Dad": 2029,
      "pulls": 2030,
      "ative": 2031,
      "▁dressed": 2032,
      "Because": 2033,
      "Ex": 2034,
      "cc": 2035,
      "▁women": 2036,
      "▁piss": 2037,
      "ode": 2038,
      "▁entrance": 2039,
      "▁ap": 2040,
      "▁Mephesto": 2041,
      "▁beat": 2042,
      "▁At": 2043,
      "▁shock": 2044,
      "▁Lu": 2045,
      "▁Next": 2046,
      "ably": 2047,
      "▁Internet": 2048,
      "▁Canada": 2049,
      "▁dire": 2050,
      "▁brother": 2051,
      "Did": 2052,
      "ndred": 2053,
      "opens": 2054,
      "▁sounds": 2055,
      "oud": 2056,
      "ounds": 2057,
      "▁glass": 2058,
      "Right": 2059,
      "wh": 2060,
      "▁finger": 2061,
      "eth": 2062,
      "ung": 2063,
      "▁Nathan": 2064,
      "udge": 2065,
      "▁send": 2066,
      "▁speak": 2067,
      "▁Boys": 2068,
      "▁tou": 2069,
      "▁shoo": 2070,
      "▁David": 2071,
      "OU": 2072,
      "ma": 2073,
      "▁pick": 2074,
      "▁Where": 2075,
      "ages": 2076,
      "▁running": 2077,
      "ighs": 2078,
      "Thank": 2079,
      "▁Marvin": 2080,
      "On": 2081,
      "com": 2082,
      "with": 2083,
      "een": 2084,
      "▁city": 2085,
      "▁gather": 2086,
      "▁Pat": 2087,
      "ountain": 2088,
      "AR": 2089,
      "▁sile": 2090,
      "▁Min": 2091,
      "▁Kim": 2092,
      "amed": 2093,
      "▁kiss": 2094,
      "eez": 2095,
      "▁needs": 2096,
      "▁truck": 2097,
      "▁cost": 2098,
      "▁bedroom": 2099,
      "▁point": 2100,
      "▁tonight": 2101,
      "▁reads": 2102,
      "ume": 2103,
      "▁nobody": 2104,
      "▁exc": 2105,
      "orts": 2106,
      "elson": 2107,
      "▁rock": 2108,
      "▁six": 2109,
      "▁grow": 2110,
      "addam": 2111,
      "▁seem": 2112,
      "▁hundred": 2113,
      "work": 2114,
      "▁trou": 2115,
      "▁ahead": 2116,
      "erk": 2117,
      "▁int": 2118,
      "▁Ex": 2119,
      "oods": 2120,
      "Ike": 2121,
      "fl": 2122,
      "pris": 2123,
      "▁bunch": 2124,
      "▁worry": 2125,
      "▁Black": 2126,
      "▁lights": 2127,
      "ES": 2128,
      "▁fall": 2129,
      "▁Kids": 2130,
      "▁knew": 2131,
      "▁ago": 2132,
      "opez": 2133,
      "rit": 2134,
      "leas": 2135,
      "▁half": 2136,
      "▁Che": 2137,
      "▁ride": 2138,
      "unity": 2139,
      "▁For": 2140,
      "ifer": 2141,
      "▁produ": 2142,
      "▁grad": 2143,
      "▁Lead": 2144,
      "ysterion": 2145,
      "▁faces": 2146,
      "ried": 2147,
      "igure": 2148,
      "▁Fran": 2149,
      "▁seems": 2150,
      "▁drive": 2151,
      "otch": 2152,
      "▁Please": 2153,
      "steps": 2154,
      "▁Jan": 2155,
      "▁Lopez": 2156,
      "umber": 2157,
      "Thanks": 2158,
      "May": 2159,
      "pped": 2160,
      "▁safe": 2161,
      "▁thanks": 2162,
      "friend": 2163,
      "▁since": 2164,
      "▁del": 2165,
      "▁dest": 2166,
      "orado": 2167,
      "ays": 2168,
      "▁returns": 2169,
      "▁angry": 2170,
      "af": 2171,
      "stand": 2172,
      "▁hat": 2173,
      "▁hol": 2174,
      "ities": 2175,
      "▁gen": 2176,
      "▁par": 2177,
      "ksond": 2178,
      "icken": 2179,
      "▁coff": 2180,
      "resses": 2181,
      "▁News": 2182,
      "udden": 2183,
      "▁week": 2184,
      "ksondik": 2185,
      "To": 2186,
      "evin": 2187,
      "▁inst": 2188,
      "▁General": 2189,
      "▁Nelson": 2190,
      "▁clear": 2191,
      "▁return": 2192,
      "holds": 2193,
      "▁Choksondik": 2194,
      "bt": 2195,
      "min": 2196,
      "▁hit": 2197,
      "▁med": 2198,
      "ims": 2199,
      "urch": 2200,
      "abb": 2201,
      "▁wouldn": 2202,
      "sm": 2203,
      "uu": 2204,
      "▁fa": 2205,
      "▁mont": 2206,
      "▁When": 2207,
      "Your": 2208,
      "▁awesome": 2209,
      "▁Broflovski": 2210,
      "▁Richard": 2211,
      "▁stick": 2212,
      "▁Af": 2213,
      "▁thinking": 2214,
      "▁moments": 2215,
      "▁complete": 2216,
      "▁Maybe": 2217,
      "Be": 2218,
      "ior": 2219,
      "▁es": 2220,
      "▁center": 2221,
      "▁stat": 2222,
      "▁Pr": 2223,
      "▁officers": 2224,
      "ospital": 2225,
      "▁hours": 2226,
      "▁future": 2227,
      "▁ins": 2228,
      "rible": 2229,
      "▁blow": 2230,
      "ftly": 2231,
      "▁cheer": 2232,
      "▁become": 2233,
      "▁eye": 2234,
      "▁record": 2235,
      "▁dark": 2236,
      "▁far": 2237,
      "▁mil": 2238,
      "omb": 2239,
      "tance": 2240,
      "▁Strong": 2241,
      "▁attention": 2242,
      "▁grabs": 2243,
      "itor": 2244,
      "▁quiet": 2245,
      "▁report": 2246,
      "▁officer": 2247,
      "▁Agent": 2248,
      "vernment": 2249,
      "ires": 2250,
      "off": 2251,
      "utes": 2252,
      "▁Chief": 2253,
      "▁anybody": 2254,
      "dr": 2255,
      "▁Tra": 2256,
      "▁Will": 2257,
      "entle": 2258,
      "▁notices": 2259,
      "▁company": 2260,
      "ormal": 2261,
      "ennifer": 2262,
      "cy": 2263,
      "walk": 2264,
      "▁dick": 2265,
      "▁driver": 2266,
      "▁Colorado": 2267,
      "Bo": 2268,
      "Chef": 2269,
      "IN": 2270,
      "▁cell": 2271,
      "bably": 2272,
      "yp": 2273,
      "▁thous": 2274,
      "▁Big": 2275,
      "▁bell": 2276,
      "▁eas": 2277,
      "▁Pete": 2278,
      "▁tried": 2279,
      "▁Chinese": 2280,
      "bb": 2281,
      "arent": 2282,
      "emale": 2283,
      "▁shoulder": 2284,
      "▁points": 2285,
      "▁coffee": 2286,
      "ER": 2287,
      "Sc": 2288,
      "Sure": 2289,
      "aven": 2290,
      "erg": 2291,
      "▁Mysterion": 2292,
      "▁ste": 2293,
      "▁Girl": 2294,
      "▁haven": 2295,
      "▁whatever": 2296,
      "osh": 2297,
      "▁human": 2298,
      "▁trouble": 2299,
      "At": 2300,
      "▁tre": 2301,
      "ery": 2302,
      "▁pack": 2303,
      "▁lunch": 2304,
      "unk": 2305,
      "▁reading": 2306,
      "▁sell": 2307,
      "▁pan": 2308,
      "aming": 2309,
      "▁jumps": 2310,
      "board": 2311,
      "▁Slave": 2312,
      "▁slowly": 2313,
      "▁pa": 2314,
      "▁picks": 2315,
      "▁Rick": 2316,
      "▁memb": 2317,
      "ired": 2318,
      "HH": 2319,
      "▁clean": 2320,
      "▁American": 2321,
      "joy": 2322,
      "ron": 2323,
      "sl": 2324,
      "▁mag": 2325,
      "▁ob": 2326,
      "▁rises": 2327,
      "▁story": 2328,
      "▁ref": 2329,
      "▁Good": 2330,
      "▁Japanese": 2331,
      "fect": 2332,
      "gan": 2333,
      "▁Count": 2334,
      "idence": 2335,
      "▁Ge": 2336,
      "umm": 2337,
      "ully": 2338,
      "▁Saddam": 2339,
      "▁vis": 2340,
      "▁alien": 2341,
      "▁cheers": 2342,
      "▁McC": 2343,
      "▁answers": 2344,
      "▁learned": 2345,
      "opping": 2346,
      "attle": 2347,
      "▁Thomas": 2348,
      "lcome": 2349,
      "▁ice": 2350,
      "ono": 2351,
      "▁ship": 2352,
      "stairs": 2353,
      "▁clim": 2354,
      "▁imm": 2355,
      "what": 2356,
      "▁smiles": 2357,
      "▁members": 2358,
      "ID": 2359,
      "ket": 2360,
      "line": 2361,
      "▁di": 2362,
      "▁dance": 2363,
      "▁Ob": 2364,
      "izz": 2365,
      "back": 2366,
      "▁trans": 2367,
      "▁Ro": 2368,
      "▁Did": 2369,
      "appro": 2370,
      "▁pictures": 2371,
      "ares": 2372,
      "▁ah": 2373,
      "▁poor": 2374,
      "ically": 2375,
      "unches": 2376,
      "iling": 2377,
      "▁Elder": 2378,
      "▁road": 2379,
      "▁Un": 2380,
      "AT": 2381,
      "tin": 2382,
      "▁tree": 2383,
      "ishes": 2384,
      "▁flag": 2385,
      "aaa": 2386,
      "▁tele": 2387,
      "▁telling": 2388,
      "ized": 2389,
      "▁camp": 2390,
      "▁learn": 2391,
      "▁White": 2392,
      "oes": 2393,
      "lebr": 2394,
      "▁throw": 2395,
      "▁Miss": 2396,
      "uring": 2397,
      "▁government": 2398,
      "▁Not": 2399,
      "▁Far": 2400,
      "▁club": 2401,
      "olly": 2402,
      "azing": 2403,
      "gie": 2404,
      "▁toss": 2405,
      "▁thinks": 2406,
      "▁Kevin": 2407,
      "▁Pro": 2408,
      "▁aside": 2409,
      "▁able": 2410,
      "range": 2411,
      "▁adults": 2412,
      "▁grand": 2413,
      "▁snow": 2414,
      "ched": 2415,
      "▁Yes": 2416,
      "▁field": 2417,
      "▁Squ": 2418,
      "uses": 2419,
      "▁Member": 2420,
      "▁Gore": 2421,
      "▁Every": 2422,
      "▁approach": 2423,
      "▁middle": 2424,
      "▁either": 2425,
      "▁reve": 2426,
      "▁reason": 2427,
      "▁lives": 2428,
      "▁themselves": 2429,
      "▁scared": 2430,
      "uper": 2431,
      "aught": 2432,
      "▁entire": 2433,
      "▁Canadian": 2434,
      "end": 2435,
      "▁fair": 2436,
      "▁figure": 2437,
      "veral": 2438,
      "unned": 2439,
      "pper": 2440,
      "rought": 2441,
      "▁knocks": 2442,
      "▁surpris": 2443,
      "▁meeting": 2444,
      "ym": 2445,
      "▁mot": 2446,
      "▁Gary": 2447,
      "▁attack": 2448,
      "bot": 2449,
      "▁cer": 2450,
      "▁cond": 2451,
      "▁Ind": 2452,
      "▁Town": 2453,
      "▁stra": 2454,
      "▁forth": 2455,
      "▁jack": 2456,
      "▁jump": 2457,
      "rist": 2458,
      "▁probably": 2459,
      "▁fuckin": 2460,
      "aut": 2461,
      "for": 2462,
      "fully": 2463,
      "▁sand": 2464,
      "▁inte": 2465,
      "▁million": 2466,
      "con": 2467,
      "zz": 2468,
      "▁brought": 2469,
      "▁det": 2470,
      "amb": 2471,
      "▁myself": 2472,
      "▁damn": 2473,
      "▁dinner": 2474,
      "acing": 2475,
      "▁nose": 2476,
      "▁space": 2477,
      "▁Thanks": 2478,
      "▁rolls": 2479,
      "hands": 2480,
      "rog": 2481,
      "umes": 2482,
      "Shut": 2483,
      "ten": 2484,
      "▁X": 2485,
      "▁test": 2486,
      "▁though": 2487,
      "▁TH": 2488,
      "▁char": 2489,
      "▁death": 2490,
      "▁order": 2491,
      "Everyone": 2492,
      "When": 2493,
      "sible": 2494,
      "▁creat": 2495,
      "▁pop": 2496,
      "▁seated": 2497,
      "▁cover": 2498,
      "▁screw": 2499,
      "For": 2500,
      "Sp": 2501,
      "▁7": 2502,
      "▁hits": 2503,
      "▁dep": 2504,
      "▁pops": 2505,
      "▁lad": 2506,
      "▁reach": 2507,
      "host": 2508,
      "▁Lord": 2509,
      "▁sold": 2510,
      "mercial": 2511,
      "▁laughs": 2512,
      "▁nearby": 2513,
      "OM": 2514,
      "▁sent": 2515,
      "▁normal": 2516,
      "▁Jennifer": 2517,
      "▁knock": 2518,
      "▁Father": 2519,
      "▁seats": 2520,
      "▁classroom": 2521,
      "▁Denver": 2522,
      "gra": 2523,
      "ole": 2524,
      "over": 2525,
      "▁tick": 2526,
      "▁Captain": 2527,
      "▁stairs": 2528,
      "▁area": 2529,
      "▁Dan": 2530,
      "vision": 2531,
      "▁Smith": 2532,
      "ding": 2533,
      "▁Because": 2534,
      "▁Pass": 2535,
      "▁leaving": 2536,
      "rily": 2537,
      "iful": 2538,
      "▁Grandpa": 2539,
      "stands": 2540,
      "Sorry": 2541,
      "▁Center": 2542,
      "▁Our": 2543,
      "▁quite": 2544,
      "▁shouldn": 2545,
      "▁hurt": 2546,
      "Back": 2547,
      "ze": 2548,
      "read": 2549,
      "▁cars": 2550,
      "▁fart": 2551,
      "enters": 2552,
      "▁Hell": 2553,
      "unny": 2554,
      "▁NO": 2555,
      "▁Stre": 2556,
      "anket": 2557,
      "damnit": 2558,
      "arrator": 2559,
      "▁celebr": 2560,
      "▁gave": 2561,
      "▁land": 2562,
      "▁lands": 2563,
      "▁forget": 2564,
      "▁mem": 2565,
      "ills": 2566,
      "▁least": 2567,
      "▁somewhere": 2568,
      "▁giant": 2569,
      "Really": 2570,
      "Tom": 2571,
      "▁cap": 2572,
      "ustom": 2573,
      "inds": 2574,
      "▁Anchor": 2575,
      "▁question": 2576,
      "gers": 2577,
      "▁fast": 2578,
      "▁farts": 2579,
      "▁inc": 2580,
      "▁def": 2581,
      "▁Inside": 2582,
      "▁piece": 2583,
      "▁wonder": 2584,
      "▁fil": 2585,
      "▁shirt": 2586,
      "▁knows": 2587,
      "▁hello": 2588,
      "gram": 2589,
      "▁huge": 2590,
      "▁Billy": 2591,
      "▁words": 2592,
      "bor": 2593,
      "ced": 2594,
      "ees": 2595,
      "la": 2596,
      "light": 2597,
      "▁third": 2598,
      "usse": 2599,
      "riet": 2600,
      "▁truth": 2601,
      "eteria": 2602,
      "Out": 2603,
      "Sir": 2604,
      "ered": 2605,
      "ring": 2606,
      "▁ten": 2607,
      "▁sense": 2608,
      "▁eight": 2609,
      "▁Pl": 2610,
      "irth": 2611,
      "▁Res": 2612,
      "▁shoot": 2613,
      "▁Day": 2614,
      "▁several": 2615,
      "▁enjoy": 2616,
      "hhhh": 2617,
      "▁closer": 2618,
      "ammad": 2619,
      "▁pissed": 2620,
      "▁certain": 2621,
      "bell": 2622,
      "oly": 2623,
      "▁ma": 2624,
      "▁smart": 2625,
      "▁interest": 2626,
      "oins": 2627,
      "▁i": 2628,
      "ana": 2629,
      "ished": 2630,
      "▁cat": 2631,
      "▁opp": 2632,
      "▁pat": 2633,
      "omes": 2634,
      "ashes": 2635,
      "acy": 2636,
      "▁Wait": 2637,
      "akov": 2638,
      "ains": 2639,
      "entlemen": 2640,
      "▁Obama": 2641,
      "Wh": 2642,
      "ye": 2643,
      "inc": 2644,
      "▁bow": 2645,
      "▁pig": 2646,
      "▁chance": 2647,
      "Wendy": 2648,
      "▁singing": 2649,
      "▁arrives": 2650,
      "▁locker": 2651,
      "▁destro": 2652,
      "uddenly": 2653,
      "▁ain": 2654,
      "▁gro": 2655,
      "▁See": 2656,
      "▁joke": 2657,
      "▁Dou": 2658,
      "▁Narrator": 2659,
      "▁smile": 2660,
      "obb": 2661,
      "actly": 2662,
      "ij": 2663,
      "▁cuts": 2664,
      "▁dist": 2665,
      "▁fur": 2666,
      "acc": 2667,
      "▁guard": 2668,
      "▁spl": 2669,
      "▁blue": 2670,
      "Timm": 2671,
      "▁bast": 2672,
      "▁card": 2673,
      "▁cream": 2674,
      "▁crying": 2675,
      "▁yell": 2676,
      "▁Co": 2677,
      "▁welcome": 2678,
      "eef": 2679,
      "▁god": 2680,
      "▁Earth": 2681,
      "▁lose": 2682,
      "▁prop": 2683,
      "▁minutes": 2684,
      "▁basket": 2685,
      "▁terror": 2686,
      "▁thousand": 2687,
      "aff": 2688,
      "everyone": 2689,
      "▁hops": 2690,
      "▁mall": 2691,
      "▁lab": 2692,
      "▁bear": 2693,
      "▁Stanley": 2694,
      "▁With": 2695,
      "▁using": 2696,
      "▁laughing": 2697,
      "▁reporter": 2698,
      "▁Tegridy": 2699,
      "grabs": 2700,
      "haps": 2701,
      "nce": 2702,
      "time": 2703,
      "▁met": 2704,
      "▁gym": 2705,
      "▁egg": 2706,
      "rence": 2707,
      "▁crazy": 2708,
      "▁County": 2709,
      "▁background": 2710,
      "▁clot": 2711,
      "▁van": 2712,
      "ational": 2713,
      "aaah": 2714,
      "▁starting": 2715,
      "▁happens": 2716,
      "ancing": 2717,
      "▁evil": 2718,
      "▁television": 2719,
      "▁troll": 2720,
      "lex": 2721,
      "▁ep": 2722,
      "▁Dri": 2723,
      "▁Les": 2724,
      "▁towel": 2725,
      "▁couldn": 2726,
      "aughter": 2727,
      "ublic": 2728,
      "ocket": 2729,
      "bye": 2730,
      "▁sky": 2731,
      "▁arrive": 2732,
      "vil": 2733,
      "▁ed": 2734,
      "atic": 2735,
      "▁pus": 2736,
      "▁late": 2737,
      "▁Mel": 2738,
      "▁weed": 2739,
      "▁Harris": 2740,
      "rag": 2741,
      "rian": 2742,
      "▁chicken": 2743,
      "▁sucks": 2744,
      "hered": 2745,
      "iously": 2746,
      "▁Special": 2747,
      "approaches": 2748,
      "AN": 2749,
      "Some": 2750,
      "but": 2751,
      "hood": 2752,
      "inal": 2753,
      "▁catch": 2754,
      "▁Work": 2755,
      "▁form": 2756,
      "stem": 2757,
      "▁commercial": 2758,
      "▁amazing": 2759,
      "▁sets": 2760,
      "itches": 2761,
      "▁To": 2762,
      "aching": 2763,
      "▁Her": 2764,
      "▁anim": 2765,
      "iends": 2766,
      "▁plane": 2767,
      "kins": 2768,
      "▁sad": 2769,
      "▁Tr": 2770,
      "▁Adam": 2771,
      "irit": 2772,
      "urger": 2773,
      "ugg": 2774,
      "appears": 2775,
      "▁giving": 2776,
      "Bear": 2777,
      "Fuck": 2778,
      "lin": 2779,
      "▁ve": 2780,
      "▁case": 2781,
      "▁City": 2782,
      "▁ring": 2783,
      "▁places": 2784,
      "rincess": 2785,
      "▁Guy": 2786,
      "Excuse": 2787,
      "ead": 2788,
      "▁Mic": 2789,
      "imp": 2790,
      "▁stunned": 2791,
      "▁Police": 2792,
      "▁Thank": 2793,
      "000": 2794,
      "▁esc": 2795,
      "▁tape": 2796,
      "lect": 2797,
      "▁cow": 2798,
      "▁la": 2799,
      "▁Tu": 2800,
      "edy": 2801,
      "▁Ar": 2802,
      "▁Joe": 2803,
      "▁sometimes": 2804,
      "wear": 2805,
      "▁stopp": 2806,
      "Maybe": 2807,
      "gl": 2808,
      "ges": 2809,
      "▁breat": 2810,
      "▁deep": 2811,
      "▁mas": 2812,
      "▁pans": 2813,
      "▁Cru": 2814,
      "▁cannot": 2815,
      "▁flo": 2816,
      "▁prom": 2817,
      "▁Clerk": 2818,
      "▁clothes": 2819,
      "Ow": 2820,
      "ract": 2821,
      "▁Sec": 2822,
      "▁Ben": 2823,
      "▁Per": 2824,
      "▁Pri": 2825,
      "▁leads": 2826,
      "▁moving": 2827,
      "rince": 2828,
      "anger": 2829,
      "Sharon": 2830,
      "▁turd": 2831,
      "smiles": 2832,
      "that": 2833,
      "▁cry": 2834,
      "▁Super": 2835,
      "▁number": 2836,
      "▁King": 2837,
      "▁Har": 2838,
      "▁less": 2839,
      "▁Nic": 2840,
      "▁save": 2841,
      "▁babies": 2842,
      "▁month": 2843,
      "▁Driver": 2844,
      "view": 2845,
      "arc": 2846,
      "▁ble": 2847,
      "▁pu": 2848,
      "▁pir": 2849,
      "▁pur": 2850,
      "▁doin": 2851,
      "aha": 2852,
      "isten": 2853,
      "▁train": 2854,
      "▁corner": 2855,
      "See": 2856,
      "got": 2857,
      "iving": 2858,
      "▁backs": 2859,
      "▁gat": 2860,
      "▁president": 2861,
      "▁low": 2862,
      "iding": 2863,
      "keeter": 2864,
      "▁disc": 2865,
      "▁reveal": 2866,
      "mp": 2867,
      "arch": 2868,
      "▁burn": 2869,
      "▁cup": 2870,
      "▁fact": 2871,
      "▁green": 2872,
      "▁Am": 2873,
      "▁Hu": 2874,
      "▁Or": 2875,
      "ucker": 2876,
      "▁phot": 2877,
      "▁Scout": 2878,
      "▁happening": 2879,
      "▁caf": 2880,
      "screen": 2881,
      "▁Cruise": 2882,
      "can": 2883,
      "▁hospital": 2884,
      "▁cop": 2885,
      "▁mountain": 2886,
      "orge": 2887,
      "▁poop": 2888,
      "▁nin": 2889,
      "ided": 2890,
      "▁gold": 2891,
      "▁Dis": 2892,
      "▁exactly": 2893,
      "▁realize": 2894,
      "▁restaur": 2895,
      "▁planet": 2896,
      "▁system": 2897,
      "▁gathered": 2898,
      "Cra": 2899,
      "▁watches": 2900,
      "▁gar": 2901,
      "▁eff": 2902,
      "▁step": 2903,
      "▁neigh": 2904,
      "ular": 2905,
      "▁Crabt": 2906,
      "▁finds": 2907,
      "▁costume": 2908,
      "pers": 2909,
      "▁8": 2910,
      "▁tor": 2911,
      "▁principal": 2912,
      "ashing": 2913,
      "▁rush": 2914,
      "▁Larry": 2915,
      "ility": 2916,
      "astic": 2917,
      "ments": 2918,
      "▁putting": 2919,
      "▁Friends": 2920,
      "▁fellas": 2921,
      "▁silent": 2922,
      "aos": 2923,
      "hu": 2924,
      "king": 2925,
      "▁strong": 2926,
      "irty": 2927,
      "enty": 2928,
      "▁These": 2929,
      "starts": 2930,
      "▁Ed": 2931,
      "▁Other": 2932,
      "▁works": 2933,
      "▁spee": 2934,
      "▁flash": 2935,
      "avor": 2936,
      "▁seriously": 2937,
      "▁wheel": 2938,
      "▁cafeteria": 2939,
      "bl": 2940,
      "▁wish": 2941,
      "oops": 2942,
      "▁Right": 2943,
      "▁Stotch": 2944,
      "▁agents": 2945,
      "angs": 2946,
      "▁concer": 2947,
      "▁YOU": 2948,
      "▁simple": 2949,
      "▁completely": 2950,
      "▁Crabtree": 2951,
      "Clyde": 2952,
      "Gu": 2953,
      "rah": 2954,
      "▁ban": 2955,
      "▁books": 2956,
      "▁pot": 2957,
      "▁Mart": 2958,
      "imsy": 2959,
      "▁wear": 2960,
      "ects": 2961,
      "▁seeing": 2962,
      "▁continue": 2963,
      "▁weeks": 2964,
      "▁choice": 2965,
      "AS": 2966,
      "Every": 2967,
      "rup": 2968,
      "▁fist": 2969,
      "ica": 2970,
      "illy": 2971,
      "▁keeps": 2972,
      "▁Brit": 2973,
      "Pig": 2974,
      "eh": 2975,
      "▁sou": 2976,
      "▁wien": 2977,
      "▁mach": 2978,
      "▁beaut": 2979,
      "▁allow": 2980,
      "▁above": 2981,
      "ift": 2982,
      "▁everywhere": 2983,
      "▁showing": 2984,
      "▁drop": 2985,
      "▁Clin": 2986,
      "▁fourth": 2987,
      "arently": 2988,
      "BearPig": 2989,
      "Jimmy": 2990,
      "how": 2991,
      "▁battle": 2992,
      "▁mir": 2993,
      "▁Crowd": 2994,
      "▁rain": 2995,
      "▁short": 2996,
      "▁agree": 2997,
      "▁prep": 2998,
      "▁ends": 2999,
      "▁asked": 3000,
      "und": 3001,
      "ert": 3002,
      "▁Gay": 3003,
      "ili": 3004,
      "olks": 3005,
      "▁agent": 3006,
      "ulous": 3007,
      "ploy": 3008,
      "▁raises": 3009,
      "▁touch": 3010,
      "ey": 3011,
      "set": 3012,
      "▁lady": 3013,
      "ider": 3014,
      "sey": 3015,
      "bert": 3016,
      "▁longer": 3017,
      "▁protect": 3018,
      "As": 3019,
      "ray": 3020,
      "▁hist": 3021,
      "▁neck": 3022,
      "▁Stop": 3023,
      "▁perfect": 3024,
      "▁fighting": 3025,
      "▁problems": 3026,
      "AAAAAAAA": 3027,
      "▁Carol": 3028,
      "ussell": 3029,
      "Eh": 3030,
      "Man": 3031,
      "▁birth": 3032,
      "ature": 3033,
      "leg": 3034,
      "▁crew": 3035,
      "▁ghost": 3036,
      "▁Cupid": 3037,
      "▁Se": 3038,
      "▁str": 3039,
      "▁rece": 3040,
      "▁Rob": 3041,
      "▁shall": 3042,
      "rif": 3043,
      "berry": 3044,
      "▁Class": 3045,
      "Stop": 3046,
      "▁Mexican": 3047,
      "LL": 3048,
      "laugh": 3049,
      "some": 3050,
      "sits": 3051,
      "ests": 3052,
      "▁Ser": 3053,
      "▁Tw": 3054,
      "idge": 3055,
      "▁Kitty": 3056,
      "▁Nobody": 3057,
      "▁booth": 3058,
      "▁Qu": 3059,
      "▁Nichole": 3060,
      "▁speech": 3061,
      "uc": 3062,
      "reaches": 3063,
      "▁fingers": 3064,
      "▁mass": 3065,
      "▁Sky": 3066,
      "▁Mike": 3067,
      "▁station": 3068,
      "▁Par": 3069,
      "▁note": 3070,
      "▁vict": 3071,
      "▁10": 3072,
      "▁crack": 3073,
      "▁Friday": 3074,
      "▁Worker": 3075,
      "band": 3076,
      "nie": 3077,
      "heh": 3078,
      "▁sun": 3079,
      "▁bat": 3080,
      "▁base": 3081,
      "▁luck": 3082,
      "oph": 3083,
      "▁vagin": 3084,
      "▁blows": 3085,
      "▁imagin": 3086,
      "▁position": 3087,
      "▁basement": 3088,
      "Outside": 3089,
      "▁Priest": 3090,
      "gest": 3091,
      "ners": 3092,
      "vent": 3093,
      "hee": 3094,
      "▁sle": 3095,
      "▁cir": 3096,
      "▁mur": 3097,
      "▁page": 3098,
      "▁Cr": 3099,
      "▁inde": 3100,
      "▁reg": 3101,
      "▁Dick": 3102,
      "rises": 3103,
      "▁Char": 3104,
      "▁secret": 3105,
      "alent": 3106,
      "▁Teen": 3107,
      "ival": 3108,
      "▁straight": 3109,
      "▁Tuong": 3110,
      "gly": 3111,
      "▁treat": 3112,
      "▁bike": 3113,
      "lent": 3114,
      "▁honey": 3115,
      "ummy": 3116,
      "throws": 3117,
      "▁write": 3118,
      "▁Stevens": 3119,
      "▁feet": 3120,
      "▁confused": 3121,
      "▁easy": 3122,
      "▁Farms": 3123,
      "borhood": 3124,
      "Our": 3125,
      "Ugh": 3126,
      "lause": 3127,
      "▁typ": 3128,
      "orld": 3129,
      "▁Brian": 3130,
      "▁Ah": 3131,
      "▁flies": 3132,
      "▁calling": 3133,
      "▁fatass": 3134,
      "▁official": 3135,
      "▁zoom": 3136,
      "Gerald": 3137,
      "One": 3138,
      "Tolkien": 3139,
      "▁cart": 3140,
      "▁ind": 3141,
      "▁Boo": 3142,
      "▁rub": 3143,
      "▁rushes": 3144,
      "▁star": 3145,
      "▁Prof": 3146,
      "▁doorbell": 3147,
      "▁worked": 3148,
      "onster": 3149,
      "▁killing": 3150,
      "▁excited": 3151,
      "drops": 3152,
      "Ne": 3153,
      "Wel": 3154,
      "two": 3155,
      "voice": 3156,
      "ites": 3157,
      "alth": 3158,
      "▁Kelly": 3159,
      "▁Peter": 3160,
      "eeper": 3161,
      "▁Det": 3162,
      "rench": 3163,
      "oohoo": 3164,
      "▁fault": 3165,
      "▁member": 3166,
      "▁destroy": 3167,
      "Cause": 3168,
      "IT": 3169,
      "Mart": 3170,
      "picks": 3171,
      "▁roof": 3172,
      "ella": 3173,
      "abs": 3174,
      "order": 3175,
      "▁feeling": 3176,
      "▁football": 3177,
      "▁epis": 3178,
      "ET": 3179,
      "With": 3180,
      "wood": 3181,
      "rem": 3182,
      "▁Skeeter": 3183,
      "▁Prince": 3184,
      "▁upon": 3185,
      "▁shop": 3186,
      "▁Josh": 3187,
      "ickly": 3188,
      "▁loc": 3189,
      "▁ext": 3190,
      "▁cons": 3191,
      "▁distance": 3192,
      "▁bigger": 3193,
      "play": 3194,
      "appy": 3195,
      "closes": 3196,
      "ientist": 3197,
      "▁priv": 3198,
      "▁graders": 3199,
      "▁Towns": 3200,
      "▁beautiful": 3201,
      "rushes": 3202,
      "yard": 3203,
      "itter": 3204,
      "▁fag": 3205,
      "▁mad": 3206,
      "▁mine": 3207,
      "oween": 3208,
      "sees": 3209,
      "cha": 3210,
      "▁joins": 3211,
      "▁Nurse": 3212,
      "ummer": 3213,
      "▁vol": 3214,
      "▁player": 3215,
      "berg": 3216,
      "ressed": 3217,
      "▁pract": 3218,
      "okes": 3219,
      "mmm": 3220,
      "iety": 3221,
      "▁Johnson": 3222,
      "▁emp": 3223,
      "▁legs": 3224,
      "Damn": 3225,
      "▁George": 3226,
      "▁tosses": 3227,
      "Welcome": 3228,
      "ON": 3229,
      "▁bomb": 3230,
      "▁foc": 3231,
      "▁main": 3232,
      "▁ones": 3233,
      "▁elder": 3234,
      "elf": 3235,
      "▁except": 3236,
      "▁girlfriend": 3237,
      "shows": 3238,
      "▁following": 3239,
      "▁holiday": 3240,
      "▁Adams": 3241,
      "Fine": 3242,
      "Hold": 3243,
      "Te": 3244,
      "ken": 3245,
      "▁aff": 3246,
      "▁games": 3247,
      "▁thro": 3248,
      "▁Mimsy": 3249,
      "amily": 3250,
      "▁lets": 3251,
      "hose": 3252,
      "idel": 3253,
      "▁spirit": 3254,
      "▁Chaos": 3255,
      "▁prof": 3256,
      "▁somethin": 3257,
      "▁homeless": 3258,
      "▁passes": 3259,
      "▁counter": 3260,
      "annel": 3261,
      "▁instead": 3262,
      "▁bud": 3263,
      "▁hi": 3264,
      "▁chat": 3265,
      "▁cash": 3266,
      "▁folks": 3267,
      "▁mark": 3268,
      "▁los": 3269,
      "anda": 3270,
      "▁Have": 3271,
      "▁Russell": 3272,
      "chair": 3273,
      "iel": 3274,
      "▁announ": 3275,
      "▁Daw": 3276,
      "akin": 3277,
      "essor": 3278,
      "▁trash": 3279,
      "▁Guard": 3280,
      "▁forever": 3281,
      "▁ridic": 3282,
      "▁douche": 3283,
      "▁bottle": 3284,
      "▁shocked": 3285,
      "▁restaurant": 3286,
      "▁machine": 3287,
      "ucks": 3288,
      "▁Mus": 3289,
      "▁Mur": 3290,
      "alm": 3291,
      "▁round": 3292,
      "▁asleep": 3293,
      "▁church": 3294,
      "▁sub": 3295,
      "▁gotten": 3296,
      "▁ourselves": 3297,
      "▁turned": 3298,
      "▁angrily": 3299,
      "Craig": 3300,
      "Fr": 3301,
      "house": 3302,
      "ns": 3303,
      "▁favor": 3304,
      "▁press": 3305,
      "▁lowers": 3306,
      "edi": 3307,
      "▁beer": 3308,
      "▁um": 3309,
      "▁sol": 3310,
      "▁Fl": 3311,
      "▁project": 3312,
      "▁glad": 3313,
      "▁student": 3314,
      "▁calm": 3315,
      "▁broke": 3316,
      "sych": 3317,
      "▁certainly": 3318,
      "bec": 3319,
      "do": 3320,
      "iner": 3321,
      "ane": 3322,
      "▁sne": 3323,
      "▁sighs": 3324,
      "▁cook": 3325,
      "▁custom": 3326,
      "▁dem": 3327,
      "orth": 3328,
      "▁lim": 3329,
      "ammy": 3330,
      "▁notice": 3331,
      "▁Field": 3332,
      "onde": 3333,
      "▁exper": 3334,
      "▁spend": 3335,
      "▁corp": 3336,
      "▁Leslie": 3337,
      "laughs": 3338,
      "ca": 3339,
      "iers": 3340,
      "wich": 3341,
      "anch": 3342,
      "arri": 3343,
      "▁pool": 3344,
      "using": 3345,
      "asure": 3346,
      "otes": 3347,
      "mand": 3348,
      "▁Wall": 3349,
      "▁Dam": 3350,
      "▁boat": 3351,
      "aked": 3352,
      "ilt": 3353,
      "▁worse": 3354,
      "ulf": 3355,
      "▁anyway": 3356,
      "▁teeth": 3357,
      "▁writing": 3358,
      "ship": 3359,
      "Awww": 3360,
      "AH": 3361,
      "bra": 3362,
      "jumps": 3363,
      "reidel": 3364,
      "erv": 3365,
      "▁har": 3366,
      "▁hipp": 3367,
      "▁dancing": 3368,
      "▁Sw": 3369,
      "▁Sch": 3370,
      "acist": 3371,
      "ached": 3372,
      "▁upstairs": 3373,
      "▁button": 3374,
      "▁art": 3375,
      "▁security": 3376,
      "▁Americans": 3377,
      "▁Comm": 3378,
      "▁producer": 3379,
      "▁iP": 3380,
      "Ha": 3381,
      "IS": 3382,
      "NO": 3383,
      "ales": 3384,
      "hops": 3385,
      "ivers": 3386,
      "ised": 3387,
      "▁Jakov": 3388,
      "aped": 3389,
      "▁sea": 3390,
      "▁exit": 3391,
      "▁changes": 3392,
      "▁changed": 3393,
      "▁Janet": 3394,
      "▁milk": 3395,
      "ING": 3396,
      "▁McCorm": 3397,
      "▁wiener": 3398,
      "EN": 3399,
      "▁tank": 3400,
      "▁fif": 3401,
      "Ohhh": 3402,
      "ored": 3403,
      "ulhu": 3404,
      "thulhu": 3405,
      "▁block": 3406,
      "▁Another": 3407,
      "▁Phil": 3408,
      "▁driving": 3409,
      "▁asking": 3410,
      "▁missing": 3411,
      "▁Halloween": 3412,
      "gt": 3413,
      "member": 3414,
      "itar": 3415,
      "▁pod": 3416,
      "ases": 3417,
      "alt": 3418,
      "▁react": 3419,
      "▁repl": 3420,
      "▁House": 3421,
      "hers": 3422,
      "▁whoa": 3423,
      "▁grade": 3424,
      "▁screams": 3425,
      "damned": 3426,
      "arryl": 3427,
      "▁neighborhood": 3428,
      "11": 3429,
      "yan": 3430,
      "▁self": 3431,
      "arious": 3432,
      "isand": 3433,
      "▁hide": 3434,
      "▁during": 3435,
      "oring": 3436,
      "ased": 3437,
      "▁Jer": 3438,
      "Nobody": 3439,
      "▁tech": 3440,
      "▁Adler": 3441,
      "▁apart": 3442,
      "▁empty": 3443,
      "cent": 3444,
      "look": 3445,
      "▁gentlemen": 3446,
      "enger": 3447,
      "enriet": 3448,
      "▁pul": 3449,
      "▁School": 3450,
      "▁Time": 3451,
      "ades": 3452,
      "▁scr": 3453,
      "▁cold": 3454,
      "▁brings": 3455,
      "▁lots": 3456,
      "▁final": 3457,
      "▁support": 3458,
      "softly": 3459,
      "▁Ellen": 3460,
      "▁questions": 3461,
      "▁Clinton": 3462,
      "▁history": 3463,
      "enrietta": 3464,
      "CK": 3465,
      "Of": 3466,
      "Tr": 3467,
      "folk": 3468,
      "yy": 3469,
      "▁ign": 3470,
      "▁waves": 3471,
      "icop": 3472,
      "ils": 3473,
      "ums": 3474,
      "▁spot": 3475,
      "▁hole": 3476,
      "▁ManBearPig": 3477,
      "▁speaks": 3478,
      "formation": 3479,
      "▁protest": 3480,
      "Terrance": 3481,
      "hel": 3482,
      "ito": 3483,
      "▁port": 3484,
      "▁Aide": 3485,
      "▁excuse": 3486,
      "▁coat": 3487,
      "▁helicop": 3488,
      "▁throat": 3489,
      "RE": 3490,
      "gu": 3491,
      "▁woods": 3492,
      "nds": 3493,
      "omin": 3494,
      "▁lie": 3495,
      "▁lap": 3496,
      "▁loud": 3497,
      "▁Mor": 3498,
      "▁stool": 3499,
      "▁Russ": 3500,
      "▁Lor": 3501,
      "▁nothin": 3502,
      "▁Fuck": 3503,
      "▁alive": 3504,
      "▁Child": 3505,
      "omething": 3506,
      "▁drives": 3507,
      "▁court": 3508,
      "iju": 3509,
      "AM": 3510,
      "Have": 3511,
      "gar": 3512,
      "of": 3513,
      "▁av": 3514,
      "int": 3515,
      "▁cake": 3516,
      "▁farm": 3517,
      "▁fires": 3518,
      "ench": 3519,
      "▁Sgt": 3520,
      "▁eh": 3521,
      "▁kicks": 3522,
      "ently": 3523,
      "▁ant": 3524,
      "illing": 3525,
      "thinks": 3526,
      "▁track": 3527,
      "▁host": 3528,
      "▁among": 3529,
      "▁studio": 3530,
      "ology": 3531,
      "▁Leader": 3532,
      "▁zooms": 3533,
      "col": 3534,
      "mi": 3535,
      "▁App": 3536,
      "▁ann": 3537,
      "aine": 3538,
      "ipes": 3539,
      "▁seven": 3540,
      "▁robot": 3541,
      "▁Blanket": 3542,
      "▁breaks": 3543,
      "▁event": 3544,
      "▁terrible": 3545,
      "▁twenty": 3546,
      "▁dining": 3547,
      "▁ruin": 3548,
      "IDS": 3549,
      "izza": 3550,
      "iod": 3551,
      "ply": 3552,
      "▁key": 3553,
      "▁wood": 3554,
      "▁female": 3555,
      "▁Sally": 3556,
      "ald": 3557,
      "▁earth": 3558,
      "▁Jared": 3559,
      "▁Weather": 3560,
      "ifts": 3561,
      "▁charge": 3562,
      "▁Op": 3563,
      "▁vacc": 3564,
      "▁trick": 3565,
      "pson": 3566,
      "▁cough": 3567,
      "▁closet": 3568,
      "▁possible": 3569,
      "▁decided": 3570,
      "▁employ": 3571,
      "▁respect": 3572,
      "▁strike": 3573,
      "Boys": 3574,
      "ergart": 3575,
      "▁episode": 3576,
      "ijuana": 3577,
      "Bl": 3578,
      "Ooo": 3579,
      "ci": 3580,
      "fort": 3581,
      "eron": 3582,
      "▁bill": 3583,
      "lets": 3584,
      "▁daughter": 3585,
      "▁danger": 3586,
      "▁pol": 3587,
      "arters": 3588,
      "ution": 3589,
      "▁state": 3590,
      "▁upset": 3591,
      "▁Darryl": 3592,
      "▁alarm": 3593,
      "▁oper": 3594,
      "▁sidewalk": 3595,
      "▁message": 3596,
      "▁Elderly": 3597,
      "▁charac": 3598,
      "▁ninj": 3599,
      "book": 3600,
      "cis": 3601,
      "lar": 3602,
      "night": 3603,
      "heads": 3604,
      "▁bul": 3605,
      "▁bik": 3606,
      "▁died": 3607,
      "ading": 3608,
      "▁Bu": 3609,
      "▁Any": 3610,
      "eeee": 3611,
      "▁Dire": 3612,
      "vest": 3613,
      "▁worth": 3614,
      "▁moved": 3615,
      "▁Minister": 3616,
      "▁paj": 3617,
      "Take": 3618,
      "Two": 3619,
      "▁tem": 3620,
      "▁cre": 3621,
      "▁tooth": 3622,
      "▁poo": 3623,
      "▁rich": 3624,
      "urday": 3625,
      "▁Dude": 3626,
      "roud": 3627,
      "▁Est": 3628,
      "▁Out": 3629,
      "itten": 3630,
      "▁spread": 3631,
      "iled": 3632,
      "obs": 3633,
      "▁biggest": 3634,
      "clud": 3635,
      "rrr": 3636,
      "▁simply": 3637,
      "▁elect": 3638,
      "▁shooting": 3639,
      "▁Produ": 3640,
      "▁breath": 3641,
      "▁McCormick": 3642,
      "Dr": 3643,
      "WES": 3644,
      "eer": 3645,
      "gen": 3646,
      "ki": 3647,
      "▁tired": 3648,
      "▁suddenly": 3649,
      "▁cab": 3650,
      "▁caught": 3651,
      "▁pleas": 3652,
      "owing": 3653,
      "irts": 3654,
      "▁Home": 3655,
      "▁Like": 3656,
      "▁backyard": 3657,
      "▁First": 3658,
      "▁succ": 3659,
      "ously": 3660,
      "▁eng": 3661,
      "▁smok": 3662,
      "▁covers": 3663,
      "▁York": 3664,
      "dammit": 3665,
      "▁Jews": 3666,
      "▁hanging": 3667,
      "▁film": 3668,
      "▁Professor": 3669,
      "▁Jersey": 3670,
      "WESOM": 3671,
      "Tweek": 3672,
      "bur": 3673,
      "cess": 3674,
      "ogram": 3675,
      "▁thr": 3676,
      "▁lying": 3677,
      "ety": 3678,
      "lyn": 3679,
      "holes": 3680,
      "▁Head": 3681,
      "▁worried": 3682,
      "selor": 3683,
      "▁chest": 3684,
      "▁Sold": 3685,
      "▁skin": 3686,
      "▁surround": 3687,
      "▁turkey": 3688,
      "▁curtain": 3689,
      "▁shoots": 3690,
      "▁vagina": 3691,
      "Give": 3692,
      "sighs": 3693,
      "wait": 3694,
      "▁sat": 3695,
      "▁calls": 3696,
      "▁catches": 3697,
      "▁nurse": 3698,
      "usp": 3699,
      "eds": 3700,
      "▁health": 3701,
      "▁weren": 3702,
      "▁stom": 3703,
      "▁Air": 3704,
      "▁shopping": 3705,
      "rig": 3706,
      "ipe": 3707,
      "▁French": 3708,
      "shit": 3709,
      "▁Brad": 3710,
      "▁Alright": 3711,
      "rolls": 3712,
      "▁parking": 3713,
      "▁respons": 3714,
      "▁bottom": 3715,
      "▁basketball": 3716,
      "▁bench": 3717,
      "▁cows": 3718,
      "▁Cat": 3719,
      "▁lay": 3720,
      "artment": 3721,
      "▁race": 3722,
      "▁strange": 3723,
      "▁Gi": 3724,
      "▁cancer": 3725,
      "aint": 3726,
      "quickly": 3727,
      "iley": 3728,
      "▁queef": 3729,
      "▁brief": 3730,
      "▁image": 3731,
      "▁UP": 3732,
      "▁crit": 3733,
      "▁strikes": 3734,
      "▁horrible": 3735,
      "▁peace": 3736,
      "▁Streisand": 3737,
      "indsight": 3738,
      "▁ridiculous": 3739,
      "▁podium": 3740,
      "AL": 3741,
      "Great": 3742,
      "pok": 3743,
      "▁er": 3744,
      "▁tun": 3745,
      "rey": 3746,
      "▁warm": 3747,
      "▁cult": 3748,
      "▁drag": 3749,
      "▁mist": 3750,
      "▁monster": 3751,
      "▁psych": 3752,
      "asts": 3753,
      "otion": 3754,
      "unning": 3755,
      "raises": 3756,
      "ific": 3757,
      "Heh": 3758,
      "▁Show": 3759,
      "izes": 3760,
      "▁breaking": 3761,
      "▁period": 3762,
      "▁horse": 3763,
      "▁explain": 3764,
      "▁surprised": 3765,
      "▁Lorde": 3766,
      "▁Director": 3767,
      "▁Producer": 3768,
      "sn": 3769,
      "ube": 3770,
      "▁hom": 3771,
      "▁hus": 3772,
      "▁cred": 3773,
      "▁Cher": 3774,
      "▁net": 3775,
      "▁heh": 3776,
      "▁heaven": 3777,
      "aced": 3778,
      "▁weap": 3779,
      "▁anger": 3780,
      "▁DO": 3781,
      "rison": 3782,
      "agon": 3783,
      "▁whis": 3784,
      "▁anywhere": 3785,
      "▁playground": 3786,
      "▁dear": 3787,
      "▁Vamp": 3788,
      "▁brown": 3789,
      "▁evening": 3790,
      "Mrs": 3791,
      "▁Saturday": 3792,
      "OOOO": 3793,
      "ception": 3794,
      "▁sweetie": 3795,
      "▁raise": 3796,
      "ediately": 3797,
      "cing": 3798,
      "just": 3799,
      "lt": 3800,
      "▁talks": 3801,
      "another": 3802,
      "▁pour": 3803,
      "▁post": 3804,
      "▁Keeper": 3805,
      "▁beh": 3806,
      "▁Pa": 3807,
      "▁Pe": 3808,
      "▁guards": 3809,
      "arsh": 3810,
      "▁log": 3811,
      "uhammad": 3812,
      "▁windows": 3813,
      "uddha": 3814,
      "▁Britney": 3815,
      "Jim": 3816,
      "yer": 3817,
      "ism": 3818,
      "▁bin": 3819,
      "▁hy": 3820,
      "▁cause": 3821,
      "esy": 3822,
      "▁Crow": 3823,
      "icing": 3824,
      "ett": 3825,
      "adow": 3826,
      "▁rese": 3827,
      "arded": 3828,
      "▁Em": 3829,
      "▁clap": 3830,
      "que": 3831,
      "▁20": 3832,
      "▁bright": 3833,
      "▁couch": 3834,
      "▁finished": 3835,
      "▁broken": 3836,
      "iggles": 3837,
      "▁relax": 3838,
      "▁flying": 3839,
      "▁Paris": 3840,
      "Cool": 3841,
      "Timmy": 3842,
      "isa": 3843,
      "ened": 3844,
      "▁pocket": 3845,
      "▁Men": 3846,
      "▁Mill": 3847,
      "▁emb": 3848,
      "▁Huh": 3849,
      "▁Ryan": 3850,
      "▁jail": 3851,
      "▁softly": 3852,
      "quarters": 3853,
      "▁device": 3854,
      "ensive": 3855,
      "▁smiling": 3856,
      "▁trust": 3857,
      "▁teen": 3858,
      "ooray": 3859,
      "▁closed": 3860,
      "▁belong": 3861,
      "while": 3862,
      "▁Skyler": 3863,
      "becca": 3864,
      "BC": 3865,
      "Family": 3866,
      "Qu": 3867,
      "ai": 3868,
      "giving": 3869,
      "kn": 3870,
      "lan": 3871,
      "mark": 3872,
      "phy": 3873,
      "rick": 3874,
      "wards": 3875,
      "▁map": 3876,
      "▁proud": 3877,
      "▁Coll": 3878,
      "▁Male": 3879,
      "▁heav": 3880,
      "▁Henrietta": 3881,
      "▁Rec": 3882,
      "stru": 3883,
      "▁Dep": 3884,
      "▁likes": 3885,
      "▁Female": 3886,
      "ument": 3887,
      "▁vote": 3888,
      "emember": 3889,
      "▁drugs": 3890,
      "umbles": 3891,
      "azon": 3892,
      "▁older": 3893,
      "ipping": 3894,
      "▁respond": 3895,
      "▁monitor": 3896,
      "▁Frank": 3897,
      "▁jacket": 3898,
      "▁bastards": 3899,
      "▁yellow": 3900,
      "▁birthday": 3901,
      "▁Collins": 3902,
      "Ye": 3903,
      "ius": 3904,
      "pre": 3905,
      "rel": 3906,
      "▁candy": 3907,
      "▁punches": 3908,
      "▁public": 3909,
      "▁rally": 3910,
      "▁Princess": 3911,
      "▁remo": 3912,
      "ustr": 3913,
      "unte": 3914,
      "▁gettin": 3915,
      "▁arrest": 3916,
      "▁dise": 3917,
      "▁wrote": 3918,
      "▁residence": 3919,
      "▁laughter": 3920,
      "▁Daddy": 3921,
      "▁cares": 3922,
      "from": 3923,
      "Nothing": 3924,
      "▁community": 3925,
      "▁Jefferson": 3926,
      "▁below": 3927,
      "▁climb": 3928,
      "▁ticket": 3929,
      "▁months": 3930,
      "LE": 3931,
      "Ms": 3932,
      "Park": 3933,
      "hic": 3934,
      "hangs": 3935,
      "erve": 3936,
      "▁Mag": 3937,
      "vered": 3938,
      "ammer": 3939,
      "▁level": 3940,
      "▁Face": 3941,
      "▁suit": 3942,
      "▁spec": 3943,
      "▁applause": 3944,
      "▁sheet": 3945,
      "eels": 3946,
      "oyed": 3947,
      "▁action": 3948,
      "ackson": 3949,
      "soft": 3950,
      "ails": 3951,
      "▁dollar": 3952,
      "▁listening": 3953,
      "▁burst": 3954,
      "▁further": 3955,
      "▁buddy": 3956,
      "Listen": 3957,
      "Sweet": 3958,
      "eal": 3959,
      "ugh": 3960,
      "▁wrest": 3961,
      "istant": 3962,
      "ette": 3963,
      "▁Tell": 3964,
      "oos": 3965,
      "▁ur": 3966,
      "▁weight": 3967,
      "▁Ass": 3968,
      "▁workers": 3969,
      "▁checks": 3970,
      "▁finish": 3971,
      "▁sword": 3972,
      "▁Deck": 3973,
      "▁After": 3974,
      "▁climbs": 3975,
      "▁ladder": 3976,
      "▁Mickey": 3977,
      "Guys": 3978,
      "colate": 3979,
      "ceptionist": 3980,
      "▁Crowe": 3981,
      "Ey": 3982,
      "cus": 3983,
      "cont": 3984,
      "▁susp": 3985,
      "orting": 3986,
      "▁Mall": 3987,
      "▁iss": 3988,
      "▁Bro": 3989,
      "▁rise": 3990,
      "▁World": 3991,
      "▁Goth": 3992,
      "elt": 3993,
      "▁apparently": 3994,
      "▁Unit": 3995,
      "ipped": 3996,
      "▁China": 3997,
      "▁grab": 3998,
      "aura": 3999,
      "▁marijuana": 4000,
      "▁Thompson": 4001,
      "▁Dougie": 4002,
      "▁stopped": 4003,
      "Like": 4004,
      "People": 4005,
      "cil": 4006,
      "▁tour": 4007,
      "atters": 4008,
      "▁Mitch": 4009,
      "adio": 4010,
      "▁weak": 4011,
      "▁stor": 4012,
      "▁Ab": 4013,
      "urry": 4014,
      "These": 4015,
      "▁chin": 4016,
      "▁somehow": 4017,
      "▁vio": 4018,
      "▁handle": 4019,
      "aitlyn": 4020,
      "▁smell": 4021,
      "▁coll": 4022,
      "▁covered": 4023,
      "▁grins": 4024,
      "▁resumes": 4025,
      "www": 4026,
      "▁perform": 4027,
      "▁twice": 4028,
      "▁Conn": 4029,
      "▁rules": 4030,
      "▁direct": 4031,
      "▁oppos": 4032,
      "cluding": 4033,
      "Any": 4034,
      "Mmm": 4035,
      "gas": 4036,
      "tr": 4037,
      "town": 4038,
      "itive": 4039,
      "▁cig": 4040,
      "▁dreidel": 4041,
      "▁fake": 4042,
      "▁guns": 4043,
      "enor": 4044,
      "▁pap": 4045,
      "▁Cthulhu": 4046,
      "▁nuts": 4047,
      "▁Muhammad": 4048,
      "▁equ": 4049,
      "amas": 4050,
      "▁AIDS": 4051,
      "▁Gobb": 4052,
      "▁Hindsight": 4053,
      "ural": 4054,
      "▁Jon": 4055,
      "▁Jackson": 4056,
      "▁lif": 4057,
      "▁knees": 4058,
      "▁Heather": 4059,
      "▁agre": 4060,
      "▁whist": 4061,
      "▁talkin": 4062,
      "ueer": 4063,
      "▁Ye": 4064,
      "▁Three": 4065,
      "▁screaming": 4066,
      "▁Reiner": 4067,
      "Inside": 4068,
      "▁Only": 4069,
      "▁monkey": 4070,
      "▁double": 4071,
      "▁immediately": 4072,
      "▁Human": 4073,
      "NN": 4074,
      "cts": 4075,
      "hand": 4076,
      "tries": 4077,
      "upp": 4078,
      "▁sna": 4079,
      "itors": 4080,
      "▁yard": 4081,
      "omper": 4082,
      "▁Im": 4083,
      "ushing": 4084,
      "▁Buddha": 4085,
      "▁shitty": 4086,
      "▁Ow": 4087,
      "▁Star": 4088,
      "estab": 4089,
      "▁players": 4090,
      "rank": 4091,
      "▁trip": 4092,
      "▁Brown": 4093,
      "▁Chinpok": 4094,
      "▁Jewish": 4095,
      "ibly": 4096,
      "notices": 4097,
      "▁Scouts": 4098,
      "▁stomach": 4099,
      "▁Deckter": 4100,
      "oned": 4101,
      "▁bust": 4102,
      "▁hop": 4103,
      "▁fix": 4104,
      "▁Take": 4105,
      "▁staff": 4106,
      "▁force": 4107,
      "▁shr": 4108,
      "▁Judge": 4109,
      "▁Law": 4110,
      "▁abs": 4111,
      "▁saved": 4112,
      "ouses": 4113,
      "▁defe": 4114,
      "▁smoke": 4115,
      "▁Voice": 4116,
      "ective": 4117,
      "▁carrying": 4118,
      "▁built": 4119,
      "▁Barbra": 4120,
      "▁hurry": 4121,
      "▁movies": 4122,
      "▁direction": 4123,
      "▁silence": 4124,
      "▁surprise": 4125,
      "▁Hello": 4126,
      "ED": 4127,
      "NA": 4128,
      "Wha": 4129,
      "dd": 4130,
      "iber": 4131,
      "▁talent": 4132,
      "▁cops": 4133,
      "▁mis": 4134,
      "▁male": 4135,
      "▁gre": 4136,
      "▁grin": 4137,
      "▁ginger": 4138,
      "▁general": 4139,
      "▁punch": 4140,
      "▁Sk": 4141,
      "▁Timm": 4142,
      "▁More": 4143,
      "idon": 4144,
      "ache": 4145,
      "keys": 4146,
      "▁AWESOM": 4147,
      "▁meant": 4148,
      "▁lies": 4149,
      "▁soc": 4150,
      "▁abort": 4151,
      "▁guitar": 4152,
      "boy": 4153,
      "▁hangs": 4154,
      "▁priest": 4155,
      "▁Patrick": 4156,
      "▁sandwich": 4157,
      "▁announce": 4158,
      "▁Soldier": 4159,
      "▁United": 4160,
      "Holy": 4161,
      "Hooray": 4162,
      "Un": 4163,
      "cious": 4164,
      "noon": 4165,
      "rat": 4166,
      "this": 4167,
      "uct": 4168,
      "val": 4169,
      "iny": 4170,
      "▁sort": 4171,
      "reads": 4172,
      "arf": 4173,
      "▁dying": 4174,
      "▁toy": 4175,
      "▁mod": 4176,
      "▁gang": 4177,
      "▁Sand": 4178,
      "icy": 4179,
      "ality": 4180,
      "▁online": 4181,
      "▁Give": 4182,
      "▁Ha": 4183,
      "▁Hav": 4184,
      "▁Fire": 4185,
      "ified": 4186,
      "ools": 4187,
      "ured": 4188,
      "▁exits": 4189,
      "ometimes": 4190,
      "▁talked": 4191,
      "▁adv": 4192,
      "▁waits": 4193,
      "▁accept": 4194,
      "▁afternoon": 4195,
      "▁study": 4196,
      "▁Canadians": 4197,
      "▁presents": 4198,
      "aury": 4199,
      "▁colle": 4200,
      "▁glasses": 4201,
      "▁Francis": 4202,
      "▁medic": 4203,
      "▁terrorists": 4204,
      "▁Crunch": 4205,
      "▁elderly": 4206,
      "▁Murphy": 4207,
      "arrives": 4208,
      "Boy": 4209,
      "Or": 4210,
      "WW": 4211,
      "Will": 4212,
      "nn": 4213,
      "oices": 4214,
      "sion": 4215,
      "winks": 4216,
      "zen": 4217,
      "itions": 4218,
      "▁non": 4219,
      "iced": 4220,
      "▁hears": 4221,
      "▁rif": 4222,
      "str": 4223,
      "▁yours": 4224,
      "▁Of": 4225,
      "▁various": 4226,
      "▁moon": 4227,
      "▁ways": 4228,
      "▁coach": 4229,
      "▁worker": 4230,
      "▁disapp": 4231,
      "▁bucks": 4232,
      "▁Howard": 4233,
      "Shelly": 4234,
      "▁Grandma": 4235,
      "▁brain": 4236,
      "Box": 4237,
      "ashington": 4238,
      "▁Paul": 4239,
      "Americ": 4240,
      "His": 4241,
      "UT": 4242,
      "Very": 4243,
      "draw": 4244,
      "lowers": 4245,
      "pounds": 4246,
      "real": 4247,
      "ishing": 4248,
      "▁fac": 4249,
      "▁fear": 4250,
      "▁gift": 4251,
      "▁prison": 4252,
      "omon": 4253,
      "oming": 4254,
      "▁Singer": 4255,
      "▁Both": 4256,
      "▁row": 4257,
      "▁forg": 4258,
      "sticks": 4259,
      "raft": 4260,
      "▁boss": 4261,
      "▁organ": 4262,
      "▁admit": 4263,
      "damn": 4264,
      "ancy": 4265,
      "▁streets": 4266,
      "▁surv": 4267,
      "▁grounded": 4268,
      "iggle": 4269,
      "▁Trapper": 4270,
      "bbing": 4271,
      "conom": 4272,
      "▁THE": 4273,
      "▁bowl": 4274,
      "▁pussy": 4275,
      "▁pirate": 4276,
      "▁favorite": 4277,
      "cher": 4278,
      "ging": 4279,
      "makes": 4280,
      "▁tac": 4281,
      "▁singer": 4282,
      "▁boun": 4283,
      "▁fet": 4284,
      "▁Cam": 4285,
      "▁Sn": 4286,
      "▁Tim": 4287,
      "ooth": 4288,
      "▁hero": 4289,
      "amond": 4290,
      "stit": 4291,
      "▁social": 4292,
      "elp": 4293,
      "aret": 4294,
      "▁flute": 4295,
      "▁written": 4296,
      "▁switch": 4297,
      "▁given": 4298,
      "▁Rebecca": 4299,
      "arrass": 4300,
      "▁Box": 4301,
      "Christ": 4302,
      "▁Comp": 4303,
      "▁drinking": 4304,
      "▁honor": 4305,
      "▁hologram": 4306,
      "▁statue": 4307,
      "▁Girls": 4308,
      "ollywood": 4309,
      "▁animals": 4310,
      "Next": 4311,
      "Tegridy": 4312,
      "ielberg": 4313,
      "uit": 4314,
      "vol": 4315,
      "▁tough": 4316,
      "▁aides": 4317,
      "leads": 4318,
      "ita": 4319,
      "▁dig": 4320,
      "▁lion": 4321,
      "pping": 4322,
      "▁North": 4323,
      "▁Evil": 4324,
      "inky": 4325,
      "▁Stud": 4326,
      "▁cloud": 4327,
      "emmi": 4328,
      "ession": 4329,
      "▁teach": 4330,
      "ancher": 4331,
      "▁perhaps": 4332,
      "ograp": 4333,
      "▁signs": 4334,
      "▁followed": 4335,
      "opped": 4336,
      "▁sexual": 4337,
      "uthor": 4338,
      "whips": 4339,
      "▁rocket": 4340,
      "ergy": 4341,
      "▁Everything": 4342,
      "▁incred": 4343,
      "▁Security": 4344,
      "10": 4345,
      "cas": 4346,
      "cross": 4347,
      "faces": 4348,
      "mon": 4349,
      "top": 4350,
      "inally": 4351,
      "▁sled": 4352,
      "reme": 4353,
      "▁hung": 4354,
      "▁dances": 4355,
      "▁fro": 4356,
      "▁presses": 4357,
      "eder": 4358,
      "allen": 4359,
      "▁Kid": 4360,
      "▁itself": 4361,
      "irm": 4362,
      "▁anchor": 4363,
      "▁lips": 4364,
      "ables": 4365,
      "▁spin": 4366,
      "▁hasn": 4367,
      "ference": 4368,
      "tered": 4369,
      "▁cheering": 4370,
      "avior": 4371,
      "▁cru": 4372,
      "▁crime": 4373,
      "▁march": 4374,
      "▁magic": 4375,
      "▁Oprah": 4376,
      "▁dangerous": 4377,
      "▁pajamas": 4378,
      "Jimbo": 4379,
      "Member": 4380,
      "Oho": 4381,
      "Sat": 4382,
      "Um": 4383,
      "Uhh": 4384,
      "aver": 4385,
      "fast": 4386,
      "under": 4387,
      "▁cave": 4388,
      "orks": 4389,
      "▁Singers": 4390,
      "▁Aw": 4391,
      "▁Hot": 4392,
      "▁Jenny": 4393,
      "▁asse": 4394,
      "▁soft": 4395,
      "resent": 4396,
      "▁19": 4397,
      "▁towns": 4398,
      "▁activ": 4399,
      "▁Offic": 4400,
      "▁feels": 4401,
      "▁turning": 4402,
      "▁opening": 4403,
      "▁poster": 4404,
      "▁feed": 4405,
      "iffs": 4406,
      "▁gasps": 4407,
      "▁obv": 4408,
      "▁Indian": 4409,
      "▁Amazon": 4410,
      "▁photo": 4411,
      "▁soul": 4412,
      "▁techn": 4413,
      "▁opposite": 4414,
      "Aaah": 4415,
      "BI": 4416,
      "KK": 4417,
      "SA": 4418,
      "Would": 4419,
      "bers": 4420,
      "hehe": 4421,
      "▁den": 4422,
      "▁facing": 4423,
      "esar": 4424,
      "▁po": 4425,
      "▁Turn": 4426,
      "▁ris": 4427,
      "▁rat": 4428,
      "▁weird": 4429,
      "▁Hand": 4430,
      "▁Roman": 4431,
      "▁shakes": 4432,
      "▁Laura": 4433,
      "oday": 4434,
      "▁suff": 4435,
      "▁comedy": 4436,
      "aping": 4437,
      "Stanley": 4438,
      "▁Manson": 4439,
      "▁Annie": 4440,
      "isham": 4441,
      "▁desce": 4442,
      "▁remain": 4443,
      "▁snake": 4444,
      "▁sett": 4445,
      "oppers": 4446,
      "▁grader": 4447,
      "▁Janus": 4448,
      "▁parade": 4449,
      "▁grandpa": 4450,
      "▁Thanksgiving": 4451,
      "Timmih": 4452,
      "▁Service": 4453,
      "▁Townsman": 4454,
      "▁cigaret": 4455,
      "bang": 4456,
      "dies": 4457,
      "fic": 4458,
      "ka": 4459,
      "het": 4460,
      "rect": 4461,
      "arah": 4462,
      "▁hun": 4463,
      "▁push": 4464,
      "▁Caitlyn": 4465,
      "▁Sr": 4466,
      "▁threat": 4467,
      "▁IT": 4468,
      "▁lit": 4469,
      "▁nine": 4470,
      "adies": 4471,
      "▁Bush": 4472,
      "▁removes": 4473,
      "sec": 4474,
      "▁jaw": 4475,
      "▁Jason": 4476,
      "ourth": 4477,
      "ongrat": 4478,
      "aaaah": 4479,
      "▁12": 4480,
      "▁tracks": 4481,
      "▁Manager": 4482,
      "▁assholes": 4483,
      "▁carry": 4484,
      "▁Blaine": 4485,
      "▁Spielberg": 4486,
      "▁babe": 4487,
      "▁poss": 4488,
      "▁Mommy": 4489,
      "▁Robert": 4490,
      "▁interesting": 4491,
      "▁edge": 4492,
      "▁practice": 4493,
      "▁success": 4494,
      "▁disease": 4495,
      "▁Havisham": 4496,
      "emmiwinks": 4497,
      "ongratul": 4498,
      "Ho": 4499,
      "Hoh": 4500,
      "Say": 4501,
      "Tell": 4502,
      "whis": 4503,
      "▁si": 4504,
      "▁wide": 4505,
      "onse": 4506,
      "▁born": 4507,
      "lee": 4508,
      "▁fest": 4509,
      "▁fists": 4510,
      "▁frog": 4511,
      "▁felt": 4512,
      "orate": 4513,
      "▁pill": 4514,
      "▁pause": 4515,
      "▁lame": 4516,
      "▁including": 4517,
      "▁Ming": 4518,
      "▁rabb": 4519,
      "▁ears": 4520,
      "▁stuck": 4521,
      "▁Great": 4522,
      "ental": 4523,
      "▁shove": 4524,
      "igr": 4525,
      "▁notes": 4526,
      "▁nowhere": 4527,
      "eline": 4528,
      "ews": 4529,
      "box": 4530,
      "▁drone": 4531,
      "▁amb": 4532,
      "ected": 4533,
      "ization": 4534,
      "ohammad": 4535,
      "▁Marcus": 4536,
      "▁sleeping": 4537,
      "▁Carl": 4538,
      "▁sneak": 4539,
      "▁husband": 4540,
      "▁embarrass": 4541,
      "▁lifts": 4542,
      "LA": 4543,
      "belie": 4544,
      "gress": 4545,
      "iest": 4546,
      "▁tight": 4547,
      "hey": 4548,
      "rer": 4549,
      "▁wow": 4550,
      "▁hook": 4551,
      "▁dies": 4552,
      "▁pair": 4553,
      "▁nat": 4554,
      "▁insp": 4555,
      "▁Tre": 4556,
      "▁PS": 4557,
      "▁Pil": 4558,
      "▁Poof": 4559,
      "▁releas": 4560,
      "▁Hollywood": 4561,
      "urb": 4562,
      "▁share": 4563,
      "▁Jones": 4564,
      "▁chase": 4565,
      "▁plant": 4566,
      "▁Old": 4567,
      "▁letter": 4568,
      "ission": 4569,
      "▁pretend": 4570,
      "▁Bridon": 4571,
      "▁kinda": 4572,
      "▁Club": 4573,
      "anye": 4574,
      "▁Mexico": 4575,
      "▁kisses": 4576,
      "▁XBox": 4577,
      "▁soldiers": 4578,
      "▁NOT": 4579,
      "▁index": 4580,
      "looking": 4581,
      "▁helicopter": 4582,
      "Down": 4583,
      "Pa": 4584,
      "rand": 4585,
      "▁swear": 4586,
      "returns": 4587,
      "▁fo": 4588,
      "▁fan": 4589,
      "▁thumb": 4590,
      "edra": 4591,
      "add": 4592,
      "lds": 4593,
      "▁Hill": 4594,
      "▁Looks": 4595,
      "rips": 4596,
      "▁offer": 4597,
      "▁Easter": 4598,
      "▁plat": 4599,
      "inking": 4600,
      "▁alb": 4601,
      "rinks": 4602,
      "▁quit": 4603,
      "▁tray": 4604,
      "▁helping": 4605,
      "▁compet": 4606,
      "▁Scientist": 4607,
      "▁shots": 4608,
      "▁swings": 4609,
      "▁underwear": 4610,
      "Does": 4611,
      "▁stays": 4612,
      "▁trapped": 4613,
      "▁From": 4614,
      "▁relig": 4615,
      "▁Afric": 4616,
      "▁mask": 4617,
      "▁wheelchair": 4618,
      "▁Martin": 4619,
      "▁pulled": 4620,
      "estaburger": 4621,
      "edrager": 4622,
      "Af": 4623,
      "EE": 4624,
      "fit": 4625,
      "field": 4626,
      "kin": 4627,
      "pe": 4628,
      "pants": 4629,
      "uce": 4630,
      "▁tied": 4631,
      "▁aut": 4632,
      "▁author": 4633,
      "reak": 4634,
      "▁hug": 4635,
      "▁cand": 4636,
      "▁cast": 4637,
      "▁filled": 4638,
      "▁faster": 4639,
      "▁Could": 4640,
      "▁lower": 4641,
      "▁lines": 4642,
      "arter": 4643,
      "▁Those": 4644,
      "▁Mary": 4645,
      "▁Maury": 4646,
      "▁rope": 4647,
      "▁Put": 4648,
      "▁Power": 4649,
      "urt": 4650,
      "▁joy": 4651,
      "Ohh": 4652,
      "ppy": 4653,
      "▁plate": 4654,
      "ossible": 4655,
      "Heidi": 4656,
      "▁cla": 4657,
      "▁comin": 4658,
      "▁comment": 4659,
      "▁doorway": 4660,
      "itely": 4661,
      "▁becomes": 4662,
      "ubs": 4663,
      "▁busy": 4664,
      "▁swing": 4665,
      "▁dammit": 4666,
      "▁forest": 4667,
      "▁counselor": 4668,
      "▁Protes": 4669,
      "▁aliens": 4670,
      "▁ladies": 4671,
      "▁defin": 4672,
      "▁focus": 4673,
      "▁Community": 4674,
      "▁smoking": 4675,
      "▁Bradley": 4676,
      "▁weapons": 4677,
      "PC": 4678,
      "fire": 4679,
      "ially": 4680,
      "lier": 4681,
      "met": 4682,
      "uation": 4683,
      "zes": 4684,
      "▁aim": 4685,
      "▁sour": 4686,
      "ision": 4687,
      "▁buck": 4688,
      "ato": 4689,
      "lest": 4690,
      "▁hour": 4691,
      "itary": 4692,
      "▁da": 4693,
      "▁dry": 4694,
      "▁Cesar": 4695,
      "▁San": 4696,
      "▁nu": 4697,
      "▁Tammy": 4698,
      "▁Testaburger": 4699,
      "asaur": 4700,
      "acle": 4701,
      "▁Back": 4702,
      "▁Wok": 4703,
      "▁Ger": 4704,
      "▁Gueer": 4705,
      "▁Hospital": 4706,
      "urf": 4707,
      "strap": 4708,
      "▁Native": 4709,
      "▁Eng": 4710,
      "▁comb": 4711,
      "▁vom": 4712,
      "▁score": 4713,
      "ilence": 4714,
      "▁needed": 4715,
      "▁deb": 4716,
      "▁prove": 4717,
      "▁cock": 4718,
      "▁bridge": 4719,
      "apped": 4720,
      "▁remote": 4721,
      "▁trail": 4722,
      "▁address": 4723,
      "Another": 4724,
      "▁Cheesy": 4725,
      "▁wonderful": 4726,
      "▁Coach": 4727,
      "▁lesson": 4728,
      "▁Estella": 4729,
      "▁Chinpokomon": 4730,
      "▁Gueermo": 4731,
      "GH": 4732,
      "Off": 4733,
      "Red": 4734,
      "foll": 4735,
      "gives": 4736,
      "paper": 4737,
      "ral": 4738,
      "writ": 4739,
      "▁bird": 4740,
      "▁hill": 4741,
      "▁craw": 4742,
      "▁dar": 4743,
      "orters": 4744,
      "▁pal": 4745,
      "▁Cows": 4746,
      "▁IS": 4747,
      "▁Moses": 4748,
      "▁emer": 4749,
      "▁stares": 4750,
      "▁Win": 4751,
      "▁Lab": 4752,
      "▁knife": 4753,
      "orer": 4754,
      "ola": 4755,
      "▁Foods": 4756,
      "oss": 4757,
      "▁OC": 4758,
      "▁States": 4759,
      "▁saf": 4760,
      "▁flips": 4761,
      "▁exec": 4762,
      "▁showed": 4763,
      "next": 4764,
      "▁pray": 4765,
      "▁acting": 4766,
      "▁kindergart": 4767,
      "▁Marshes": 4768,
      "▁Receptionist": 4769,
      "▁Chinstrap": 4770,
      "ibility": 4771,
      "▁jobs": 4772,
      "▁pulling": 4773,
      "▁apolog": 4774,
      "comes": 4775,
      "▁paid": 4776,
      "▁massive": 4777,
      "▁Charlie": 4778,
      "▁Facebook": 4779,
      "ND": 4780,
      "OR": 4781,
      "Put": 4782,
      "pan": 4783,
      "rop": 4784,
      "▁tast": 4785,
      "erd": 4786,
      "leans": 4787,
      "▁orig": 4788,
      "orrow": 4789,
      "▁Sim": 4790,
      "▁Tony": 4791,
      "▁Mohammad": 4792,
      "aser": 4793,
      "▁hearing": 4794,
      "idents": 4795,
      "▁Kat": 4796,
      "ada": 4797,
      "▁rip": 4798,
      "▁rather": 4799,
      "▁ugly": 4800,
      "▁Aunt": 4801,
      "iring": 4802,
      "urs": 4803,
      "icking": 4804,
      "▁search": 4805,
      "▁looked": 4806,
      "uckles": 4807,
      "▁loves": 4808,
      "wolds": 4809,
      "▁appla": 4810,
      "▁Van": 4811,
      "▁chee": 4812,
      "▁kept": 4813,
      "▁unf": 4814,
      "▁keeping": 4815,
      "▁joint": 4816,
      "coho": 4817,
      "otswolds": 4818,
      "▁wondering": 4819,
      "▁eleph": 4820,
      "▁invol": 4821,
      "▁Mint": 4822,
      "▁montage": 4823,
      "▁Peru": 4824,
      "▁garage": 4825,
      "▁allowed": 4826,
      "▁sleigh": 4827,
      "▁Record": 4828,
      "AY": 4829,
      "Got": 4830,
      "More": 4831,
      "Nice": 4832,
      "gn": 4833,
      "zos": 4834,
      "ino": 4835,
      "▁wra": 4836,
      "arium": 4837,
      "▁mid": 4838,
      "▁pump": 4839,
      "▁pounds": 4840,
      "▁Cotswolds": 4841,
      "▁Mong": 4842,
      "aded": 4843,
      "▁Best": 4844,
      "▁Bik": 4845,
      "▁urin": 4846,
      "▁stars": 4847,
      "▁War": 4848,
      "opper": 4849,
      "▁judge": 4850,
      "▁attend": 4851,
      "▁leans": 4852,
      "▁Lisa": 4853,
      "▁known": 4854,
      "▁FBI": 4855,
      "elve": 4856,
      "▁logo": 4857,
      "▁carries": 4858,
      "▁finishes": 4859,
      "▁service": 4860,
      "rrrr": 4861,
      "▁beginning": 4862,
      "▁response": 4863,
      "▁Davis": 4864,
      "▁changing": 4865,
      "▁Lucas": 4866,
      "▁trees": 4867,
      "unnybot": 4868,
      "▁enjoying": 4869,
      "▁proper": 4870,
      "▁Edward": 4871,
      "▁Musl": 4872,
      "▁Russian": 4873,
      "▁society": 4874,
      "Satan": 4875,
      "Aaaah": 4876,
      "Cl": 4877,
      "IV": 4878,
      "falls": 4879,
      "oid": 4880,
      "port": 4881,
      "well": 4882,
      "year": 4883,
      "▁sides": 4884,
      "▁border": 4885,
      "▁Trent": 4886,
      "▁Tenor": 4887,
      "aden": 4888,
      "▁Bono": 4889,
      "▁rides": 4890,
      "▁shuts": 4891,
      "toff": 4892,
      "▁Fil": 4893,
      "umble": 4894,
      "abble": 4895,
      "▁tears": 4896,
      "weak": 4897,
      "teen": 4898,
      "▁greatest": 4899,
      "▁McG": 4900,
      "oken": 4901,
      "▁songs": 4902,
      "▁Marklar": 4903,
      "▁gasp": 4904,
      "▁sixth": 4905,
      "▁Exper": 4906,
      "▁Travis": 4907,
      "▁Play": 4908,
      "▁bastard": 4909,
      "▁pirates": 4910,
      "▁Schw": 4911,
      "▁laptop": 4912,
      "▁Aboot": 4913,
      "▁album": 4914,
      "▁applaud": 4915,
      "▁Tenorman": 4916,
      "Wuh": 4917,
      "rot": 4918,
      "▁ident": 4919,
      "▁sal": 4920,
      "▁silly": 4921,
      "▁wakes": 4922,
      "▁bought": 4923,
      "▁fill": 4924,
      "artz": 4925,
      "▁information": 4926,
      "▁Mon": 4927,
      "▁Mem": 4928,
      "▁Ba": 4929,
      "▁Bedrager": 4930,
      "terday": 4931,
      "▁Wars": 4932,
      "▁review": 4933,
      "▁Garth": 4934,
      "▁Ron": 4935,
      "eee": 4936,
      "stage": 4937,
      "raq": 4938,
      "▁Lee": 4939,
      "rib": 4940,
      "▁Net": 4941,
      "illeg": 4942,
      "ecting": 4943,
      "aged": 4944,
      "▁Free": 4945,
      "▁whore": 4946,
      "ildren": 4947,
      "▁11": 4948,
      "▁tryin": 4949,
      "▁Ang": 4950,
      "▁fucked": 4951,
      "ansen": 4952,
      "▁scream": 4953,
      "▁ideas": 4954,
      "▁chocolate": 4955,
      "▁account": 4956,
      "▁addict": 4957,
      "▁Stevenson": 4958,
      "▁square": 4959,
      "Dammit": 4960,
      "▁gener": 4961,
      "▁murder": 4962,
      "▁Dawkins": 4963,
      "▁reaction": 4964,
      "AMB": 4965,
      "▁Abootman": 4966,
      "OV": 4967,
      "gy": 4968,
      "like": 4969,
      "▁tub": 4970,
      "hell": 4971,
      "▁sep": 4972,
      "▁wine": 4973,
      "▁hig": 4974,
      "▁cable": 4975,
      "▁fit": 4976,
      "▁Cow": 4977,
      "omed": 4978,
      "▁Iraq": 4979,
      "▁named": 4980,
      "▁naked": 4981,
      "icide": 4982,
      "oose": 4983,
      "▁stare": 4984,
      "▁jar": 4985,
      "▁shield": 4986,
      "▁anal": 4987,
      "▁lift": 4988,
      "▁Little": 4989,
      "cel": 4990,
      "▁Even": 4991,
      "▁mansion": 4992,
      "others": 4993,
      "▁shel": 4994,
      "▁slams": 4995,
      "oker": 4996,
      "▁Team": 4997,
      "▁diffic": 4998,
      "▁drawing": 4999,
      "▁honest": 5000,
      "▁panic": 5001,
      "▁motion": 5002,
      "▁promise": 5003,
      "heehee": 5004,
      "▁Teenager": 5005,
      "OD": 5006,
      "Ooooo": 5007,
      "Ph": 5008,
      "dis": 5009,
      "gust": 5010,
      "ivery": 5011,
      "lor": 5012,
      "uk": 5013,
      "yeah": 5014,
      "▁sings": 5015,
      "really": 5016,
      "▁wave": 5017,
      "erries": 5018,
      "▁cute": 5019,
      "▁dial": 5020,
      "▁dirty": 5021,
      "▁matters": 5022,
      "▁obs": 5023,
      "▁pin": 5024,
      "▁Sir": 5025,
      "▁lately": 5026,
      "▁nerv": 5027,
      "▁invest": 5028,
      "▁Bab": 5029,
      "▁ran": 5030,
      "▁havin": 5031,
      "▁Rock": 5032,
      "▁ju": 5033,
      "▁anc": 5034,
      "▁Jun": 5035,
      "▁Jose": 5036,
      "▁James": 5037,
      "rage": 5038,
      "rip": 5039,
      "▁Weight": 5040,
      "▁guest": 5041,
      "arky": 5042,
      "▁voices": 5043,
      "▁noise": 5044,
      "▁spent": 5045,
      "▁blind": 5046,
      "▁headquarters": 5047,
      "▁arg": 5048,
      "▁display": 5049,
      "▁Does": 5050,
      "▁remains": 5051,
      "ators": 5052,
      "▁restroom": 5053,
      "▁causing": 5054,
      "aaaaaaaa": 5055,
      "▁butthole": 5056,
      "▁faith": 5057,
      "▁soldier": 5058,
      "▁mirror": 5059,
      "▁Sea": 5060,
      "▁victim": 5061,
      "From": 5062,
      "▁Mingie": 5063,
      "▁Biker": 5064,
      "AMBLA": 5065,
      "Che": 5066,
      "GG": 5067,
      "Le": 5068,
      "Liane": 5069,
      "backs": 5070,
      "cast": 5071,
      "down": 5072,
      "ga": 5073,
      "ged": 5074,
      "sho": 5075,
      "▁illeg": 5076,
      "▁swe": 5077,
      "▁sister": 5078,
      "ern": 5079,
      "isle": 5080,
      "▁bunny": 5081,
      "▁fool": 5082,
      "▁master": 5083,
      "▁gate": 5084,
      "▁occ": 5085,
      "▁porn": 5086,
      "owly": 5087,
      "▁Sarah": 5088,
      "▁Water": 5089,
      "▁Washington": 5090,
      "still": 5091,
      "▁Jack": 5092,
      "ellie": 5093,
      "▁Oper": 5094,
      "▁herself": 5095,
      "▁sugg": 5096,
      "▁claps": 5097,
      "arely": 5098,
      "▁Chip": 5099,
      "inea": 5100,
      "▁mob": 5101,
      "▁Shake": 5102,
      "▁flight": 5103,
      "▁ord": 5104,
      "▁Anne": 5105,
      "grins": 5106,
      "▁owner": 5107,
      "▁careful": 5108,
      "▁boxes": 5109,
      "Sheila": 5110,
      "▁accident": 5111,
      "▁collect": 5112,
      "▁brave": 5113,
      "▁peeks": 5114,
      "▁earlier": 5115,
      "▁military": 5116,
      "▁selling": 5117,
      "▁visit": 5118,
      "▁screwed": 5119,
      "▁Resear": 5120,
      "▁banner": 5121,
      "▁Apple": 5122,
      "▁Chertoff": 5123,
      "▁Poofs": 5124,
      "▁Schwartz": 5125,
      "Br": 5126,
      "Could": 5127,
      "Happy": 5128,
      "ived": 5129,
      "ked": 5130,
      "nam": 5131,
      "anwhile": 5132,
      "▁bes": 5133,
      "▁horn": 5134,
      "eni": 5135,
      "▁pole": 5136,
      "▁ST": 5137,
      "▁Sorry": 5138,
      "▁thirty": 5139,
      "▁Music": 5140,
      "ooz": 5141,
      "asc": 5142,
      "▁Would": 5143,
      "▁Hol": 5144,
      "▁Rancher": 5145,
      "▁DNA": 5146,
      "ioneer": 5147,
      "▁boom": 5148,
      "▁NAMBLA": 5149,
      "olute": 5150,
      "▁plastic": 5151,
      "resh": 5152,
      "▁vamp": 5153,
      "ounding": 5154,
      "ection": 5155,
      "▁homework": 5156,
      "apping": 5157,
      "▁famil": 5158,
      "aze": 5159,
      "▁passenger": 5160,
      "spe": 5161,
      "▁choir": 5162,
      "after": 5163,
      "▁Prime": 5164,
      "▁discuss": 5165,
      "▁iPad": 5166,
      "▁Official": 5167,
      "CAR": 5168,
      "Hm": 5169,
      "TH": 5170,
      "Woohoo": 5171,
      "both": 5172,
      "cr": 5173,
      "cough": 5174,
      "uf": 5175,
      "▁tall": 5176,
      "itiz": 5177,
      "▁mix": 5178,
      "eno": 5179,
      "▁pile": 5180,
      "▁none": 5181,
      "▁inn": 5182,
      "▁Mother": 5183,
      "▁Kanye": 5184,
      "▁Bon": 5185,
      "▁jokes": 5186,
      "▁outta": 5187,
      "▁ash": 5188,
      "▁Frog": 5189,
      "▁guests": 5190,
      "▁vot": 5191,
      "▁energy": 5192,
      "angle": 5193,
      "neck": 5194,
      "▁bitches": 5195,
      "▁Bezos": 5196,
      "ugger": 5197,
      "▁bush": 5198,
      "▁reality": 5199,
      "exus": 5200,
      "▁speaking": 5201,
      "▁passed": 5202,
      "▁weeke": 5203,
      "▁arrived": 5204,
      "▁joined": 5205,
      "▁Once": 5206,
      "▁zomb": 5207,
      "▁Smurf": 5208,
      "ologist": 5209,
      "▁Someone": 5210,
      "▁growing": 5211,
      "▁interested": 5212,
      "venture": 5213,
      "▁papers": 5214,
      "▁incredible": 5215,
      "▁hungry": 5216,
      "▁frozen": 5217,
      "Bar": 5218,
      "City": 5219,
      "ef": 5220,
      "has": 5221,
      "uly": 5222,
      "waves": 5223,
      "your": 5224,
      "▁idi": 5225,
      "▁aims": 5226,
      "▁aisle": 5227,
      "▁cries": 5228,
      "▁grap": 5229,
      "▁pet": 5230,
      "▁pours": 5231,
      "▁pizza": 5232,
      "▁CD": 5233,
      "▁Sy": 5234,
      "ician": 5235,
      "etic": 5236,
      "iment": 5237,
      "▁bears": 5238,
      "▁racist": 5239,
      "▁Ree": 5240,
      "▁Remember": 5241,
      "▁goat": 5242,
      "illa": 5243,
      "▁Nellie": 5244,
      "ague": 5245,
      "▁chick": 5246,
      "▁Os": 5247,
      "▁downstairs": 5248,
      "▁Str": 5249,
      "▁val": 5250,
      "▁program": 5251,
      "▁200": 5252,
      "▁disappears": 5253,
      "forest": 5254,
      "▁deserve": 5255,
      "▁harder": 5256,
      "▁recess": 5257,
      "▁situation": 5258,
      "▁locked": 5259,
      "▁Somebody": 5260,
      "▁director": 5261,
      "▁Roger": 5262,
      "▁floats": 5263,
      "ophie": 5264,
      "▁circ": 5265,
      "▁harass": 5266,
      "▁ninjas": 5267,
      "▁pleased": 5268,
      "▁UPS": 5269,
      "▁hybr": 5270,
      "▁research": 5271,
      "▁whistle": 5272,
      "oolshed": 5273,
      "draws": 5274,
      "crosses": 5275,
      "▁separ": 5276,
      "▁suggest": 5277,
      "Ladies": 5278,
      "OX": 5279,
      "Oo": 5280,
      "Over": 5281,
      "Pre": 5282,
      "ST": 5283,
      "iy": 5284,
      "presses": 5285,
      "talk": 5286,
      "▁tiny": 5287,
      "▁wake": 5288,
      "▁wild": 5289,
      "▁houses": 5290,
      "▁cats": 5291,
      "▁deter": 5292,
      "▁pun": 5293,
      "▁pink": 5294,
      "▁pub": 5295,
      "▁powers": 5296,
      "▁Camp": 5297,
      "▁Sophie": 5298,
      "▁Tad": 5299,
      "▁Tweak": 5300,
      "▁river": 5301,
      "▁Goll": 5302,
      "rodu": 5303,
      "▁Love": 5304,
      "▁Lemmiwinks": 5305,
      "▁yourselves": 5306,
      "toss": 5307,
      "▁Fo": 5308,
      "▁Funnybot": 5309,
      "▁chips": 5310,
      "▁guide": 5311,
      "▁alcoho": 5312,
      "▁sports": 5313,
      "istic": 5314,
      "▁scary": 5315,
      "▁shower": 5316,
      "▁newspaper": 5317,
      "▁Isn": 5318,
      "ahaha": 5319,
      "▁stopping": 5320,
      "▁volunte": 5321,
      "▁demon": 5322,
      "▁mistake": 5323,
      "▁townsfolk": 5324,
      "follows": 5325,
      "writes": 5326,
      "▁families": 5327,
      "▁Gollum": 5328,
      "FC": 5329,
      "Looks": 5330,
      "Ooh": 5331,
      "UCK": 5332,
      "bby": 5333,
      "face": 5334,
      "fuck": 5335,
      "gin": 5336,
      "lph": 5337,
      "lifts": 5338,
      "oves": 5339,
      "sets": 5340,
      "▁sight": 5341,
      "▁theater": 5342,
      "▁wit": 5343,
      "▁wed": 5344,
      "erves": 5345,
      "▁captain": 5346,
      "▁fudge": 5347,
      "ening": 5348,
      "▁national": 5349,
      "▁Toolshed": 5350,
      "▁Green": 5351,
      "▁within": 5352,
      "▁forgot": 5353,
      "▁shadow": 5354,
      "aker": 5355,
      "arden": 5356,
      "▁Channel": 5357,
      "behind": 5358,
      "▁played": 5359,
      "▁drunk": 5360,
      "ubb": 5361,
      "▁buying": 5362,
      "uffy": 5363,
      "▁mayor": 5364,
      "▁famous": 5365,
      "▁Tech": 5366,
      "▁breakfast": 5367,
      "▁crosses": 5368,
      "▁crossed": 5369,
      "▁sending": 5370,
      "▁media": 5371,
      "Everything": 5372,
      "▁network": 5373,
      "conomy": 5374,
      "coughs": 5375,
      "▁weekend": 5376,
      "OP": 5377,
      "aith": 5378,
      "long": 5379,
      "people": 5380,
      "works": 5381,
      "xual": 5382,
      "▁sooo": 5383,
      "ara": 5384,
      "▁bars": 5385,
      "▁div": 5386,
      "▁match": 5387,
      "▁Cash": 5388,
      "▁dolph": 5389,
      "▁Pre": 5390,
      "amera": 5391,
      "▁lived": 5392,
      "▁Lady": 5393,
      "▁Laden": 5394,
      "▁bored": 5395,
      "odes": 5396,
      "asty": 5397,
      "▁locks": 5398,
      "▁blanket": 5399,
      "▁handic": 5400,
      "▁appre": 5401,
      "▁flames": 5402,
      "▁convers": 5403,
      "▁disgust": 5404,
      "▁Office": 5405,
      "▁partner": 5406,
      "▁Bron": 5407,
      "▁attract": 5408,
      "▁attached": 5409,
      "▁suppose": 5410,
      "▁Redsk": 5411,
      "▁bringing": 5412,
      "▁access": 5413,
      "▁total": 5414,
      "agination": 5415,
      "▁addresses": 5416,
      "▁Denmark": 5417,
      "▁lawyer": 5418,
      "▁early": 5419,
      "▁magaz": 5420,
      "▁immigr": 5421,
      "▁Memberberry": 5422,
      "▁detention": 5423,
      "▁knocking": 5424,
      "▁tickets": 5425,
      "▁concert": 5426,
      "▁imaginary": 5427,
      "▁circle": 5428,
      "▁indeed": 5429,
      "▁afford": 5430,
      "▁hippies": 5431,
      "▁employees": 5432,
      "▁character": 5433,
      "gency": 5434,
      "▁engine": 5435,
      "▁Department": 5436,
      "▁rifle": 5437,
      "ongratulations": 5438,
      "▁safety": 5439,
      "▁apologize": 5440,
      "▁difficult": 5441,
      "▁Operator": 5442,
      "Mm": 5443,
      "Oooo": 5444,
      "aus": 5445,
      "huh": 5446,
      "ux": 5447,
      "uuh": 5448,
      "▁ir": 5449,
      "▁summer": 5450,
      "reg": 5451,
      "reaking": 5452,
      "▁harm": 5453,
      "▁code": 5454,
      "▁drinks": 5455,
      "▁file": 5456,
      "enes": 5457,
      "▁lake": 5458,
      "▁onscreen": 5459,
      "ghan": 5460,
      "▁item": 5461,
      "▁radio": 5462,
      "▁storm": 5463,
      "▁Jooz": 5464,
      "▁Lexus": 5465,
      "▁knee": 5466,
      "▁NAS": 5467,
      "rish": 5468,
      "▁noticed": 5469,
      "osse": 5470,
      "▁Station": 5471,
      "▁sue": 5472,
      "▁loved": 5473,
      "▁army": 5474,
      "AAA": 5475,
      "▁tear": 5476,
      "▁brand": 5477,
      "▁cheese": 5478,
      "▁asses": 5479,
      "izing": 5480,
      "brary": 5481,
      "▁Ugly": 5482,
      "bson": 5483,
      "▁mustache": 5484,
      "ivil": 5485,
      "▁impossible": 5486,
      "pares": 5487,
      "Goddamnit": 5488,
      "Children": 5489,
      "▁difference": 5490,
      "▁Conner": 5491,
      "▁interview": 5492,
      "▁interrup": 5493,
      "▁boobs": 5494,
      "▁teachers": 5495,
      "▁Mexicans": 5496,
      "▁Uncle": 5497,
      "▁condition": 5498,
      "▁grocer": 5499,
      "▁split": 5500,
      "butt": 5501,
      "▁vehic": 5502,
      "▁escape": 5503,
      "▁customer": 5504,
      "▁hippie": 5505,
      "▁cabin": 5506,
      "▁Gibson": 5507,
      "▁heavy": 5508,
      "▁absolute": 5509,
      "▁definitely": 5510,
      "▁German": 5511,
      "▁innoc": 5512,
      "Yep": 5513,
      "hone": 5514,
      "may": 5515,
      "▁ill": 5516,
      "▁est": 5517,
      "ina": 5518,
      "▁hiding": 5519,
      "▁goo": 5520,
      "▁gingers": 5521,
      "▁orange": 5522,
      "▁Cond": 5523,
      "▁Coun": 5524,
      "▁Mal": 5525,
      "▁heck": 5526,
      "▁belly": 5527,
      "▁Whole": 5528,
      "▁HBC": 5529,
      "▁Rod": 5530,
      "▁Room": 5531,
      "illage": 5532,
      "▁bodies": 5533,
      "agine": 5534,
      "umbs": 5535,
      "▁age": 5536,
      "▁roars": 5537,
      "ucky": 5538,
      "▁smug": 5539,
      "getting": 5540,
      "▁drum": 5541,
      "▁Christian": 5542,
      "▁results": 5543,
      "▁leading": 5544,
      "▁damned": 5545,
      "▁Elon": 5546,
      "▁hurts": 5547,
      "▁Death": 5548,
      "▁paying": 5549,
      "▁footage": 5550,
      "▁forehead": 5551,
      "▁explos": 5552,
      "eezes": 5553,
      "▁terrorist": 5554,
      "▁Disney": 5555,
      "▁effect": 5556,
      "▁strugg": 5557,
      "▁behavior": 5558,
      "After": 5559,
      "tosses": 5560,
      "30": 5561,
      "Agh": 5562,
      "Ahhh": 5563,
      "Haha": 5564,
      "case": 5565,
      "cons": 5566,
      "gre": 5567,
      "pops": 5568,
      "was": 5569,
      "▁vers": 5570,
      "▁aud": 5571,
      "▁sarc": 5572,
      "onono": 5573,
      "nding": 5574,
      "▁hood": 5575,
      "▁du": 5576,
      "▁fence": 5577,
      "▁ge": 5578,
      "▁grou": 5579,
      "▁owe": 5580,
      "▁Call": 5581,
      "▁Soon": 5582,
      "▁IN": 5583,
      "aya": 5584,
      "icious": 5585,
      "usion": 5586,
      "▁Middle": 5587,
      "▁held": 5588,
      "▁Kite": 5589,
      "ghter": 5590,
      "▁relie": 5591,
      "▁AT": 5592,
      "▁Game": 5593,
      "▁Ra": 5594,
      "▁Jen": 5595,
      "unts": 5596,
      "▁frame": 5597,
      "▁neither": 5598,
      "ilton": 5599,
      "them": 5600,
      "osqu": 5601,
      "▁State": 5602,
      "▁worst": 5603,
      "empt": 5604,
      "▁science": 5605,
      "inson": 5606,
      "▁letting": 5607,
      "▁Val": 5608,
      "▁helmet": 5609,
      "▁assistant": 5610,
      "▁ads": 5611,
      "▁boyfriend": 5612,
      "▁closing": 5613,
      "▁breasts": 5614,
      "lessly": 5615,
      "▁clears": 5616,
      "mbly": 5617,
      "▁caused": 5618,
      "▁yesterday": 5619,
      "▁accent": 5620,
      "idden": 5621,
      "▁ceiling": 5622,
      "▁color": 5623,
      "▁exciting": 5624,
      "▁status": 5625,
      "▁creature": 5626,
      "▁celebrities": 5627,
      "▁private": 5628,
      "ulfill": 5629,
      "▁Joseph": 5630,
      "▁Redskins": 5631,
      "▁NASCAR": 5632,
      "En": 5633,
      "Grand": 5634,
      "Her": 5635,
      "Per": 5636,
      "agh": 5637,
      "five": 5638,
      "jor": 5639,
      "nome": 5640,
      "ram": 5641,
      "vian": 5642,
      "▁ver": 5643,
      "▁tube": 5644,
      "aning": 5645,
      "▁sake": 5646,
      "▁site": 5647,
      "▁sudden": 5648,
      "onard": 5649,
      "isters": 5650,
      "▁ye": 5651,
      "▁pony": 5652,
      "▁princess": 5653,
      "▁panda": 5654,
      "▁Cos": 5655,
      "▁Six": 5656,
      "▁Sister": 5657,
      "▁lone": 5658,
      "▁Tay": 5659,
      "▁Morm": 5660,
      "alal": 5661,
      "uten": 5662,
      "mander": 5663,
      "▁Kip": 5664,
      "▁Bark": 5665,
      "▁staring": 5666,
      "▁Pope": 5667,
      "▁Audience": 5668,
      "▁Hit": 5669,
      "▁Hold": 5670,
      "▁Host": 5671,
      "▁Hilton": 5672,
      "▁jeez": 5673,
      "▁Dem": 5674,
      "▁knowing": 5675,
      "▁Hel": 5676,
      "resa": 5677,
      "▁semen": 5678,
      "▁season": 5679,
      "▁spell": 5680,
      "aceX": 5681,
      "▁scientist": 5682,
      "beat": 5683,
      "through": 5684,
      "▁text": 5685,
      "▁slide": 5686,
      "▁crashes": 5687,
      "▁feelings": 5688,
      "Stephen": 5689,
      "▁speed": 5690,
      "▁decor": 5691,
      "▁married": 5692,
      "▁turkeys": 5693,
      "▁Conf": 5694,
      "▁draws": 5695,
      "▁lawn": 5696,
      "▁Patron": 5697,
      "▁falling": 5698,
      "Bebe": 5699,
      "▁copy": 5700,
      "▁miracle": 5701,
      "▁rainforest": 5702,
      "remise": 5703,
      "▁local": 5704,
      "▁portal": 5705,
      "▁annoyed": 5706,
      "▁Weatherhead": 5707,
      "stitute": 5708,
      "▁Hillary": 5709,
      "Officer": 5710,
      "▁Mongol": 5711,
      "Kids": 5712,
      "Towelie": 5713,
      "Uhhh": 5714,
      "bow": 5715,
      "crap": 5716,
      "lad": 5717,
      "mble": 5718,
      "rom": 5719,
      "sing": 5720,
      "heart": 5721,
      "▁award": 5722,
      "ination": 5723,
      "▁walls": 5724,
      "▁bands": 5725,
      "▁hugs": 5726,
      "▁dust": 5727,
      "arty": 5728,
      "▁Troll": 5729,
      "▁hee": 5730,
      "▁Kind": 5731,
      "terior": 5732,
      "▁ri": 5733,
      "ample": 5734,
      "▁rev": 5735,
      "▁Group": 5736,
      "▁Hansen": 5737,
      "see": 5738,
      "▁shoes": 5739,
      "▁Their": 5740,
      "▁liqu": 5741,
      "▁Nelly": 5742,
      "▁sobbing": 5743,
      "▁guinea": 5744,
      "istr": 5745,
      "▁process": 5746,
      "▁progress": 5747,
      "dered": 5748,
      "pering": 5749,
      "▁happily": 5750,
      "▁conn": 5751,
      "brings": 5752,
      "▁contain": 5753,
      "shot": 5754,
      "SoPa": 5755,
      "▁realized": 5756,
      "▁Blond": 5757,
      "▁await": 5758,
      "▁fired": 5759,
      "▁entertain": 5760,
      "ruct": 5761,
      "▁twelve": 5762,
      "▁Aslan": 5763,
      "▁6th": 5764,
      "▁laws": 5765,
      "iverse": 5766,
      "Scene": 5767,
      "▁clubhouse": 5768,
      "▁landing": 5769,
      "lexa": 5770,
      "▁ghosts": 5771,
      "▁losing": 5772,
      "▁Turner": 5773,
      "▁Handic": 5774,
      "▁competition": 5775,
      "▁source": 5776,
      "▁Cashier": 5777,
      "osquito": 5778,
      "Hang": 5779,
      "Help": 5780,
      "Mar": 5781,
      "Nooo": 5782,
      "bout": 5783,
      "horn": 5784,
      "know": 5785,
      "▁tong": 5786,
      "▁tables": 5787,
      "▁witch": 5788,
      "oner": 5789,
      "▁bank": 5790,
      "▁fans": 5791,
      "▁yo": 5792,
      "orp": 5793,
      "▁Tur": 5794,
      "▁Pioneer": 5795,
      "▁Premise": 5796,
      "amps": 5797,
      "amatic": 5798,
      "▁Goo": 5799,
      "▁Got": 5800,
      "▁shoppers": 5801,
      "▁meat": 5802,
      "▁loose": 5803,
      "ante": 5804,
      "▁rights": 5805,
      "resp": 5806,
      "▁vir": 5807,
      "▁whose": 5808,
      "being": 5809,
      "three": 5810,
      "▁blinks": 5811,
      "▁flat": 5812,
      "obal": 5813,
      "▁tells": 5814,
      "athie": 5815,
      "▁controll": 5816,
      "Three": 5817,
      "▁minor": 5818,
      "▁bros": 5819,
      "▁damage": 5820,
      "▁barn": 5821,
      "▁emotion": 5822,
      "▁protes": 5823,
      "▁Columb": 5824,
      "▁superher": 5825,
      "▁dreams": 5826,
      "▁election": 5827,
      "▁fishsticks": 5828,
      "▁expect": 5829,
      "coming": 5830,
      "Mayor": 5831,
      "▁Squirt": 5832,
      "▁burning": 5833,
      "▁extreme": 5834,
      "▁customers": 5835,
      "Trace": 5836,
      "▁bullet": 5837,
      "contin": 5838,
      "gasps": 5839,
      "▁festival": 5840,
      "▁rabbit": 5841,
      "▁trailer": 5842,
      "▁Expert": 5843,
      "▁illegal": 5844,
      "Aaaaa": 5845,
      "Garrison": 5846,
      "Oooh": 5847,
      "VD": 5848,
      "aj": 5849,
      "hunt": 5850,
      "iop": 5851,
      "ker": 5852,
      "wl": 5853,
      "▁till": 5854,
      "▁tamp": 5855,
      "hears": 5856,
      "iser": 5857,
      "▁bal": 5858,
      "▁fant": 5859,
      "▁odd": 5860,
      "▁path": 5861,
      "▁Crit": 5862,
      "icle": 5863,
      "icate": 5864,
      "alle": 5865,
      "▁Bart": 5866,
      "▁AND": 5867,
      "ching": 5868,
      "rokes": 5869,
      "ript": 5870,
      "▁Fred": 5871,
      "▁Fort": 5872,
      "▁whale": 5873,
      "▁noises": 5874,
      "▁spins": 5875,
      "asses": 5876,
      "▁scient": 5877,
      "onday": 5878,
      "▁blame": 5879,
      "▁teaching": 5880,
      "▁helped": 5881,
      "▁slides": 5882,
      "▁bushes": 5883,
      "▁lovely": 5884,
      "▁opened": 5885,
      "▁glances": 5886,
      "▁Blonde": 5887,
      "etsy": 5888,
      "▁killer": 5889,
      "atory": 5890,
      "Stupid": 5891,
      "armacist": 5892,
      "ampion": 5893,
      "tantly": 5894,
      "▁single": 5895,
      "▁Leonard": 5896,
      "▁zip": 5897,
      "▁pieces": 5898,
      "▁relation": 5899,
      "▁Exec": 5900,
      "▁steal": 5901,
      "ambu": 5902,
      "▁trolls": 5903,
      "▁bleed": 5904,
      "▁garb": 5905,
      "▁destroyed": 5906,
      "▁fifth": 5907,
      "▁curtains": 5908,
      "▁Airsoft": 5909,
      "▁credit": 5910,
      "▁elephant": 5911,
      "▁urinal": 5912,
      "▁Joozian": 5913,
      "Ahh": 5914,
      "Den": 5915,
      "HA": 5916,
      "Hee": 5917,
      "Yup": 5918,
      "ein": 5919,
      "iant": 5920,
      "mar": 5921,
      "nger": 5922,
      "squ": 5923,
      "tention": 5924,
      "hem": 5925,
      "hew": 5926,
      "▁shat": 5927,
      "▁wand": 5928,
      "ising": 5929,
      "isins": 5930,
      "▁bless": 5931,
      "▁daw": 5932,
      "▁fades": 5933,
      "▁firing": 5934,
      "▁mouse": 5935,
      "▁prin": 5936,
      "▁pudd": 5937,
      "▁Custom": 5938,
      "▁Sund": 5939,
      "▁Something": 5940,
      "▁thumbs": 5941,
      "▁lice": 5942,
      "▁nation": 5943,
      "etter": 5944,
      "▁TO": 5945,
      "acco": 5946,
      "outs": 5947,
      "▁Bur": 5948,
      "▁Burger": 5949,
      "keep": 5950,
      "▁Pers": 5951,
      "▁Gord": 5952,
      "▁Running": 5953,
      "ury": 5954,
      "hoho": 5955,
      "▁National": 5956,
      "▁Eh": 5957,
      "umper": 5958,
      "▁OF": 5959,
      "▁ours": 5960,
      "▁blocks": 5961,
      "▁prov": 5962,
      "angrily": 5963,
      "otten": 5964,
      "▁Phot": 5965,
      "▁listens": 5966,
      "▁rests": 5967,
      "▁stream": 5968,
      "▁clearing": 5969,
      "▁angel": 5970,
      "array": 5971,
      "▁terrif": 5972,
      "▁missed": 5973,
      "covers": 5974,
      "▁curb": 5975,
      "▁sucked": 5976,
      "jected": 5977,
      "▁express": 5978,
      "▁clearly": 5979,
      "▁Afghan": 5980,
      "▁cells": 5981,
      "▁creatures": 5982,
      "▁Street": 5983,
      "▁celebrate": 5984,
      "▁purs": 5985,
      "▁Twitter": 5986,
      "▁extra": 5987,
      "▁Musk": 5988,
      "▁cookies": 5989,
      "helle": 5990,
      "▁cigarette": 5991,
      "whispers": 5992,
      "▁Katie": 5993,
      "▁Filmore": 5994,
      "omeday": 5995,
      "▁Reeve": 5996,
      "▁hybrid": 5997,
      "▁absolutely": 5998,
      "▁Columbus": 5999,
      "0s": 6000,
      "Die": 6001,
      "Pip": 6002,
      "Ste": 6003,
      "cul": 6004,
      "fin": 6005,
      "tion": 6006,
      "vy": 6007,
      "who": 6008,
      "▁taps": 6009,
      "▁sink": 6010,
      "▁sens": 6011,
      "▁wrist": 6012,
      "ison": 6013,
      "▁bills": 6014,
      "▁hum": 6015,
      "▁hides": 6016,
      "▁citiz": 6017,
      "▁dump": 6018,
      "▁fec": 6019,
      "▁mummy": 6020,
      "▁Son": 6021,
      "▁names": 6022,
      "▁inches": 6023,
      "etie": 6024,
      "▁Tucker": 6025,
      "uthers": 6026,
      "▁By": 6027,
      "▁beating": 6028,
      "tering": 6029,
      "▁requ": 6030,
      "▁Run": 6031,
      "▁Rabb": 6032,
      "chan": 6033,
      "▁Jerry": 6034,
      "▁Del": 6035,
      "▁DVD": 6036,
      "▁lighter": 6037,
      "▁Listen": 6038,
      "▁Nut": 6039,
      "iger": 6040,
      "▁Web": 6041,
      "▁Fat": 6042,
      "▁chalk": 6043,
      "▁alley": 6044,
      "▁spark": 6045,
      "▁flu": 6046,
      "▁demand": 6047,
      "▁14": 6048,
      "angu": 6049,
      "▁trad": 6050,
      "irls": 6051,
      "feree": 6052,
      "oint": 6053,
      "ankhunt": 6054,
      "▁convin": 6055,
      "▁Um": 6056,
      "▁Behind": 6057,
      "▁unless": 6058,
      "▁parts": 6059,
      "▁design": 6060,
      "▁glares": 6061,
      "▁switches": 6062,
      "▁perfor": 6063,
      "▁underpants": 6064,
      "DoSoPa": 6065,
      "▁setting": 6066,
      "▁damnit": 6067,
      "▁mouths": 6068,
      "▁learning": 6069,
      "▁buildings": 6070,
      "▁retarded": 6071,
      "▁commun": 6072,
      "▁kicked": 6073,
      "velop": 6074,
      "flips": 6075,
      "▁Check": 6076,
      "walking": 6077,
      "Scott": 6078,
      "▁package": 6079,
      "umming": 6080,
      "▁McCain": 6081,
      "▁Nothing": 6082,
      "▁figured": 6083,
      "▁Indians": 6084,
      "▁Douche": 6085,
      "▁typing": 6086,
      "eronica": 6087,
      "▁characters": 6088,
      "▁psychic": 6089,
      "▁wrestling": 6090,
      "▁Cameron": 6091,
      "▁original": 6092,
      "▁Struthers": 6093,
      "▁appreci": 6094,
      "▁groups": 6095,
      "Free": 6096,
      "HAT": 6097,
      "Pi": 6098,
      "Principal": 6099,
      "Sm": 6100,
      "ao": 6101,
      "away": 6102,
      "does": 6103,
      "hus": 6104,
      "okay": 6105,
      "win": 6106,
      "yn": 6107,
      "zer": 6108,
      "isf": 6109,
      "istan": 6110,
      "▁barely": 6111,
      "▁date": 6112,
      "▁purch": 6113,
      "vels": 6114,
      "otions": 6115,
      "▁onstage": 6116,
      "▁Karen": 6117,
      "▁KFC": 6118,
      "▁Wal": 6119,
      "▁Pet": 6120,
      "▁Post": 6121,
      "▁haha": 6122,
      "▁jud": 6123,
      "▁shame": 6124,
      "▁neg": 6125,
      "▁Lola": 6126,
      "▁FUCK": 6127,
      "▁clown": 6128,
      "▁sew": 6129,
      "alkinson": 6130,
      "▁kidding": 6131,
      "iano": 6132,
      "▁blank": 6133,
      "▁blonde": 6134,
      "aaay": 6135,
      "▁startled": 6136,
      "▁dish": 6137,
      "▁Yel": 6138,
      "▁prepares": 6139,
      "uffs": 6140,
      "uggets": 6141,
      "▁Blue": 6142,
      "▁triangle": 6143,
      "▁kinds": 6144,
      "▁kills": 6145,
      "▁repe": 6146,
      "exits": 6147,
      "▁chairs": 6148,
      "▁accom": 6149,
      "imming": 6150,
      "▁Smalls": 6151,
      "▁current": 6152,
      "▁riding": 6153,
      "▁micro": 6154,
      "vernor": 6155,
      "▁bullhorn": 6156,
      "▁fellow": 6157,
      "▁wheels": 6158,
      "▁diab": 6159,
      "▁Squirts": 6160,
      "▁motor": 6161,
      "▁condom": 6162,
      "lights": 6163,
      "Somebody": 6164,
      "▁float": 6165,
      "▁Secret": 6166,
      "▁Perhaps": 6167,
      "▁Harriet": 6168,
      "▁baseball": 6169,
      "▁imagination": 6170,
      "▁Townsfolk": 6171,
      "▁profile": 6172,
      "▁wooden": 6173,
      "▁surrounded": 6174,
      "▁homose": 6175,
      "▁species": 6176,
      "ealous": 6177,
      "▁violent": 6178,
      "▁descends": 6179,
      "▁sixt": 6180,
      "▁ambul": 6181,
      "▁Pilgr": 6182,
      "▁platform": 6183,
      "gnant": 6184,
      "▁Bailey": 6185,
      "▁Osama": 6186,
      "▁Confeder": 6187,
      "▁tongue": 6188,
      "continues": 6189,
      "▁garbage": 6190,
      "▁Gordon": 6191,
      "Am": 6192,
      "Op": 6193,
      "Son": 6194,
      "Time": 6195,
      "bian": 6196,
      "ja": 6197,
      "pack": 6198,
      "pose": 6199,
      "punches": 6200,
      "▁sch": 6201,
      "removes": 6202,
      "▁budd": 6203,
      "lects": 6204,
      "▁cas": 6205,
      "▁cris": 6206,
      "▁corn": 6207,
      "▁tob": 6208,
      "▁fresh": 6209,
      "▁pose": 6210,
      "eto": 6211,
      "▁Tour": 6212,
      "▁MC": 6213,
      "▁Make": 6214,
      "▁Matt": 6215,
      "▁Mountain": 6216,
      "▁Mosquito": 6217,
      "▁Keep": 6218,
      "▁Buff": 6219,
      "▁Biber": 6220,
      "▁Betsy": 6221,
      "▁ramp": 6222,
      "▁sticks": 6223,
      "▁Pi": 6224,
      "▁Pir": 6225,
      "andem": 6226,
      "▁Ak": 6227,
      "▁Ant": 6228,
      "▁Abr": 6229,
      "▁Gates": 6230,
      "▁anx": 6231,
      "▁frustr": 6232,
      "raise": 6233,
      "▁Long": 6234,
      "▁Night": 6235,
      "▁Nerd": 6236,
      "▁sobs": 6237,
      "oln": 6238,
      "oler": 6239,
      "▁FOX": 6240,
      "▁Fosse": 6241,
      "abra": 6242,
      "▁click": 6243,
      "▁whips": 6244,
      "▁Church": 6245,
      "▁18": 6246,
      "▁brace": 6247,
      "psons": 6248,
      "ointed": 6249,
      "▁walkie": 6250,
      "plays": 6251,
      "▁crotch": 6252,
      "▁bread": 6253,
      "load": 6254,
      "▁Teacher": 6255,
      "▁delivers": 6256,
      "▁genius": 6257,
      "incoln": 6258,
      "▁golden": 6259,
      "▁Disarray": 6260,
      "▁effects": 6261,
      "▁prepared": 6262,
      "▁victory": 6263,
      "lenty": 6264,
      "▁coughs": 6265,
      "fortun": 6266,
      "▁polit": 6267,
      "▁healthy": 6268,
      "struction": 6269,
      "▁Magic": 6270,
      "▁stories": 6271,
      "▁Imagination": 6272,
      "▁abortion": 6273,
      "▁handicapped": 6274,
      "▁conversation": 6275,
      "De": 6276,
      "Hmmm": 6277,
      "Sl": 6278,
      "bes": 6279,
      "bag": 6280,
      "free": 6281,
      "kind": 6282,
      "lish": 6283,
      "mom": 6284,
      "▁sil": 6285,
      "▁yummy": 6286,
      "▁Int": 6287,
      "▁Tou": 6288,
      "▁Most": 6289,
      "▁hearts": 6290,
      "▁Pond": 6291,
      "▁Harry": 6292,
      "chuckles": 6293,
      "▁outfit": 6294,
      "▁les": 6295,
      "▁Loo": 6296,
      "▁sod": 6297,
      "olf": 6298,
      "agers": 6299,
      "▁butter": 6300,
      "▁plans": 6301,
      "▁clam": 6302,
      "▁clock": 6303,
      "▁toward": 6304,
      "ildo": 6305,
      "▁troops": 6306,
      "▁brah": 6307,
      "▁conv": 6308,
      "▁disbelie": 6309,
      "▁Think": 6310,
      "▁breast": 6311,
      "▁served": 6312,
      "ogn": 6313,
      "overed": 6314,
      "OOO": 6315,
      "▁evidence": 6316,
      "lence": 6317,
      "▁Elton": 6318,
      "formed": 6319,
      "▁Asian": 6320,
      "▁prize": 6321,
      "▁rule": 6322,
      "▁paint": 6323,
      "▁thousands": 6324,
      "▁metal": 6325,
      "▁commercials": 6326,
      "▁floating": 6327,
      "▁Damien": 6328,
      "▁ninja": 6329,
      "▁critic": 6330,
      "▁Gobbles": 6331,
      "▁college": 6332,
      "▁African": 6333,
      "▁Laborer": 6334,
      "▁involved": 6335,
      "▁Peruvian": 6336,
      "▁higher": 6337,
      "▁Cosby": 6338,
      "▁disbelief": 6339,
      "20": 6340,
      "CH": 6341,
      "Four": 6342,
      "Pl": 6343,
      "cos": 6344,
      "four": 6345,
      "lot": 6346,
      "nas": 6347,
      "ued": 6348,
      "uzz": 6349,
      "▁trap": 6350,
      "▁aide": 6351,
      "inic": 6352,
      "▁wipes": 6353,
      "atched": 6354,
      "lead": 6355,
      "▁ped": 6356,
      "▁pushes": 6357,
      "▁palm": 6358,
      "icip": 6359,
      "▁inf": 6360,
      "usan": 6361,
      "▁Tooth": 6362,
      "▁Malkinson": 6363,
      "utty": 6364,
      "iders": 6365,
      "▁Ale": 6366,
      "▁Gnome": 6367,
      "irre": 6368,
      "▁Humm": 6369,
      "▁Haha": 6370,
      "opher": 6371,
      "▁Runs": 6372,
      "▁Romper": 6373,
      "allow": 6374,
      "▁jealous": 6375,
      "▁Lincoln": 6376,
      "▁Nat": 6377,
      "anting": 6378,
      "▁Heaven": 6379,
      "▁backwards": 6380,
      "▁Ose": 6381,
      "elry": 6382,
      "ooky": 6383,
      "▁trop": 6384,
      "▁dropped": 6385,
      "▁walked": 6386,
      "izard": 6387,
      "▁compan": 6388,
      "actor": 6389,
      "▁residents": 6390,
      "▁Blood": 6391,
      "▁Brun": 6392,
      "▁stret": 6393,
      "ailing": 6394,
      "▁passing": 6395,
      "▁reco": 6396,
      "▁awful": 6397,
      "▁personal": 6398,
      "▁correct": 6399,
      "rett": 6400,
      "Damnit": 6401,
      "▁invited": 6402,
      "▁introdu": 6403,
      "▁treasure": 6404,
      "slowly": 6405,
      "▁throwing": 6406,
      "▁grandma": 6407,
      "▁motions": 6408,
      "▁detect": 6409,
      "akovasaur": 6410,
      "▁distract": 6411,
      "▁tort": 6412,
      "▁concerned": 6413,
      "▁rubs": 6414,
      "▁location": 6415,
      "▁corpse": 6416,
      "▁replaced": 6417,
      "▁ignor": 6418,
      "▁ruined": 6419,
      "▁bikers": 6420,
      "▁responsibility": 6421,
      "▁issue": 6422,
      "▁Jonathan": 6423,
      "▁medicine": 6424,
      "▁claim": 6425,
      "▁wedding": 6426,
      "▁Maltin": 6427,
      "▁Taylor": 6428,
      "▁Handicar": 6429,
      "▁Sunday": 6430,
      "▁ambulance": 6431,
      "andemic": 6432,
      "Boo": 6433,
      "Cut": 6434,
      "Santa": 6435,
      "Tim": 6436,
      "Today": 6437,
      "UR": 6438,
      "bus": 6439,
      "balls": 6440,
      "dri": 6441,
      "joins": 6442,
      "ses": 6443,
      "tw": 6444,
      "tle": 6445,
      "uer": 6446,
      "▁tax": 6447,
      "ouder": 6448,
      "▁cous": 6449,
      "▁cards": 6450,
      "▁fund": 6451,
      "▁oil": 6452,
      "▁Cas": 6453,
      "▁Corn": 6454,
      "▁Celine": 6455,
      "▁heat": 6456,
      "▁Kinc": 6457,
      "▁Kathie": 6458,
      "▁rips": 6459,
      "▁ech": 6460,
      "▁Public": 6461,
      "▁Acc": 6462,
      "▁HA": 6463,
      "▁Harrison": 6464,
      "▁Holl": 6465,
      "▁Joker": 6466,
      "▁Jambu": 6467,
      "▁Dec": 6468,
      "ceed": 6469,
      "then": 6470,
      "udes": 6471,
      "aging": 6472,
      "▁Weed": 6473,
      "▁En": 6474,
      "▁Helen": 6475,
      "hings": 6476,
      "▁Older": 6477,
      "▁clue": 6478,
      "▁command": 6479,
      "▁rose": 6480,
      "ontage": 6481,
      "▁molest": 6482,
      "▁Shitty": 6483,
      "▁blond": 6484,
      "▁sale": 6485,
      "▁13": 6486,
      "▁truly": 6487,
      "ledge": 6488,
      "▁Veronica": 6489,
      "▁becoming": 6490,
      "▁conference": 6491,
      "atherine": 6492,
      "▁UAA": 6493,
      "▁Before": 6494,
      "▁resume": 6495,
      "▁Brady": 6496,
      "▁Clark": 6497,
      "azz": 6498,
      "▁causes": 6499,
      "▁events": 6500,
      "achers": 6501,
      "▁dealing": 6502,
      "▁Whites": 6503,
      "nocks": 6504,
      "▁Que": 6505,
      "▁drawer": 6506,
      "▁sends": 6507,
      "▁gathers": 6508,
      "▁delivery": 6509,
      "▁quietly": 6510,
      "▁Everybody": 6511,
      "▁popular": 6512,
      "▁Danish": 6513,
      "▁mountains": 6514,
      "▁prepare": 6515,
      "▁officials": 6516,
      "centr": 6517,
      "▁ignore": 6518,
      "▁DOI": 6519,
      "precha": 6520,
      "▁Company": 6521,
      "▁clouds": 6522,
      "▁debate": 6523,
      "▁darling": 6524,
      "▁applauds": 6525,
      "▁magazine": 6526,
      "▁Critters": 6527,
      "▁Customer": 6528,
      "▁tobacco": 6529,
      "El": 6530,
      "IA": 6531,
      "Keep": 6532,
      "Make": 6533,
      "Ned": 6534,
      "Nuh": 6535,
      "SM": 6536,
      "Se": 6537,
      "Tra": 6538,
      "camera": 6539,
      "farts": 6540,
      "giggles": 6541,
      "hip": 6542,
      "iation": 6543,
      "knocks": 6544,
      "lers": 6545,
      "rie": 6546,
      "suddenly": 6547,
      "tor": 6548,
      "ule": 6549,
      "▁tweet": 6550,
      "inter": 6551,
      "▁ske": 6552,
      "▁size": 6553,
      "eras": 6554,
      "arp": 6555,
      "arrow": 6556,
      "▁bi": 6557,
      "▁bub": 6558,
      "▁cage": 6559,
      "▁fountain": 6560,
      "▁poll": 6561,
      "▁paces": 6562,
      "▁plenty": 6563,
      "▁Cal": 6564,
      "▁Cong": 6565,
      "▁Sure": 6566,
      "▁Snow": 6567,
      "▁langu": 6568,
      "▁numb": 6569,
      "etes": 6570,
      "▁Ma": 6571,
      "alright": 6572,
      "utor": 6573,
      "▁Kore": 6574,
      "outside": 6575,
      "▁Stand": 6576,
      "andom": 6577,
      "▁Honey": 6578,
      "▁gosh": 6579,
      "▁Di": 6580,
      "▁Dave": 6581,
      "▁library": 6582,
      "▁Last": 6583,
      "▁Nin": 6584,
      "agg": 6585,
      "▁Fun": 6586,
      "▁Fore": 6587,
      "ify": 6588,
      "▁plants": 6589,
      "▁suicide": 6590,
      "▁clip": 6591,
      "apes": 6592,
      "itted": 6593,
      "▁spect": 6594,
      "ulty": 6595,
      "▁load": 6596,
      "▁dev": 6597,
      "▁heading": 6598,
      "▁goodness": 6599,
      "wearing": 6600,
      "▁dishes": 6601,
      "gery": 6602,
      "▁pregnant": 6603,
      "▁slaps": 6604,
      "▁gluten": 6605,
      "▁serves": 6606,
      "▁Tommy": 6607,
      "ailable": 6608,
      "Goddammit": 6609,
      "▁decide": 6610,
      "▁bloody": 6611,
      "Meow": 6612,
      "eteor": 6613,
      "▁bullcrap": 6614,
      "▁bags": 6615,
      "▁freed": 6616,
      "▁Willy": 6617,
      "Screw": 6618,
      "▁opport": 6619,
      "▁Michelle": 6620,
      "▁Martha": 6621,
      "▁loudly": 6622,
      "▁Weathers": 6623,
      "▁Peetie": 6624,
      "▁Gobbler": 6625,
      "▁tacos": 6626,
      "▁possibly": 6627,
      "▁PS4": 6628,
      "▁Protester": 6629,
      "▁emergency": 6630,
      "Denver": 6631,
      "▁Kincade": 6632,
      "Bye": 6633,
      "Com": 6634,
      "First": 6635,
      "Kill": 6636,
      "RR": 6637,
      "Sometimes": 6638,
      "Those": 6639,
      "cut": 6640,
      "cup": 6641,
      "don": 6642,
      "good": 6643,
      "kle": 6644,
      "nel": 6645,
      "oons": 6646,
      "pac": 6647,
      "pause": 6648,
      "yah": 6649,
      "▁tons": 6650,
      "ined": 6651,
      "into": 6652,
      "▁sac": 6653,
      "▁sire": 6654,
      "▁bene": 6655,
      "▁cub": 6656,
      "▁dare": 6657,
      "▁dang": 6658,
      "▁miles": 6659,
      "▁pad": 6660,
      "▁piano": 6661,
      "▁Sometimes": 6662,
      "▁lar": 6663,
      "▁Tugger": 6664,
      "asy": 6665,
      "imin": 6666,
      "▁Biggle": 6667,
      "▁beach": 6668,
      "▁raped": 6669,
      "▁eats": 6670,
      "▁stem": 6671,
      "▁Wing": 6672,
      "▁Watch": 6673,
      "▁Roy": 6674,
      "entagon": 6675,
      "▁ate": 6676,
      "stal": 6677,
      "▁Jess": 6678,
      "▁Der": 6679,
      "ackles": 6680,
      "▁leprecha": 6681,
      "anted": 6682,
      "olin": 6683,
      "▁Fre": 6684,
      "▁Flo": 6685,
      "▁theme": 6686,
      "▁suitc": 6687,
      "▁clicks": 6688,
      "▁comments": 6689,
      "thiop": 6690,
      "▁flood": 6691,
      "aaan": 6692,
      "▁Vis": 6693,
      "ector": 6694,
      "▁conso": 6695,
      "▁adult": 6696,
      "▁compl": 6697,
      "▁writes": 6698,
      "▁imagine": 6699,
      "▁slap": 6700,
      "▁keys": 6701,
      "shine": 6702,
      "▁reply": 6703,
      "▁remind": 6704,
      "▁thoughts": 6705,
      "Stay": 6706,
      "▁musical": 6707,
      "▁sniffs": 6708,
      "itchell": 6709,
      "▁impress": 6710,
      "▁mostly": 6711,
      "speople": 6712,
      "oooooooo": 6713,
      "▁entering": 6714,
      "▁Dean": 6715,
      "▁headset": 6716,
      "▁hotel": 6717,
      "▁common": 6718,
      "▁symb": 6719,
      "Isn": 6720,
      "▁powerful": 6721,
      "▁freakin": 6722,
      "▁returned": 6723,
      "▁darkness": 6724,
      "▁humans": 6725,
      "▁vanishes": 6726,
      "▁animal": 6727,
      "▁British": 6728,
      "▁employee": 6729,
      "▁responsible": 6730,
      "▁Catho": 6731,
      "▁whispers": 6732,
      "▁remove": 6733,
      "▁snaps": 6734,
      "▁fetus": 6735,
      "▁Mintberry": 6736,
      "▁determin": 6737,
      "▁citizens": 6738,
      "Aah": 6739,
      "App": 6740,
      "Fl": 6741,
      "Honey": 6742,
      "Montage": 6743,
      "OW": 6744,
      "catches": 6745,
      "cument": 6746,
      "ford": 6747,
      "iam": 6748,
      "lock": 6749,
      "mission": 6750,
      "pes": 6751,
      "vit": 6752,
      "inum": 6753,
      "ero": 6754,
      "isher": 6755,
      "▁batter": 6756,
      "▁hamb": 6757,
      "▁cure": 6758,
      "▁math": 6759,
      "▁meteor": 6760,
      "ency": 6761,
      "▁pitch": 6762,
      "▁younger": 6763,
      "▁Cross": 6764,
      "▁SH": 6765,
      "▁SW": 6766,
      "▁Sony": 6767,
      "▁Supp": 6768,
      "▁Susan": 6769,
      "▁ly": 6770,
      "eting": 6771,
      "▁Mouse": 6772,
      "oofa": 6773,
      "asing": 6774,
      "alian": 6775,
      "▁Bear": 6776,
      "▁bein": 6777,
      "▁Wow": 6778,
      "▁reached": 6779,
      "▁Hir": 6780,
      "▁Haw": 6781,
      "▁Happy": 6782,
      "▁Ram": 6783,
      "▁forced": 6784,
      "▁jew": 6785,
      "▁jakovasaur": 6786,
      "▁DJ": 6787,
      "▁Dion": 6788,
      "▁lied": 6789,
      "▁Butt": 6790,
      "nyder": 6791,
      "▁chann": 6792,
      "▁channel": 6793,
      "▁usual": 6794,
      "▁Stomper": 6795,
      "▁sequ": 6796,
      "ctually": 6797,
      "ula": 6798,
      "▁Chicken": 6799,
      "ively": 6800,
      "▁sauce": 6801,
      "▁15": 6802,
      "▁hobb": 6803,
      "▁coup": 6804,
      "▁betray": 6805,
      "▁disab": 6806,
      "ishop": 6807,
      "▁comput": 6808,
      "▁images": 6809,
      "▁Mays": 6810,
      "▁phones": 6811,
      "anson": 6812,
      "shown": 6813,
      "shakes": 6814,
      "▁universe": 6815,
      "▁Brothers": 6816,
      "▁Clar": 6817,
      "▁swim": 6818,
      "unset": 6819,
      "▁ski": 6820,
      "▁surgery": 6821,
      "▁Redneck": 6822,
      "▁decision": 6823,
      "▁armchair": 6824,
      "▁winner": 6825,
      "▁burger": 6826,
      "▁millions": 6827,
      "▁doubt": 6828,
      "▁drawn": 6829,
      "▁brains": 6830,
      "Once": 6831,
      "HHHH": 6832,
      "▁fairy": 6833,
      "▁NOW": 6834,
      "▁purple": 6835,
      "▁purpose": 6836,
      "▁Twig": 6837,
      "▁privacy": 6838,
      "▁limo": 6839,
      "▁fifty": 6840,
      "▁Children": 6841,
      "fortable": 6842,
      "▁Bundy": 6843,
      "▁agreed": 6844,
      "▁bounces": 6845,
      "▁obviously": 6846,
      "▁pillow": 6847,
      "▁ancient": 6848,
      "▁ashamed": 6849,
      "▁alcohol": 6850,
      "▁witness": 6851,
      "▁immigrants": 6852,
      "▁innocent": 6853,
      "▁ATF": 6854,
      "▁Help": 6855,
      "▁Mongolians": 6856,
      "antequ": 6857,
      "▁controller": 6858,
      "▁protesters": 6859,
      "▁diabetes": 6860,
      "pacabra": 6861,
      "▁channels": 6862,
      "CE": 6863,
      "Little": 6864,
      "Pie": 6865,
      "mare": 6866,
      "nomes": 6867,
      "nival": 6868,
      "uel": 6869,
      "yond": 6870,
      "▁bump": 6871,
      "▁berries": 6872,
      "▁hammer": 6873,
      "▁fulfill": 6874,
      "▁mer": 6875,
      "▁mut": 6876,
      "▁mast": 6877,
      "▁Cap": 6878,
      "▁Cont": 6879,
      "▁Sal": 6880,
      "▁Snyder": 6881,
      "▁Tes": 6882,
      "▁Tak": 6883,
      "▁Mer": 6884,
      "▁Mil": 6885,
      "asp": 6886,
      "acts": 6887,
      "▁Ko": 6888,
      "▁Kurt": 6889,
      "imate": 6890,
      "▁Glen": 6891,
      "▁Gulf": 6892,
      "irrel": 6893,
      "▁Ho": 6894,
      "▁Hard": 6895,
      "lymp": 6896,
      "▁shake": 6897,
      "▁shoe": 6898,
      "▁meal": 6899,
      "▁led": 6900,
      "▁fright": 6901,
      "▁offensive": 6902,
      "ipment": 6903,
      "▁Faith": 6904,
      "▁clerk": 6905,
      "ileaks": 6906,
      "▁flowers": 6907,
      "▁16": 6908,
      "▁enc": 6909,
      "▁Vice": 6910,
      "▁Whatever": 6911,
      "atching": 6912,
      "▁throughout": 6913,
      "▁Ange": 6914,
      "▁advis": 6915,
      "▁buzz": 6916,
      "▁price": 6917,
      "▁US": 6918,
      "action": 6919,
      "ava": 6920,
      "place": 6921,
      "ormally": 6922,
      "▁Sparky": 6923,
      "ikileaks": 6924,
      "▁Alien": 6925,
      "▁videot": 6926,
      "▁evol": 6927,
      "▁highway": 6928,
      "▁dumbass": 6929,
      "▁statement": 6930,
      "slams": 6931,
      "▁obl": 6932,
      "▁Square": 6933,
      "▁memory": 6934,
      "▁Resident": 6935,
      "▁groans": 6936,
      "▁pushing": 6937,
      "▁Herbert": 6938,
      "▁revealing": 6939,
      "▁receiver": 6940,
      "▁eventually": 6941,
      "▁briefs": 6942,
      "▁culture": 6943,
      "▁issues": 6944,
      "▁Timmih": 6945,
      "▁Muslim": 6946,
      "eniors": 6947,
      "▁Bonita": 6948,
      "▁relationship": 6949,
      "▁Hollis": 6950,
      "▁Queen": 6951,
      "▁symbol": 6952,
      "Call": 6953,
      "Fell": 6954,
      "Hah": 6955,
      "ILL": 6956,
      "OH": 6957,
      "Up": 6958,
      "Woo": 6959,
      "bing": 6960,
      "have": 6961,
      "nes": 6962,
      "riel": 6963,
      "silence": 6964,
      "▁tent": 6965,
      "▁ast": 6966,
      "▁swee": 6967,
      "▁summ": 6968,
      "▁someday": 6969,
      "▁wagon": 6970,
      "ari": 6971,
      "isil": 6972,
      "iter": 6973,
      "▁civil": 6974,
      "▁due": 6975,
      "▁fle": 6976,
      "▁fills": 6977,
      "▁gross": 6978,
      "▁gentle": 6979,
      "▁SP": 6980,
      "▁SU": 6981,
      "▁Sen": 6982,
      "▁Indy": 6983,
      "▁loses": 6984,
      "▁Mitchell": 6985,
      "alie": 6986,
      "▁rack": 6987,
      "▁rap": 6988,
      "▁West": 6989,
      "▁Poo": 6990,
      "▁Pentagon": 6991,
      "stein": 6992,
      "ells": 6993,
      "▁lemon": 6994,
      "ahmer": 6995,
      "yson": 6996,
      "▁cann": 6997,
      "▁Lo": 6998,
      "▁Lam": 6999,
      "▁Los": 7000,
      "igod": 7001,
      "agisil": 7002,
      "epend": 7003,
      "▁Future": 7004,
      "▁chain": 7005,
      "▁Olymp": 7006,
      "icket": 7007,
      "▁vac": 7008,
      "▁vice": 7009,
      "▁rocks": 7010,
      "▁spray": 7011,
      "ulars": 7012,
      "▁sayin": 7013,
      "▁sales": 7014,
      "▁exist": 7015,
      "▁smacks": 7016,
      "▁teams": 7017,
      "airman": 7018,
      "▁prev": 7019,
      "▁Up": 7020,
      "▁finding": 7021,
      "▁desert": 7022,
      "ashion": 7023,
      "Should": 7024,
      "ivid": 7025,
      "▁positions": 7026,
      "▁staying": 7027,
      "▁based": 7028,
      "phone": 7029,
      "▁warn": 7030,
      "▁curse": 7031,
      "▁Broflovskis": 7032,
      "▁freak": 7033,
      "▁freaking": 7034,
      "▁costumes": 7035,
      "ministr": 7036,
      "▁recording": 7037,
      "slaps": 7038,
      "▁attacked": 7039,
      "▁Anchorman": 7040,
      "▁eggs": 7041,
      "▁bleachers": 7042,
      "uckerberg": 7043,
      "▁received": 7044,
      "▁holidays": 7045,
      "▁projector": 7046,
      "▁available": 7047,
      "▁amongst": 7048,
      "▁bikes": 7049,
      "▁binoc": 7050,
      "▁violence": 7051,
      "▁equipment": 7052,
      "▁hoping": 7053,
      "▁Skankhunt": 7054,
      "American": 7055,
      "▁taco": 7056,
      "▁natural": 7057,
      "▁orders": 7058,
      "▁idiot": 7059,
      "iyama": 7060,
      "▁virus": 7061,
      "moments": 7062,
      "▁trophy": 7063,
      "▁numbers": 7064,
      "▁SWAT": 7065,
      "▁computers": 7066,
      "antequilla": 7067,
      "AD": 7068,
      "Bill": 7069,
      "Con": 7070,
      "EL": 7071,
      "John": 7072,
      "News": 7073,
      "hm": 7074,
      "lace": 7075,
      "migod": 7076,
      "pro": 7077,
      "▁ess": 7078,
      "▁tie": 7079,
      "ints": 7080,
      "▁wa": 7081,
      "▁bang": 7082,
      "▁boring": 7083,
      "▁hats": 7084,
      "▁homes": 7085,
      "▁hidden": 7086,
      "▁coo": 7087,
      "▁duck": 7088,
      "▁dudes": 7089,
      "▁mister": 7090,
      "▁pitc": 7091,
      "▁CH": 7092,
      "▁Say": 7093,
      "▁nipp": 7094,
      "▁infect": 7095,
      "▁ME": 7096,
      "▁Monday": 7097,
      "oots": 7098,
      "▁Kill": 7099,
      "▁KKK": 7100,
      "▁Katherine": 7101,
      "adium": 7102,
      "▁emo": 7103,
      "▁style": 7104,
      "▁Wood": 7105,
      "▁Pal": 7106,
      "▁Pocket": 7107,
      "▁Pizza": 7108,
      "▁release": 7109,
      "▁Ghost": 7110,
      "▁king": 7111,
      "▁upd": 7112,
      "▁ath": 7113,
      "start": 7114,
      "▁Jud": 7115,
      "ellig": 7116,
      "▁Down": 7117,
      "▁necess": 7118,
      "▁Li": 7119,
      "▁Lenn": 7120,
      "cean": 7121,
      "ilities": 7122,
      "▁likely": 7123,
      "▁usually": 7124,
      "thinking": 7125,
      "▁Should": 7126,
      "ullic": 7127,
      "▁rooms": 7128,
      "▁deck": 7129,
      "berries": 7130,
      "▁willing": 7131,
      "▁tea": 7132,
      "▁nightmare": 7133,
      "▁drones": 7134,
      "neath": 7135,
      "▁waiter": 7136,
      "▁grass": 7137,
      "▁uns": 7138,
      "▁unif": 7139,
      "areness": 7140,
      "▁realizes": 7141,
      "▁30": 7142,
      "▁attacks": 7143,
      "▁approaching": 7144,
      "exas": 7145,
      "▁SoDoSoPa": 7146,
      "Doctor": 7147,
      "▁hallways": 7148,
      "▁Grammy": 7149,
      "▁grave": 7150,
      "▁mission": 7151,
      "▁checking": 7152,
      "▁Whoa": 7153,
      "▁raised": 7154,
      "Meanwhile": 7155,
      "onym": 7156,
      "▁council": 7157,
      "▁deliver": 7158,
      "▁blowj": 7159,
      "▁blowing": 7160,
      "Attention": 7161,
      "▁refer": 7162,
      "▁Passion": 7163,
      "▁splash": 7164,
      "▁trolling": 7165,
      "▁Army": 7166,
      "glances": 7167,
      "▁promised": 7168,
      "▁types": 7169,
      "▁pressure": 7170,
      "▁corporate": 7171,
      "▁iPhone": 7172,
      "▁avoid": 7173,
      "▁anti": 7174,
      "▁vaccines": 7175,
      "▁electric": 7176,
      "▁thrown": 7177,
      "▁responds": 7178,
      "▁removed": 7179,
      "▁obvious": 7180,
      "▁shovel": 7181,
      "▁religion": 7182,
      "Check": 7183,
      "▁vampire": 7184,
      "▁relief": 7185,
      "▁Raisins": 7186,
      "▁Valmer": 7187,
      "nasium": 7188,
      "▁ignorant": 7189,
      "▁cousin": 7190,
      "▁language": 7191,
      "▁hobbit": 7192,
      "▁masturb": 7193,
      "▁Angeles": 7194,
      "▁binoculars": 7195,
      "Ar": 7196,
      "Gee": 7197,
      "Ma": 7198,
      "Move": 7199,
      "Michael": 7200,
      "Nn": 7201,
      "Nah": 7202,
      "Ogh": 7203,
      "Shh": 7204,
      "Scuse": 7205,
      "Wo": 7206,
      "Yo": 7207,
      "figure": 7208,
      "gment": 7209,
      "ients": 7210,
      "jo": 7211,
      "▁tit": 7212,
      "▁tip": 7213,
      "ining": 7214,
      "▁sore": 7215,
      "▁hm": 7216,
      "itation": 7217,
      "▁cent": 7218,
      "▁domin": 7219,
      "▁muff": 7220,
      "▁yah": 7221,
      "▁pow": 7222,
      "▁Crew": 7223,
      "▁lau": 7224,
      "▁MY": 7225,
      "▁Med": 7226,
      "▁Main": 7227,
      "▁Move": 7228,
      "ashed": 7229,
      "uty": 7230,
      "aco": 7231,
      "ghh": 7232,
      "immer": 7233,
      "▁Bible": 7234,
      "▁rum": 7235,
      "▁wears": 7236,
      "▁Whe": 7237,
      "▁Pink": 7238,
      "▁Hi": 7239,
      "▁Hare": 7240,
      "▁Ranger": 7241,
      "▁fort": 7242,
      "▁ships": 7243,
      "▁memor": 7244,
      "▁measure": 7245,
      "elling": 7246,
      "une": 7247,
      "unting": 7248,
      "▁Lion": 7249,
      "▁NSA": 7250,
      "▁aband": 7251,
      "▁plates": 7252,
      "icky": 7253,
      "icker": 7254,
      "▁whales": 7255,
      "▁lookin": 7256,
      "▁spots": 7257,
      "emp": 7258,
      "▁whoever": 7259,
      "▁manager": 7260,
      "▁scare": 7261,
      "▁scenes": 7262,
      "before": 7263,
      "▁blast": 7264,
      "▁flank": 7265,
      "▁flashes": 7266,
      "▁Goddamned": 7267,
      "▁quarter": 7268,
      "▁Vlad": 7269,
      "AAAH": 7270,
      "boys": 7271,
      "▁concentr": 7272,
      "▁sliding": 7273,
      "▁resc": 7274,
      "▁crut": 7275,
      "applause": 7276,
      "Howdy": 7277,
      "▁swimming": 7278,
      "▁Sports": 7279,
      "▁famili": 7280,
      "▁percent": 7281,
      "▁signal": 7282,
      "▁recogn": 7283,
      "▁dolls": 7284,
      "▁leaders": 7285,
      "▁broad": 7286,
      "▁Guys": 7287,
      "checks": 7288,
      "▁buried": 7289,
      "clears": 7290,
      "▁crab": 7291,
      "holding": 7292,
      "▁horror": 7293,
      "▁cutting": 7294,
      "▁911": 7295,
      "▁touched": 7296,
      "▁insane": 7297,
      "▁tossing": 7298,
      "▁created": 7299,
      "▁groin": 7300,
      "obbles": 7301,
      "▁planetarium": 7302,
      "▁corpor": 7303,
      "▁helicopters": 7304,
      "▁vaccin": 7305,
      "▁warming": 7306,
      "▁arrested": 7307,
      "▁bursts": 7308,
      "▁bucket": 7309,
      "▁McGullic": 7310,
      "▁Foley": 7311,
      "▁vehicle": 7312,
      "▁version": 7313,
      "Perhaps": 7314,
      "▁Mormon": 7315,
      "▁Hitler": 7316,
      "DiePie": 7317,
      "▁chalkboard": 7318,
      "▁appreciate": 7319,
      "▁crisis": 7320,
      "lotte": 7321,
      "▁companies": 7322,
      "▁opportunity": 7323,
      "▁Claridge": 7324,
      "▁Takiyama": 7325,
      "▁familiar": 7326,
      "▁McGullicutty": 7327,
      "Aaaaah": 7328,
      "Big": 7329,
      "Billy": 7330,
      "avery": 7331,
      "afe": 7332,
      "ere": 7333,
      "fall": 7334,
      "gun": 7335,
      "hoo": 7336,
      "jects": 7337,
      "lf": 7338,
      "named": 7339,
      "ping": 7340,
      "sen": 7341,
      "wall": 7342,
      "wag": 7343,
      "word": 7344,
      "▁taught": 7345,
      "▁tests": 7346,
      "▁actor": 7347,
      "▁sip": 7348,
      "▁sins": 7349,
      "▁wet": 7350,
      "arms": 7351,
      "▁bark": 7352,
      "▁bite": 7353,
      "▁bail": 7354,
      "▁cro": 7355,
      "▁cong": 7356,
      "▁dun": 7357,
      "▁dough": 7358,
      "▁toler": 7359,
      "▁mood": 7360,
      "esh": 7361,
      "▁pipe": 7362,
      "▁Cle": 7363,
      "▁CIA": 7364,
      "▁Su": 7365,
      "▁laser": 7366,
      "▁louder": 7367,
      "▁Try": 7368,
      "▁Ball": 7369,
      "▁Bos": 7370,
      "▁Book": 7371,
      "▁beats": 7372,
      "▁random": 7373,
      "▁Wy": 7374,
      "▁Was": 7375,
      "▁Wii": 7376,
      "▁Pant": 7377,
      "▁PET": 7378,
      "▁Panda": 7379,
      "▁HIV": 7380,
      "▁haul": 7381,
      "▁forty": 7382,
      "▁upper": 7383,
      "▁jour": 7384,
      "strokes": 7385,
      "▁Butler": 7386,
      "onel": 7387,
      "ceeds": 7388,
      "▁Nancy": 7389,
      "ille": 7390,
      "orey": 7391,
      "▁Welcome": 7392,
      "ipul": 7393,
      "▁Fer": 7394,
      "▁Fourth": 7395,
      "iforn": 7396,
      "▁chart": 7397,
      "▁chuck": 7398,
      "▁waste": 7399,
      "resumes": 7400,
      "▁Ol": 7401,
      "▁somewhat": 7402,
      "Whatever": 7403,
      "▁uses": 7404,
      "▁downtown": 7405,
      "▁Stew": 7406,
      "▁Stella": 7407,
      "ewDiePie": 7408,
      "▁loving": 7409,
      "▁saving": 7410,
      "▁Shel": 7411,
      "▁develop": 7412,
      "▁progr": 7413,
      "▁arrow": 7414,
      "▁shoulders": 7415,
      "▁became": 7416,
      "▁contact": 7417,
      "▁precious": 7418,
      "▁grown": 7419,
      "▁represent": 7420,
      "▁remem": 7421,
      "▁stuffing": 7422,
      "▁Really": 7423,
      "ornin": 7424,
      "▁Moments": 7425,
      "ibb": 7426,
      "▁Board": 7427,
      "▁Commander": 7428,
      "▁buries": 7429,
      "ahahahah": 7430,
      "▁cleaning": 7431,
      "reading": 7432,
      "▁pigs": 7433,
      "▁cardinal": 7434,
      "▁educ": 7435,
      "▁Truck": 7436,
      "▁Truth": 7437,
      "▁deeply": 7438,
      "▁pupp": 7439,
      "▁souls": 7440,
      "▁Robin": 7441,
      "▁fags": 7442,
      "ancholy": 7443,
      "▁Buy": 7444,
      "▁temple": 7445,
      "▁create": 7446,
      "▁teenager": 7447,
      "▁Connolly": 7448,
      "▁agreement": 7449,
      "▁folder": 7450,
      "ropri": 7451,
      "▁investig": 7452,
      "▁zombies": 7453,
      "▁dolphins": 7454,
      "greens": 7455,
      "fortunately": 7456,
      "▁detectives": 7457,
      "▁Catholic": 7458,
      "▁lyric": 7459,
      "21": 7460,
      "Berry": 7461,
      "Mark": 7462,
      "Nope": 7463,
      "Shhh": 7464,
      "TV": 7465,
      "VE": 7466,
      "ba": 7467,
      "bu": 7468,
      "dressed": 7469,
      "emy": 7470,
      "ias": 7471,
      "new": 7472,
      "sna": 7473,
      "taps": 7474,
      "will": 7475,
      "yal": 7476,
      "▁tran": 7477,
      "heim": 7478,
      "▁hal": 7479,
      "▁hates": 7480,
      "▁moo": 7481,
      "▁mult": 7482,
      "▁mature": 7483,
      "▁ger": 7484,
      "▁pond": 7485,
      "▁pang": 7486,
      "▁pope": 7487,
      "▁parent": 7488,
      "▁thin": 7489,
      "iches": 7490,
      "▁Miles": 7491,
      "vey": 7492,
      "▁island": 7493,
      "▁Bus": 7494,
      "▁Bum": 7495,
      "▁beam": 7496,
      "▁beef": 7497,
      "▁rout": 7498,
      "▁uhh": 7499,
      "▁stack": 7500,
      "▁Poe": 7501,
      "▁rear": 7502,
      "▁Gl": 7503,
      "▁Gar": 7504,
      "▁Ginger": 7505,
      "▁Husse": 7506,
      "▁Holy": 7507,
      "▁hah": 7508,
      "▁Rabble": 7509,
      "▁jelly": 7510,
      "▁Ju": 7511,
      "unci": 7512,
      "acky": 7513,
      "▁cancel": 7514,
      "▁knight": 7515,
      "umn": 7516,
      "▁chicks": 7517,
      "▁challen": 7518,
      "▁Stark": 7519,
      "▁client": 7520,
      "▁cliff": 7521,
      "fft": 7522,
      "itties": 7523,
      "▁spr": 7524,
      "▁manipul": 7525,
      "▁Shopper": 7526,
      "berts": 7527,
      "▁enemy": 7528,
      "anker": 7529,
      "perse": 7530,
      "▁campa": 7531,
      "▁phys": 7532,
      "▁Inst": 7533,
      "▁Dog": 7534,
      "ounts": 7535,
      "▁global": 7536,
      "▁drivers": 7537,
      "▁resting": 7538,
      "▁40": 7539,
      "clap": 7540,
      "▁Referee": 7541,
      "▁pointing": 7542,
      "▁trag": 7543,
      "▁fireworks": 7544,
      "arring": 7545,
      "▁Jewpacabra": 7546,
      "▁retard": 7547,
      "ruction": 7548,
      "rette": 7549,
      "▁dogs": 7550,
      "▁bullshit": 7551,
      "▁freaks": 7552,
      "▁invite": 7553,
      "▁product": 7554,
      "▁easily": 7555,
      "▁Roberts": 7556,
      "ends": 7557,
      "conf": 7558,
      "▁department": 7559,
      "▁Passenger": 7560,
      "▁capt": 7561,
      "▁Plan": 7562,
      "▁Hero": 7563,
      "mpire": 7564,
      "▁preparing": 7565,
      "▁perfectly": 7566,
      "▁lucky": 7567,
      "▁indic": 7568,
      "▁experiment": 7569,
      "▁spending": 7570,
      "▁alarmed": 7571,
      "▁Vampir": 7572,
      "▁Miller": 7573,
      "▁Connelly": 7574,
      "▁Jonas": 7575,
      "▁grinning": 7576,
      "▁Francisco": 7577,
      "▁assembly": 7578,
      "▁kindergartners": 7579,
      "▁taste": 7580,
      "▁Babies": 7581,
      "▁Broncos": 7582,
      "▁emotional": 7583,
      "▁freedom": 7584,
      "wallis": 7585,
      "▁PETA": 7586,
      "▁Hussein": 7587,
      "15": 7588,
      "Aaa": 7589,
      "Hurry": 7590,
      "Nono": 7591,
      "Remember": 7592,
      "Si": 7593,
      "Something": 7594,
      "Work": 7595,
      "ault": 7596,
      "bar": 7597,
      "fucker": 7598,
      "ique": 7599,
      "mouth": 7600,
      "music": 7601,
      "nell": 7602,
      "taya": 7603,
      "wr": 7604,
      "why": 7605,
      "yes": 7606,
      "▁tits": 7607,
      "▁sin": 7608,
      "▁wins": 7609,
      "▁waving": 7610,
      "arant": 7611,
      "▁chef": 7612,
      "ingle": 7613,
      "▁dim": 7614,
      "▁fed": 7615,
      "▁makin": 7616,
      "▁giggle": 7617,
      "▁glee": 7618,
      "▁gaze": 7619,
      "enact": 7620,
      "▁ot": 7621,
      "▁pil": 7622,
      "▁Sex": 7623,
      "▁Its": 7624,
      "▁lat": 7625,
      "▁Top": 7626,
      "tane": 7627,
      "▁stone": 7628,
      "▁straw": 7629,
      "▁dock": 7630,
      "▁Way": 7631,
      "amber": 7632,
      "▁Alexa": 7633,
      "iron": 7634,
      "▁Hay": 7635,
      "▁Hilling": 7636,
      "urpris": 7637,
      "▁mel": 7638,
      "unky": 7639,
      "acking": 7640,
      "▁leaps": 7641,
      "▁levels": 7642,
      "▁frown": 7643,
      "aham": 7644,
      "rab": 7645,
      "cep": 7646,
      "ripp": 7647,
      "ilty": 7648,
      "ecially": 7649,
      "▁offers": 7650,
      "▁Fin": 7651,
      "▁chief": 7652,
      "icked": 7653,
      "▁clinic": 7654,
      "▁Chairman": 7655,
      "▁wanting": 7656,
      "iance": 7657,
      "venge": 7658,
      "▁exterior": 7659,
      "▁17": 7660,
      "ichi": 7661,
      "▁Vagisil": 7662,
      "▁goodbye": 7663,
      "issed": 7664,
      "ials": 7665,
      "▁disperse": 7666,
      "▁contest": 7667,
      "▁Us": 7668,
      "▁Screw": 7669,
      "▁grunts": 7670,
      "ohito": 7671,
      "anced": 7672,
      "▁fights": 7673,
      "▁signed": 7674,
      "reaming": 7675,
      "▁awake": 7676,
      "▁travel": 7677,
      "▁dressing": 7678,
      "▁Mega": 7679,
      "Chris": 7680,
      "▁stores": 7681,
      "▁Colonel": 7682,
      "▁added": 7683,
      "▁crappy": 7684,
      "▁presentation": 7685,
      "▁interior": 7686,
      "▁Slash": 7687,
      "aahir": 7688,
      "▁confess": 7689,
      "amming": 7690,
      "annoyed": 7691,
      "▁belt": 7692,
      "Awwww": 7693,
      "▁shocking": 7694,
      "▁speaker": 7695,
      "▁picked": 7696,
      "▁panel": 7697,
      "Sphere": 7698,
      "▁depressed": 7699,
      "▁celebrity": 7700,
      "▁defense": 7701,
      "Which": 7702,
      "▁gymnasium": 7703,
      "▁laid": 7704,
      "▁Ark": 7705,
      "Everybody": 7706,
      "▁Quint": 7707,
      "▁chatting": 7708,
      "▁credits": 7709,
      "▁announcement": 7710,
      "▁Sandwich": 7711,
      "Christmas": 7712,
      "▁liter": 7713,
      "Downtown": 7714,
      "▁vomits": 7715,
      "▁cheek": 7716,
      "▁Greenfield": 7717,
      "▁GameSphere": 7718,
      "▁liquid": 7719,
      "▁negative": 7720,
      "▁motorcy": 7721,
      "▁Pirate": 7722,
      "▁Imaginationland": 7723,
      "▁Hirohito": 7724,
      "▁jewelry": 7725,
      "▁Stewart": 7726,
      "▁pangolin": 7727,
      "AK": 7728,
      "Bu": 7729,
      "Gobbles": 7730,
      "Run": 7731,
      "SS": 7732,
      "Saddam": 7733,
      "Yee": 7734,
      "bles": 7735,
      "cake": 7736,
      "cles": 7737,
      "cited": 7738,
      "ios": 7739,
      "press": 7740,
      "vah": 7741,
      "wa": 7742,
      "wiches": 7743,
      "ya": 7744,
      "▁ih": 7745,
      "▁tuh": 7746,
      "▁soo": 7747,
      "▁sons": 7748,
      "▁bother": 7749,
      "lection": 7750,
      "lebutt": 7751,
      "▁cy": 7752,
      "▁cents": 7753,
      "▁toys": 7754,
      "▁fig": 7755,
      "▁fail": 7756,
      "▁fancy": 7757,
      "▁mention": 7758,
      "▁giggles": 7759,
      "▁ol": 7760,
      "▁pers": 7761,
      "▁pant": 7762,
      "▁Corey": 7763,
      "▁lid": 7764,
      "icles": 7765,
      "▁Ter": 7766,
      "▁Tiger": 7767,
      "▁Money": 7768,
      "▁races": 7769,
      "▁ranch": 7770,
      "▁ripped": 7771,
      "▁weather": 7772,
      "▁stall": 7773,
      "vert": 7774,
      "▁Wife": 7775,
      "▁PA": 7776,
      "▁Aven": 7777,
      "▁High": 7778,
      "▁Hope": 7779,
      "▁Hummer": 7780,
      "opes": 7781,
      "▁RE": 7782,
      "allows": 7783,
      "change": 7784,
      "▁shape": 7785,
      "rike": 7786,
      "▁Nice": 7787,
      "igan": 7788,
      "▁Eve": 7789,
      "▁Ever": 7790,
      "▁Eur": 7791,
      "▁East": 7792,
      "▁Ethiop": 7793,
      "▁Fon": 7794,
      "▁champion": 7795,
      "▁Over": 7796,
      "aby": 7797,
      "▁vi": 7798,
      "▁rob": 7799,
      "▁lobby": 7800,
      "▁headed": 7801,
      "▁letters": 7802,
      "▁Goddamnit": 7803,
      "▁Goddammit": 7804,
      "▁smashes": 7805,
      "▁Viet": 7806,
      "▁shell": 7807,
      "▁sheep": 7808,
      "▁helps": 7809,
      "▁drown": 7810,
      "▁drug": 7811,
      "▁drums": 7812,
      "▁assure": 7813,
      "▁consc": 7814,
      "▁disco": 7815,
      "athers": 7816,
      "▁Information": 7817,
      "▁slut": 7818,
      "▁townspeople": 7819,
      "▁Science": 7820,
      "▁uncle": 7821,
      "▁crash": 7822,
      "▁Brand": 7823,
      "▁reporting": 7824,
      "▁SpaceX": 7825,
      "▁series": 7826,
      "▁owners": 7827,
      "everal": 7828,
      "▁Redford": 7829,
      "spen": 7830,
      "phones": 7831,
      "▁joining": 7832,
      "▁freeze": 7833,
      "▁Zuckerberg": 7834,
      "▁invent": 7835,
      "▁Excuse": 7836,
      "▁driveway": 7837,
      "▁humanity": 7838,
      "HHH": 7839,
      "▁covering": 7840,
      "▁destroying": 7841,
      "▁pushed": 7842,
      "▁escort": 7843,
      "▁flashlight": 7844,
      "▁Charlotte": 7845,
      "altman": 7846,
      "▁Morgan": 7847,
      "▁operation": 7848,
      "sniffs": 7849,
      "▁Millie": 7850,
      "▁Maggie": 7851,
      "▁Assistant": 7852,
      "▁smells": 7853,
      "▁greet": 7854,
      "▁model": 7855,
      "▁disappear": 7856,
      "▁cruiser": 7857,
      "▁embarrassed": 7858,
      "▁releases": 7859,
      "▁vomit": 7860,
      "▁Members": 7861,
      "▁Network": 7862,
      "▁Angel": 7863,
      "Phillip": 7864,
      "▁nervous": 7865,
      "▁juice": 7866,
      "▁argument": 7867,
      "Leave": 7868,
      "uflects": 7869,
      "▁disgusting": 7870,
      "▁items": 7871,
      "conscious": 7872,
      "▁Jenner": 7873,
      "▁Sixth": 7874,
      "▁Barkley": 7875,
      "▁Turd": 7876,
      "▁tradition": 7877,
      "▁homosexual": 7878,
      "▁anxiety": 7879,
      "uzzlebutt": 7880,
      "▁Cornwallis": 7881,
      "▁suitcase": 7882,
      "▁console": 7883,
      "▁sequence": 7884,
      "onymous": 7885,
      "▁lyrics": 7886,
      "Brah": 7887,
      "Five": 7888,
      "Kay": 7889,
      "Les": 7890,
      "Larry": 7891,
      "Night": 7892,
      "RA": 7893,
      "Town": 7894,
      "WHAT": 7895,
      "Yay": 7896,
      "aled": 7897,
      "bil": 7898,
      "cur": 7899,
      "jand": 7900,
      "mic": 7901,
      "rushing": 7902,
      "tar": 7903,
      "tes": 7904,
      "wipes": 7905,
      "zing": 7906,
      "▁tiss": 7907,
      "▁sigh": 7908,
      "▁sunset": 7909,
      "▁seniors": 7910,
      "▁thee": 7911,
      "▁therap": 7912,
      "▁watched": 7913,
      "▁ba": 7914,
      "attered": 7915,
      "▁hors": 7916,
      "▁dw": 7917,
      "▁mail": 7918,
      "▁myster": 7919,
      "▁merry": 7920,
      "▁gee": 7921,
      "▁gnomes": 7922,
      "▁ocean": 7923,
      "▁pure": 7924,
      "▁pages": 7925,
      "▁pimp": 7926,
      "▁nature": 7927,
      "▁Trans": 7928,
      "▁Today": 7929,
      "▁Token": 7930,
      "▁Moo": 7931,
      "▁Mantequilla": 7932,
      "otally": 7933,
      "otyp": 7934,
      "ador": 7935,
      "▁economy": 7936,
      "▁Wikileaks": 7937,
      "▁Hake": 7938,
      "▁Hipp": 7939,
      "▁forces": 7940,
      "▁jet": 7941,
      "eegan": 7942,
      "hern": 7943,
      "Young": 7944,
      "stunned": 7945,
      "ellite": 7946,
      "▁Dahmer": 7947,
      "▁fries": 7948,
      "▁Land": 7949,
      "▁Lamond": 7950,
      "arding": 7951,
      "▁End": 7952,
      "▁Four": 7953,
      "uma": 7954,
      "abag": 7955,
      "ickers": 7956,
      "▁worm": 7957,
      "▁vig": 7958,
      "▁virt": 7959,
      "▁spooky": 7960,
      "istlin": 7961,
      "▁sail": 7962,
      "▁Village": 7963,
      "▁schools": 7964,
      "▁britches": 7965,
      "▁meaning": 7966,
      "▁chew": 7967,
      "▁cheat": 7968,
      "▁disp": 7969,
      "eeling": 7970,
      "▁Under": 7971,
      "▁Pharmacist": 7972,
      "▁desks": 7973,
      "▁funn": 7974,
      "▁McDon": 7975,
      "anciful": 7976,
      "▁Allyson": 7977,
      "▁reports": 7978,
      "▁Spears": 7979,
      "oked": 7980,
      "azed": 7981,
      "▁underneath": 7982,
      "AAAAA": 7983,
      "▁impact": 7984,
      "▁Donov": 7985,
      "▁Guess": 7986,
      "▁singers": 7987,
      "▁nearly": 7988,
      "▁pays": 7989,
      "▁50": 7990,
      "▁lockers": 7991,
      "Goodbye": 7992,
      "▁Again": 7993,
      "▁messed": 7994,
      "▁bulldo": 7995,
      "▁legal": 7996,
      "▁Zimmer": 7997,
      "▁gathering": 7998,
      "▁destruction": 7999,
      "▁packages": 8000,
      "▁transpl": 8001,
      "▁THC": 8002,
      "▁Dane": 8003,
      "▁patient": 8004,
      "atican": 8005,
      "▁masc": 8006,
      "▁photograp": 8007,
      "▁silently": 8008,
      "▁focuses": 8009,
      "▁loss": 8010,
      "▁Flor": 8011,
      "▁Outside": 8012,
      "▁Airport": 8013,
      "▁heavily": 8014,
      "▁Goths": 8015,
      "▁directly": 8016,
      "▁assemble": 8017,
      "▁ratings": 8018,
      "▁Putin": 8019,
      "GHT": 8020,
      "▁execut": 8021,
      "▁addiction": 8022,
      "▁nervously": 8023,
      "▁harassment": 8024,
      "talkie": 8025,
      "▁pubes": 8026,
      "▁groceries": 8027,
      "Grandpa": 8028,
      "▁extremely": 8029,
      "▁scientists": 8030,
      "▁performan": 8031,
      "▁Loogie": 8032,
      "▁Casa": 8033,
      "▁Congress": 8034,
      "ropriate": 8035,
      "▁transp": 8036,
      "▁campaign": 8037,
      "jandro": 8038,
      "▁Hakeem": 8039,
      "▁Zimmerman": 8040,
      "47": 8041,
      "Aa": 8042,
      "Car": 8043,
      "Dumb": 8044,
      "IC": 8045,
      "IM": 8046,
      "IGHT": 8047,
      "Jeez": 8048,
      "Linda": 8049,
      "MV": 8050,
      "New": 8051,
      "Naw": 8052,
      "School": 8053,
      "cers": 8054,
      "did": 8055,
      "eared": 8056,
      "fish": 8057,
      "hou": 8058,
      "hav": 8059,
      "lasty": 8060,
      "nic": 8061,
      "uled": 8062,
      "viron": 8063,
      "▁tim": 8064,
      "▁sung": 8065,
      "itals": 8066,
      "▁der": 8067,
      "▁dirt": 8068,
      "▁filling": 8069,
      "▁mental": 8070,
      "▁gest": 8071,
      "▁grows": 8072,
      "▁gifts": 8073,
      "▁oven": 8074,
      "▁pist": 8075,
      "▁pacing": 8076,
      "▁Cent": 8077,
      "▁Cour": 8078,
      "▁Case": 8079,
      "oww": 8080,
      "iche": 8081,
      "ican": 8082,
      "▁Things": 8083,
      "▁Ticket": 8084,
      "▁Merry": 8085,
      "iden": 8086,
      "aca": 8087,
      "outhern": 8088,
      "▁Border": 8089,
      "▁una": 8090,
      "▁weep": 8091,
      "▁stadium": 8092,
      "verage": 8093,
      "▁Pap": 8094,
      "▁Polly": 8095,
      "▁rent": 8096,
      "▁ALL": 8097,
      "▁Gold": 8098,
      "▁Hurry": 8099,
      "section": 8100,
      "▁Radio": 8101,
      "▁Reno": 8102,
      "chi": 8103,
      "chran": 8104,
      "▁shark": 8105,
      "▁Dance": 8106,
      "▁negot": 8107,
      "▁lip": 8108,
      "▁kneels": 8109,
      "rier": 8110,
      "▁Nooo": 8111,
      "antly": 8112,
      "antage": 8113,
      "▁backpack": 8114,
      "▁abdu": 8115,
      "▁Fanciful": 8116,
      "umont": 8117,
      "resents": 8118,
      "urning": 8119,
      "▁sport": 8120,
      "▁spring": 8121,
      "isted": 8122,
      "▁Italian": 8123,
      "▁mock": 8124,
      "▁dejected": 8125,
      "ookie": 8126,
      "mentator": 8127,
      "▁however": 8128,
      "▁ordered": 8129,
      "iction": 8130,
      "▁adventure": 8131,
      "▁administr": 8132,
      "ishment": 8133,
      "▁secure": 8134,
      "answ": 8135,
      "▁kewl": 8136,
      "shield": 8137,
      "onsters": 8138,
      "grade": 8139,
      "▁Bring": 8140,
      "Think": 8141,
      "oking": 8142,
      "Star": 8143,
      "clock": 8144,
      "▁lightning": 8145,
      "▁skull": 8146,
      "apses": 8147,
      "▁Real": 8148,
      "master": 8149,
      "▁awareness": 8150,
      "riests": 8151,
      "▁missile": 8152,
      "▁ballots": 8153,
      "ologists": 8154,
      "▁cerem": 8155,
      "▁explodes": 8156,
      "▁Jeffrey": 8157,
      "▁bottles": 8158,
      "▁Adventure": 8159,
      "▁magical": 8160,
      "▁Country": 8161,
      "▁Farmer": 8162,
      "aughty": 8163,
      "▁sandwiches": 8164,
      "▁farted": 8165,
      "obbing": 8166,
      "▁Cochran": 8167,
      "affer": 8168,
      "▁turds": 8169,
      "Guess": 8170,
      "iliary": 8171,
      "▁necklace": 8172,
      "▁regular": 8173,
      "▁rubbing": 8174,
      "▁Detective": 8175,
      "▁volcan": 8176,
      "▁profession": 8177,
      "▁chatter": 8178,
      "▁douchebag": 8179,
      "▁bullets": 8180,
      "▁creep": 8181,
      "▁satellite": 8182,
      "▁tune": 8183,
      "known": 8184,
      "unteer": 8185,
      "▁Lawyer": 8186,
      "▁defend": 8187,
      "▁risk": 8188,
      "▁remaining": 8189,
      "▁English": 8190,
      "▁cheeks": 8191
    },
    "merges": [
      "▁ t",
      "h e",
      "▁ a",
      "i n",
      "a n",
      "o u",
      "▁ s",
      "▁t he",
      "r e",
      "▁ w",
      "e r",
      "o n",
      "a r",
      "i s",
      "▁ b",
      "n d",
      "a t",
      "l e",
      "▁ h",
      "i t",
      "▁ c",
      "in g",
      "l l",
      "▁ d",
      "▁t o",
      "▁ f",
      "▁ m",
      "▁ g",
      "e s",
      "e n",
      "▁ o",
      "▁ y",
      "▁a nd",
      "o r",
      "▁ p",
      "▁y ou",
      "▁ C",
      "o m",
      "o w",
      "▁ S",
      "▁t h",
      "▁ I",
      "▁ l",
      "▁ n",
      "a y",
      "ar t",
      "▁o f",
      "i c",
      "▁ in",
      "u s",
      "e t",
      "▁ T",
      "e d",
      "▁ M",
      "o o",
      "a s",
      "v e",
      "a l",
      "o t",
      "▁ he",
      "u t",
      "i d",
      "a c",
      "m an",
      "▁ on",
      "▁ K",
      "g h",
      "▁ is",
      "i m",
      "art man",
      "▁ it",
      "t an",
      "▁C artman",
      "a d",
      "ou t",
      "▁ B",
      "▁b e",
      "k e",
      "t er",
      "▁ r",
      "h at",
      "▁ u",
      "▁w e",
      "y le",
      "▁ e",
      "▁s t",
      "v er",
      "▁d o",
      "gh t",
      "▁K yle",
      "▁S tan",
      "l d",
      "k s",
      "▁ W",
      "▁th at",
      "▁ P",
      "an d",
      "a m",
      "▁ re",
      "▁ A",
      "▁ G",
      "i ght",
      "▁ k",
      "▁h is",
      "i r",
      "▁ H",
      "o p",
      "▁h a",
      "it h",
      "s e",
      "om e",
      "▁ R",
      "▁w ith",
      "u r",
      "a ll",
      "l y",
      "▁f or",
      "▁u p",
      "▁a re",
      "en t",
      "c h",
      "▁ j",
      "▁s h",
      "▁T he",
      "e e",
      "▁a t",
      "us t",
      "he r",
      "▁ out",
      "▁m e",
      "Y ou",
      "i e",
      "s t",
      "▁g o",
      "▁a n",
      "r o",
      "ter s",
      "▁ J",
      "e ll",
      "▁ D",
      "▁ha ve",
      "u n",
      "ac k",
      "i ll",
      "i on",
      "▁ le",
      "▁f r",
      "a h",
      "y s",
      "h o",
      "▁n e",
      "▁l i",
      "▁a ll",
      "▁th is",
      "▁h im",
      "O h",
      "▁c an",
      "▁B ut",
      "p p",
      "r ou",
      "r a",
      "▁g et",
      "▁ L",
      "▁a s",
      "▁M r",
      "on e",
      "▁j ust",
      "er s",
      "T he",
      "▁b o",
      "c e",
      "▁you r",
      "▁m y",
      "c k",
      "and y",
      "a k",
      "▁But ters",
      "▁w hat",
      "▁l oo",
      "▁k n",
      "r i",
      "ow n",
      "ar d",
      "▁ N",
      "r y",
      "r is",
      "id e",
      "i g",
      "in d",
      "ou r",
      "▁n ot",
      "i l",
      "o re",
      "an t",
      "▁R andy",
      "t he",
      "▁s o",
      "u d",
      "a in",
      "n y",
      "e c",
      "o d",
      "a ke",
      "▁of f",
      "ou ld",
      "o l",
      "a g",
      "▁W e",
      "ver y",
      "n a",
      "▁r ight",
      "▁ E",
      "e ah",
      "▁d on",
      "▁kn ow",
      "▁H e",
      "▁b ack",
      "e p",
      "t o",
      "w ay",
      "i p",
      "▁a b",
      "▁ F",
      "i f",
      "u m",
      "▁c h",
      "all y",
      "▁b ut",
      "▁p l",
      "▁w as",
      "▁the n",
      "t s",
      "▁fr om",
      "▁g u",
      "h ing",
      "▁ You",
      "o s",
      "▁li ke",
      "re s",
      "▁n ow",
      "ur n",
      "▁ O",
      "en ny",
      "e l",
      "▁s ome",
      "H e",
      "rou nd",
      "v es",
      "a b",
      "in k",
      "W hat",
      "oo d",
      "ic e",
      "ar k",
      "ic k",
      "▁he re",
      "▁ab out",
      "▁ us",
      "Y eah",
      "▁the m",
      "▁d own",
      "▁he r",
      "▁the y",
      "▁S t",
      "on g",
      "▁s ee",
      "▁s u",
      "▁c l",
      "al ks",
      "▁o ver",
      "f f",
      "▁g ot",
      "▁c om",
      "▁w or",
      "a p",
      "ar s",
      "k ay",
      "▁the re",
      "▁bo ys",
      "e op",
      "▁ v",
      "▁s e",
      "▁a g",
      "eop le",
      "▁r o",
      "▁K enny",
      "▁w h",
      "c t",
      "it t",
      "a re",
      "he s",
      "t her",
      "he n",
      "on na",
      "▁a l",
      "▁n o",
      "▁in to",
      "al k",
      "ar ris",
      "q u",
      "▁g onna",
      "▁loo k",
      "▁s p",
      "m y",
      "▁a way",
      "es t",
      "▁do or",
      "le s",
      "▁ our",
      "▁on e",
      "im e",
      "u l",
      "e m",
      "▁w ho",
      "▁a round",
      "arris on",
      "as s",
      "▁th ink",
      "▁o ther",
      "ac e",
      "▁p eople",
      "▁C h",
      "▁G arrison",
      "on t",
      "W ell",
      "▁h as",
      "▁d ay",
      "oo l",
      "n t",
      "i ve",
      "▁w ant",
      "W e",
      "▁k id",
      "as t",
      "N o",
      "▁an y",
      "us e",
      "es s",
      "▁e very",
      "urn s",
      "is t",
      "r ow",
      "u ck",
      "▁d id",
      "in e",
      "at e",
      "▁the ir",
      "he re",
      "out h",
      "▁I t",
      "▁b y",
      "▁m an",
      "▁ag ain",
      "g e",
      "ke y",
      "▁s c",
      "i le",
      "i an",
      "▁m o",
      "ou se",
      "e w",
      "h is",
      "b e",
      "▁t ime",
      "▁J im",
      "▁gu ys",
      "v en",
      "▁l o",
      "ak es",
      "▁loo ks",
      "in s",
      "▁s ay",
      "ud e",
      "t h",
      "i en",
      "on d",
      "am e",
      "u re",
      "at ion",
      "w o",
      "itt le",
      "▁w alks",
      "▁S h",
      "i es",
      "tan d",
      "a use",
      "u h",
      "v ing",
      "u p",
      "▁b l",
      "op s",
      "▁ne ed",
      "▁s a",
      "re e",
      "▁h and",
      "f t",
      "▁a pp",
      "I t",
      "▁to w",
      "▁pl ay",
      "▁go ing",
      "ou s",
      "▁l ittle",
      "He y",
      "▁f l",
      "u ll",
      "▁S he",
      "▁P ark",
      "a a",
      "▁ro om",
      "▁d e",
      "s ide",
      "ot her",
      "r an",
      "oo k",
      "▁c ome",
      "b er",
      "▁e x",
      "▁ if",
      "▁he ad",
      "ac h",
      "i ld",
      "▁ 1",
      "▁h ouse",
      "en s",
      "a it",
      "as e",
      "ing s",
      "B ut",
      "▁ en",
      "r in",
      "▁re ally",
      "ic h",
      "▁m ake",
      "▁le t",
      "▁w ill",
      "h h",
      "er al",
      "b le",
      "om et",
      "t ing",
      "▁m ore",
      "▁kid s",
      "ag e",
      "ad y",
      "▁o p",
      "▁G od",
      "▁sh ow",
      "a ve",
      "▁t ake",
      "▁w ay",
      "m ent",
      "ar on",
      "he f",
      "it y",
      "▁p ro",
      "▁to o",
      "▁ qu",
      "▁st art",
      "▁s m",
      "x t",
      "i re",
      "▁a r",
      "▁ne w",
      "▁h ow",
      "an g",
      "se l",
      "▁t r",
      "ch ool",
      "re at",
      "le d",
      "▁o r",
      "ie nd",
      "T hat",
      "▁be en",
      "▁s omet",
      "▁ V",
      "▁ 2",
      "at er",
      "A A",
      "▁s he",
      "▁h o",
      "od y",
      "a u",
      "ir l",
      "A nd",
      "ic t",
      "ar y",
      "▁A nd",
      "▁Sh aron",
      "▁t e",
      "b ody",
      "U h",
      "▁t wo",
      "ou nd",
      "▁c o",
      "nd y",
      "▁do es",
      "▁g ood",
      "▁C hef",
      "s s",
      "▁sh ould",
      "▁M ac",
      "re n",
      "Y es",
      "f e",
      "▁s chool",
      "w e",
      "eral d",
      "o se",
      "▁b r",
      "S tan",
      "b o",
      "▁w ould",
      "a ir",
      "it e",
      "▁Mac key",
      "▁t ry",
      "▁t alk",
      "▁W hat",
      "▁wor k",
      "u e",
      "om an",
      "p s",
      "r ic",
      "is s",
      "▁me an",
      "o ll",
      "▁p ut",
      "▁M an",
      "it s",
      "C artman",
      "d e",
      "t hing",
      "▁r un",
      "▁le ft",
      "rou gh",
      "g et",
      "▁c ould",
      "▁n ight",
      "rin c",
      "o in",
      "t e",
      "t urns",
      "m er",
      "▁Jim my",
      "▁he l",
      "h y",
      "▁c he",
      "i al",
      "▁w hen",
      "▁d r",
      "at ch",
      "res s",
      "▁a m",
      "▁G erald",
      "ab le",
      "o b",
      "O kay",
      "▁be g",
      "▁th rough",
      "▁be c",
      "▁somet hing",
      "▁t ell",
      "▁A n",
      "▁The y",
      "re d",
      "or t",
      "an k",
      "r ight",
      "▁c ou",
      "es us",
      "▁Ch ris",
      "▁u nd",
      "ec t",
      "p er",
      "▁as s",
      "▁b et",
      "▁ha pp",
      "ol k",
      "ad e",
      "▁st op",
      "▁We ndy",
      "n e",
      "▁s tand",
      "ard s",
      "▁g irl",
      "▁we re",
      "▁fr iend",
      "ent s",
      "rinc ip",
      "t y",
      "▁he ll",
      "K yle",
      "rincip al",
      "▁w alk",
      "h ind",
      "ak ing",
      "e ar",
      "▁do ing",
      "e ars",
      "i z",
      "▁C ra",
      "▁c on",
      "▁d is",
      "b r",
      "▁fr ont",
      "▁m om",
      "au gh",
      "▁ne xt",
      "sel f",
      "at her",
      "t a",
      "le ase",
      "m s",
      "▁t urns",
      "an na",
      "▁a d",
      "▁ch ild",
      "▁hel p",
      "▁ Y",
      "▁w here",
      "▁c ar",
      "u b",
      "w alks",
      "▁f ace",
      "olk ien",
      "▁h ad",
      "all s",
      "is h",
      "at h",
      "c er",
      "▁w ait",
      "▁go es",
      "▁w anna",
      "▁T hat",
      "▁c am",
      "g er",
      "▁st ill",
      "▁com p",
      "A ll",
      "▁f uck",
      "▁s ec",
      "▁b it",
      "id ent",
      "▁b ig",
      "▁w r",
      "or d",
      "or ry",
      "▁be hind",
      "o ck",
      "▁on ly",
      "f ore",
      "ow s",
      "a w",
      "n ing",
      "▁every one",
      "l ie",
      "▁o kay",
      "▁c ont",
      "▁u h",
      "c hes",
      "▁su re",
      "i a",
      "▁ im",
      "▁b u",
      "▁d ude",
      "▁M ay",
      "ee l",
      "o y",
      "▁p r",
      "ir st",
      "at es",
      "m o",
      "D ude",
      "ct or",
      "▁p h",
      "▁p re",
      "▁I n",
      "▁P rincipal",
      "▁s l",
      "▁h ome",
      "▁tow n",
      "▁ U",
      "ot t",
      "one y",
      "▁bo y",
      "▁Cra ig",
      "▁T olkien",
      "ac t",
      "▁D o",
      "a ves",
      "ran ce",
      "ic er",
      "an s",
      "▁S c",
      "c ks",
      "ly de",
      "▁get s",
      "▁f ind",
      "▁th ing",
      "T his",
      "a v",
      "i gh",
      "▁ ke",
      "▁a f",
      "▁sa id",
      "s h",
      "▁e ven",
      "▁t akes",
      "S outh",
      "p l",
      "▁g r",
      "i ous",
      "▁did n",
      "▁S outh",
      "▁T h",
      "o h",
      "▁J esus",
      "row d",
      "u ff",
      "▁we ll",
      "b s",
      "ou gh",
      "ian e",
      "▁bec ause",
      "▁ very",
      "ep hen",
      "▁w atch",
      "il a",
      "▁e y",
      "▁ Oh",
      "▁an other",
      "up id",
      "w ee",
      "er a",
      "op e",
      "on s",
      "▁th an",
      "ac hes",
      "▁be ing",
      "S o",
      "▁Chris t",
      "▁B e",
      "▁u n",
      "▁sc re",
      "or m",
      "ou n",
      "▁e ach",
      "▁a ct",
      "u g",
      "▁l ater",
      "▁St ephen",
      "▁P h",
      "▁re s",
      "A l",
      "▁E ric",
      "im my",
      "▁L iane",
      "▁a c",
      "▁ho ld",
      "i ly",
      "▁be fore",
      "▁Mr s",
      "are n",
      "▁f irst",
      "▁wh y",
      "u ch",
      "▁T his",
      "ep s",
      "▁O ff",
      "▁s ide",
      "res ident",
      "W ho",
      "at ed",
      "▁p art",
      "▁b us",
      "ig n",
      "M r",
      "▁She ila",
      "ro om",
      "▁Jim bo",
      "ra p",
      "▁w ind",
      "oo ks",
      "o or",
      "▁C lyde",
      "▁ne ver",
      "wee k",
      "d am",
      "▁g reat",
      "▁l ot",
      "▁re al",
      "d ay",
      "▁d es",
      "▁b ed",
      "▁sh ot",
      "▁c r",
      "▁g ive",
      "▁B ar",
      "▁s orry",
      "▁l augh",
      "▁the se",
      "▁f eel",
      "But ters",
      "▁t able",
      "▁f un",
      "ic ks",
      "C ome",
      "n er",
      "▁t urn",
      "ull s",
      "ot h",
      "at ing",
      "▁lo ve",
      "▁op en",
      "▁m uch",
      "em ber",
      "a pp",
      "▁D r",
      "▁g l",
      "▁cam era",
      "▁c rowd",
      "▁beg ins",
      "▁wh ile",
      "as h",
      "▁l ong",
      "▁child ren",
      "▁f oll",
      "he d",
      "▁op ens",
      "▁bet ter",
      "▁cl ass",
      "is e",
      "▁does n",
      "▁y eah",
      "▁C an",
      "ro ss",
      "▁cl os",
      "▁f in",
      "▁in side",
      "▁is n",
      "Al right",
      "▁sec ond",
      "aren ts",
      "▁be lie",
      "▁d ri",
      "▁c all",
      "▁com es",
      "▁B l",
      "▁hand s",
      "ou ght",
      "▁N o",
      "w w",
      "The y",
      "▁I ke",
      "▁tow ards",
      "v in",
      "ad s",
      "▁M c",
      "▁got ta",
      "▁May or",
      "▁t ri",
      "▁th ose",
      "▁f ew",
      "▁T week",
      "g r",
      "n ed",
      "▁m ay",
      "d y",
      "▁m oney",
      "oo t",
      "id i",
      "▁sh own",
      "▁ 3",
      "▁p arents",
      "▁ph one",
      "H ow",
      "▁m ade",
      "er rance",
      "▁M s",
      "▁B r",
      "▁k ind",
      "a le",
      "▁th ree",
      "▁o w",
      "an c",
      "▁happ en",
      "▁Off icer",
      "H ell",
      "N ow",
      "v ed",
      "▁s on",
      "▁af ter",
      "▁b re",
      "et s",
      "un ch",
      "an ce",
      "▁th ings",
      "▁A ll",
      "▁le ave",
      "▁P C",
      "o on",
      "▁pl ace",
      "▁N ow",
      "▁look ing",
      "▁m en",
      "ion s",
      "▁wor ld",
      "ut s",
      "▁st ud",
      "▁C l",
      "▁m ust",
      "▁he ard",
      "▁e nd",
      "▁H ow",
      "▁s w",
      "ar ing",
      "▁P resident",
      "im es",
      "▁belie ve",
      "▁ey es",
      "p t",
      "▁k ill",
      "▁w oman",
      "▁wind ow",
      "at s",
      "us ic",
      "▁st upid",
      "The re",
      "ers on",
      "▁e ver",
      "▁The re",
      "▁ke ep",
      "▁b ad",
      "▁g i",
      "▁l ist",
      "▁wh ich",
      "▁get ting",
      "▁p ict",
      "▁re p",
      "ut e",
      "T h",
      "ill ip",
      "▁re m",
      "at or",
      "▁st ops",
      "▁S p",
      "▁M ars",
      "▁l ast",
      "p le",
      "▁m in",
      "▁out side",
      "l o",
      "▁at t",
      "▁app ears",
      "ers tand",
      "▁app ro",
      "▁th ought",
      "um b",
      "l s",
      "ac es",
      "▁T immy",
      "▁f am",
      "▁re st",
      "▁L et",
      "mer ic",
      "▁St e",
      "o k",
      "et er",
      "▁any thing",
      "▁try ing",
      "▁und erstand",
      "▁s er",
      "L ook",
      "br ady",
      "u ally",
      "ac ks",
      "▁e l",
      "▁su pp",
      "▁Ph illip",
      "▁st re",
      "▁p er",
      "w ard",
      "▁p lease",
      "▁c are",
      "▁ow n",
      "▁T errance",
      "very one",
      "a z",
      "e x",
      "▁girl s",
      "D on",
      "t ain",
      "ll y",
      "ment ary",
      "o ice",
      "s o",
      "m ore",
      "▁f our",
      "les s",
      "▁ 4",
      "▁friend s",
      "b y",
      "▁h u",
      "n oun",
      "S t",
      "▁Bar brady",
      "le mentary",
      "or y",
      "▁He idi",
      "c l",
      "▁W oman",
      "s on",
      "▁I f",
      "ip s",
      "ho le",
      "Hell o",
      "▁c al",
      "a x",
      "▁b ab",
      "▁se en",
      "i ke",
      "le y",
      "▁sp e",
      "ou nt",
      "the y",
      "o g",
      "un s",
      "▁gu y",
      "i k",
      "W hy",
      "▁run s",
      "▁S o",
      "ant s",
      "s w",
      "▁T om",
      "▁li fe",
      "ing er",
      "▁E lementary",
      "▁c le",
      "▁und er",
      "get her",
      "d er",
      "ien ce",
      "▁start s",
      "m m",
      "▁T e",
      "▁l ight",
      "a il",
      "▁wr ong",
      "▁to ld",
      "▁m usic",
      "▁f ight",
      "▁him self",
      "▁Sc ott",
      "▁s k",
      "or k",
      "▁A meric",
      "▁pl an",
      "▁A l",
      "0 0",
      "D o",
      "▁f at",
      "▁talk ing",
      "S h",
      "▁h ard",
      "K enny",
      "▁s n",
      "ol ice",
      "ap s",
      "e ver",
      "▁p ulls",
      "▁n ame",
      "▁sh it",
      "ind a",
      "l ooks",
      "▁st uff",
      "▁every thing",
      "▁w on",
      "ar m",
      "▁gu ess",
      "▁play ing",
      "▁T V",
      "l ing",
      "es e",
      "▁mo ve",
      "▁c ool",
      "▁Mars h",
      "▁it s",
      "t on",
      "▁pro ble",
      "ver s",
      "▁o ld",
      "▁R e",
      "▁el se",
      "▁to gether",
      "▁p ass",
      "▁m ight",
      "▁D ad",
      "is es",
      "at ter",
      "▁s ign",
      "am p",
      "i x",
      "m as",
      "▁ ent",
      "re am",
      "ec ial",
      "rou p",
      "i v",
      "▁new s",
      "AA AA",
      "▁h uh",
      "▁p os",
      "ie w",
      "▁off ice",
      "▁qu ick",
      "▁ ide",
      "and s",
      "el ie",
      "l er",
      "▁s its",
      "▁re c",
      "▁foll ow",
      "▁s et",
      "n g",
      "▁d one",
      "▁L inda",
      "▁Can ad",
      "or n",
      "▁le aves",
      "▁li ving",
      "▁bo x",
      "▁do ll",
      "we et",
      "h a",
      "r r",
      "ow er",
      "i er",
      "▁S at",
      "▁n ice",
      "t ty",
      "way s",
      "▁s ound",
      "▁b est",
      "▁list en",
      "f ul",
      "▁a w",
      "▁s ur",
      "M y",
      "u es",
      "▁s it",
      "▁C ome",
      "▁com ing",
      "in ks",
      "i les",
      "▁le ad",
      "▁Be be",
      "▁p oin",
      "▁as k",
      "row s",
      "▁b ro",
      "it c",
      "▁H an",
      "▁not hing",
      "▁fam ily",
      "ie ld",
      "S he",
      "m b",
      "▁p erson",
      "▁M om",
      "um p",
      "an ge",
      "▁fl oor",
      "noun cer",
      "ic es",
      "▁st ay",
      "▁ha ll",
      "▁im p",
      "he ad",
      "or s",
      "▁pict ure",
      "ra w",
      "▁V ict",
      "W ow",
      "▁t ra",
      "▁N ew",
      "▁cou nt",
      "▁stand s",
      "▁to day",
      "or ia",
      "▁en ough",
      "R andy",
      "o ve",
      "▁B ill",
      "oh n",
      "▁an sw",
      "▁may be",
      "L et",
      "al s",
      "▁F r",
      "i pp",
      "am a",
      "▁R ed",
      "os ed",
      "g o",
      "w here",
      "us h",
      "▁re ady",
      "O O",
      "▁f ire",
      "▁sm all",
      "I n",
      "▁d am",
      "▁bit ch",
      "▁Vict oria",
      "▁m akes",
      "en e",
      "▁pre tty",
      "▁D on",
      "▁de ad",
      "▁An nouncer",
      "▁who le",
      "▁act ually",
      "a el",
      "▁mo st",
      "▁say s",
      "an ks",
      "art s",
      "▁he ar",
      "▁W ell",
      "▁an g",
      "▁g ame",
      "▁Han key",
      "▁s ong",
      "d u",
      "id es",
      "▁Ch in",
      "ich ael",
      "▁beg in",
      "▁cont in",
      "▁c our",
      "tan t",
      "ri es",
      "ul t",
      "ro ll",
      "▁us e",
      "i ed",
      "▁g roup",
      "or ter",
      "▁W hy",
      "ud d",
      "s y",
      "▁g round",
      "▁li ve",
      "▁m outh",
      "▁M y",
      "are d",
      "▁mo ves",
      "▁p res",
      "▁ide a",
      "ar r",
      "▁She lly",
      "y ing",
      "▁re ad",
      "▁v ide",
      "▁other s",
      "ld er",
      "▁Christ mas",
      "A w",
      "p a",
      "▁en ters",
      "H uh",
      "▁M ar",
      "▁ch air",
      "▁scre en",
      "en ter",
      "i et",
      "▁se es",
      "o c",
      "▁s ir",
      "▁Do ctor",
      "▁des k",
      "re nt",
      "▁J ew",
      "▁we e",
      "▁G u",
      "▁le ar",
      "re st",
      "▁c a",
      "▁g ay",
      "s k",
      "▁G r",
      "▁ha ving",
      "s p",
      "▁wor d",
      "▁bu ild",
      "▁b ar",
      "▁g ra",
      "▁st eps",
      "▁J ohn",
      "if e",
      "nt il",
      "▁say ing",
      "ow elie",
      "op p",
      "ec ause",
      "b all",
      "▁bl ack",
      "a ur",
      "t akes",
      "▁s ing",
      "▁l ine",
      "▁M ichael",
      "▁e v",
      "▁m aking",
      "ro f",
      "▁J ust",
      "ct ion",
      "▁on to",
      "an y",
      "▁d ad",
      "oo oo",
      "ud ience",
      "G od",
      "ap e",
      "▁put s",
      "▁Sat an",
      "▁t imes",
      "▁d if",
      "▁ Uh",
      "le ep",
      "▁g un",
      "▁stre et",
      "ap er",
      "▁al ong",
      "an ie",
      "▁L e",
      "ter n",
      "▁ar ri",
      "▁proble m",
      "v is",
      "um ps",
      "get s",
      "le n",
      "▁b ook",
      "▁d ress",
      "▁C oon",
      "▁cal led",
      "it ch",
      "am s",
      "en ce",
      "a ks",
      "▁b as",
      "u res",
      "▁Y ates",
      "i b",
      "▁c rap",
      "▁en ter",
      "i ent",
      "m it",
      "▁w ater",
      "▁v oice",
      "▁ar ms",
      "▁B o",
      "▁u ntil",
      "▁ne ar",
      "i o",
      "o ld",
      "▁t er",
      "ent ion",
      "p h",
      "▁d ec",
      "▁me et",
      "▁show s",
      "▁b oth",
      "y ou",
      "▁a ir",
      "▁p olice",
      "▁se x",
      "▁al ways",
      "▁f ound",
      "▁s ame",
      "J ust",
      "f r",
      "ie f",
      "f a",
      "▁re t",
      "▁st age",
      "air s",
      "n ot",
      "ar ge",
      "▁E l",
      "▁any more",
      "▁br ing",
      "g g",
      "r ong",
      "it ion",
      "itt ing",
      "i ble",
      "r u",
      "re en",
      "▁f alls",
      "▁ch ange",
      "▁m atter",
      "ac her",
      "anie ls",
      "N ot",
      "ar ry",
      "▁m iss",
      "us hes",
      "▁ar m",
      "▁m or",
      "n it",
      "is ts",
      "▁P ip",
      "c ome",
      "s c",
      "▁c or",
      "▁y es",
      "▁fuck ing",
      "▁watch ing",
      "▁supp osed",
      "▁e m",
      "▁Mc D",
      "▁vide o",
      "I f",
      "▁f ine",
      "il led",
      "▁se at",
      "aa aa",
      "hh h",
      "▁c ho",
      "▁T owelie",
      "▁for ward",
      "▁are n",
      "id s",
      "▁McD aniels",
      "at ches",
      "▁h ur",
      "re w",
      "▁w all",
      "▁de al",
      "▁p ark",
      "▁re d",
      "▁fin ally",
      "W ait",
      "c he",
      "▁I s",
      "▁ro ll",
      "▁R ep",
      "▁j oin",
      "▁b alls",
      "▁p ast",
      "▁O n",
      "▁again st",
      "▁happen ed",
      "A h",
      "f orm",
      "▁t aking",
      "re ady",
      "▁h ang",
      "ir d",
      "▁res p",
      "c o",
      "re t",
      "▁d ie",
      "▁p en",
      "▁t w",
      "▁j ob",
      "▁D e",
      "▁head s",
      "G et",
      "ce pt",
      "▁off ic",
      "sel ves",
      "▁e at",
      "▁r ings",
      "▁v iew",
      "▁a udience",
      "▁A s",
      "ian s",
      "▁clos es",
      "▁appro aches",
      "itc hen",
      "▁count ry",
      "u al",
      "m or",
      "▁b all",
      "▁on ce",
      "▁ac c",
      "r uns",
      "▁w in",
      "id d",
      "▁door s",
      "▁M e",
      "oo p",
      "ant a",
      "▁al ready",
      "▁too k",
      "▁sp ecial",
      "▁pr ot",
      "ro l",
      "▁ z",
      "▁s weet",
      "▁cl ose",
      "▁play s",
      "▁f ood",
      "art h",
      "▁T wo",
      "▁so on",
      "iz e",
      "▁f ree",
      "itt y",
      "mo ves",
      "im m",
      "▁ac ross",
      "Who a",
      "m en",
      "▁to t",
      "▁m ar",
      "as on",
      "C h",
      "▁p ay",
      "▁quick ly",
      "▁ 5",
      "▁o h",
      "▁che ck",
      "▁stud ents",
      "c use",
      "n ess",
      "is ter",
      "▁W ho",
      "▁dif fe",
      "▁W h",
      "▁G o",
      "He re",
      "▁bre ak",
      "▁N e",
      "▁fun ny",
      "▁rem ember",
      "▁al one",
      "▁c ame",
      "en n",
      "▁st ore",
      "▁sh ut",
      "▁bo dy",
      "ag in",
      "▁every body",
      "ot s",
      "ir t",
      "▁d in",
      "ut er",
      "▁mo v",
      "▁ha ir",
      "▁lo ck",
      "C an",
      "▁want ed",
      "in ess",
      "▁h igh",
      "▁S m",
      "▁k itchen",
      "o st",
      "▁t ur",
      "▁C om",
      "▁some one",
      "▁y ears",
      "ow ers",
      "▁bab y",
      "c es",
      "▁w ar",
      "▁so fa",
      "▁mor ning",
      "G ood",
      "▁h ot",
      "▁g one",
      "▁C ol",
      "oo o",
      "o ke",
      "▁cour se",
      "am es",
      "▁want s",
      "p oin",
      "i um",
      "▁dr ops",
      "▁ad d",
      "▁min ute",
      "W here",
      "er ing",
      "▁p aper",
      "ut h",
      "em ent",
      "▁Ste ven",
      "at t",
      "▁r a",
      "▁sa w",
      "▁he y",
      "▁f oot",
      "ak en",
      "▁day s",
      "i h",
      "ry ing",
      "▁ser ious",
      "▁m ind",
      "▁y a",
      "▁you ng",
      "▁with out",
      "▁b ur",
      "▁M ark",
      "ot e",
      "▁B oy",
      "▁N ed",
      "we en",
      "ne y",
      "▁second s",
      "c le",
      "en eral",
      "ic al",
      "▁c ra",
      "▁f ore",
      "g ins",
      "▁f ive",
      "ax i",
      "ig g",
      "J esus",
      "oo f",
      "▁Th om",
      "▁c ur",
      "▁r id",
      "k es",
      "▁f ather",
      "ation s",
      "▁bl ood",
      "▁happ y",
      "n o",
      "▁f ull",
      "▁we aring",
      "our s",
      "el s",
      "▁h ope",
      "it al",
      "▁O kay",
      "▁su ch",
      "▁sc ene",
      "▁C on",
      "▁D av",
      "▁Gr and",
      "▁h ate",
      "▁f e",
      "as ter",
      "os es",
      "▁pres ent",
      "E ric",
      "▁b ath",
      "ile t",
      "ath an",
      "▁contin ues",
      "g round",
      "r or",
      "▁ Yeah",
      "▁B ob",
      "▁wait ing",
      "ell y",
      "▁qu est",
      "i i",
      "▁m other",
      "▁G et",
      "▁com m",
      "▁wh ite",
      "▁work ing",
      "mo st",
      "ing ers",
      "l and",
      "▁s im",
      "om en",
      "▁e ating",
      "ho ld",
      "ol og",
      "▁S anta",
      "ee p",
      "h in",
      "s he",
      "▁c e",
      "▁ch ang",
      "▁comp uter",
      "c ause",
      "▁in ter",
      "▁st ri",
      "▁h or",
      "▁E veryone",
      "he st",
      "▁s y",
      "ul ts",
      "▁man y",
      "en se",
      "al f",
      "I s",
      "A re",
      "▁to mor",
      "▁m on",
      "▁H at",
      "▁L ook",
      "▁su ck",
      "lo v",
      "▁tomor row",
      "M e",
      "▁b and",
      "▁p ants",
      "▁S l",
      "ic s",
[...]
