{
  "version": "1.0",
  "truncation": null,
  "padding": null,
  "added_tokens": [],
  "normalizer": {
    "type": "Sequence",
    "normalizers": [
      {
        "type": "NFD"
      },
      {
        "type": "StripAccents"
      }
    ]
  },
  "pre_tokenizer": {
    "type": "Sequence",
    "pretokenizers": [
      {
        "type": "Metaspace",
        "replacement": "▁",
        "add_prefix_space": true
      },
      {
        "type": "Punctuation",
        "behavior": "Isolated"
      }
    ]
  },
  "post_processor": null,
  "decoder": {
    "type": "Metaspace",
    "replacement": "▁",
    "add_prefix_space": true
  },
  "model": {
    "type": "BPE",
    "dropout": null,
    "unk_token": null,
    "continuing_subword_prefix": null,
    "end_of_word_suffix": null,
    "fuse_unk": false,
    "vocab": {
      "\n": 0,
      "!": 1,
      "\"": 2,
      "#": 3,
      "$": 4,
      "%": 5,
      "&": 6,
      "'": 7,
      "(": 8,
      ")": 9,
      "*": 10,
      "+": 11,
      ",": 12,
      "-": 13,
      ".": 14,
      "/": 15,
      "0": 16,
      "1": 17,
      "2": 18,
      "3": 19,
      "4": 20,
      "5": 21,
      "6": 22,
      "7": 23,
      "8": 24,
      "9": 25,
      ":": 26,
      ";": 27,
      "<": 28,
      "=": 29,
      ">": 30,
      "?": 31,
      "@": 32,
      "A": 33,
      "B": 34,
      "C": 35,
      "D": 36,
      "E": 37,
      "F": 38,
      "G": 39,
      "H": 40,
      "I": 41,
      "J": 42,
      "K": 43,
      "L": 44,
      "M": 45,
      "N": 46,
      "O": 47,
      "P": 48,
      "Q": 49,
      "R": 50,
      "S": 51,
      "T": 52,
      "U": 53,
      "V": 54,
      "W": 55,
      "X": 56,
      "Y": 57,
      "Z": 58,
      "[": 59,
      "\\": 60,
      "]": 61,
      "^": 62,
      "_": 63,
      "a": 64,
      "b": 65,
      "c": 66,
      "d": 67,
      "e": 68,
      "f": 69,
      "g": 70,
      "h": 71,
      "i": 72,
      "j": 73,
      "k": 74,
      "l": 75,
      "m": 76,
      "n": 77,
      "o": 78,
      "p": 79,
      "q": 80,
      "r": 81,
      "s": 82,
      "t": 83,
      "u": 84,
      "v": 85,
      "w": 86,
      "x": 87,
      "y": 88,
      "z": 89,
      "{": 90,
      "|": 91,
      "}": 92,
      "▁": 93,
      "▁t": 94,
      "he": 95,
      "▁a": 96,
      "in": 97,
      "an": 98,
      "ou": 99,
      "▁s": 100,
      "▁the": 101,
      "re": 102,
      "▁w": 103,
      "er": 104,
      "on": 105,
      "ar": 106,
      "is": 107,
      "▁b": 108,
      "nd": 109,
      "at": 110,
      "le": 111,
      "▁h": 112,
      "it": 113,
      "▁c": 114,
      "ing": 115,
      "ll": 116,
      "▁d": 117,
      "▁to": 118,
      "▁f": 119,
      "▁m": 120,
      "▁g": 121,
      "es": 122,
      "en": 123,
      "▁o": 124,
      "▁y": 125,
      "▁and": 126,
      "or": 127,
      "▁p": 128,
      "▁you": 129,
      "▁C": 130,
      "om": 131,
      "ow": 132,
      "▁S": 133,
      "▁th": 134,
      "▁I": 135,
      "▁l": 136,
      "▁n": 137,
      "ay": 138,
      "art": 139,
      "▁of": 140,
      "ic": 141,
      "▁in": 142,
      "us": 143,
      "et": 144,
      "▁T": 145,
      "ed": 146,
      "▁M": 147,
      "oo": 148,
      "as": 149,
      "ve": 150,
      "al": 151,
      "ot": 152,
      "▁he": 153,
      "ut": 154,
      "id": 155,
      "ac": 156,
      "man": 157,
      "▁on": 158,
      "▁K": 159,
      "gh": 160,
      "▁is": 161,
      "im": 162,
      "artman": 163,
      "▁it": 164,
      "tan": 165,
      "▁Cartman": 166,
      "ad": 167,
      "out": 168,
      "▁B": 169,
      "▁be": 170,
      "ke": 171,
      "ter": 172,
      "▁r": 173,
      "hat": 174,
      "▁u": 175,
      "▁we": 176,
      "yle": 177,
      "▁e": 178,
      "▁st": 179,
      "ver": 180,
      "▁do": 181,
      "ght": 182,
      "▁Kyle": 183,
      "▁Stan": 184,
      "ld": 185,
      "ks": 186,
      "▁W": 187,
      "▁that": 188,
      "▁P": 189,
      "and": 190,
      "am": 191,
      "▁re": 192,
      "▁A": 193,
      "▁G": 194,
      "ight": 195,
      "▁k": 196,
      "▁his": 197,
      "ir": 198,
      "▁H": 199,
      "op": 200,
      "▁ha": 201,
      "ith": 202,
      "se": 203,
      "ome": 204,
      "▁R": 205,
      "▁with": 206,
      "ur": 207,
      "all": 208,
      "ly": 209,
      "▁for": 210,
      "▁up": 211,
      "▁are": 212,
      "ent": 213,
      "ch": 214,
      "▁j": 215,
      "▁sh": 216,
      "▁The": 217,
      "ee": 218,
      "▁at": 219,
      "ust": 220,
      "her": 221,
      "▁out": 222,
      "▁me": 223,
      "You": 224,
      "ie": 225,
      "st": 226,
      "▁go": 227,
      "▁an": 228,
      "ro": 229,
      "ters": 230,
      "▁J": 231,
      "ell": 232,
      "▁D": 233,
      "▁have": 234,
      "un": 235,
      "ack": 236,
      "ill": 237,
      "ion": 238,
      "▁le": 239,
      "▁fr": 240,
      "ah": 241,
      "ys": 242,
      "ho": 243,
      "▁ne": 244,
      "▁li": 245,
      "▁all": 246,
      "▁this": 247,
      "▁him": 248,
      "Oh": 249,
      "▁can": 250,
      "▁But": 251,
      "pp": 252,
      "rou": 253,
      "ra": 254,
      "▁get": 255,
      "▁L": 256,
      "▁as": 257,
      "▁Mr": 258,
      "one": 259,
      "▁just": 260,
      "ers": 261,
      "The": 262,
      "▁bo": 263,
      "ce": 264,
      "▁your": 265,
      "▁my": 266,
      "ck": 267,
      "andy": 268,
      "ak": 269,
      "▁Butters": 270,
      "▁what": 271,
      "▁loo": 272,
      "▁kn": 273,
      "ri": 274,
      "own": 275,
      "ard": 276,
      "▁N": 277,
      "ry": 278,
      "ris": 279,
      "ide": 280,
      "ig": 281,
      "ind": 282,
      "our": 283,
      "▁not": 284,
      "il": 285,
      "ore": 286,
      "ant": 287,
      "▁Randy": 288,
      "the": 289,
      "▁so": 290,
      "ud": 291,
      "ain": 292,
      "ny": 293,
      "ec": 294,
      "od": 295,
      "ake": 296,
      "▁off": 297,
      "ould": 298,
      "ol": 299,
      "ag": 300,
      "▁We": 301,
      "very": 302,
      "na": 303,
      "▁right": 304,
      "▁E": 305,
      "eah": 306,
      "▁don": 307,
      "▁know": 308,
      "▁He": 309,
      "▁back": 310,
      "ep": 311,
      "to": 312,
      "way": 313,
      "ip": 314,
      "▁ab": 315,
      "▁F": 316,
      "if": 317,
      "um": 318,
      "▁ch": 319,
      "ally": 320,
      "▁but": 321,
      "▁pl": 322,
      "▁was": 323,
      "▁then": 324,
      "ts": 325,
      "▁from": 326,
      "▁gu": 327,
      "hing": 328,
      "▁You": 329,
      "os": 330,
      "▁like": 331,
      "res": 332,
      "▁now": 333,
      "urn": 334,
      "▁O": 335,
      "enny": 336,
      "el": 337,
      "▁some": 338,
      "He": 339,
      "round": 340,
      "ves": 341,
      "ab": 342,
      "ink": 343,
      "What": 344,
      "ood": 345,
      "ice": 346,
      "ark": 347,
      "ick": 348,
      "▁here": 349,
      "▁about": 350,
      "▁us": 351,
      "Yeah": 352,
      "▁them": 353,
      "▁down": 354,
      "▁her": 355,
      "▁they": 356,
      "▁St": 357,
      "ong": 358,
      "▁see": 359,
      "▁su": 360,
      "▁cl": 361,
      "alks": 362,
      "▁over": 363,
      "ff": 364,
      "▁got": 365,
      "▁com": 366,
      "▁wor": 367,
      "ap": 368,
      "ars": 369,
      "kay": 370,
      "▁there": 371,
      "▁boys": 372,
      "eop": 373,
      "▁v": 374,
      "▁se": 375,
      "▁ag": 376,
      "eople": 377,
      "▁ro": 378,
      "▁Kenny": 379,
      "▁wh": 380,
      "ct": 381,
      "itt": 382,
      "are": 383,
      "hes": 384,
      "ther": 385,
      "hen": 386,
      "onna": 387,
      "▁al": 388,
      "▁no": 389,
      "▁into": 390,
      "alk": 391,
      "arris": 392,
      "qu": 393,
      "▁gonna": 394,
      "▁look": 395,
      "▁sp": 396,
      "my": 397,
      "▁away": 398,
      "est": 399,
      "▁door": 400,
      "les": 401,
      "▁our": 402,
      "▁one": 403,
      "ime": 404,
      "ul": 405,
      "em": 406,
      "▁who": 407,
      "▁around": 408,
      "arrison": 409,
      "ass": 410,
      "▁think": 411,
      "▁other": 412,
      "ace": 413,
      "▁people": 414,
      "▁Ch": 415,
      "▁Garrison": 416,
      "ont": 417,
      "Well": 418,
      "▁has": 419,
      "▁day": 420,
      "ool": 421,
      "nt": 422,
      "ive": 423,
      "▁want": 424,
      "We": 425,
      "▁kid": 426,
      "ast": 427,
      "No": 428,
      "▁any": 429,
      "use": 430,
      "ess": 431,
      "▁every": 432,
      "urns": 433,
      "ist": 434,
      "row": 435,
      "uck": 436,
      "▁did": 437,
      "ine": 438,
      "ate": 439,
      "▁their": 440,
      "here": 441,
      "outh": 442,
      "▁It": 443,
      "▁by": 444,
      "▁man": 445,
      "▁again": 446,
      "ge": 447,
      "key": 448,
      "▁sc": 449,
      "ile": 450,
      "ian": 451,
      "▁mo": 452,
      "ouse": 453,
      "ew": 454,
      "his": 455,
      "be": 456,
      "▁time": 457,
      "▁Jim": 458,
      "▁guys": 459,
      "ven": 460,
      "▁lo": 461,
      "akes": 462,
      "▁looks": 463,
      "ins": 464,
      "▁say": 465,
      "ude": 466,
      "th": 467,
      "ien": 468,
      "ond": 469,
      "ame": 470,
      "ure": 471,
      "ation": 472,
      "wo": 473,
      "ittle": 474,
      "▁walks": 475,
      "▁Sh": 476,
      "ies": 477,
      "tand": 478,
      "ause": 479,
      "uh": 480,
      "ving": 481,
      "up": 482,
      "▁bl": 483,
      "ops": 484,
      "▁need": 485,
      "▁sa": 486,
      "ree": 487,
      "▁hand": 488,
      "ft": 489,
      "▁app": 490,
      "It": 491,
      "▁tow": 492,
      "▁play": 493,
      "▁going": 494,
      "ous": 495,
      "▁little": 496,
      "Hey": 497,
      "▁fl": 498,
      "ull": 499,
      "▁She": 500,
      "▁Park": 501,
      "aa": 502,
      "▁room": 503,
      "▁de": 504,
      "side": 505,
      "other": 506,
      "ran": 507,
      "ook": 508,
      "▁come": 509,
      "ber": 510,
      "▁ex": 511,
      "▁if": 512,
      "▁head": 513,
      "ach": 514,
      "ild": 515,
      "▁1": 516,
      "▁house": 517,
      "ens": 518,
      "ait": 519,
      "ase": 520,
      "ings": 521,
      "But": 522,
      "▁en": 523,
      "rin": 524,
      "▁really": 525,
      "ich": 526,
      "▁make": 527,
      "▁let": 528,
      "▁will": 529,
      "hh": 530,
      "eral": 531,
      "ble": 532,
      "omet": 533,
      "ting": 534,
      "▁more": 535,
      "▁kids": 536,
      "age": 537,
      "ady": 538,
      "▁op": 539,
      "▁God": 540,
      "▁show": 541,
      "ave": 542,
      "▁take": 543,
      "▁way": 544,
      "ment": 545,
      "aron": 546,
      "hef": 547,
      "ity": 548,
      "▁pro": 549,
      "▁too": 550,
      "▁qu": 551,
      "▁start": 552,
      "▁sm": 553,
      "xt": 554,
      "ire": 555,
      "▁ar": 556,
      "▁new": 557,
      "▁how": 558,
      "ang": 559,
      "sel": 560,
      "▁tr": 561,
      "chool": 562,
      "reat": 563,
      "led": 564,
      "▁or": 565,
      "iend": 566,
      "That": 567,
      "▁been": 568,
      "▁somet": 569,
      "▁V": 570,
      "▁2": 571,
      "ater": 572,
      "AA": 573,
      "▁she": 574,
      "▁ho": 575,
      "ody": 576,
      "au": 577,
      "irl": 578,
      "And": 579,
      "ict": 580,
      "ary": 581,
      "▁And": 582,
      "▁Sharon": 583,
      "▁te": 584,
      "body": 585,
      "Uh": 586,
      "▁two": 587,
      "ound": 588,
      "▁co": 589,
      "ndy": 590,
      "▁does": 591,
      "▁good": 592,
      "▁Chef": 593,
      "ss": 594,
      "▁should": 595,
      "▁Mac": 596,
      "ren": 597,
      "Yes": 598,
      "fe": 599,
      "▁school": 600,
      "we": 601,
      "erald": 602,
      "ose": 603,
      "▁br": 604,
      "Stan": 605,
      "bo": 606,
      "▁would": 607,
      "air": 608,
      "ite": 609,
      "▁Mackey": 610,
      "▁try": 611,
      "▁talk": 612,
      "▁What": 613,
      "▁work": 614,
      "ue": 615,
      "oman": 616,
      "ps": 617,
      "ric": 618,
      "iss": 619,
      "▁mean": 620,
      "oll": 621,
      "▁put": 622,
      "▁Man": 623,
      "its": 624,
      "Cartman": 625,
      "de": 626,
      "thing": 627,
      "▁run": 628,
      "▁left": 629,
      "rough": 630,
      "get": 631,
      "▁could": 632,
      "▁night": 633,
      "rinc": 634,
      "oin": 635,
      "te": 636,
      "turns": 637,
      "mer": 638,
      "▁Jimmy": 639,
      "▁hel": 640,
      "hy": 641,
      "▁che": 642,
      "ial": 643,
      "▁when": 644,
      "▁dr": 645,
      "atch": 646,
      "ress": 647,
      "▁am": 648,
      "▁Gerald": 649,
      "able": 650,
      "ob": 651,
      "Okay": 652,
      "▁beg": 653,
      "▁through": 654,
      "▁bec": 655,
      "▁something": 656,
      "▁tell": 657,
      "▁An": 658,
      "▁They": 659,
      "red": 660,
      "ort": 661,
      "ank": 662,
      "right": 663,
      "▁cou": 664,
      "esus": 665,
      "▁Chris": 666,
      "▁und": 667,
      "ect": 668,
      "per": 669,
      "▁ass": 670,
      "▁bet": 671,
      "▁happ": 672,
      "olk": 673,
      "ade": 674,
      "▁stop": 675,
      "▁Wendy": 676,
      "ne": 677,
      "▁stand": 678,
      "ards": 679,
      "▁girl": 680,
      "▁were": 681,
      "▁friend": 682,
      "ents": 683,
      "rincip": 684,
      "ty": 685,
      "▁hell": 686,
      "Kyle": 687,
      "rincipal": 688,
      "▁walk": 689,
      "hind": 690,
      "aking": 691,
      "ear": 692,
      "▁doing": 693,
      "ears": 694,
      "iz": 695,
      "▁Cra": 696,
      "▁con": 697,
      "▁dis": 698,
      "br": 699,
      "▁front": 700,
      "▁mom": 701,
      "augh": 702,
      "▁next": 703,
      "self": 704,
      "ather": 705,
      "ta": 706,
      "lease": 707,
      "ms": 708,
      "▁turns": 709,
      "anna": 710,
      "▁ad": 711,
      "▁child": 712,
      "▁help": 713,
      "▁Y": 714,
      "▁where": 715,
      "▁car": 716,
      "ub": 717,
      "walks": 718,
      "▁face": 719,
      "olkien": 720,
      "▁had": 721,
      "alls": 722,
      "ish": 723,
      "ath": 724,
      "cer": 725,
      "▁wait": 726,
      "▁goes": 727,
      "▁wanna": 728,
      "▁That": 729,
      "▁cam": 730,
      "ger": 731,
      "▁still": 732,
      "▁comp": 733,
      "All": 734,
      "▁fuck": 735,
      "▁sec": 736,
      "▁bit": 737,
      "ident": 738,
      "▁big": 739,
      "▁wr": 740,
      "ord": 741,
      "orry": 742,
      "▁behind": 743,
      "ock": 744,
      "▁only": 745,
      "fore": 746,
      "ows": 747,
      "aw": 748,
      "ning": 749,
      "▁everyone": 750,
      "lie": 751,
      "▁okay": 752,
      "▁cont": 753,
      "▁uh": 754,
      "ches": 755,
      "▁sure": 756,
      "ia": 757,
      "▁im": 758,
      "▁bu": 759,
      "▁dude": 760,
      "▁May": 761,
      "eel": 762,
      "oy": 763,
      "▁pr": 764,
      "irst": 765,
      "ates": 766,
      "mo": 767,
      "Dude": 768,
      "ctor": 769,
      "▁ph": 770,
      "▁pre": 771,
      "▁In": 772,
      "▁Principal": 773,
      "▁sl": 774,
      "▁home": 775,
      "▁town": 776,
      "▁U": 777,
      "ott": 778,
      "oney": 779,
      "▁boy": 780,
      "▁Craig": 781,
      "▁Tolkien": 782,
      "act": 783,
      "▁Do": 784,
      "aves": 785,
      "rance": 786,
      "icer": 787,
      "ans": 788,
      "▁Sc": 789,
      "cks": 790,
      "lyde": 791,
      "▁gets": 792,
      "▁find": 793,
      "▁thing": 794,
      "This": 795,
      "av": 796,
      "igh": 797,
      "▁ke": 798,
      "▁af": 799,
      "▁said": 800,
      "sh": 801,
      "▁even": 802,
      "▁takes": 803,
      "South": 804,
      "pl": 805,
      "▁gr": 806,
      "ious": 807,
      "▁didn": 808,
      "▁South": 809,
      "▁Th": 810,
      "oh": 811,
      "▁Jesus": 812,
      "rowd": 813,
      "uff": 814,
      "▁well": 815,
      "bs": 816,
      "ough": 817,
      "iane": 818,
      "▁because": 819,
      "▁very": 820,
      "ephen": 821,
      "▁watch": 822,
      "ila": 823,
      "▁ey": 824,
      "▁Oh": 825,
      "▁another": 826,
      "upid": 827,
      "wee": 828,
      "era": 829,
      "ope": 830,
      "ons": 831,
      "▁than": 832,
      "aches": 833,
      "▁being": 834,
      "So": 835,
      "▁Christ": 836,
      "▁Be": 837,
      "▁un": 838,
      "▁scre": 839,
      "orm": 840,
      "oun": 841,
      "▁each": 842,
      "▁act": 843,
      "ug": 844,
      "▁later": 845,
      "▁Stephen": 846,
      "▁Ph": 847,
      "▁res": 848,
      "Al": 849,
      "▁Eric": 850,
      "immy": 851,
      "▁Liane": 852,
      "▁ac": 853,
      "▁hold": 854,
      "ily": 855,
      "▁before": 856,
      "▁Mrs": 857,
      "aren": 858,
      "▁first": 859,
      "▁why": 860,
      "uch": 861,
      "▁This": 862,
      "eps": 863,
      "▁Off": 864,
      "▁side": 865,
      "resident": 866,
      "Who": 867,
      "ated": 868,
      "▁part": 869,
      "▁bus": 870,
      "ign": 871,
      "Mr": 872,
      "▁Sheila": 873,
      "room": 874,
      "▁Jimbo": 875,
      "rap": 876,
      "▁wind": 877,
      "ooks": 878,
      "oor": 879,
      "▁Clyde": 880,
      "▁never": 881,
      "week": 882,
      "dam": 883,
      "▁great": 884,
      "▁lot": 885,
      "▁real": 886,
      "day": 887,
      "▁des": 888,
      "▁bed": 889,
      "▁shot": 890,
      "▁cr": 891,
      "▁give": 892,
      "▁Bar": 893,
      "▁sorry": 894,
      "▁laugh": 895,
      "▁these": 896,
      "▁feel": 897,
      "Butters": 898,
      "▁table": 899,
      "▁fun": 900,
      "icks": 901,
      "Come": 902,
      "ner": 903,
      "▁turn": 904,
      "ulls": 905,
      "oth": 906,
      "ating": 907,
      "▁love": 908,
      "▁open": 909,
      "▁much": 910,
      "ember": 911,
      "app": 912,
      "▁Dr": 913,
      "▁gl": 914,
      "▁camera": 915,
      "▁crowd": 916,
      "▁begins": 917,
      "▁while": 918,
      "ash": 919,
      "▁long": 920,
      "▁children": 921,
      "▁foll": 922,
      "hed": 923,
      "▁opens": 924,
      "▁better": 925,
      "▁class": 926,
      "ise": 927,
      "▁doesn": 928,
      "▁yeah": 929,
      "▁Can": 930,
      "ross": 931,
      "▁clos": 932,
      "▁fin": 933,
      "▁inside": 934,
      "▁isn": 935,
      "Alright": 936,
      "▁second": 937,
      "arents": 938,
      "▁belie": 939,
      "▁dri": 940,
      "▁call": 941,
      "▁comes": 942,
      "▁Bl": 943,
      "▁hands": 944,
      "ought": 945,
      "▁No": 946,
      "ww": 947,
      "They": 948,
      "▁Ike": 949,
      "▁towards": 950,
      "vin": 951,
      "ads": 952,
      "▁Mc": 953,
      "▁gotta": 954,
      "▁Mayor": 955,
      "▁tri": 956,
      "▁those": 957,
      "▁few": 958,
      "▁Tweek": 959,
      "gr": 960,
      "ned": 961,
      "▁may": 962,
      "dy": 963,
      "▁money": 964,
      "oot": 965,
      "idi": 966,
      "▁shown": 967,
      "▁3": 968,
      "▁parents": 969,
      "▁phone": 970,
      "How": 971,
      "▁made": 972,
      "errance": 973,
      "▁Ms": 974,
      "▁Br": 975,
      "▁kind": 976,
      "ale": 977,
      "▁three": 978,
      "▁ow": 979,
      "anc": 980,
      "▁happen": 981,
      "▁Officer": 982,
      "Hell": 983,
      "Now": 984,
      "ved": 985,
      "▁son": 986,
      "▁after": 987,
      "▁bre": 988,
      "ets": 989,
      "unch": 990,
      "ance": 991,
      "▁things": 992,
      "▁All": 993,
      "▁leave": 994,
      "▁PC": 995,
      "oon": 996,
      "▁place": 997,
      "▁Now": 998,
      "▁looking": 999,
      "▁men": 1000,
      "ions": 1001,
      "▁world": 1002,
      "uts": 1003,
      "▁stud": 1004,
      "▁Cl": 1005,
      "▁must": 1006,
      "▁heard": 1007,
      "▁end": 1008,
      "▁How": 1009,
      "▁sw": 1010,
      "aring": 1011,
      "▁President": 1012,
      "imes": 1013,
      "▁believe": 1014,
      "▁eyes": 1015,
      "pt": 1016,
      "▁kill": 1017,
      "▁woman": 1018,
      "▁window": 1019,
      "ats": 1020,
      "usic": 1021,
      "▁stupid": 1022,
      "There": 1023,
      "erson": 1024,
      "▁ever": 1025,
      "▁There": 1026,
      "▁keep": 1027,
      "▁bad": 1028,
      "▁gi": 1029,
      "▁list": 1030,
      "▁which": 1031,
      "▁getting": 1032,
      "▁pict": 1033,
      "▁rep": 1034,
      "ute": 1035,
      "Th": 1036,
      "illip": 1037,
      "▁rem": 1038,
      "ator": 1039,
      "▁stops": 1040,
      "▁Sp": 1041,
      "▁Mars": 1042,
      "▁last": 1043,
      "ple": 1044,
      "▁min": 1045,
      "▁outside": 1046,
      "lo": 1047,
      "▁att": 1048,
      "▁appears": 1049,
      "erstand": 1050,
      "▁appro": 1051,
      "▁thought": 1052,
      "umb": 1053,
      "ls": 1054,
      "aces": 1055,
      "▁Timmy": 1056,
      "▁fam": 1057,
      "▁rest": 1058,
      "▁Let": 1059,
      "meric": 1060,
      "▁Ste": 1061,
      "ok": 1062,
      "eter": 1063,
      "▁anything": 1064,
      "▁trying": 1065,
      "▁understand": 1066,
      "▁ser": 1067,
      "Look": 1068,
      "brady": 1069,
      "ually": 1070,
      "acks": 1071,
      "▁el": 1072,
      "▁supp": 1073,
      "▁Phillip": 1074,
      "▁stre": 1075,
      "▁per": 1076,
      "ward": 1077,
      "▁please": 1078,
      "▁care": 1079,
      "▁own": 1080,
      "▁Terrance": 1081,
      "veryone": 1082,
      "az": 1083,
      "ex": 1084,
      "▁girls": 1085,
      "Don": 1086,
      "tain": 1087,
      "lly": 1088,
      "mentary": 1089,
      "oice": 1090,
      "so": 1091,
      "more": 1092,
      "▁four": 1093,
      "less": 1094,
      "▁4": 1095,
      "▁friends": 1096,
      "by": 1097,
      "▁hu": 1098,
      "noun": 1099,
      "St": 1100,
      "▁Barbrady": 1101,
      "lementary": 1102,
      "ory": 1103,
      "▁Heidi": 1104,
      "cl": 1105,
      "▁Woman": 1106,
      "son": 1107,
      "▁If": 1108,
      "ips": 1109,
      "hole": 1110,
      "Hello": 1111,
      "▁cal": 1112,
      "ax": 1113,
      "▁bab": 1114,
      "▁seen": 1115,
      "ike": 1116,
      "ley": 1117,
      "▁spe": 1118,
      "ount": 1119,
      "they": 1120,
      "og": 1121,
      "uns": 1122,
      "▁guy": 1123,
      "ik": 1124,
      "Why": 1125,
      "▁runs": 1126,
      "▁So": 1127,
      "ants": 1128,
      "sw": 1129,
      "▁Tom": 1130,
      "▁life": 1131,
      "inger": 1132,
      "▁Elementary": 1133,
      "▁cle": 1134,
      "▁under": 1135,
      "gether": 1136,
      "der": 1137,
      "ience": 1138,
      "▁starts": 1139,
      "mm": 1140,
      "▁Te": 1141,
      "▁light": 1142,
      "ail": 1143,
      "▁wrong": 1144,
      "▁told": 1145,
      "▁music": 1146,
      "▁fight": 1147,
      "▁himself": 1148,
      "▁Scott": 1149,
      "▁sk": 1150,
      "ork": 1151,
      "▁Americ": 1152,
      "▁plan": 1153,
      "▁Al": 1154,
      "00": 1155,
      "Do": 1156,
      "▁fat": 1157,
      "▁talking": 1158,
      "Sh": 1159,
      "▁hard": 1160,
      "Kenny": 1161,
      "▁sn": 1162,
      "olice": 1163,
      "aps": 1164,
      "ever": 1165,
      "▁pulls": 1166,
      "▁name": 1167,
      "▁shit": 1168,
      "inda": 1169,
      "looks": 1170,
      "▁stuff": 1171,
      "▁everything": 1172,
      "▁won": 1173,
      "arm": 1174,
      "▁guess": 1175,
      "▁playing": 1176,
      "▁TV": 1177,
      "ling": 1178,
      "ese": 1179,
      "▁move": 1180,
      "▁cool": 1181,
      "▁Marsh": 1182,
      "▁its": 1183,
      "ton": 1184,
      "▁proble": 1185,
      "vers": 1186,
      "▁old": 1187,
      "▁Re": 1188,
      "▁else": 1189,
      "▁together": 1190,
      "▁pass": 1191,
      "▁might": 1192,
      "▁Dad": 1193,
      "ises": 1194,
      "atter": 1195,
      "▁sign": 1196,
      "amp": 1197,
      "ix": 1198,
      "mas": 1199,
      "▁ent": 1200,
      "ream": 1201,
      "ecial": 1202,
      "roup": 1203,
      "iv": 1204,
      "▁news": 1205,
      "AAAA": 1206,
      "▁huh": 1207,
      "▁pos": 1208,
      "iew": 1209,
      "▁office": 1210,
      "▁quick": 1211,
      "▁ide": 1212,
      "ands": 1213,
      "elie": 1214,
      "ler": 1215,
      "▁sits": 1216,
      "▁rec": 1217,
      "▁follow": 1218,
      "▁set": 1219,
      "ng": 1220,
      "▁done": 1221,
      "▁Linda": 1222,
      "▁Canad": 1223,
      "orn": 1224,
      "▁leaves": 1225,
      "▁living": 1226,
      "▁box": 1227,
      "▁doll": 1228,
      "weet": 1229,
      "ha": 1230,
      "rr": 1231,
      "ower": 1232,
      "ier": 1233,
      "▁Sat": 1234,
      "▁nice": 1235,
      "tty": 1236,
      "ways": 1237,
      "▁sound": 1238,
      "▁best": 1239,
      "▁listen": 1240,
      "ful": 1241,
      "▁aw": 1242,
      "▁sur": 1243,
      "My": 1244,
      "ues": 1245,
      "▁sit": 1246,
      "▁Come": 1247,
      "▁coming": 1248,
      "inks": 1249,
      "iles": 1250,
      "▁lead": 1251,
      "▁Bebe": 1252,
      "▁poin": 1253,
      "▁ask": 1254,
      "rows": 1255,
      "▁bro": 1256,
      "itc": 1257,
      "▁Han": 1258,
      "▁nothing": 1259,
      "▁family": 1260,
      "ield": 1261,
      "She": 1262,
      "mb": 1263,
      "▁person": 1264,
      "▁Mom": 1265,
      "ump": 1266,
      "ange": 1267,
      "▁floor": 1268,
      "nouncer": 1269,
      "ices": 1270,
      "▁stay": 1271,
      "▁hall": 1272,
      "▁imp": 1273,
      "head": 1274,
      "ors": 1275,
      "▁picture": 1276,
      "raw": 1277,
      "▁Vict": 1278,
      "Wow": 1279,
      "▁tra": 1280,
      "▁New": 1281,
      "▁count": 1282,
      "▁stands": 1283,
      "▁today": 1284,
      "oria": 1285,
      "▁enough": 1286,
      "Randy": 1287,
      "ove": 1288,
      "▁Bill": 1289,
      "ohn": 1290,
      "▁answ": 1291,
      "▁maybe": 1292,
      "Let": 1293,
      "als": 1294,
      "▁Fr": 1295,
      "ipp": 1296,
      "ama": 1297,
      "▁Red": 1298,
      "osed": 1299,
      "go": 1300,
      "where": 1301,
      "ush": 1302,
      "▁ready": 1303,
      "OO": 1304,
      "▁fire": 1305,
      "▁small": 1306,
      "In": 1307,
      "▁dam": 1308,
      "▁bitch": 1309,
      "▁Victoria": 1310,
      "▁makes": 1311,
      "ene": 1312,
      "▁pretty": 1313,
      "▁Don": 1314,
      "▁dead": 1315,
      "▁Announcer": 1316,
      "▁whole": 1317,
      "▁actually": 1318,
      "ael": 1319,
      "▁most": 1320,
      "▁says": 1321,
      "anks": 1322,
      "arts": 1323,
      "▁hear": 1324,
      "▁Well": 1325,
      "▁ang": 1326,
      "▁game": 1327,
      "▁Hankey": 1328,
      "▁song": 1329,
      "du": 1330,
      "ides": 1331,
      "▁Chin": 1332,
      "ichael": 1333,
      "▁begin": 1334,
      "▁contin": 1335,
      "▁cour": 1336,
      "tant": 1337,
      "ries": 1338,
      "ult": 1339,
      "roll": 1340,
      "▁use": 1341,
      "ied": 1342,
      "▁group": 1343,
      "orter": 1344,
      "▁Why": 1345,
      "udd": 1346,
      "sy": 1347,
      "▁ground": 1348,
      "▁live": 1349,
      "▁mouth": 1350,
      "▁My": 1351,
      "ared": 1352,
      "▁moves": 1353,
      "▁pres": 1354,
      "▁idea": 1355,
      "arr": 1356,
      "▁Shelly": 1357,
      "ying": 1358,
      "▁read": 1359,
      "▁vide": 1360,
      "▁others": 1361,
      "lder": 1362,
      "▁Christmas": 1363,
      "Aw": 1364,
      "pa": 1365,
      "▁enters": 1366,
      "Huh": 1367,
      "▁Mar": 1368,
      "▁chair": 1369,
      "▁screen": 1370,
      "enter": 1371,
      "iet": 1372,
      "▁sees": 1373,
      "oc": 1374,
      "▁sir": 1375,
      "▁Doctor": 1376,
      "▁desk": 1377,
      "rent": 1378,
      "▁Jew": 1379,
      "▁wee": 1380,
      "▁Gu": 1381,
      "▁lear": 1382,
      "rest": 1383,
      "▁ca": 1384,
      "▁gay": 1385,
      "sk": 1386,
      "▁Gr": 1387,
      "▁having": 1388,
      "sp": 1389,
      "▁word": 1390,
      "▁build": 1391,
      "▁bar": 1392,
      "▁gra": 1393,
      "▁steps": 1394,
      "▁John": 1395,
      "ife": 1396,
      "ntil": 1397,
      "▁saying": 1398,
      "owelie": 1399,
      "opp": 1400,
      "ecause": 1401,
      "ball": 1402,
      "▁black": 1403,
      "aur": 1404,
      "takes": 1405,
      "▁sing": 1406,
      "▁line": 1407,
      "▁Michael": 1408,
      "▁ev": 1409,
      "▁making": 1410,
      "rof": 1411,
      "▁Just": 1412,
      "ction": 1413,
      "▁onto": 1414,
      "any": 1415,
      "▁dad": 1416,
      "oooo": 1417,
      "udience": 1418,
      "God": 1419,
      "ape": 1420,
      "▁puts": 1421,
      "▁Satan": 1422,
      "▁times": 1423,
      "▁dif": 1424,
      "▁Uh": 1425,
      "leep": 1426,
      "▁gun": 1427,
      "▁street": 1428,
      "aper": 1429,
      "▁along": 1430,
      "anie": 1431,
      "▁Le": 1432,
      "tern": 1433,
      "▁arri": 1434,
      "▁problem": 1435,
      "vis": 1436,
      "umps": 1437,
      "gets": 1438,
      "len": 1439,
      "▁book": 1440,
      "▁dress": 1441,
      "▁Coon": 1442,
      "▁called": 1443,
      "itch": 1444,
      "ams": 1445,
      "ence": 1446,
      "aks": 1447,
      "▁bas": 1448,
      "ures": 1449,
      "▁Yates": 1450,
      "ib": 1451,
      "▁crap": 1452,
      "▁enter": 1453,
      "ient": 1454,
      "mit": 1455,
      "▁water": 1456,
      "▁voice": 1457,
      "▁arms": 1458,
      "▁Bo": 1459,
      "▁until": 1460,
      "▁near": 1461,
      "io": 1462,
      "old": 1463,
      "▁ter": 1464,
      "ention": 1465,
      "ph": 1466,
      "▁dec": 1467,
      "▁meet": 1468,
      "▁shows": 1469,
      "▁both": 1470,
      "you": 1471,
      "▁air": 1472,
      "▁police": 1473,
      "▁sex": 1474,
      "▁always": 1475,
      "▁found": 1476,
      "▁same": 1477,
      "Just": 1478,
      "fr": 1479,
      "ief": 1480,
      "fa": 1481,
      "▁ret": 1482,
      "▁stage": 1483,
      "airs": 1484,
      "not": 1485,
      "arge": 1486,
      "▁El": 1487,
      "▁anymore": 1488,
      "▁bring": 1489,
      "gg": 1490,
      "rong": 1491,
      "ition": 1492,
      "itting": 1493,
      "ible": 1494,
      "ru": 1495,
      "reen": 1496,
      "▁falls": 1497,
      "▁change": 1498,
      "▁matter": 1499,
      "acher": 1500,
      "aniels": 1501,
      "Not": 1502,
      "arry": 1503,
      "▁miss": 1504,
      "ushes": 1505,
      "▁arm": 1506,
      "▁mor": 1507,
      "nit": 1508,
      "ists": 1509,
      "▁Pip": 1510,
      "come": 1511,
      "sc": 1512,
      "▁cor": 1513,
      "▁yes": 1514,
      "▁fucking": 1515,
      "▁watching": 1516,
      "▁supposed": 1517,
      "▁em": 1518,
      "▁McD": 1519,
      "▁video": 1520,
      "If": 1521,
      "▁fine": 1522,
      "illed": 1523,
      "▁seat": 1524,
      "aaaa": 1525,
      "hhh": 1526,
      "▁cho": 1527,
      "▁Towelie": 1528,
      "▁forward": 1529,
      "▁aren": 1530,
      "ids": 1531,
      "▁McDaniels": 1532,
      "atches": 1533,
      "▁hur": 1534,
      "rew": 1535,
      "▁wall": 1536,
      "▁deal": 1537,
      "▁park": 1538,
      "▁red": 1539,
      "▁finally": 1540,
      "Wait": 1541,
      "che": 1542,
      "▁Is": 1543,
      "▁roll": 1544,
      "▁Rep": 1545,
      "▁join": 1546,
      "▁balls": 1547,
      "▁past": 1548,
      "▁On": 1549,
      "▁against": 1550,
      "▁happened": 1551,
      "Ah": 1552,
      "form": 1553,
      "▁taking": 1554,
      "ready": 1555,
      "▁hang": 1556,
      "ird": 1557,
      "▁resp": 1558,
      "co": 1559,
      "ret": 1560,
      "▁die": 1561,
      "▁pen": 1562,
      "▁tw": 1563,
      "▁job": 1564,
      "▁De": 1565,
      "▁heads": 1566,
      "Get": 1567,
      "cept": 1568,
      "▁offic": 1569,
      "selves": 1570,
      "▁eat": 1571,
      "▁rings": 1572,
      "▁view": 1573,
      "▁audience": 1574,
      "▁As": 1575,
      "ians": 1576,
      "▁closes": 1577,
      "▁approaches": 1578,
      "itchen": 1579,
      "▁country": 1580,
      "ual": 1581,
      "mor": 1582,
      "▁ball": 1583,
      "▁once": 1584,
      "▁acc": 1585,
      "runs": 1586,
      "▁win": 1587,
      "idd": 1588,
      "▁doors": 1589,
      "▁Me": 1590,
      "oop": 1591,
      "anta": 1592,
      "▁already": 1593,
      "▁took": 1594,
      "▁special": 1595,
      "▁prot": 1596,
      "rol": 1597,
      "▁z": 1598,
      "▁sweet": 1599,
      "▁close": 1600,
      "▁plays": 1601,
      "▁food": 1602,
      "arth": 1603,
      "▁Two": 1604,
      "▁soon": 1605,
      "ize": 1606,
      "▁free": 1607,
      "itty": 1608,
      "moves": 1609,
      "imm": 1610,
      "▁across": 1611,
      "Whoa": 1612,
      "men": 1613,
      "▁tot": 1614,
      "▁mar": 1615,
      "ason": 1616,
      "Ch": 1617,
      "▁pay": 1618,
      "▁quickly": 1619,
      "▁5": 1620,
      "▁oh": 1621,
      "▁check": 1622,
      "▁students": 1623,
      "cuse": 1624,
      "ness": 1625,
      "ister": 1626,
      "▁Who": 1627,
      "▁diffe": 1628,
      "▁Wh": 1629,
      "▁Go": 1630,
      "Here": 1631,
      "▁break": 1632,
      "▁Ne": 1633,
      "▁funny": 1634,
      "▁remember": 1635,
      "▁alone": 1636,
      "▁came": 1637,
      "enn": 1638,
      "▁store": 1639,
      "▁shut": 1640,
      "▁body": 1641,
      "agin": 1642,
      "▁everybody": 1643,
      "ots": 1644,
      "irt": 1645,
      "▁din": 1646,
      "uter": 1647,
      "▁mov": 1648,
      "▁hair": 1649,
      "▁lock": 1650,
      "Can": 1651,
      "▁wanted": 1652,
      "iness": 1653,
      "▁high": 1654,
      "▁Sm": 1655,
      "▁kitchen": 1656,
      "ost": 1657,
      "▁tur": 1658,
      "▁Com": 1659,
      "▁someone": 1660,
      "▁years": 1661,
      "owers": 1662,
      "▁baby": 1663,
      "ces": 1664,
      "▁war": 1665,
      "▁sofa": 1666,
      "▁morning": 1667,
      "Good": 1668,
      "▁hot": 1669,
      "▁gone": 1670,
      "▁Col": 1671,
      "ooo": 1672,
      "oke": 1673,
      "▁course": 1674,
      "ames": 1675,
      "▁wants": 1676,
      "poin": 1677,
      "ium": 1678,
      "▁drops": 1679,
      "▁add": 1680,
      "▁minute": 1681,
      "Where": 1682,
      "ering": 1683,
      "▁paper": 1684,
      "uth": 1685,
      "ement": 1686,
      "▁Steven": 1687,
      "att": 1688,
      "▁ra": 1689,
      "▁saw": 1690,
      "▁hey": 1691,
      "▁foot": 1692,
      "aken": 1693,
      "▁days": 1694,
      "ih": 1695,
      "rying": 1696,
      "▁serious": 1697,
      "▁mind": 1698,
      "▁ya": 1699,
      "▁young": 1700,
      "▁without": 1701,
      "▁bur": 1702,
      "▁Mark": 1703,
      "ote": 1704,
      "▁Boy": 1705,
      "▁Ned": 1706,
      "ween": 1707,
      "ney": 1708,
      "▁seconds": 1709,
      "cle": 1710,
      "eneral": 1711,
      "ical": 1712,
      "▁cra": 1713,
      "▁fore": 1714,
      "gins": 1715,
      "▁five": 1716,
      "axi": 1717,
      "igg": 1718,
      "Jesus": 1719,
      "oof": 1720,
      "▁Thom": 1721,
      "▁cur": 1722,
      "▁rid": 1723,
      "kes": 1724,
      "▁father": 1725,
      "ations": 1726,
      "▁blood": 1727,
      "▁happy": 1728,
      "no": 1729,
      "▁full": 1730,
      "▁wearing": 1731,
      "ours": 1732,
      "els": 1733,
      "▁hope": 1734,
      "ital": 1735,
      "▁Okay": 1736,
      "▁such": 1737,
      "▁scene": 1738,
      "▁Con": 1739,
      "▁Dav": 1740,
      "▁Grand": 1741,
      "▁hate": 1742,
      "▁fe": 1743,
      "aster": 1744,
      "oses": 1745,
      "▁present": 1746,
      "Eric": 1747,
      "▁bath": 1748,
      "ilet": 1749,
      "athan": 1750,
      "▁continues": 1751,
      "ground": 1752,
      "ror": 1753,
      "▁Yeah": 1754,
      "▁Bob": 1755,
      "▁waiting": 1756,
      "elly": 1757,
      "▁quest": 1758,
      "ii": 1759,
      "▁mother": 1760,
      "▁Get": 1761,
      "▁comm": 1762,
      "▁white": 1763,
      "▁working": 1764,
      "most": 1765,
      "ingers": 1766,
      "land": 1767,
      "▁sim": 1768,
      "omen": 1769,
      "▁eating": 1770,
      "hold": 1771,
      "olog": 1772,
      "▁Santa": 1773,
      "eep": 1774,
      "hin": 1775,
      "she": 1776,
      "▁ce": 1777,
      "▁chang": 1778,
      "▁computer": 1779,
      "cause": 1780,
      "▁inter": 1781,
      "▁stri": 1782,
      "▁hor": 1783,
      "▁Everyone": 1784,
      "hest": 1785,
      "▁sy": 1786,
      "ults": 1787,
      "▁many": 1788,
      "ense": 1789,
      "alf": 1790,
      "Is": 1791,
      "Are": 1792,
      "▁tomor": 1793,
      "▁mon": 1794,
      "▁Hat": 1795,
      "▁Look": 1796,
      "▁suck": 1797,
      "lov": 1798,
      "▁tomorrow": 1799,
      "Me": 1800,
      "▁band": 1801,
      "▁pants": 1802,
      "▁Sl": 1803,
      "ics": 1804,
      "ete": 1805,
      "▁kick": 1806,
      "▁goin": 1807,
      "▁super": 1808,
      "aah": 1809,
      "onight": 1810,
      "▁Some": 1811,
      "▁Je": 1812,
      "ugs": 1813,
      "▁party": 1814,
      "▁totally": 1815,
      "ony": 1816,
      "▁mill": 1817,
      "▁One": 1818,
      "▁Cho": 1819,
      "▁Hall": 1820,
      "ov": 1821,
      "ones": 1822,
      "▁couple": 1823,
      "iting": 1824,
      "uss": 1825,
      "exic": 1826,
      "▁dollars": 1827,
      "points": 1828,
      "ives": 1829,
      "iday": 1830,
      "▁somebody": 1831,
      "▁Steve": 1832,
      "▁boo": 1833,
      "▁toilet": 1834,
      "▁Ag": 1835,
      "▁means": 1836,
      "▁between": 1837,
      "▁building": 1838,
      "▁Hey": 1839,
      "▁conf": 1840,
      "▁different": 1841,
      "Re": 1842,
      "cial": 1843,
      "▁6": 1844,
      "ither": 1845,
      "▁yet": 1846,
      "▁power": 1847,
      "▁Maxi": 1848,
      "▁doctor": 1849,
      "yster": 1850,
      "▁taken": 1851,
      "▁mic": 1852,
      "▁year": 1853,
      "▁pie": 1854,
      "iff": 1855,
      "begins": 1856,
      "▁true": 1857,
      "▁follows": 1858,
      "Hi": 1859,
      "now": 1860,
      "used": 1861,
      "ooh": 1862,
      "▁People": 1863,
      "▁expl": 1864,
      "roflov": 1865,
      "▁butt": 1866,
      "▁leader": 1867,
      "roflovsk": 1868,
      "▁sleep": 1869,
      "▁cut": 1870,
      "▁pri": 1871,
      "▁Car": 1872,
      "▁rel": 1873,
      "▁wasn": 1874,
      "▁moment": 1875,
      "▁holding": 1876,
      "▁thank": 1877,
      "vel": 1878,
      "▁Q": 1879,
      "ines": 1880,
      "▁holds": 1881,
      "lete": 1882,
      "▁teacher": 1883,
      "▁drink": 1884,
      "ternet": 1885,
      "aving": 1886,
      "oe": 1887,
      "ince": 1888,
      "▁sitting": 1889,
      "stops": 1890,
      "▁tries": 1891,
      "▁bathroom": 1892,
      "Go": 1893,
      "zy": 1894,
      "▁mess": 1895,
      "vern": 1896,
      "▁dog": 1897,
      "amm": 1898,
      "▁coun": 1899,
      "▁top": 1900,
      "▁ru": 1901,
      "▁business": 1902,
      "esome": 1903,
      "Then": 1904,
      "▁used": 1905,
      "▁also": 1906,
      "▁control": 1907,
      "▁impor": 1908,
      "▁answer": 1909,
      "me": 1910,
      "ted": 1911,
      "▁went": 1912,
      "▁dou": 1913,
      "▁gas": 1914,
      "lic": 1915,
      "▁draw": 1916,
      "▁large": 1917,
      "▁killed": 1918,
      "▁walking": 1919,
      "ited": 1920,
      "▁cross": 1921,
      "ahah": 1922,
      "▁slow": 1923,
      "▁hallway": 1924,
      "vice": 1925,
      "▁dream": 1926,
      "▁His": 1927,
      "▁Your": 1928,
      "▁wife": 1929,
      "▁Mexic": 1930,
      "iddle": 1931,
      "ject": 1932,
      "▁bull": 1933,
      "▁Are": 1934,
      "raid": 1935,
      "▁board": 1936,
      "Mom": 1937,
      "puts": 1938,
      "▁wond": 1939,
      "erry": 1940,
      "▁fell": 1941,
      "▁pain": 1942,
      "▁leg": 1943,
      "▁col": 1944,
      "▁dumb": 1945,
      "idy": 1946,
      "▁Den": 1947,
      "uart": 1948,
      "▁squ": 1949,
      "urity": 1950,
      "▁Here": 1951,
      "ky": 1952,
      "▁bag": 1953,
      "uture": 1954,
      "▁yourself": 1955,
      "aptain": 1956,
      "▁appear": 1957,
      "goes": 1958,
      "ocks": 1959,
      "▁law": 1960,
      "▁reaches": 1961,
      "ephest": 1962,
      "osp": 1963,
      "▁America": 1964,
      "▁Reporter": 1965,
      "▁Jeff": 1966,
      "▁hon": 1967,
      "▁movie": 1968,
      "ephesto": 1969,
      "▁fly": 1970,
      "▁pull": 1971,
      "▁throws": 1972,
      "▁ele": 1973,
      "apan": 1974,
      "▁started": 1975,
      "iver": 1976,
      "let": 1977,
      "▁heart": 1978,
      "▁Broflovsk": 1979,
      "gridy": 1980,
      "▁penis": 1981,
      "Dam": 1982,
      "▁9": 1983,
      "tend": 1984,
      "▁afraid": 1985,
      "▁gives": 1986,
      "▁bott": 1987,
      "▁Rich": 1988,
      "urse": 1989,
      "▁buy": 1990,
      "▁important": 1991,
      "▁bra": 1992,
      "▁fre": 1993,
      "▁pee": 1994,
      "ado": 1995,
      "▁alright": 1996,
      "oom": 1997,
      "ann": 1998,
      "▁sick": 1999,
      "▁team": 2000,
      "▁asshole": 2001,
      "▁standing": 2002,
      "▁ear": 2003,
      "chor": 2004,
      "ately": 2005,
      "leaves": 2006,
      "▁Japan": 2007,
      "▁pe": 2008,
      "▁anyone": 2009,
      "An": 2010,
      "▁fish": 2011,
      "ager": 2012,
      "▁almost": 2013,
      "▁exp": 2014,
      "Please": 2015,
      "▁Z": 2016,
      "▁inv": 2017,
      "▁bel": 2018,
      "▁Ad": 2019,
      "▁Then": 2020,
      "unt": 2021,
      "▁Stuart": 2022,
      "rans": 2023,
      "▁whe": 2024,
      "nder": 2025,
      "▁lost": 2026,
      "ances": 2027,
      "Aww": 2028,
      "Dad": 2029,
      "pulls": 2030,
      "ative": 2031,
      "▁dressed": 2032,
      "Because": 2033,
      "Ex": 2034,
      "cc": 2035,
      "▁women": 2036,
      "▁piss": 2037,
      "ode": 2038,
      "▁entrance": 2039,
      "▁ap": 2040,
      "▁Mephesto": 2041,
      "▁beat": 2042,
      "▁At": 2043,
      "▁shock": 2044,
      "▁Lu": 2045,
      "▁Next": 2046,
      "ably": 2047
    },
    "merges": [
      "▁ t",
      "h e",
      "▁ a",
      "i n",
      "a n",
      "o u",
      "▁ s",
      "▁t he",
      "r e",
      "▁ w",
      "e r",
      "o n",
      "a r",
      "i s",
      "▁ b",
      "n d",
      "a t",
      "l e",
      "▁ h",
      "i t",
      "▁ c",
      "in g",
      "l l",
      "▁ d",
      "▁t o",
      "▁ f",
      "▁ m",
      "▁ g",
      "e s",
      "e n",
      "▁ o",
      "▁ y",
      "▁a nd",
      "o r",
      "▁ p",
      "▁y ou",
      "▁ C",
      "o m",
      "o w",
      "▁ S",
      "▁t h",
      "▁ I",
      "▁ l",
      "▁ n",
      "a y",
      "ar t",
      "▁o f",
      "i c",
      "▁ in",
      "u s",
      "e t",
      "▁ T",
      "e d",
      "▁ M",
      "o o",
      "a s",
      "v e",
      "a l",
      "o t",
      "▁ he",
      "u t",
      "i d",
      "a c",
      "m an",
      "▁ on",
      "▁ K",
      "g h",
      "▁ is",
      "i m",
      "art man",
      "▁ it",
      "t an",
      "▁C artman",
      "a d",
      "ou t",
      "▁ B",
      "▁b e",
      "k e",
      "t er",
      "▁ r",
      "h at",
      "▁ u",
      "▁w e",
      "y le",
      "▁ e",
      "▁s t",
      "v er",
      "▁d o",
      "gh t",
      "▁K yle",
      "▁S tan",
      "l d",
      "k s",
      "▁ W",
      "▁th at",
      "▁ P",
      "an d",
      "a m",
      "▁ re",
      "▁ A",
      "▁ G",
      "i ght",
      "▁ k",
      "▁h is",
      "i r",
      "▁ H",
      "o p",
      "▁h a",
      "it h",
      "s e",
      "om e",
      "▁ R",
      "▁w ith",
      "u r",
      "a ll",
      "l y",
      "▁f or",
      "▁u p",
      "▁a re",
      "en t",
      "c h",
      "▁ j",
      "▁s h",
      "▁T he",
      "e e",
      "▁a t",
      "us t",
      "he r",
      "▁ out",
      "▁m e",
      "Y ou",
      "i e",
      "s t",
      "▁g o",
      "▁a n",
      "r o",
      "ter s",
      "▁ J",
      "e ll",
      "▁ D",
      "▁ha ve",
      "u n",
      "ac k",
      "i ll",
      "i on",
      "▁ le",
      "▁f r",
      "a h",
      "y s",
      "h o",
      "▁n e",
      "▁l i",
      "▁a ll",
      "▁th is",
      "▁h im",
      "O h",
      "▁c an",
      "▁B ut",
      "p p",
      "r ou",
      "r a",
      "▁g et",
      "▁ L",
      "▁a s",
      "▁M r",
      "on e",
      "▁j ust",
      "er s",
      "T he",
      "▁b o",
      "c e",
      "▁you r",
      "▁m y",
      "c k",
      "and y",
      "a k",
      "▁But ters",
      "▁w hat",
      "▁l oo",
      "▁k n",
      "r i",
      "ow n",
      "ar d",
      "▁ N",
      "r y",
      "r is",
      "id e",
      "i g",
      "in d",
      "ou r",
      "▁n ot",
      "i l",
      "o re",
      "an t",
      "▁R andy",
      "t he",
      "▁s o",
      "u d",
      "a in",
      "n y",
      "e c",
      "o d",
      "a ke",
      "▁of f",
      "ou ld",
      "o l",
      "a g",
      "▁W e",
      "ver y",
      "n a",
      "▁r ight",
      "▁ E",
      "e ah",
      "▁d on",
      "▁kn ow",
      "▁H e",
      "▁b ack",
      "e p",
      "t o",
      "w ay",
      "i p",
      "▁a b",
      "▁ F",
      "i f",
      "u m",
      "▁c h",
      "all y",
      "▁b ut",
      "▁p l",
      "▁w as",
      "▁the n",
      "t s",
      "▁fr om",
      "▁g u",
      "h ing",
      "▁ You",
      "o s",
      "▁li ke",
      "re s",
      "▁n ow",
      "ur n",
      "▁ O",
      "en ny",
      "e l",
      "▁s ome",
      "H e",
      "rou nd",
      "v es",
      "a b",
      "in k",
      "W hat",
      "oo d",
      "ic e",
      "ar k",
      "ic k",
      "▁he re",
      "▁ab out",
      "▁ us",
      "Y eah",
      "▁the m",
      "▁d own",
      "▁he r",
      "▁the y",
      "▁S t",
      "on g",
      "▁s ee",
      "▁s u",
      "▁c l",
      "al ks",
      "▁o ver",
      "f f",
      "▁g ot",
      "▁c om",
      "▁w or",
      "a p",
      "ar s",
      "k ay",
      "▁the re",
      "▁bo ys",
      "e op",
      "▁ v",
      "▁s e",
      "▁a g",
      "eop le",
      "▁r o",
      "▁K enny",
      "▁w h",
      "c t",
      "it t",
      "a re",
      "he s",
      "t her",
      "he n",
      "on na",
      "▁a l",
      "▁n o",
      "▁in to",
      "al k",
      "ar ris",
      "q u",
      "▁g onna",
      "▁loo k",
      "▁s p",
      "m y",
      "▁a way",
      "es t",
      "▁do or",
      "le s",
      "▁ our",
      "▁on e",
      "im e",
      "u l",
      "e m",
      "▁w ho",
      "▁a round",
      "arris on",
      "as s",
      "▁th ink",
      "▁o ther",
      "ac e",
      "▁p eople",
      "▁C h",
      "▁G arrison",
      "on t",
      "W ell",
      "▁h as",
      "▁d ay",
      "oo l",
      "n t",
      "i ve",
      "▁w ant",
      "W e",
      "▁k id",
      "as t",
      "N o",
      "▁an y",
      "us e",
      "es s",
      "▁e very",
      "urn s",
      "is t",
      "r ow",
      "u ck",
      "▁d id",
      "in e",
      "at e",
      "▁the ir",
      "he re",
      "out h",
      "▁I t",
      "▁b y",
      "▁m an",
      "▁ag ain",
      "g e",
      "ke y",
      "▁s c",
      "i le",
      "i an",
      "▁m o",
      "ou se",
      "e w",
      "h is",
      "b e",
      "▁t ime",
      "▁J im",
      "▁gu ys",
      "v en",
      "▁l o",
      "ak es",
      "▁loo ks",
      "in s",
      "▁s ay",
      "ud e",
      "t h",
      "i en",
      "on d",
      "am e",
      "u re",
      "at ion",
      "w o",
      "itt le",
      "▁w alks",
      "▁S h",
      "i es",
      "tan d",
      "a use",
      "u h",
      "v ing",
      "u p",
      "▁b l",
      "op s",
      "▁ne ed",
      "▁s a",
      "re e",
      "▁h and",
      "f t",
      "▁a pp",
      "I t",
      "▁to w",
      "▁pl ay",
      "▁go ing",
      "ou s",
      "▁l ittle",
      "He y",
      "▁f l",
      "u ll",
      "▁S he",
      "▁P ark",
      "a a",
      "▁ro om",
      "▁d e",
      "s ide",
      "ot her",
      "r an",
      "oo k",
      "▁c ome",
      "b er",
      "▁e x",
      "▁ if",
      "▁he ad",
      "ac h",
      "i ld",
      "▁ 1",
      "▁h ouse",
      "en s",
      "a it",
      "as e",
      "ing s",
      "B ut",
      "▁ en",
      "r in",
      "▁re ally",
      "ic h",
      "▁m ake",
      "▁le t",
      "▁w ill",
      "h h",
      "er al",
      "b le",
      "om et",
      "t ing",
      "▁m ore",
      "▁kid s",
      "ag e",
      "ad y",
      "▁o p",
      "▁G od",
      "▁sh ow",
      "a ve",
      "▁t ake",
      "▁w ay",
      "m ent",
      "ar on",
      "he f",
      "it y",
      "▁p ro",
      "▁to o",
      "▁ qu",
      "▁st art",
      "▁s m",
      "x t",
      "i re",
      "▁a r",
      "▁ne w",
      "▁h ow",
      "an g",
      "se l",
      "▁t r",
      "ch ool",
      "re at",
      "le d",
      "▁o r",
      "ie nd",
      "T hat",
      "▁be en",
      "▁s omet",
      "▁ V",
      "▁ 2",
      "at er",
      "A A",
      "▁s he",
      "▁h o",
      "od y",
      "a u",
      "ir l",
      "A nd",
      "ic t",
      "ar y",
      "▁A nd",
      "▁Sh aron",
      "▁t e",
      "b ody",
      "U h",
      "▁t wo",
      "ou nd",
      "▁c o",
      "nd y",
      "▁do es",
      "▁g ood",
      "▁C hef",
      "s s",
      "▁sh ould",
      "▁M ac",
      "re n",
      "Y es",
      "f e",
      "▁s chool",
      "w e",
      "eral d",
      "o se",
      "▁b r",
      "S tan",
      "b o",
      "▁w ould",
      "a ir",
      "it e",
      "▁Mac key",
      "▁t ry",
      "▁t alk",
      "▁W hat",
      "▁wor k",
      "u e",
      "om an",
      "p s",
      "r ic",
      "is s",
      "▁me an",
      "o ll",
      "▁p ut",
      "▁M an",
      "it s",
      "C artman",
      "d e",
      "t hing",
      "▁r un",
      "▁le ft",
      "rou gh",
      "g et",
      "▁c ould",
      "▁n ight",
      "rin c",
      "o in",
      "t e",
      "t urns",
      "m er",
      "▁Jim my",
      "▁he l",
      "h y",
      "▁c he",
      "i al",
      "▁w hen",
      "▁d r",
      "at ch",
      "res s",
      "▁a m",
      "▁G erald",
      "ab le",
      "o b",
      "O kay",
      "▁be g",
      "▁th rough",
      "▁be c",
      "▁somet hing",
      "▁t ell",
      "▁A n",
      "▁The y",
      "re d",
      "or t",
      "an k",
      "r ight",
      "▁c ou",
      "es us",
      "▁Ch ris",
      "▁u nd",
      "ec t",
      "p er",
      "▁as s",
      "▁b et",
      "▁ha pp",
      "ol k",
      "ad e",
      "▁st op",
      "▁We ndy",
      "n e",
      "▁s tand",
      "ard s",
      "▁g irl",
      "▁we re",
      "▁fr iend",
      "ent s",
      "rinc ip",
      "t y",
      "▁he ll",
      "K yle",
      "rincip al",
      "▁w alk",
      "h ind",
      "ak ing",
      "e ar",
      "▁do ing",
      "e ars",
      "i z",
      "▁C ra",
      "▁c on",
      "▁d is",
      "b r",
      "▁fr ont",
      "▁m om",
      "au gh",
      "▁ne xt",
      "sel f",
      "at her",
      "t a",
      "le ase",
      "m s",
      "▁t urns",
      "an na",
      "▁a d",
      "▁ch ild",
      "▁hel p",
      "▁ Y",
      "▁w here",
      "▁c ar",
      "u b",
      "w alks",
      "▁f ace",
      "olk ien",
      "▁h ad",
      "all s",
      "is h",
      "at h",
      "c er",
      "▁w ait",
      "▁go es",
      "▁w anna",
      "▁T hat",
      "▁c am",
      "g er",
      "▁st ill",
      "▁com p",
      "A ll",
      "▁f uck",
      "▁s ec",
      "▁b it",
      "id ent",
      "▁b ig",
      "▁w r",
      "or d",
      "or ry",
      "▁be hind",
      "o ck",
      "▁on ly",
      "f ore",
      "ow s",
      "a w",
      "n ing",
      "▁every one",
      "l ie",
      "▁o kay",
      "▁c ont",
      "▁u h",
      "c hes",
      "▁su re",
      "i a",
      "▁ im",
      "▁b u",
      "▁d ude",
      "▁M ay",
      "ee l",
      "o y",
      "▁p r",
      "ir st",
      "at es",
      "m o",
      "D ude",
      "ct or",
      "▁p h",
      "▁p re",
      "▁I n",
      "▁P rincipal",
      "▁s l",
      "▁h ome",
      "▁tow n",
      "▁ U",
      "ot t",
      "one y",
      "▁bo y",
      "▁Cra ig",
      "▁T olkien",
      "ac t",
      "▁D o",
      "a ves",
      "ran ce",
      "ic er",
      "an s",
      "▁S c",
      "c ks",
      "ly de",
      "▁get s",
      "▁f ind",
      "▁th ing",
      "T his",
      "a v",
      "i gh",
      "▁ ke",
      "▁a f",
      "▁sa id",
      "s h",
      "▁e ven",
      "▁t akes",
      "S outh",
      "p l",
      "▁g r",
      "i ous",
      "▁did n",
      "▁S outh",
      "▁T h",
      "o h",
      "▁J esus",
      "row d",
      "u ff",
      "▁we ll",
      "b s",
      "ou gh",
      "ian e",
      "▁bec ause",
      "▁ very",
      "ep hen",
      "▁w atch",
      "il a",
      "▁e y",
      "▁ Oh",
      "▁an other",
      "up id",
      "w ee",
      "er a",
      "op e",
      "on s",
      "▁th an",
      "ac hes",
      "▁be ing",
      "S o",
      "▁Chris t",
      "▁B e",
      "▁u n",
      "▁sc re",
      "or m",
      "ou n",
      "▁e ach",
      "▁a ct",
      "u g",
      "▁l ater",
      "▁St ephen",
      "▁P h",
      "▁re s",
      "A l",
      "▁E ric",
      "im my",
      "▁L iane",
      "▁a c",
      "▁ho ld",
      "i ly",
      "▁be fore",
      "▁Mr s",
      "are n",
      "▁f irst",
      "▁wh y",
      "u ch",
      "▁T his",
      "ep s",
      "▁O ff",
      "▁s ide",
      "res ident",
      "W ho",
      "at ed",
      "▁p art",
      "▁b us",
      "ig n",
      "M r",
      "▁She ila",
      "ro om",
      "▁Jim bo",
      "ra p",
      "▁w ind",
      "oo ks",
      "o or",
      "▁C lyde",
      "▁ne ver",
      "wee k",
      "d am",
      "▁g reat",
      "▁l ot",
      "▁re al",
      "d ay",
      "▁d es",
      "▁b ed",
      "▁sh ot",
      "▁c r",
      "▁g ive",
      "▁B ar",
      "▁s orry",
      "▁l augh",
      "▁the se",
      "▁f eel",
      "But ters",
      "▁t able",
      "▁f un",
      "ic ks",
      "C ome",
      "n er",
      "▁t urn",
      "ull s",
      "ot h",
      "at ing",
      "▁lo ve",
      "▁op en",
      "▁m uch",
      "em ber",
      "a pp",
      "▁D r",
      "▁g l",
      "▁cam era",
      "▁c rowd",
      "▁beg ins",
      "▁wh ile",
      "as h",
      "▁l ong",
      "▁child ren",
      "▁f oll",
      "he d",
      "▁op ens",
      "▁bet ter",
      "▁cl ass",
      "is e",
      "▁does n",
      "▁y eah",
      "▁C an",
      "ro ss",
      "▁cl os",
      "▁f in",
      "▁in side",
      "▁is n",
      "Al right",
      "▁sec ond",
      "aren ts",
      "▁be lie",
      "▁d ri",
      "▁c all",
      "▁com es",
      "▁B l",
      "▁hand s",
      "ou ght",
      "▁N o",
      "w w",
      "The y",
      "▁I ke",
      "▁tow ards",
      "v in",
      "ad s",
      "▁M c",
      "▁got ta",
      "▁May or",
      "▁t ri",
      "▁th ose",
      "▁f ew",
      "▁T week",
      "g r",
      "n ed",
      "▁m ay",
      "d y",
      "▁m oney",
      "oo t",
      "id i",
      "▁sh own",
      "▁ 3",
      "▁p arents",
      "▁ph one",
      "H ow",
      "▁m ade",
      "er rance",
      "▁M s",
      "▁B r",
      "▁k ind",
      "a le",
      "▁th ree",
      "▁o w",
      "an c",
      "▁happ en",
      "▁Off icer",
      "H ell",
      "N ow",
      "v ed",
      "▁s on",
      "▁af ter",
      "▁b re",
      "et s",
      "un ch",
      "an ce",
      "▁th ings",
      "▁A ll",
      "▁le ave",
      "▁P C",
      "o on",
      "▁pl ace",
      "▁N ow",
      "▁look ing",
      "▁m en",
      "ion s",
      "▁wor ld",
      "ut s",
      "▁st ud",
      "▁C l",
      "▁m ust",
      "▁he ard",
      "▁e nd",
      "▁H ow",
      "▁s w",
      "ar ing",
      "▁P resident",
      "im es",
      "▁belie ve",
      "▁ey es",
      "p t",
      "▁k ill",
      "▁w oman",
      "▁wind ow",
      "at s",
      "us ic",
      "▁st upid",
      "The re",
      "ers on",
      "▁e ver",
      "▁The re",
      "▁ke ep",
      "▁b ad",
      "▁g i",
      "▁l ist",
      "▁wh ich",
      "▁get ting",
      "▁p ict",
      "▁re p",
      "ut e",
      "T h",
      "ill ip",
      "▁re m",
      "at or",
      "▁st ops",
      "▁S p",
      "▁M ars",
      "▁l ast",
      "p le",
      "▁m in",
      "▁out side",
      "l o",
      "▁at t",
      "▁app ears",
      "ers tand",
      "▁app ro",
      "▁th ought",
      "um b",
      "l s",
      "ac es",
      "▁T immy",
      "▁f am",
      "▁re st",
      "▁L et",
      "mer ic",
      "▁St e",
      "o k",
      "et er",
      "▁any thing",
      "▁try ing",
      "▁und erstand",
      "▁s er",
      "L ook",
      "br ady",
      "u ally",
      "ac ks",
      "▁e l",
      "▁su pp",
      "▁Ph illip",
      "▁st re",
      "▁p er",
      "w ard",
      "▁p lease",
      "▁c are",
      "▁ow n",
      "▁T errance",
      "very one",
      "a z",
      "e x",
      "▁girl s",
      "D on",
      "t ain",
      "ll y",
      "ment ary",
      "o ice",
      "s o",
      "m ore",
      "▁f our",
      "les s",
      "▁ 4",
      "▁friend s",
      "b y",
      "▁h u",
      "n oun",
      "S t",
      "▁Bar brady",
      "le mentary",
      "or y",
      "▁He idi",
      "c l",
      "▁W oman",
      "s on",
      "▁I f",
      "ip s",
      "ho le",
      "Hell o",
      "▁c al",
      "a x",
      "▁b ab",
      "▁se en",
      "i ke",
      "le y",
      "▁sp e",
      "ou nt",
      "the y",
      "o g",
      "un s",
      "▁gu y",
      "i k",
      "W hy",
      "▁run s",
      "▁S o",
      "ant s",
      "s w",
      "▁T om",
      "▁li fe",
      "ing er",
      "▁E lementary",
      "▁c le",
      "▁und er",
      "get her",
      "d er",
      "ien ce",
      "▁start s",
      "m m",
      "▁T e",
      "▁l ight",
      "a il",
      "▁wr ong",
      "▁to ld",
      "▁m usic",
      "▁f ight",
      "▁him self",
      "▁Sc ott",
      "▁s k",
      "or k",
      "▁A meric",
      "▁pl an",
      "▁A l",
      "0 0",
      "D o",
      "▁f at",
      "▁talk ing",
      "S h",
      "▁h ard",
      "K enny",
      "▁s n",
      "ol ice",
      "ap s",
      "e ver",
      "▁p ulls",
      "▁n ame",
      "▁sh it",
      "ind a",
      "l ooks",
      "▁st uff",
      "▁every thing",
      "▁w on",
      "ar m",
      "▁gu ess",
      "▁play ing",
      "▁T V",
      "l ing",
      "es e",
      "▁mo ve",
      "▁c ool",
      "▁Mars h",
      "▁it s",
      "t on",
      "▁pro ble",
      "ver s",
      "▁o ld",
      "▁R e",
      "▁el se",
      "▁to gether",
      "▁p ass",
      "▁m ight",
      "▁D ad",
      "is es",
      "at ter",
      "▁s ign",
      "am p",
      "i x",
      "m as",
      "▁ ent",
      "re am",
      "ec ial",
      "rou p",
      "i v",
      "▁new s",
      "AA AA",
      "▁h uh",
      "▁p os",
      "ie w",
      "▁off ice",
      "▁qu ick",
      "▁ ide",
      "and s",
      "el ie",
      "l er",
      "▁s its",
      "▁re c",
      "▁foll ow",
      "▁s et",
      "n g",
      "▁d one",
      "▁L inda",
      "▁Can ad",
      "or n",
      "▁le aves",
      "▁li ving",
      "▁bo x",
      "▁do ll",
      "we et",
      "h a",
      "r r",
      "ow er",
      "i er",
      "▁S at",
      "▁n ice",
      "t ty",
      "way s",
      "▁s ound",
      "▁b est",
      "▁list en",
      "f ul",
      "▁a w",
      "▁s ur",
      "M y",
      "u es",
      "▁s it",
      "▁C ome",
      "▁com ing",
      "in ks",
      "i les",
      "▁le ad",
      "▁Be be",
      "▁p oin",
      "▁as k",
      "row s",
      "▁b ro",
      "it c",
      "▁H an",
      "▁not hing",
      "▁fam ily",
      "ie ld",
      "S he",
      "m b",
      "▁p erson",
      "▁M om",
      "um p",
      "an ge",
      "▁fl oor",
      "noun cer",
      "ic es",
      "▁st ay",
      "▁ha ll",
      "▁im p",
      "he ad",
      "or s",
      "▁pict ure",
      "ra w",
      "▁V ict",
      "W ow",
      "▁t ra",
      "▁N ew",
      "▁cou nt",
      "▁stand s",
      "▁to day",
      "or ia",
      "▁en ough",
      "R andy",
      "o ve",
      "▁B ill",
      "oh n",
      "▁an sw",
      "▁may be",
      "L et",
      "al s",
      "▁F r",
      "i pp",
      "am a",
      "▁R ed",
      "os ed",
      "g o",
      "w here",
      "us h",
      "▁re ady",
      "O O",
      "▁f ire",
      "▁sm all",
      "I n",
      "▁d am",
      "▁bit ch",
      "▁Vict oria",
      "▁m akes",
      "en e",
      "▁pre tty",
      "▁D on",
      "▁de ad",
      "▁An nouncer",
      "▁who le",
      "▁act ually",
      "a el",
      "▁mo st",
      "▁say s",
      "an ks",
      "art s",
      "▁he ar",
      "▁W ell",
      "▁an g",
      "▁g ame",
      "▁Han key",
      "▁s ong",
      "d u",
      "id es",
      "▁Ch in",
      "ich ael",
      "▁beg in",
      "▁cont in",
      "▁c our",
      "tan t",
      "ri es",
      "ul t",
      "ro ll",
      "▁us e",
      "i ed",
      "▁g roup",
      "or ter",
      "▁W hy",
      "ud d",
      "s y",
      "▁g round",
      "▁li ve",
      "▁m outh",
      "▁M y",
      "are d",
      "▁mo ves",
      "▁p res",
      "▁ide a",
      "ar r",
      "▁She lly",
      "y ing",
      "▁re ad",
      "▁v ide",
      "▁other s",
      "ld er",
      "▁Christ mas",
      "A w",
      "p a",
      "▁en ters",
      "H uh",
      "▁M ar",
      "▁ch air",
      "▁scre en",
      "en ter",
      "i et",
      "▁se es",
      "o c",
      "▁s ir",
      "▁Do ctor",
      "▁des k",
      "re nt",
      "▁J ew",
      "▁we e",
      "▁G u",
      "▁le ar",
      "re st",
      "▁c a",
      "▁g ay",
      "s k",
      "▁G r",
      "▁ha ving",
      "s p",
      "▁wor d",
      "▁bu ild",
      "▁b ar",
      "▁g ra",
      "▁st eps",
      "▁J ohn",
      "if e",
      "nt il",
      "▁say ing",
      "ow elie",
      "op p",
      "ec ause",
      "b all",
      "▁bl ack",
      "a ur",
      "t akes",
      "▁s ing",
      "▁l ine",
      "▁M ichael",
      "▁e v",
      "▁m aking",
      "ro f",
      "▁J ust",
      "ct ion",
      "▁on to",
      "an y",
      "▁d ad",
      "oo oo",
      "ud ience",
      "G od",
      "ap e",
      "▁put s",
      "▁Sat an",
      "▁t imes",
      "▁d if",
      "▁ Uh",
      "le ep",
      "▁g un",
      "▁stre et",
      "ap er",
      "▁al ong",
      "an ie",
      "▁L e",
      "ter n",
      "▁ar ri",
      "▁proble m",
      "v is",
      "um ps",
      "get s",
      "le n",
      "▁b ook",
      "▁d ress",
      "▁C oon",
      "▁cal led",
      "it ch",
      "am s",
      "en ce",
      "a ks",
      "▁b as",
      "u res",
      "▁Y ates",
      "i b",
      "▁c rap",
      "▁en ter",
      "i ent",
      "m it",
      "▁w ater",
      "▁v oice",
      "▁ar ms",
      "▁B o",
      "▁u ntil",
      "▁ne ar",
      "i o",
      "o ld",
      "▁t er",
      "ent ion",
      "p h",
      "▁d ec",
      "▁me et",
      "▁show s",
      "▁b oth",
      "y ou",
      "▁a ir",
      "▁p olice",
      "▁se x",
      "▁al ways",
      "▁f ound",
      "▁s ame",
      "J ust",
      "f r",
      "ie f",
      "f a",
      "▁re t",
      "▁st age",
      "air s",
      "n ot",
      "ar ge",
      "▁E l",
      "▁any more",
      "▁br ing",
      "g g",
      "r ong",
      "it ion",
      "itt ing",
      "i ble",
      "r u",
      "re en",
      "▁f alls",
      "▁ch ange",
      "▁m atter",
      "ac her",
      "anie ls",
      "N ot",
      "ar ry",
      "▁m iss",
      "us hes",
      "▁ar m",
      "▁m or",
      "n it",
      "is ts",
      "▁P ip",
      "c ome",
      "s c",
      "▁c or",
      "▁y es",
      "▁fuck ing",
      "▁watch ing",
      "▁supp osed",
      "▁e m",
      "▁Mc D",
      "▁vide o",
      "I f",
      "▁f ine",
      "il led",
      "▁se at",
      "aa aa",
      "hh h",
      "▁c ho",
      "▁T owelie",
      "▁for ward",
      "▁are n",
      "id s",
      "▁McD aniels",
      "at ches",
      "▁h ur",
      "re w",
      "▁w all",
      "▁de al",
      "▁p ark",
      "▁re d",
      "▁fin ally",
      "W ait",
      "c he",
      "▁I s",
      "▁ro ll",
      "▁R ep",
      "▁j oin",
      "▁b alls",
      "▁p ast",
      "▁O n",
      "▁again st",
      "▁happen ed",
      "A h",
      "f orm",
      "▁t aking",
      "re ady",
      "▁h ang",
      "ir d",
      "▁res p",
      "c o",
      "re t",
      "▁d ie",
      "▁p en",
      "▁t w",
      "▁j ob",
      "▁D e",
      "▁head s",
      "G et",
      "ce pt",
      "▁off ic",
      "sel ves",
      "▁e at",
      "▁r ings",
      "▁v iew",
      "▁a udience",
      "▁A s",
      "ian s",
      "▁clos es",
      "▁appro aches",
      "itc hen",
      "▁count ry",
      "u al",
      "m or",
      "▁b all",
      "▁on ce",
      "▁ac c",
      "r uns",
      "▁w in",
      "id d",
      "▁door s",
      "▁M e",
      "oo p",
      "ant a",
      "▁al ready",
      "▁too k",
      "▁sp ecial",
      "▁pr ot",
      "ro l",
      "▁ z",
      "▁s weet",
      "▁cl ose",
      "▁play s",
      "▁f ood",
      "art h",
      "▁T wo",
      "▁so on",
      "iz e",
      "▁f ree",
      "itt y",
      "mo ves",
      "im m",
      "▁ac ross",
      "Who a",
      "m en",
      "▁to t",
      "▁m ar",
      "as on",
      "C h",
      "▁p ay",
      "▁quick ly",
      "▁ 5",
      "▁o h",
      "▁che ck",
      "▁stud ents",
      "c use",
      "n ess",
      "is ter",
      "▁W ho",
      "▁dif fe",
      "▁W h",
      "▁G o",
      "He re",
      "▁bre ak",
      "▁N e",
      "▁fun ny",
      "▁rem ember",
      "▁al one",
      "▁c ame",
      "en n",
      "▁st ore",
      "▁sh ut",
      "▁bo dy",
      "ag in",
      "▁every body",
      "ot s",
      "ir t",
      "▁d in",
      "ut er",
      "▁mo v",
      "▁ha ir",
      "▁lo ck",
      "C an",
      "▁want ed",
      "in ess",
      "▁h igh",
      "▁S m",
      "▁k itchen",
      "o st",
      "▁t ur",
      "▁C om",
      "▁some one",
      "▁y ears",
      "ow ers",
      "▁bab y",
      "c es",
      "▁w ar",
      "▁so fa",
      "▁mor ning",
      "G ood",
      "▁h ot",
      "▁g one",
      "▁C ol",
      "oo o",
      "o ke",
      "▁cour se",
      "am es",
      "▁want s",
      "p oin",
      "i um",
      "▁dr ops",
      "▁ad d",
      "▁min ute",
      "W here",
      "er ing",
      "▁p aper",
      "ut h",
      "em ent",
      "▁Ste ven",
      "at t",
      "▁r a",
      "▁sa w",
      "▁he y",
      "▁f oot",
      "ak en",
      "▁day s",
      "i h",
      "ry ing",
      "▁ser ious",
      "▁m ind",
      "▁y a",
      "▁you ng",
      "▁with out",
      "▁b ur",
      "▁M ark",
      "ot e",
      "▁B oy",
      "▁N ed",
      "we en",
      "ne y",
      "▁second s",
      "c le",
      "en eral",
      "ic al",
      "▁c ra",
      "▁f ore",
      "g ins",
      "▁f ive",
      "ax i",
      "ig g",
      "J esus",
      "oo f",
      "▁Th om",
      "▁c ur",
      "▁r id",
      "k es",
      "▁f ather",
      "ation s",
      "▁bl ood",
      "▁happ y",
      "n o",
      "▁f ull",
      "▁we aring",
      "our s",
      "el s",
      "▁h ope",
      "it al",
      "▁O kay",
      "▁su ch",
      "▁sc ene",
      "▁C on",
      "▁D av",
      "▁Gr and",
      "▁h ate",
      "▁f e",
      "as ter",
      "os es",
      "▁pres ent",
      "E ric",
      "▁b ath",
      "ile t",
      "ath an",
      "▁contin ues",
      "g round",
      "r or",
      "▁ Yeah",
      "▁B ob",
      "▁wait ing",
      "ell y",
      "▁qu est",
      "i i",
      "▁m other",
      "▁G et",
      "▁com m",
      "▁wh ite",
      "▁work ing",
      "mo st",
      "ing ers",
      "l and",
      "▁s im",
      "om en",
      "▁e ating",
      "ho ld",
      "ol og",
      "▁S anta",
      "ee p",
      "h in",
      "s he",
      "▁c e",
      "▁ch ang",
      "▁comp uter",
      "c ause",
      "▁in ter",
      "▁st ri",
      "▁h or",
      "▁E veryone",
      "he st",
      "▁s y",
      "ul ts",
      "▁man y",
      "en se",
      "al f",
      "I s",
      "A re",
      "▁to mor",
      "▁m on",
      "▁H at",
      "▁L ook",
      "▁su ck",
      "lo v",
      "▁tomor row",
      "M e",
      "▁b and",
      "▁p ants",
      "▁S l",
      "ic s",
      "et e",
      "▁k ick",
      "▁go in",
      "▁su per",
      "a ah",
      "on ight",
      "▁S ome",
      "▁J e",
      "ug s",
      "▁part y",
      "▁tot ally",
      "on y",
      "▁m ill",
      "▁O ne",
      "▁C ho",
      "▁H all",
      "o v",
      "on es",
      "▁cou ple",
      "it ing",
      "us s",
      "ex ic",
      "▁doll ars",
      "poin ts",
      "i ves",
      "id ay",
      "▁some body",
      "▁Ste ve",
      "▁b oo",
      "▁to ilet",
      "▁A g",
      "▁mean s",
      "▁bet ween",
      "▁build ing",
      "▁He y",
      "▁con f",
      "▁diffe rent",
      "R e",
      "c ial",
      "▁ 6",
      "it her",
      "▁y et",
      "▁p ower",
      "▁M axi",
      "▁do ctor",
      "ys ter",
      "▁t aken",
      "▁m ic",
      "▁y ear",
      "▁p ie",
      "if f",
      "be gins",
      "▁tr ue",
      "▁foll ows",
      "H i",
      "n ow",
      "us ed",
      "oo h",
      "▁P eople",
      "▁ex pl",
      "rof lov",
      "▁but t",
      "▁lead er",
      "roflov sk",
      "▁s leep",
      "▁c ut",
      "▁p ri",
      "▁C ar",
      "▁re l",
      "▁was n",
      "▁mom ent",
      "▁hold ing",
      "▁th ank",
      "ve l",
      "▁ Q",
      "in es",
      "▁hold s",
      "le te",
      "▁te acher",
      "▁dr ink",
      "tern et",
      "a ving",
      "o e",
      "in ce",
      "▁s itting",
      "st ops",
      "▁tri es",
      "▁bath room",
      "G o",
      "z y",
      "▁m ess",
      "ver n",
      "▁do g",
      "am m",
      "▁cou n",
      "▁to p",
      "▁r u",
      "▁bus iness",
      "es ome",
      "The n",
      "▁us ed",
      "▁al so",
      "▁cont rol",
      "▁imp or",
      "▁answ er",
      "m e",
      "t ed",
      "▁w ent",
      "▁d ou",
      "▁g as",
      "l ic",
      "▁d raw",
      "▁l arge",
      "▁k illed",
      "▁walk ing",
      "it ed",
      "▁c ross",
      "ah ah",
      "▁sl ow",
      "▁hall way",
      "v ice",
      "▁d ream",
      "▁H is",
      "▁You r",
      "▁w ife",
      "▁M exic",
      "idd le",
      "j ect",
      "▁b ull",
      "▁A re",
      "ra id",
      "▁bo ard",
      "M om",
      "p uts",
      "▁w ond",
      "er ry",
      "▁f ell",
      "▁p ain",
      "▁le g",
      "▁c ol",
      "▁d umb",
      "id y",
      "▁D en",
      "u art",
      "▁s qu",
      "ur ity",
      "▁He re",
      "k y",
      "▁b ag",
      "ut ure",
      "▁your self",
      "ap tain",
      "▁app ear",
      "go es",
      "o cks",
      "▁l aw",
      "▁re aches",
      "ep hest",
      "os p",
      "▁Americ a",
      "▁Rep orter",
      "▁Je ff",
      "▁h on",
      "▁mov ie",
      "ephest o",
      "▁f ly",
      "▁p ull",
      "▁th rows",
      "▁e le",
      "ap an",
      "▁start ed",
      "i ver",
      "le t",
      "▁he art",
      "▁B roflovsk",
      "gr idy",
      "▁pen is",
      "D am",
      "▁ 9",
      "te nd",
      "▁af raid",
      "▁gi ves",
      "▁b ott",
      "▁R ich",
      "ur se",
      "▁bu y",
      "▁impor tant",
      "▁b ra",
      "▁f re",
      "▁p ee",
      "ad o",
      "▁al right",
      "o om",
      "an n",
      "▁s ick",
      "▁te am",
      "▁ass hole",
      "▁stand ing",
      "▁e ar",
      "ch or",
      "ate ly",
      "le aves",
      "▁J apan",
      "▁p e",
      "▁any one",
      "A n",
      "▁f ish",
      "ag er",
      "▁al most",
      "▁ex p",
      "P lease",
      "▁ Z",
      "▁in v",
      "▁be l",
      "▁A d",
      "▁The n",
      "un t",
      "▁St uart",
      "ran s",
      "▁w he",
      "nd er",
      "▁lo st",
      "anc es",
      "A ww",
      "D ad",
      "p ulls",
      "at ive",
      "▁dress ed",
      "B ecause",
      "E x",
      "c c",
      "▁w omen",
      "▁p iss",
      "od e",
      "▁ent rance",
      "▁a p",
      "▁M ephesto",
      "▁be at",
      "▁A t",
      "▁sh ock",
      "▁L u",
      "▁Ne xt",
      "ab ly"
    ]
  }
}