{
  "version": "1.0",
  "truncation": null,
  "padding": null,
  "added_tokens": [],
  "normalizer": {
    "type": "Sequence",
    "normalizers": [
      {
        "type": "NFD"
      },
      {
        "type": "StripAccents"
      }
    ]
  },
  "pre_tokenizer": {
    "type": "Metaspace",
    "replacement": "▁",
    "add_prefix_space": true
  },
  "post_processor": null,
  "decoder": {
    "type": "Metaspace",
    "replacement": "▁",
    "add_prefix_space": true
  },
  "model": {
    "type": "BPE",
    "dropout": null,
    "unk_token": null,
    "continuing_subword_prefix": null,
    "end_of_word_suffix": null,
    "fuse_unk": false,
    "vocab": {
      "\n": 0,
      "!": 1,
      "\"": 2,
      "#": 3,
      "$": 4,
      "%": 5,
      "&": 6,
      "'": 7,
      "(": 8,
      ")": 9,
      "*": 10,
      "+": 11,
      ",": 12,
      "-": 13,
      ".": 14,
      "/": 15,
      "0": 16,
      "1": 17,
      "2": 18,
      "3": 19,
      "4": 20,
      "5": 21,
      "6": 22,
      "7": 23,
      "8": 24,
      "9": 25,
      ":": 26,
      ";": 27,
      "<": 28,
      "=": 29,
      ">": 30,
      "?": 31,
      "@": 32,
      "A": 33,
      "B": 34,
      "C": 35,
      "D": 36,
      "E": 37,
      "F": 38,
      "G": 39,
      "H": 40,
      "I": 41,
      "J": 42,
      "K": 43,
      "L": 44,
      "M": 45,
      "N": 46,
      "O": 47,
      "P": 48,
      "Q": 49,
      "R": 50,
      "S": 51,
      "T": 52,
      "U": 53,
      "V": 54,
      "W": 55,
      "X": 56,
      "Y": 57,
      "Z": 58,
      "[": 59,
      "\\": 60,
      "]": 61,
      "^": 62,
      "_": 63,
      "a": 64,
      "b": 65,
      "c": 66,
      "d": 67,
      "e": 68,
      "f": 69,
      "g": 70,
      "h": 71,
      "i": 72,
      "j": 73,
      "k": 74,
      "l": 75,
      "m": 76,
      "n": 77,
      "o": 78,
      "p": 79,
      "q": 80,
      "r": 81,
      "s": 82,
      "t": 83,
      "u": 84,
      "v": 85,
      "w": 86,
      "x": 87,
      "y": 88,
      "z": 89,
      "{": 90,
      "|": 91,
      "}": 92,
      "▁": 93,
      "▁t": 94,
      "he": 95,
      "▁a": 96,
      "in": 97,
      "an": 98,
      "ou": 99,
      "▁s": 100,
      "▁the": 101,
      "re": 102,
      "▁w": 103,
      "er": 104,
      "on": 105,
      "ar": 106,
      "is": 107,
      "▁b": 108,
      ",\"": 109,
      "\"\n": 110,
      "nd": 111,
      "at": 112,
      "le": 113,
      "▁h": 114,
      "it": 115,
      "▁c": 116,
      "ing": 117,
      "ll": 118,
      "▁d": 119,
      "▁to": 120,
      "▁f": 121,
      "▁m": 122,
      "▁g": 123,
      "es": 124,
      "en": 125,
      "▁o": 126,
      "▁y": 127,
      "▁and": 128,
      "or": 129,
      "▁p": 130,
      "▁you": 131,
      "▁C": 132,
      "om": 133,
      "ow": 134,
      "▁S": 135,
      "▁th": 136,
      "▁I": 137,
      "▁l": 138,
      "'s": 139,
      "▁n": 140,
      "ay": 141,
      ".\"\n": 142,
      "art": 143,
      "▁of": 144,
      "ic": 145,
      "▁in": 146,
      "us": 147,
      "et": 148,
      "▁T": 149,
      "ed": 150,
      "▁M": 151,
      "oo": 152,
      "as": 153,
      "ve": 154,
      "al": 155,
      "ot": 156,
      "▁he": 157,
      "ut": 158,
      "id": 159,
      "ac": 160,
      "man": 161,
      "▁on": 162,
      "▁K": 163,
      "gh": 164,
      "▁is": 165,
      "im": 166,
      "artman": 167,
      "▁it": 168,
      "..": 169,
      "tan": 170,
      "▁Cartman": 171,
      "ad": 172,
      ".\n": 173,
      "out": 174,
      "▁B": 175,
      "▁be": 176,
      "ke": 177,
      "ter": 178,
      "▁r": 179,
      "hat": 180,
      "▁u": 181,
      "▁we": 182,
      "yle": 183,
      "▁e": 184,
      "▁st": 185,
      "ver": 186,
      "'t": 187,
      "▁do": 188,
      "ght": 189,
      "▁Kyle": 190,
      ".[": 191,
      "▁Stan": 192,
      "ld": 193,
      "ks": 194,
      "▁W": 195,
      "▁that": 196,
      "▁P": 197,
      "and": 198,
      "am": 199,
      "▁re": 200,
      "▁A": 201,
      "▁G": 202,
      "e,": 203,
      "ight": 204,
      "▁k": 205,
      "▁his": 206,
      "ir": 207,
      "y,": 208,
      "▁H": 209,
      "op": 210,
      "▁ha": 211,
      "ith": 212,
      "!\n": 213,
      "▁R": 214,
      "▁with": 215,
      "ome": 216,
      "ur": 217,
      "all": 218,
      "!\"\n": 219,
      "]\"\n": 220,
      "▁for": 221,
      "▁up": 222,
      "os": 223,
      "![": 224,
      "▁are": 225,
      "ent": 226,
      "ch": 227,
      "ly": 228,
      "▁j": 229,
      "s,": 230,
      "▁sh": 231,
      "▁The": 232,
      "▁at": 233,
      "h,": 234,
      "ust": 235,
      "her": 236,
      "▁out": 237,
      "You": 238,
      "▁se": 239,
      "▁an": 240,
      "▁go": 241,
      "▁me": 242,
      "▁J": 243,
      "ell": 244,
      "?\n": 245,
      "ri": 246,
      "el": 247,
      "▁D": 248,
      "\"\"": 249,
      "▁have": 250,
      ",\"[": 251,
      "un": 252,
      "r.": 253,
      "ack": 254,
      "ion": 255,
      "▁le": 256,
      "ill": 257,
      "'re": 258,
      "▁li": 259,
      "s.": 260,
      "▁ne": 261,
      "ro": 262,
      "▁all": 263,
      "...": 264,
      "▁this": 265,
      "▁I'": 266,
      "ra": 267,
      "▁,\"": 268,
      "?\"\n": 269,
      "▁him": 270,
      "▁can": 271,
      "▁But": 272,
      "ea": 273,
      "ho": 274,
      "pp": 275,
      "rou": 276,
      "▁as": 277,
      "▁get": 278,
      "▁L": 279,
      "▁just": 280,
      "The": 281,
      "st": 282,
      "▁bo": 283,
      "on't": 284,
      "▁your": 285,
      "▁my": 286,
      "one": 287,
      "▁fr": 288,
      "▁Cartman,\"": 289,
      "ck": 290,
      "ters": 291,
      "▁what": 292,
      "▁loo": 293,
      "▁kn": 294,
      "ers": 295,
      "own": 296,
      "ard": 297,
      "▁N": 298,
      "ep": 299,
      "▁Mr.": 300,
      "ys": 301,
      "ris": 302,
      "il": 303,
      "ig": 304,
      "ind": 305,
      "▁not": 306,
      "our": 307,
      "ore": 308,
      "ant": 309,
      "se": 310,
      "ie": 311,
      "▁Rand": 312,
      "ak": 313,
      "the": 314,
      "▁so": 315,
      "▁O": 316,
      "ud": 317,
      "ain": 318,
      "od": 319,
      "ct": 320,
      "ake": 321,
      "▁off": 322,
      "ould": 323,
      "ce": 324,
      "ol": 325,
      "y,\"": 326,
      "na": 327,
      "very": 328,
      "▁We": 329,
      "▁Kyle,": 330,
      "ag": 331,
      "ry": 332,
      "▁right": 333,
      "▁E": 334,
      "▁know": 335,
      "▁back": 336,
      "▁I'm": 337,
      "▁Cartman,": 338,
      "▁don't": 339,
      "way": 340,
      "ip": 341,
      "▁ab": 342,
      "▁F": 343,
      "if": 344,
      "▁He": 345,
      "▁,": 346,
      "um": 347,
      "enn": 348,
      "▁ch": 349,
      "to": 350,
      "]\n": 351,
      "▁but": 352,
      "n't": 353,
      "▁Stan,": 354,
      "▁pl": 355,
      "▁was": 356,
      "▁then": 357,
      "▁from": 358,
      "ide": 359,
      "▁gu": 360,
      "hing": 361,
      "▁You": 362,
      "▁like": 363,
      "ally": 364,
      "▁Stan,\"": 365,
      "▁now": 366,
      "urn": 367,
      "res": 368,
      "▁some": 369,
      "He": 370,
      "round": 371,
      "ves": 372,
      "t's": 373,
      "ab": 374,
      "ink": 375,
      "What": 376,
      "ood": 377,
      "ark": 378,
      "▁Butters": 379,
      "ick": 380,
      "▁here": 381,
      "Yea": 382,
      "▁about": 383,
      "o,": 384,
      "▁us": 385,
      "▁them": 386,
      "nt": 387,
      "▁down": 388,
      "▁they": 389,
      "ong": 390,
      "▁St": 391,
      "▁su": 392,
      "▁cl": 393,
      "em": 394,
      "alks": 395,
      "▁her": 396,
      "▁over": 397,
      "ff": 398,
      "e.": 399,
      "▁got": 400,
      "▁com": 401,
      "▁wor": 402,
      "▁pe": 403,
      "kay": 404,
      "▁there": 405,
      "ap": 406,
      "▁v": 407,
      "▁ag": 408,
      "ople": 409,
      "▁Kenn": 410,
      "▁wh": 411,
      "▁Kyle,\"": 412,
      "Oh": 413,
      "▁ro": 414,
      "itt": 415,
      "est": 416,
      "ther": 417,
      "are": 418,
      "hen": 419,
      "onna": 420,
      "▁al": 421,
      "▁into": 422,
      "alk": 423,
      "arris": 424,
      "▁gonna": 425,
      "qu": 426,
      "▁look": 427,
      "▁sp": 428,
      "▁away": 429,
      "ars": 430,
      "▁door": 431,
      "▁our": 432,
      "hes": 433,
      "ul": 434,
      "ice": 435,
      "ee": 436,
      "ist": 437,
      "ile": 438,
      "▁boys": 439,
      "▁around": 440,
      "arrison": 441,
      "ous": 442,
      "▁who": 443,
      "imm": 444,
      "▁think": 445,
      "▁other": 446,
      "▁\"\"": 447,
      "▁people": 448,
      "▁Ch": 449,
      "in'": 450,
      "ont": 451,
      "▁Garrison": 452,
      "Well": 453,
      "▁has": 454,
      "▁tim": 455,
      "▁day": 456,
      "▁one": 457,
      "ool": 458,
      "ast": 459,
      "ive": 460,
      "▁want": 461,
      "▁kid": 462,
      "We": 463,
      "▁see": 464,
      "▁it's": 465,
      "▁any": 466,
      "?[": 467,
      "▁every": 468,
      "ass": 469,
      "▁de": 470,
      "row": 471,
      "uck": 472,
      "urns": 473,
      "▁did": 474,
      "▁their": 475,
      "here": 476,
      "aa": 477,
      "▁man": 478,
      "er,": 479,
      "use": 480,
      "▁again": 481,
      "▁no": 482,
      "▁sc": 483,
      "ace": 484,
      "]I": 485,
      "ang": 486,
      "outh": 487,
      "ian": 488,
      "▁by": 489,
      "end": 490,
      "ew": 491,
      "Oh,": 492,
      "his": 493,
      "ess": 494,
      "ven": 495,
      "akes": 496,
      "▁looks": 497,
      "ure": 498,
      "ts": 499,
      "▁say": 500,
      "ate": 501,
      "ond": 502,
      "ien": 503,
      "les": 504,
      "es,": 505,
      "ation": 506,
      "th": 507,
      "ittle": 508,
      "▁walks": 509,
      "be": 510,
      "▁Sh": 511,
      "a,": 512,
      "▁can't": 513,
      "tand": 514,
      "ving": 515,
      "wo": 516,
      "up": 517,
      "▁bl": 518,
      "▁need": 519,
      "▁hand": 520,
      "▁sa": 521,
      "ft": 522,
      "▁app": 523,
      "▁tow": 524,
      "▁play": 525,
      "▁going": 526,
      "▁Kenny": 527,
      "rin": 528,
      "'ve": 529,
      "hat's": 530,
      "▁little": 531,
      "▁fl": 532,
      "ull": 533,
      "▁She": 534,
      "▁Park": 535,
      "ove": 536,
      "ause": 537,
      "▁room": 538,
      "other": 539,
      "ook": 540,
      "ame": 541,
      "ters,": 542,
      "▁ex": 543,
      "▁come": 544,
      "▁if": 545,
      "▁head": 546,
      "ops": 547,
      "ild": 548,
      "▁1": 549,
      "ies": 550,
      "ins": 551,
      "ob": 552,
      "ait": 553,
      "▁en": 554,
      "▁tr": 555,
      "y.": 556,
      "ine": 557,
      "▁you're": 558,
      ",[": 559,
      "But": 560,
      "ach": 561,
      "ose": 562,
      ".[the": 563,
      "ree": 564,
      "]A": 565,
      "ost": 566,
      ",\"I": 567,
      "ble": 568,
      "eral": 569,
      "Yeah": 570,
      "▁time": 571,
      "▁make": 572,
      "▁will": 573,
      "omet": 574,
      "▁Randy,\"": 575,
      "▁more": 576,
      "ens": 577,
      "ich": 578,
      "▁really": 579,
      "uh": 580,
      "Well,": 581,
      "▁op": 582,
      "'m": 583,
      "▁God": 584,
      "ec": 585,
      "ting": 586,
      "▁show": 587,
      "Yeah,": 588,
      "▁take": 589,
      "▁way": 590,
      "ment": 591,
      ",\"A": 592,
      "aron": 593,
      "hef": 594,
      "ber": 595,
      "▁qu": 596,
      "![the": 597,
      "ire": 598,
      "▁start": 599,
      "'ll": 600,
      "ear": 601,
      "▁sm": 602,
      "ave": 603,
      "xt": 604,
      "▁thing": 605,
      "ah": 606,
      "▁or": 607,
      "▁ar": 608,
      "▁new": 609,
      "side": 610,
      "▁how": 611,
      "▁pro": 612,
      "sel": 613,
      "chool": 614,
      "reat": 615,
      "led": 616,
      "riend": 617,
      "▁Butters,": 618,
      "▁that's": 619,
      "▁been": 620,
      "▁somet": 621,
      "▁Randy": 622,
      "▁V": 623,
      "▁2": 624,
      "▁she": 625,
      "hh": 626,
      "▁too": 627,
      "irl": 628,
      "ict": 629,
      "ge": 630,
      "au": 631,
      "▁And": 632,
      "▁Sharon": 633,
      "oll": 634,
      "old": 635,
      "▁kids": 636,
      "?!": 637,
      "ound": 638,
      "▁guys": 639,
      "ans": 640,
      "▁wat": 641,
      "ock": 642,
      "▁good": 643,
      "▁Chef": 644,
      "AA": 645,
      "▁does": 646,
      "fe": 647,
      "▁It's": 648,
      "▁two": 649,
      "▁day.": 650,
      "▁should": 651,
      "▁Mac": 652,
      "kay,": 653,
      "▁,\"The": 654,
      "ank": 655,
      "▁school": 656,
      "erald": 657,
      "ance": 658,
      "Stan": 659,
      "▁Randy,": 660,
      "▁would": 661,
      "▁Macke": 662,
      "air": 663,
      "ric": 664,
      "▁talk": 665,
      "▁work": 666,
      "age": 667,
      "▁U": 668,
      "ity": 669,
      "▁try": 670,
      "No": 671,
      "▁put": 672,
      "oman": 673,
      "ase": 674,
      "oin": 675,
      "Cartman": 676,
      "▁An": 677,
      "rinc": 678,
      "thing": 679,
      "iss": 680,
      "▁run": 681,
      "▁left": 682,
      "rough": 683,
      "ody": 684,
      "▁te": 685,
      "▁could": 686,
      "get": 687,
      "ouse": 688,
      "▁br": 689,
      "▁night": 690,
      "▁Jimm": 691,
      ",I": 692,
      "▁stop": 693,
      "▁hel": 694,
      "turns": 695,
      "▁Cartman,\"[": 696,
      "▁Man": 697,
      "▁che": 698,
      "ial": 699,
      "▁when": 700,
      "able": 701,
      "▁am": 702,
      "▁Gerald": 703,
      "ren": 704,
      "red": 705,
      "ort": 706,
      "▁dr": 707,
      "▁were": 708,
      "▁Y": 709,
      "s]": 710,
      "▁beg": 711,
      "▁through": 712,
      "▁bec": 713,
      "▁something": 714,
      "▁tell": 715,
      "ite": 716,
      "▁guy": 717,
      "▁They": 718,
      "▁we're": 719,
      "its": 720,
      "▁Butters,\"": 721,
      "▁cou": 722,
      "right": 723,
      "ude,": 724,
      "esus": 725,
      "▁Chris": 726,
      "▁und": 727,
      "▁bet": 728,
      "mer": 729,
      "▁happ": 730,
      "▁mo": 731,
      "olk": 732,
      "rad": 733,
      "▁Wend": 734,
      "ect": 735,
      "?!\n": 736,
      "ress": 737,
      "▁stand": 738,
      "we": 739,
      "▁girl": 740,
      "er.": 741,
      "▁on,": 742,
      "▁friend": 743,
      "rincip": 744,
      "▁hell": 745,
      "Kyle": 746,
      "ps": 747,
      "oss": 748,
      "rincipal": 749,
      "ue": 750,
      "▁boy": 751,
      "▁walk": 752,
      "ing,": 753,
      "hind": 754,
      "▁it,": 755,
      "▁con": 756,
      "▁What": 757,
      "ord": 758,
      "▁Cra": 759,
      "hy": 760,
      "iz": 761,
      "▁dis": 762,
      "▁front": 763,
      "ing.": 764,
      "▁mom": 765,
      "augh": 766,
      "▁mean": 767,
      "▁you,": 768,
      "▁car": 769,
      "imb": 770,
      "▁next": 771,
      "ather": 772,
      "ident": 773,
      "anna": 774,
      "self": 775,
      "▁cr": 776,
      "ub": 777,
      "▁ass": 778,
      "er,\"": 779,
      "▁ad": 780,
      "oy": 781,
      "ards": 782,
      "▁help": 783,
      "▁child": 784,
      "▁fe": 785,
      "anc": 786,
      "▁where": 787,
      "▁read": 788,
      "▁pr": 789,
      "walks": 790,
      "olkien": 791,
      "▁had": 792,
      "▁turns": 793,
      "ty": 794,
      "body": 795,
      "▁doing": 796,
      "oc": 797,
      "▁wait": 798,
      "▁cam": 799,
      "▁wanna": 800,
      "That's": 801,
      "▁goes": 802,
      "▁,\"S": 803,
      "ta": 804,
      "▁bit": 805,
      "ow,": 806,
      "▁still": 807,
      "▁let": 808,
      "aking": 809,
      "▁comp": 810,
      "▁fuck": 811,
      "▁wr": 812,
      "▁sec": 813,
      "ath": 814,
      "▁big": 815,
      "▁ke": 816,
      "▁behind": 817,
      "per": 818,
      "No,": 819,
      "orn": 820,
      "fore": 821,
      "aw": 822,
      "ish": 823,
      "▁only": 824,
      "▁cont": 825,
      "err": 826,
      "ed,": 827,
      "▁sure": 828,
      "▁house": 829,
      "▁right,": 830,
      "▁bu": 831,
      "▁he's": 832,
      "▁May": 833,
      "▁,The": 834,
      "arb": 835,
      "ears": 836,
      "▁bel": 837,
      "Hey,": 838,
      "▁Th": 839,
      "irst": 840,
      "ctor": 841,
      "ne": 842,
      "ret": 843,
      "▁ph": 844,
      "es.": 845,
      "ott": 846,
      "▁In": 847,
      "▁Principal": 848,
      "▁sl": 849,
      "act": 850,
      "▁town": 851,
      "▁Craig": 852,
      "orm": 853,
      "og": 854,
      "▁Tolkien": 855,
      "▁it.": 856,
      "ade": 857,
      "aves": 858,
      "s.\"\n": 859,
      "▁Sc": 860,
      "te": 861,
      "▁'": 862,
      "lyd": 863,
      "]You": 864,
      "▁find": 865,
      "▁gets": 866,
      "This": 867,
      "igh": 868,
      "▁Tw": 869,
      "nc": 870,
      "▁af": 871,
      "▁face": 872,
      "▁said": 873,
      "arent": 874,
      "pl": 875,
      "▁lat": 876,
      "▁even": 877,
      "av": 878,
      "▁takes": 879,
      "▁didn't": 880,
      "▁South": 881,
      "▁everyone": 882,
      "▁Jesus": 883,
      "rowd": 884,
      "ches": 885,
      "rs.": 886,
      "uff": 887,
      "▁It": 888,
      "▁well": 889,
      "ouse,": 890,
      "▁I've": 891,
      "]H": 892,
      "ough": 893,
      "ents": 894,
      "ephen": 895,
      "]W": 896,
      "Hey": 897,
      "▁Do": 898,
      "▁watch": 899,
      "▁very": 900,
      "▁being": 901,
      "▁I'll": 902,
      "▁ey": 903,
      "▁fin": 904,
      "▁another": 905,
      "▁because": 906,
      "ows": 907,
      "upid": 908,
      "sh": 909,
      "ffic": 910,
      "▁than": 911,
      "▁act": 912,
      "alls": 913,
      "]S": 914,
      "?!\"\n": 915,
      "▁home": 916,
      ",\"Oh,": 917,
      "ug": 918,
      "unn": 919,
      "▁scre": 920,
      "▁each": 921,
      "aches": 922,
      "▁Stephen": 923,
      "▁Ph": 924,
      "ign": 925,
      "▁Christ": 926,
      "imp": 927,
      "▁res": 928,
      "▁Eric": 929,
      "▁Lian": 930,
      "▁hold": 931,
      "era": 932,
      "Okay,": 933,
      "lright": 934,
      "ious": 935,
      "▁before": 936,
      "▁house,": 937,
      "▁sor": 938,
      "resident": 939,
      "▁first": 940,
      "oh": 941,
      "ings": 942,
      "uch": 943,
      "▁This": 944,
      "ed.": 945,
      "▁Kenny,": 946,
      "▁Mrs.": 947,
      "▁ac": 948,
      "eek": 949,
      "▁part": 950,
      "rap": 951,
      "▁bus": 952,
      "▁Sheil": 953,
      "▁Jimb": 954,
      "room": 955,
      "oor": 956,
      "els": 957,
      "Dude,": 958,
      "▁wind": 959,
      "▁open": 960,
      "ooks": 961,
      "▁Clyd": 962,
      "▁never": 963,
      "dam": 964,
      "▁great": 965,
      "▁lot": 966,
      "ger": 967,
      "▁real": 968,
      "▁offic": 969,
      "day": 970,
      "▁des": 971,
      "▁shot": 972,
      "▁give": 973,
      "▁Be": 974,
      "▁why": 975,
      "▁turn": 976,
      "▁table": 977,
      "eps": 978,
      "ates": 979,
      "▁laugh": 980,
      "▁arm": 981,
      "re's": 982,
      "ily": 983,
      "▁Offic": 984,
      "▁rem": 985,
      "et's": 986,
      "▁clos": 987,
      "ary": 988,
      "▁these": 989,
      "▁dri": 990,
      "icks": 991,
      "ope": 992,
      "ulls": 993,
      "▁love": 994,
      "lease": 995,
      "▁much": 996,
      "ons": 997,
      "Come": 998,
      "▁Garrison,\"": 999,
      "▁,\"South": 1000,
      "▁gl": 1001,
      "app": 1002,
      "▁co": 1003,
      "wn": 1004,
      "▁yea": 1005,
      "▁crowd": 1006,
      ".]\"\n": 1007,
      "▁while": 1008,
      "hed": 1009,
      "on,": 1010,
      "▁long": 1011,
      "▁children": 1012,
      "▁foll": 1013,
      "▁call": 1014,
      "▁better": 1015,
      "▁side": 1016,
      "]Oh": 1017,
      "▁doesn't": 1018,
      "oth": 1019,
      "▁un": 1020,
      "▁okay": 1021,
      "▁second": 1022,
      "▁belie": 1023,
      "ia": 1024,
      "▁Can": 1025,
      "▁isn't": 1026,
      "▁Bl": 1027,
      "▁sw": 1028,
      "ought": 1029,
      "ale": 1030,
      "oney": 1031,
      "ash": 1032,
      "▁know,": 1033,
      "▁parent": 1034,
      "▁camera": 1035,
      "ww": 1036,
      "oot": 1037,
      ",\"S": 1038,
      "bs": 1039,
      "▁there's": 1040,
      "▁tri": 1041,
      "▁Ike": 1042,
      "▁feel": 1043,
      "▁towards": 1044,
      "▁begins": 1045,
      "ating": 1046,
      "▁comes": 1047,
      "▁Mc": 1048,
      "ated": 1049,
      "▁gotta": 1050,
      "▁dud": 1051,
      "▁opens": 1052,
      "▁Mayor": 1053,
      "Mr.": 1054,
      "ember": 1055,
      "▁few": 1056,
      "▁Tweek": 1057,
      "▁happen": 1058,
      "ov": 1059,
      "▁may": 1060,
      "▁let's": 1061,
      "idi": 1062,
      "▁shown": 1063,
      "▁those": 1064,
      "'d": 1065,
      "▁3": 1066,
      "And": 1067,
      "▁Timm": 1068,
      "▁kind": 1069,
      "]The": 1070,
      "arm": 1071,
      "▁Ms.": 1072,
      ",\"Well,": 1073,
      "▁inside": 1074,
      "I'm": 1075,
      "▁att": 1076,
      "▁made": 1077,
      "arn": 1078,
      "▁after": 1079,
      "▁bre": 1080,
      "unch": 1081,
      "▁me,": 1082,
      "▁All": 1083,
      "▁leave": 1084,
      "uts": 1085,
      "▁Barb": 1086,
      "▁PC": 1087,
      "▁three": 1088,
      "Th": 1089,
      "▁men": 1090,
      "ex": 1091,
      "]What": 1092,
      "y's": 1093,
      "▁world": 1094,
      "▁stud": 1095,
      "▁President": 1096,
      "▁Dr.": 1097,
      "▁looking": 1098,
      "▁Cl": 1099,
      "▁must": 1100,
      "▁heard": 1101,
      "▁end": 1102,
      "▁own": 1103,
      "▁phone": 1104,
      "▁How": 1105,
      "▁believe": 1106,
      "▁kill": 1107,
      "▁woman": 1108,
      "ok": 1109,
      "▁bed": 1110,
      "usic": 1111,
      "▁stupid": 1112,
      ",\"You": 1113,
      "▁min": 1114,
      "Who": 1115,
      "▁list": 1116,
      "▁ever": 1117,
      "▁up,": 1118,
      "▁keep": 1119,
      "▁Liane": 1120,
      "ounc": 1121,
      "▁bad": 1122,
      "▁chang": 1123,
      "▁gi": 1124,
      "▁getting": 1125,
      "▁hu": 1126,
      "▁pict": 1127,
      "ward": 1128,
      "▁set": 1129,
      "▁rep": 1130,
      "▁which": 1131,
      "▁last": 1132,
      "illip": 1133,
      "▁He's": 1134,
      "ator": 1135,
      "▁sn": 1136,
      "umb": 1137,
      "▁Sp": 1138,
      "▁class": 1139,
      "▁Terr": 1140,
      "▁son": 1141,
      "Uh": 1142,
      "▁Mars": 1143,
      "erstand": 1144,
      "oon": 1145,
      "▁appro": 1146,
      "▁night.": 1147,
      "▁thought": 1148,
      ",\"H": 1149,
      "▁fam": 1150,
      "▁rest": 1151,
      ",What": 1152,
      "-\"\n": 1153,
      "meric": 1154,
      "▁Officer": 1155,
      "ry,": 1156,
      "▁lead": 1157,
      "▁anything": 1158,
      "uc": 1159,
      "▁Ste": 1160,
      "▁understand": 1161,
      "▁window": 1162,
      "▁ser": 1163,
      "Look": 1164,
      "cl": 1165,
      "▁el": 1166,
      "▁That's": 1167,
      "y!": 1168,
      "acks": 1169,
      "▁they're": 1170,
      "▁care": 1171,
      "▁supp": 1172,
      "▁Phillip": 1173,
      "▁trying": 1174,
      "▁hands": 1175,
      "erson": 1176,
      "ise": 1177,
      ".[s": 1178,
      "ount": 1179,
      "▁things": 1180,
      "▁now,": 1181,
      "ie,": 1182,
      "▁parents": 1183,
      "▁We're": 1184,
      "]D": 1185,
      "az": 1186,
      "tain": 1187,
      "▁You're": 1188,
      "reet": 1189,
      "read": 1190,
      "lement": 1191,
      "▁per": 1192,
      "y.\"\n": 1193,
      "rand": 1194,
      "▁4": 1195,
      "Butters": 1196,
      "▁four": 1197,
      "hole": 1198,
      "▁-": 1199,
      "▁Cartman,[": 1200,
      "▁Barbrad": 1201,
      "▁Heidi": 1202,
      "Yes,": 1203,
      "▁Woman": 1204,
      "ream": 1205,
      "▁If": 1206,
      ".\"\"": 1207,
      "rid": 1208,
      "aces": 1209,
      "▁Stan,\"[": 1210,
      "▁cal": 1211,
      "ax": 1212,
      "▁bab": 1213,
      "ike": 1214,
      "▁money": 1215,
      "▁seen": 1216,
      "iv": 1217,
      "more": 1218,
      "▁mat": 1219,
      "It's": 1220,
      "aring": 1221,
      "▁Mackey,\"": 1222,
      "leas": 1223,
      "▁Ann": 1224,
      ",\"Oh": 1225,
      "...\n": 1226,
      "ik": 1227,
      ".[a": 1228,
      "▁Tom": 1229,
      "▁outside": 1230,
      "▁Element": 1231,
      "]G": 1232,
      "▁cle": 1233,
      "eak": 1234,
      "head": 1235,
      "amp": 1236,
      "▁eyes": 1237,
      "▁under": 1238,
      "gether": 1239,
      "mm": 1240,
      "veryone": 1241,
      "▁runs": 1242,
      "▁fat": 1243,
      "▁stops": 1244,
      "so": 1245,
      "▁plan": 1246,
      "vin": 1247,
      "▁light": 1248,
      "▁appears": 1249,
      "▁wrong": 1250,
      "▁told": 1251,
      "▁music": 1252,
      "▁Jimbo": 1253,
      "ail": 1254,
      "ually": 1255,
      "▁fight": 1256,
      "▁himself": 1257,
      "udd": 1258,
      "▁sk": 1259,
      "ork": 1260,
      "▁uh": 1261,
      "▁Americ": 1262,
      "▁what's": 1263,
      "▁place": 1264,
      "▁Sheila": 1265,
      "uns": 1266,
      "blem": 1267,
      "sw": 1268,
      "Yeah.": 1269,
      "00": 1270,
      "lright,": 1271,
      "▁starts": 1272,
      "Kenn": 1273,
      "▁Oh": 1274,
      "▁hard": 1275,
      "▁seat": 1276,
      "▁shit": 1277,
      "▁follow": 1278,
      "looks": 1279,
      "▁stuff": 1280,
      "▁everything": 1281,
      "▁Scott": 1282,
      "▁pulls": 1283,
      "ips": 1284,
      "▁TV": 1285,
      "▁it!": 1286,
      "ever": 1287,
      "▁move": 1288,
      "...\"\n": 1289,
      "▁cool": 1290,
      "▁its": 1291,
      "]Oh,": 1292,
      "▁sorry": 1293,
      "▁sign": 1294,
      "▁problem": 1295,
      "fl": 1296,
      "▁pret": 1297,
      "en,": 1298,
      "▁rec": 1299,
      ",You": 1300,
      "▁Te": 1301,
      "▁old": 1302,
      "inger": 1303,
      "▁talking": 1304,
      "oice": 1305,
      "▁together": 1306,
      "▁Dad": 1307,
      "roup": 1308,
      "So": 1309,
      "ng": 1310,
      "less": 1311,
      "▁might": 1312,
      "They": 1313,
      "How": 1314,
      "ions": 1315,
      "ss": 1316,
      "▁sit": 1317,
      ".[p": 1318,
      "amm": 1319,
      "ix": 1320,
      "▁ent": 1321,
      "ecial": 1322,
      "]We": 1323,
      "mas": 1324,
      "ide,": 1325,
      "▁doll": 1326,
      "olice": 1327,
      "]O": 1328,
      "That": 1329,
      "▁uh,": 1330,
      "▁guess": 1331,
      "ictor": 1332,
      "weet": 1333,
      "▁pass": 1334,
      "ary,": 1335,
      "iew": 1336,
      "▁quick": 1337,
      "arr": 1338,
      "]M": 1339,
      "▁girls": 1340,
      "]N": 1341,
      "▁Lind": 1342,
      ")\n": 1343,
      "▁Canad": 1344,
      "▁else": 1345,
      "mb": 1346,
      "itc": 1347,
      "▁leaves": 1348,
      "▁living": 1349,
      "▁box": 1350,
      "▁playing": 1351,
      "▁,\"A": 1352,
      "ump": 1353,
      "▁Sat": 1354,
      "Uh,": 1355,
      "▁Kyle,\"[": 1356,
      "▁sound": 1357,
      "ines": 1358,
      "▁best": 1359,
      "▁please": 1360,
      "ime": 1361,
      "▁picture": 1362,
      "ful": 1363,
      "▁sur": 1364,
      "a.": 1365,
      "▁sits": 1366,
      "uss": 1367,
      "▁aw": 1368,
      "inks": 1369,
      "vers": 1370,
      "aps": 1371,
      "ult": 1372,
      "ross": 1373,
      "▁dude": 1374,
      "a-": 1375,
      "▁poin": 1376,
      "▁him.": 1377,
      "▁ask": 1378,
      "ience": 1379,
      "▁Terrance": 1380,
      "oes": 1381,
      "▁Garrison,": 1382,
      "▁Kenny,(": 1383,
      "▁Now": 1384,
      "▁begin": 1385,
      "▁Come": 1386,
      "▁name": 1387,
      "▁cat": 1388,
      "▁it.\"\n": 1389,
      "ead": 1390,
      "h.": 1391,
      "▁street": 1392,
      "▁nothing": 1393,
      "eter": 1394,
      "ield": 1395,
      "▁room.": 1396,
      "▁count": 1397,
      "▁Mom": 1398,
      "amn": 1399,
      "ower": 1400,
      "▁Br": 1401,
      "▁Han": 1402,
      "AAAA": 1403,
      "▁floor": 1404,
      "▁imp": 1405,
      "key": 1406,
      "▁Clyde": 1407,
      "▁minut": 1408,
      "s.\n": 1409,
      "▁pre": 1410,
      "▁stay": 1411,
      "▁hall": 1412,
      "▁here,": 1413,
      "ises": 1414,
      "▁Jimmy": 1415,
      "ved": 1416,
      "ling": 1417,
      "ton": 1418,
      ",\"Yeah,": 1419,
      "▁done": 1420,
      "ands": 1421,
      "▁New": 1422,
      "▁tra": 1423,
      "▁Cartman's": 1424,
      "▁today": 1425,
      "▁Let's": 1426,
      "▁enough": 1427,
      "Rand": 1428,
      "▁ball": 1429,
      "▁Bill": 1430,
      "ter,": 1431,
      "▁guys,": 1432,
      "▁That": 1433,
      "▁Al": 1434,
      "rows": 1435,
      "ohn": 1436,
      "oves": 1437,
      "▁answ": 1438,
      "▁Victor": 1439,
      "der": 1440,
      "▁fire": 1441,
      "▁person": 1442,
      "▁listen": 1443,
      "dy": 1444,
      "▁ang": 1445,
      "All": 1446,
      "ipp": 1447,
      "where": 1448,
      "...[": 1449,
      "▁God,": 1450,
      "?![": 1451,
      "▁small": 1452,
      "OO": 1453,
      "▁won't": 1454,
      "▁exc": 1455,
      "▁bitch": 1456,
      "▁Announc": 1457,
      "Yes": 1458,
      "▁id": 1459,
      "▁makes": 1460,
      "▁acc": 1461,
      "anks": 1462,
      "▁life": 1463,
      "iet": 1464,
      "ner": 1465,
      "osed": 1466,
      "▁dead": 1467,
      "▁hear": 1468,
      "▁whole": 1469,
      "▁pretty": 1470,
      "cks": 1471,
      "▁huh": 1472,
      "▁most": 1473,
      "!!": 1474,
      "ael": 1475,
      "▁Well": 1476,
      "eople": 1477,
      "ib": 1478,
      "▁family": 1479,
      "▁sing": 1480,
      "▁song": 1481,
      "▁group": 1482,
      "tant": 1483,
      "▁contin": 1484,
      "rr": 1485,
      "▁fun": 1486,
      "aaaa": 1487,
      "ichael": 1488,
      "▁stands": 1489,
      "▁cour": 1490,
      "▁him,": 1491,
      "ways": 1492,
      "▁maybe": 1493,
      "▁no,": 1494,
      "ction": 1495,
      "▁seem": 1496,
      "roll": 1497,
      "▁ground": 1498,
      "▁Mar": 1499,
      "▁live": 1500,
      "Why": 1501,
      "ning": 1502,
      "▁moves": 1503,
      "i,": 1504,
      "▁idea": 1505,
      ",\"N": 1506,
      "▁pres": 1507,
      "▁Shell": 1508,
      "▁later.": 1509,
      "▁No": 1510,
      "▁vide": 1511,
      "▁actually": 1512,
      "che": 1513,
      "owel": 1514,
      "▁use": 1515,
      "▁Christmas": 1516,
      "▁My": 1517,
      "!\"\"": 1518,
      "an,": 1519,
      "▁ca": 1520,
      "▁Gu": 1521,
      "opp": 1522,
      "▁chair": 1523,
      "rent": 1524,
      "▁sir": 1525,
      "▁Doctor": 1526,
      "▁desk": 1527,
      "ly,": 1528,
      "ole": 1529,
      "▁So": 1530,
      "▁Jew": 1531,
      "ices": 1532,
      "▁str": 1533,
      "▁coming": 1534,
      "ues": 1535,
      "▁dad": 1536,
      "▁learn": 1537,
      "rest": 1538,
      "▁bas": 1539,
      "▁eat": 1540,
      "▁Re": 1541,
      "ello": 1542,
      "ple": 1543,
      "▁bro": 1544,
      "▁gay": 1545,
      "▁wee": 1546,
      "]And": 1547,
      "-b": 1548,
      "ani": 1549,
      ",\"M": 1550,
      "▁gra": 1551,
      "tern": 1552,
      "▁having": 1553,
      "▁,S": 1554,
      "sk": 1555,
      "sp": 1556,
      "▁sees": 1557,
      "ries": 1558,
      "▁word": 1559,
      "▁build": 1560,
      "raw": 1561,
      "▁right.": 1562,
      "▁mean,": 1563,
      ",\"The": 1564,
      "▁John": 1565,
      "ntil": 1566,
      "▁you.": 1567,
      "▁nice": 1568,
      "▁gun": 1569,
      "▁Kyle,[": 1570,
      "▁away.": 1571,
      "Don't": 1572,
      "▁black": 1573,
      "aur": 1574,
      "ball": 1575,
      "takes": 1576,
      "▁ev": 1577,
      "ants": 1578,
      "▁Michael": 1579,
      "▁Mackey": 1580,
      "▁friends": 1581,
      "▁making": 1582,
      "▁Just": 1583,
      "leep": 1584,
      "ush": 1585,
      "▁onto": 1586,
      "We're": 1587,
      "oooo": 1588,
      "ared": 1589,
      "▁1,": 1590,
      "▁puts": 1591,
      "▁dif": 1592,
      "ocks": 1593,
      "▁Why": 1594,
      "▁Wendy": 1595,
      "▁Wendy,": 1596,
      "▁there,": 1597,
      "▁along": 1598,
      "?[the": 1599,
      "▁Jimmy,\"": 1600,
      "▁aud": 1601,
      "ient": 1602,
      "you": 1603,
      "▁we've": 1604,
      "▁enter": 1605,
      "▁arri": 1606,
      "▁pap": 1607,
      "vis": 1608,
      "ene": 1609,
      "▁book": 1610,
      "▁Wh": 1611,
      "▁called": 1612,
      "itch": 1613,
      "▁meet": 1614,
      "▁room,": 1615,
      "▁McD": 1616,
      "form": 1617,
      "mor": 1618,
      "▁Red": 1619,
      "▁tw": 1620,
      "▁crap": 1621,
      "▁ready": 1622,
      "not": 1623,
      "ition": 1624,
      "orter": 1625,
      "▁says": 1626,
      "▁Marsh": 1627,
      "-[": 1628,
      "▁you've": 1629,
      "▁There's": 1630,
      "▁ret": 1631,
      ",\"And": 1632,
      ",\"W": 1633,
      "ention": 1634,
      "olog": 1635,
      "ier": 1636,
      ",\"O": 1637,
      "▁mouth": 1638,
      "▁until": 1639,
      "umps": 1640,
      "Kenny": 1641,
      "ph": 1642,
      "s]\"\n": 1643,
      "gets": 1644,
      "ying": 1645,
      "rol": 1646,
      "▁Randy,\"[": 1647,
      "▁screen": 1648,
      "▁air": 1649,
      "▁sex": 1650,
      "▁enters": 1651,
      "▁found": 1652,
      "▁both": 1653,
      ",\"G": 1654,
      "▁deal": 1655,
      "]I'm": 1656,
      "Just": 1657,
      "ors": 1658,
      "▁dress": 1659,
      "▁El": 1660,
      "ual": 1661,
      "▁em": 1662,
      "ible": 1663,
      "one,": 1664,
      "ides": 1665,
      "▁red": 1666,
      "▁anymore": 1667,
      "nce": 1668,
      "ama": 1669,
      "▁always": 1670,
      "▁bring": 1671,
      "my": 1672,
      "▁wall": 1673,
      "▁that,": 1674,
      "ept": 1675,
      "acher": 1676,
      "▁shows": 1677,
      "St": 1678,
      "ushes": 1679,
      "▁Towel": 1680,
      "]E": 1681,
      "gg": 1682,
      "▁...": 1683,
      "▁saying": 1684,
      "ecause": 1685,
      "ru": 1686,
      "▁Pip": 1687,
      "▁win": 1688,
      "▁miss": 1689,
      "itting": 1690,
      "arge": 1691,
      "▁steps": 1692,
      "▁fucking": 1693,
      "▁supposed": 1694,
      "▁funn": 1695,
      "oop": 1696,
      "▁up.": 1697,
      "▁well,": 1698,
      "]T": 1699,
      "br": 1700,
      "▁forward": 1701,
      "illed": 1702,
      "▁Elementary,": 1703,
      "▁2,": 1704,
      "Look,": 1705,
      "Do": 1706,
      "bo": 1707,
      "▁me.": 1708,
      "▁McDani": 1709,
      "]He": 1710,
      "▁bar": 1711,
      "▁aren't": 1712,
      "w,": 1713,
      "▁hur": 1714,
      "▁Jimmy,": 1715,
      "▁Don't": 1716,
      "▁park": 1717,
      "▁Stan,[": 1718,
      "▁mar": 1719,
      "▁As": 1720,
      "▁roll": 1721,
      "reen": 1722,
      "▁Is": 1723,
      ".[turns": 1724,
      "▁Rep": 1725,
      "No!": 1726,
      "ied": 1727,
      "▁past": 1728,
      "ird": 1729,
      "▁join": 1730,
      "▁against": 1731,
      "▁hang": 1732,
      "▁police": 1733,
      "▁Coon": 1734,
      "arts": 1735,
      "▁resp": 1736,
      "▁you.\"\n": 1737,
      "irt": 1738,
      "▁job": 1739,
      "▁dec": 1740,
      "▁taking": 1741,
      "▁same": 1742,
      "selves": 1743,
      "damn": 1744,
      "▁watching": 1745,
      "m,": 1746,
      "▁view": 1747,
      "▁others": 1748,
      "▁pen": 1749,
      "▁Ke": 1750,
      "Sh": 1751,
      "▁im": 1752,
      ".[walks": 1753,
      "ief": 1754,
      "▁mov": 1755,
      "▁falls": 1756,
      "▁game": 1757,
      "lder": 1758,
      "itchen": 1759,
      "▁video": 1760,
      "▁pos": 1761,
      "▁we'll": 1762,
      "▁Ne": 1763,
      ",\"All": 1764,
      "ory": 1765,
      "▁smile": 1766,
      "Ch": 1767,
      "▁sweet": 1768,
      "▁Satan": 1769,
      "arth": 1770,
      "▁Fr": 1771,
      ",A": 1772,
      "runs": 1773,
      "▁morn": 1774,
      "idd": 1775,
      "▁alread": 1776,
      "▁took": 1777,
      "▁Sm": 1778,
      "▁Cartman,\"I": 1779,
      "ape": 1780,
      "▁special": 1781,
      "▁prot": 1782,
      "pa": 1783,
      "▁z": 1784,
      "▁finally": 1785,
      "▁food": 1786,
      "▁line": 1787,
      "▁yeah": 1788,
      "-f": 1789,
      ",\"No,": 1790,
      "▁De": 1791,
      "ife": 1792,
      "-s": 1793,
      "▁tot": 1794,
      "oof": 1795,
      "▁news": 1796,
      "ures": 1797,
      "et,": 1798,
      "▁Bo": 1799,
      "▁Park,": 1800,
      "▁closes": 1801,
      "▁break": 1802,
      "'kay": 1803,
      "rew": 1804,
      "▁pay": 1805,
      "ets": 1806,
      "come": 1807,
      "▁5": 1808,
      "any": 1809,
      "arl": 1810,
      "▁Boy": 1811,
      "▁check": 1812,
      "oke": 1813,
      "t.": 1814,
      "▁cho": 1815,
      "▁matter": 1816,
      "▁diffe": 1817,
      "▁Com": 1818,
      "▁once": 1819,
      "▁Who": 1820,
      "▁sof": 1821,
      "▁approaches": 1822,
      "▁Linda": 1823,
      "▁store": 1824,
      "▁Kyle.": 1825,
      "▁shut": 1826,
      "▁across": 1827,
      "▁Kyle's": 1828,
      "▁Oh,": 1829,
      "▁water": 1830,
      "Randy": 1831,
      "]B": 1832,
      "cc": 1833,
      "ats": 1834,
      "ims": 1835,
      "▁,A": 1836,
      "▁voice": 1837,
      "▁appear": 1838,
      "len": 1839,
      "▁cut": 1840,
      "▁din": 1841,
      "▁gr": 1842,
      "agin": 1843,
      "▁lock": 1844,
      "▁hair": 1845,
      "![s": 1846,
      "ly.": 1847,
      "ing.\"\n": 1848,
      "▁Clyde,": 1849,
      "▁yeah,": 1850,
      "▁audience": 1851,
      "ital": 1852,
      "▁grad": 1853,
      "▁year": 1854,
      "▁high": 1855,
      "▁kitchen": 1856,
      "You're": 1857,
      "▁Stan,What": 1858,
      "▁comput": 1859,
      "▁tur": 1860,
      "▁rel": 1861,
      "▁hot": 1862,
      "▁came": 1863,
      "Can": 1864,
      "▁(": 1865,
      "▁out,": 1866,
      "▁dude,": 1867,
      "▁Col": 1868,
      "▁Go": 1869,
      "▁Chef,": 1870,
      "▁change": 1871,
      "Let's": 1872,
      "▁lad": 1873,
      "vel": 1874,
      "▁on.": 1875,
      "▁heads": 1876,
      "it,": 1877,
      "ams": 1878,
      "▁again,": 1879,
      "▁On": 1880,
      "▁someone": 1881,
      "▁comm": 1882,
      "▁house.": 1883,
      "▁country": 1884,
      "-h": 1885,
      "ann": 1886,
      "ement": 1887,
      "▁add": 1888,
      "▁already": 1889,
      "ium": 1890,
      "▁Butters,\"[": 1891,
      "▁free": 1892,
      "▁young": 1893,
      "ical": 1894,
      "▁ra": 1895,
      "▁Kyle,I": 1896,
      "▁Steven": 1897,
      "▁see,": 1898,
      "▁present": 1899,
      "cer": 1900,
      "▁soon": 1901,
      "▁Stan,I": 1902,
      "ize": 1903,
      "▁fac": 1904,
      "▁foot": 1905,
      "![p": 1906,
      "▁wanted": 1907,
      "a!": 1908,
      "▁Stan,\"Dude,": 1909,
      "▁mind": 1910,
      "▁without": 1911,
      "▁saw": 1912,
      ")\"\n": 1913,
      "▁bat": 1914,
      "▁bur": 1915,
      "ese": 1916,
      "▁Mark": 1917,
      "ween": 1918,
      "ence": 1919,
      "▁Bob": 1920,
      "▁quickly": 1921,
      "ited": 1922,
      "]It's": 1923,
      "▁Victoria": 1924,
      ",\"We": 1925,
      "eneral": 1926,
      "▁,\"Cartman": 1927,
      "co": 1928,
      "▁cra": 1929,
      "▁die": 1930,
      "▁fore": 1931,
      "▁rid": 1932,
      "▁happened": 1933,
      "-m": 1934,
      "![a": 1935,
      "▁Kyle,What": 1936,
      "ram": 1937,
      "▁five": 1938,
      "enter": 1939,
      "▁remember": 1940,
      "▁tak": 1941,
      "ister": 1942,
      "owers": 1943,
      "▁Two": 1944,
      "▁Bro": 1945,
      "▁Stan's": 1946,
      "▁close": 1947,
      "Okay": 1948,
      "et.": 1949,
      "Jesus": 1950,
      "pt": 1951,
      "▁Me": 1952,
      "▁Thom": 1953,
      "-t": 1954,
      "▁cur": 1955,
      "▁out.": 1956,
      "igg": 1957,
      "▁guys.": 1958,
      "▁father": 1959,
      "ason": 1960,
      "▁wants": 1961,
      "▁blood": 1962,
      "▁drops": 1963,
      "▁full": 1964,
      "▁Kenny,\"": 1965,
      "▁such": 1966,
      "In": 1967,
      "My": 1968,
      "▁Con": 1969,
      "▁Grand": 1970,
      "▁Dav": 1971,
      "▁wearing": 1972,
      "▁quest": 1973,
      "▁bath": 1974,
      "▁Pro": 1975,
      "▁times": 1976,
      "▁man,": 1977,
      ",\"I'm": 1978,
      "▁Bebe": 1979,
      "ground": 1980,
      "gins": 1981,
      "ii": 1982,
      "▁Kid": 1983,
      "??\n": 1984,
      "uth": 1985,
      "▁Mackey,": 1986,
      "▁later": 1987,
      ",Oh": 1988,
      "most": 1989,
      "lect": 1990,
      "▁mother": 1991,
      "▁Sant": 1992,
      "▁Get": 1993,
      "▁cheer": 1994,
      "ler": 1995,
      "▁away]\"\n": 1996,
      "Yeah!": 1997,
      "▁They're": 1998,
      "▁toile": 1999,
      "hold": 2000,
      "He's": 2001,
      "ject": 2002,
      "▁band": 2003,
      ",\"What": 2004,
      "▁hate": 2005,
      "▁Sheila,": 2006,
      "cause": 2007,
      "▁bra": 2008,
      "▁ce": 2009,
      "ots": 2010,
      "▁Cartman,I": 2011,
      "▁speak": 2012,
      "▁sorry,": 2013,
      "land": 2014,
      "▁cry": 2015,
      "als": 2016,
      "▁it.\n": 2017,
      "Stan,": 2018,
      "▁stri": 2019,
      "h-": 2020,
      ",\"Hey,": 2021,
      ",\"Yes,": 2022,
      "ists": 2023,
      "▁Yates": 2024,
      "hest": 2025,
      "▁sy": 2026,
      "▁pri": 2027,
      "▁alone": 2028,
      "▁Wendy,\"": 2029,
      "ote": 2030,
      "ion,": 2031,
      "▁she's": 2032,
      "▁Jimbo,": 2033,
      "▁gone": 2034,
      "or,": 2035,
      "▁Max": 2036,
      "alf": 2037,
      ".[Cartman": 2038,
      "▁Hat": 2039,
      "▁Je": 2040,
      "▁serious": 2041,
      "ness": 2042,
      "ooo": 2043,
      "ians": 2044,
      "side,": 2045,
      "▁okay,": 2046,
      "▁door.": 2047,
      "▁moment": 2048,
      "]This": 2049,
      "▁tomor": 2050,
      "▁mon": 2051,
      "▁Look": 2052,
      "▁here.": 2053,
      "▁suck": 2054,
      "▁control": 2055,
      "▁tomorrow": 2056,
      "Huh": 2057,
      "kes": 2058,
      ",\"E": 2059,
      "▁Sl": 2060,
      "▁Pet": 2061,
      "▁Are": 2062,
      "▁kick": 2063,
      "▁couple": 2064,
      "onight": 2065,
      "▁hope": 2066,
      "▁Some": 2067,
      "▁away,": 2068,
      "oints": 2069,
      "▁damn": 2070,
      "▁mill": 2071,
      "omen": 2072,
      "▁Jenn": 2073,
      "▁Str": 2074,
      "▁Hanke": 2075,
      "▁hallway": 2076,
      "▁paper": 2077,
      "t,": 2078,
      "▁ho": 2079,
      "▁Hall": 2080,
      "io": 2081,
      "▁mic": 2082,
      "▁super": 2083,
      "▁many": 2084,
      ",\"It's": 2085,
      "▁totally": 2086,
      "▁There": 2087,
      ",\"[s": 2088,
      "▁Sharon,": 2089,
      "exic": 2090,
      "]F": 2091,
      "ives": 2092,
      "und": 2093,
      "▁waiting": 2094,
      "▁students": 2095,
      "▁Steve": 2096,
      "aving": 2097,
      ",\"T": 2098,
      "▁Ag": 2099,
      "▁goin'": 2100,
      "▁between": 2101,
      "▁conf": 2102,
      "▁'cause": 2103,
      "▁sleep": 2104,
      "▁hor": 2105,
      "ither": 2106,
      "▁Cho": 2107,
      "▁stage": 2108,
      "▁Timmy": 2109,
      "▁different": 2110,
      "tle": 2111,
      "▁6": 2112,
      "▁doctor": 2113,
      "▁them.": 2114,
      "▁white": 2115,
      "ovsk": 2116,
      "moves": 2117,
      "▁fre": 2118,
      "ed.\"\n": 2119,
      "▁Kenny,\"(": 2120,
      "▁People": 2121,
      "begins": 2122,
      "▁expl": 2123,
      "▁hour": 2124,
      "ad,": 2125,
      "flovsk": 2126,
      "[the": 2127,
      "ia,": 2128,
      "▁years": 2129,
      "▁Lord": 2130,
      "▁wasn't": 2131,
      "by": 2132,
      "ce,": 2133,
      "▁thank": 2134,
      "]All": 2135,
      "▁arms": 2136,
      "▁taken": 2137,
      "uh,": 2138,
      "▁Q": 2139,
      "lease,": 2140,
      "▁answer": 2141,
      "▁Well,": 2142,
      "-o": 2143,
      "She": 2144,
      "▁eating": 2145,
      "vern": 2146,
      "oses": 2147,
      "\"\"\"\n": 2148,
      "▁now.": 2149,
      "▁teacher": 2150,
      "▁drink": 2151,
      "▁holding": 2152,
      "-w": 2153,
      "lic": 2154,
      ",\"B": 2155,
      "▁pie": 2156,
      "▁inter": 2157,
      "aster": 2158,
      "ames": 2159,
      "▁leg": 2160,
      "iff": 2161,
      "▁holds": 2162,
      "▁bathroom": 2163,
      "ense": 2164,
      "▁dog": 2165,
      "▁Stan,\"Yeah,": 2166,
      "▁tries": 2167,
      "▁top": 2168,
      "▁board": 2169,
      "▁again.": 2170,
      "▁sitting": 2171,
      "▁is,": 2172,
      "▁impor": 2173,
      "duc": 2174,
      "oom": 2175,
      "iness": 2176,
      "▁went": 2177,
      "▁dou": 2178,
      "▁gas": 2179,
      "▁Everyone": 2180,
      "▁working": 2181,
      "now": 2182,
      "ince": 2183,
      "▁killed": 2184,
      "▁One": 2185,
      "onder": 2186,
      ".[they": 2187,
      "osp": 2188,
      "ello,": 2189,
      "▁office": 2190,
      "▁somebody": 2191,
      "▁dream": 2192,
      "▁heart": 2193,
      "▁His": 2194,
      "▁Your": 2195,
      "▁used": 2196,
      "▁boys,": 2197,
      "com": 2198,
      "▁Mexic": 2199,
      "▁butt": 2200,
      "▁down,": 2201,
      "ahah": 2202,
      "hhh": 2203,
      "▁team": 2204,
      "]P": 2205,
      "▁bull": 2206,
      "▁mess": 2207,
      "ute": 2208,
      "raid": 2209,
      "▁body": 2210,
      "▁Gerald,": 2211,
      "iddle": 2212,
      "arry": 2213,
      "▁boo": 2214,
      "▁dumb": 2215,
      "▁fell": 2216,
      "▁pain": 2217,
      "▁large": 2218,
      "ice,": 2219,
      "▁ru": 2220,
      "▁also": 2221,
      "▁time,": 2222,
      "▁continues": 2223,
      "▁col": 2224,
      "▁bell": 2225,
      "▁him]\"\n": 2226,
      "▁slow": 2227,
      "▁penis": 2228,
      "cial": 2229,
      "uart": 2230,
      "▁squ": 2231,
      "▁ind": 2232,
      "▁Den": 2233,
      "ange": 2234,
      "Kyle,": 2235,
      "▁asshole": 2236,
      "▁Craig,": 2237,
      "-p": 2238,
      "goes": 2239,
      "▁bag": 2240,
      "▁ya": 2241,
      "▁pull": 2242,
      "uture": 2243,
      "▁yourself": 2244,
      "aptain": 2245,
      "▁scene": 2246,
      "▁Kenny's": 2247,
      "▁Towelie": 2248,
      "]Hey,": 2249,
      "▁law": 2250,
      "▁reaches": 2251,
      "▁means": 2252,
      "ephest": 2253,
      "▁sofa": 2254,
      "▁Jeff": 2255,
      "▁int": 2256,
      "stops": 2257,
      "▁Intern": 2258,
      "iver": 2259,
      "rit": 2260,
      "lete": 2261,
      "▁Chin": 2262,
      "ance,": 2263,
      "grid": 2264,
      "o.": 2265,
      "▁throws": 2266,
      "ults": 2267,
      "▁Broflovsk": 2268,
      "God": 2269,
      "▁9": 2270,
      "let": 2271,
      "▁hon": 2272,
      "ters.": 2273,
      "▁We've": 2274,
      "itty": 2275,
      "▁buy": 2276,
      "▁afraid": 2277,
      "▁Timmy,": 2278,
      "▁gives": 2279,
      "▁war": 2280,
      "▁bott": 2281,
      "ley": 2282,
      "▁fall": 2283,
      "▁power": 2284,
      "▁this,": 2285,
      "athan": 2286,
      "▁'em": 2287,
      "▁important": 2288,
      "-\n": 2289,
      "▁Rich": 2290,
      "![walks": 2291,
      "▁Jap": 2292,
      "▁alright": 2293,
      "▁Tolkien,": 2294,
      "]Hey": 2295,
      "▁sick": 2296,
      "▁hat": 2297,
      "▁I'd": 2298,
      "▁off.": 2299,
      "▁know.": 2300,
      "▁computer": 2301,
      "[p": 2302,
      "▁balls": 2303,
      ".[he": 2304,
      "▁Cartman,\"A": 2305,
      "▁Cartman,What": 2306,
      "-c": 2307,
      "ih": 2308,
      "leaves": 2309,
      "▁beat": 2310,
      "▁Cartman,\"Oh,": 2311,
      "▁who's": 2312,
      "xc": 2313,
      "om,": 2314,
      "▁ann": 2315,
      "yster": 2316,
      "sc": 2317,
      ".[h": 2318,
      "▁Ad": 2319,
      "▁almost": 2320,
      "▁day,": 2321,
      "▁exp": 2322,
      "▁cross": 2323,
      "ances": 2324,
      "▁entr": 2325,
      "▁Z": 2326,
      "▁inv": 2327,
      "▁ring": 2328,
      "▁rings": 2329,
      "▁Then": 2330,
      "umm": 2331,
      "▁Stuart": 2332,
      "▁doors": 2333,
      "obody": 2334,
      "]But": 2335,
      "oud": 2336,
      "▁whe": 2337,
      "▁fly": 2338,
      "▁lost": 2339,
      "ative": 2340,
      "esome": 2341,
      "▁Pat": 2342,
      "▁back,": 2343,
      "▁hom": 2344,
      "▁you?\"\n": 2345,
      "▁Mephest": 2346,
      "▁What's": 2347,
      "▁Rob": 2348,
      "ally,": 2349,
      "▁me!": 2350,
      "Re": 2351,
      "▁simp": 2352,
      "▁shock": 2353,
      "ung": 2354,
      "▁like,": 2355,
      "▁standing": 2356,
      "▁Next": 2357,
      "▁tou": 2358,
      "▁ap": 2359,
      "▁At": 2360,
      "▁,\"C": 2361,
      "▁door,": 2362,
      "▁dollars": 2363,
      "▁dire": 2364,
      "▁brother": 2365,
      "▁Japan": 2366,
      "▁piss": 2367,
      "opens": 2368,
      "unk": 2369,
      "▁anyone": 2370,
      "▁#": 2371,
      "▁tre": 2372,
      "▁that?\n": 2373,
      "▁send": 2374,
      "unt": 2375,
      "▁everybody": 2376,
      "▁walking": 2377,
      ",The": 2378,
      "Right": 2379,
      "erk": 2380,
      "▁it!\"\n": 2381,
      ",\"Alright,": 2382,
      "▁quiet": 2383,
      "▁happy": 2384,
      "Not": 2385,
      "int": 2386,
      "▁pur": 2387,
      "▁Pr": 2388,
      "▁shoo": 2389,
      "ven't": 2390,
      "▁David": 2391,
      "OU": 2392,
      "be,": 2393,
      "e!": 2394,
      "▁finger": 2395,
      "▁oh": 2396,
      "▁pick": 2397,
      "▁Where": 2398,
      "▁Cartman,\"You": 2399,
      "▁them,": 2400,
      "eez": 2401,
      "Thank": 2402,
      "▁Marvin": 2403,
      "▁McDaniels": 2404,
      "▁Santa": 2405,
      "▁toilet": 2406,
      "▁women": 2407,
      "▁you!": 2408,
      ".[Stan": 2409,
      "▁fine": 2410,
      "▁fish": 2411,
      "▁grow": 2412,
      "▁gather": 2413,
      "ably": 2414,
      "▁days": 2415,
      "▁plays": 2416,
      "ountain": 2417,
      "▁sile": 2418,
      "ooh": 2419,
      "▁Kim": 2420,
      "▁truck": 2421,
      "![they": 2422,
      "ney": 2423,
      "▁bedroom": 2424,
      "hin'": 2425,
      "wh": 2426,
      "with": 2427,
      "▁tonight": 2428,
      "orad": 2429,
      "▁stat": 2430,
      "▁baby": 2431,
      "▁clear": 2432,
      "▁dressed": 2433,
      "AR": 2434,
      "]L": 2435,
      "son": 2436,
      "▁wonder": 2437,
      "▁m'kay": 2438,
      "![turns": 2439,
      "▁rock": 2440,
      "▁started": 2441,
      "▁return": 2442,
      "gridy": 2443,
      "▁ter": 2444,
      "▁six": 2445,
      "ndred": 2446,
      "addam": 2447,
      "▁Randy,[": 2448,
      "▁hundred": 2449,
      "▁Reporter": 2450,
      "▁trou": 2451,
      "▁ahead": 2452,
      "ers,": 2453,
      "![he": 2454,
      "igure": 2455,
      "Yeah.\n": 2456,
      "Yeah!\n": 2457,
      "▁course": 2458,
      "Where": 2459,
      "▁bunch": 2460,
      "imes": 2461,
      "amed": 2462,
      "▁,\"Stan": 2463,
      "▁Cartman,\"Yeah,": 2464,
      "▁around,": 2465,
      "▁nobody": 2466,
      "▁Black": 2467,
      "▁Maxi": 2468,
      "ospital": 2469,
      "ES": 2470,
      "pris": 2471,
      "▁draw": 2472,
      "▁Russ": 2473,
      "▁knew": 2474,
      "opez": 2475,
      "aks": 2476,
      "ha": 2477,
      "▁$": 2478,
      ",\"Okay,": 2479,
      "▁half": 2480,
      "▁cor": 2481,
      "ing.\n": 2482,
      "▁Che": 2483,
      "▁Lead": 2484,
      "▁For": 2485,
      "obb": 2486,
      "▁guys!": 2487,
      "▁Un": 2488,
      "ones": 2489,
      "▁us,": 2490,
      "▁trans": 2491,
      "▁drive": 2492,
      "▁movie": 2493,
      "yp": 2494,
      "ert": 2495,
      "otch": 2496,
      "▁near": 2497,
      "▁Lopez": 2498,
      "steps": 2499,
      "ifer": 2500,
      "ugs": 2501,
      "▁dude.": 2502,
      "Now": 2503,
      "Yes.": 2504,
      "ered": 2505,
      "▁fart": 2506,
      "▁you'll": 2507,
      "▁Ind": 2508,
      "▁in,": 2509,
      "▁Jan": 2510,
      "▁down.": 2511,
      "Thanks": 2512,
      "▁seems": 2513,
      "▁Richard": 2514,
      "▁Kyle,\"I": 2515,
      "ounds": 2516,
      "▁thanks": 2517,
      "▁follows": 2518,
      "▁cost": 2519,
      "▁del": 2520,
      "▁dest": 2521,
      "▁met": 2522,
      "▁gen": 2523,
      "▁pat": 2524,
      "▁it!\n": 2525,
      "▁him.\"\n": 2526,
      "used": 2527,
      "ksond": 2528,
      "▁coff": 2529,
      "▁week": 2530,
      "ksondik": 2531,
      "]Well,": 2532,
      "▁since": 2533,
      "ony": 2534,
      "iting": 2535,
      "▁di": 2536,
      "▁inst": 2537,
      "▁General": 2538,
      "▁kiss": 2539,
      "▁Nels": 2540,
      "▁pee": 2541,
      "▁blow": 2542,
      "▁needs": 2543,
      "▁running": 2544,
      "▁coun": 2545,
      "▁Choksondik": 2546,
      "itor": 2547,
      "▁med": 2548,
      "▁Sk": 2549,
      "▁Now,": 2550,
      "abb": 2551,
      "▁wouldn't": 2552,
      "holds": 2553,
      "]\"\"": 2554,
      "▁es": 2555,
      "ine,": 2556,
      "▁wife": 2557,
      "▁mont": 2558,
      "omb": 2559,
      "▁When": 2560,
      "chor": 2561,
      "emale": 2562,
      "Me": 2563,
      "▁test": 2564,
      "rem": 2565,
      "▁fa": 2566,
      "▁stick": 2567,
      "▁Af": 2568,
      "▁Every": 2569,
      "▁chick": 2570,
      "▁glass": 2571,
      "▁report": 2572,
      "▁American": 2573,
      "▁Agent": 2574,
      "Get": 2575,
      "]Come": 2576,
      "bt": 2577,
      "erry": 2578,
      "▁hit": 2579,
      "ay,": 2580,
      "▁off,": 2581,
      "uu": 2582,
      "▁future": 2583,
      "▁in.": 2584,
      "▁ins": 2585,
      "▁on!": 2586,
      ".[Kyle": 2587,
      "rible": 2588,
      "▁God!": 2589,
      "▁become": 2590,
      "▁record": 2591,
      "]C": 2592,
      "]Okay,": 2593,
      "friend": 2594,
      "se,": 2595,
      "ingers": 2596,
      "▁dark": 2597,
      "▁mil": 2598,
      "rag": 2599,
      "pped": 2600,
      "resses": 2601,
      "izz": 2602,
      "▁driver": 2603,
      "▁attention": 2604,
      "▁grabs": 2605,
      "▁Strong": 2606,
      "??": 2607,
      "men": 2608,
      "work": 2609,
      "▁imm": 2610,
      "▁wood": 2611,
      ",\"Well": 2612,
      ",\"That's": 2613,
      "▁Myster": 2614,
      "▁lif": 2615,
      "umber": 2616,
      "▁Maybe": 2617,
      "▁business": 2618,
      "▁point": 2619,
      "vernment": 2620,
      "lo": 2621,
      "▁par": 2622,
      "▁Co": 2623,
      "▁Chief": 2624,
      "▁time.": 2625,
      "▁Liane,": 2626,
      "rom": 2627,
      "▁faces": 2628,
      "▁pa": 2629,
      "ays": 2630,
      "▁ride": 2631,
      "▁Will": 2632,
      "▁returns": 2633,
      "entle": 2634,
      "ode": 2635,
      "▁Kyle,\"Dude,": 2636,
      "▁def": 2637,
      "ormal": 2638,
      "▁building": 2639,
      "▁Colorad": 2640,
      "-d": 2641,
      "ef": 2642,
      "▁dick": 2643,
      "▁far": 2644,
      "▁Stan,\"I": 2645,
      "▁now.\"\n": 2646,
      "▁complete": 2647,
      "▁Jesus,": 2648,
      "bot": 2649,
      "▁cell": 2650,
      "▁yet": 2651,
      "▁Tra": 2652,
      "▁eas": 2653,
      "▁Stan.": 2654,
      "IN": 2655,
      "ey": 2656,
      "vice": 2657,
      "zz": 2658,
      "▁thous": 2659,
      "▁Big": 2660,
      "▁Chines": 2661,
      "bably": 2662,
      "walk": 2663,
      "erg": 2664,
      "▁ref": 2665,
      "▁me.\"\n": 2666,
      "ion.": 2667,
      "udge": 2668,
      "▁,C": 2669,
      "▁plac": 2670,
      "ric,": 2671,
      "udden": 2672,
      "ER": 2673,
      "ities": 2674,
      "▁Girl": 2675,
      "urse": 2676,
      "![runs": 2677,
      "▁go,": 2678,
      "▁whatever": 2679,
      "▁there.": 2680,
      "▁human": 2681,
      "▁lights": 2682,
      "board": 2683,
      "af": 2684,
      "een": 2685,
      "▁pack": 2686,
      "▁lunch": 2687,
      "▁sell": 2688,
      "airs": 2689,
      "▁party": 2690,
      "▁pan": 2691,
      "▁Canadian": 2692,
      "▁Slave": 2693,
      "es.\"\n": 2694,
      "▁picks": 2695,
      "ics": 2696,
      "▁Ge": 2697,
      "▁haven't": 2698,
      "▁Rick": 2699,
      "▁Butters.": 2700,
      "ired": 2701,
      "▁moments": 2702,
      "▁,\"Cartman's": 2703,
      "▁entrance": 2704,
      "HH": 2705,
      "ares": 2706,
      "▁pants": 2707,
      "▁ship": 2708,
      "▁Ned": 2709,
      "▁Barbrady,": 2710,
      "▁points": 2711,
      "▁angry": 2712,
      "▁trouble": 2713,
      "▁corn": 2714,
      "▁mag": 2715,
      "▁ob": 2716,
      "▁do,": 2717,
      "▁Good": 2718,
      "▁Nathan": 2719,
      "▁here.\"\n": 2720,
      "ron": 2721,
      "▁Count": 2722,
      "▁Cartman,\"Oh": 2723,
      "▁Here": 2724,
      "▁Butters,[": 2725,
      ",It's": 2726,
      "orts": 2727,
      "▁Saddam": 2728,
      "▁jumps": 2729,
      "▁vis": 2730,
      "▁alien": 2731,
      "▁Uh": 2732,
      "▁officers": 2733,
      "▁seconds": 2734,
      "▁McC": 2735,
      "▁Thomas": 2736,
      ",We": 2737,
      "]That's": 2738,
      ",\"But": 2739,
      "▁,\"T": 2740,
      "▁what?\n": 2741,
      "▁then,": 2742,
      "▁reads": 2743,
      "Wait": 2744,
      "joy": 2745,
      "ny": 2746,
      "▁\"": 2747,
      "ations": 2748,
      "ID": 2749,
      "]...": 2750,
      "gan": 2751,
      "oe": 2752,
      "▁[": 2753,
      "▁Did": 2754,
      "unity": 2755,
      "▁Ob": 2756,
      "▁awesome": 2757,
      "dr": 2758,
      "le,": 2759,
      "ried": 2760,
      "appro": 2761,
      "▁children,": 2762,
      "▁Shelly": 2763,
      "▁Internet": 2764,
      "▁poor": 2765,
      "▁step": 2766,
      "▁memb": 2767,
      "age.": 2768,
      "fect": 2769,
      ",I'm": 2770,
      "i-": 2771,
      ",\"\"": 2772,
      "▁throw": 2773,
      "▁flag": 2774,
      "▁tele": 2775,
      "▁clean": 2776,
      "Timm": 2777,
      "sy": 2778,
      ",\"F": 2779,
      ",\"P": 2780,
      "lebr": 2781,
      "▁city": 2782,
      "▁grand": 2783,
      "▁ste": 2784,
      "▁government": 2785,
      "▁just...": 2786,
      "▁Not": 2787,
      "▁notices": 2788,
      "▁club": 2789,
      "iles": 2790,
      "▁cover": 2791,
      "▁tried": 2792,
      "▁Barbrady": 2793,
      "ires": 2794,
      "pers": 2795,
      "▁toss": 2796,
      "▁thinks": 2797,
      "▁jump": 2798,
      "▁,\"B": 2799,
      "ages": 2800,
      "▁able": 2801,
      "▁telling": 2802,
      "▁Barbrady,\"": 2803,
      ".\"\"\"\n": 2804,
      "▁Kevin": 2805,
      "▁Broflovski": 2806,
      "▁Japanese": 2807,
      ")[": 2808,
      "AT": 2809,
      "ior": 2810,
      "ertain": 2811,
      ",\"Come": 2812,
      "▁field": 2813,
      "▁figure": 2814,
      "▁Car": 2815,
      "▁Squ": 2816,
      "▁Miss": 2817,
      "▁Member": 2818,
      "▁Gore": 2819,
      "▁off]\"\n": 2820,
      "▁Uh,": 2821,
      "▁funny": 2822,
      "-g": 2823,
      "ket": 2824,
      "ted": 2825,
      "▁middle": 2826,
      "eth": 2827,
      "▁either": 2828,
      "▁lives": 2829,
      "ume": 2830,
      "▁themselves": 2831,
      "▁scared": 2832,
      "▁safe": 2833,
      "aught": 2834,
      "▁entire": 2835,
      "▁Chinese": 2836,
      ",S": 2837,
      "▁sand": 2838,
      "▁center": 2839,
      "veral": 2840,
      "▁reve": 2841,
      "urity": 2842,
      "rought": 2843,
      "▁knocks": 2844,
      "▁scream": 2845,
      "▁surpris": 2846,
      "xcuse": 2847,
      "▁ice": 2848,
      "▁fair": 2849,
      "▁pop": 2850,
      "uring": 2851,
      "rog": 2852,
      "uper": 2853,
      "▁attack": 2854,
      "▁Announcer,\"": 2855,
      "▁learned": 2856,
      "lderly": 2857,
      "ched": 2858,
      "s!": 2859,
      "▁cond": 2860,
      "▁mot": 2861,
      "▁Town": 2862,
      "▁jack": 2863,
      "unches": 2864,
      "Here": 2865,
      "]It": 2866,
      "They're": 2867,
      ",H": 2868,
      "a.\"\n": 2869,
      "uct": 2870,
      "▁inte": 2871,
      "▁stra": 2872,
      "▁Butters'": 2873,
      "▁probably": 2874,
      "▁reading": 2875,
      "▁fuckin'": 2876,
      "▁finis": 2877,
      "▁student": 2878,
      "▁approach": 2879,
      "](": 2880,
      "back": 2881,
      "min": 2882,
      "off": 2883,
      "▁brought": 2884,
      "▁cap": 2885,
      "▁det": 2886,
      "▁Jos": 2887,
      "eaks": 2888,
      "▁myself": 2889,
      "agg": 2890,
      "▁char": 2891,
      ",\"L": 2892,
      "▁land": 2893,
      "ice.": 2894,
      "▁Tr": 2895,
      "▁We'll": 2896,
      "▁Thanks": 2897,
      "▁officer": 2898,
      "▁Bebe,": 2899,
      "▁sounds": 2900,
      "opping": 2901,
      "-up": 2902,
      "aus": 2903,
      "ces": 2904,
      "▁anybody": 2905,
      "ately": 2906,
      "ation,": 2907,
      "ies,": 2908,
      "no": 2909,
      "ten": 2910,
      "▁X": 2911,
      "ery": 2912,
      "▁dance": 2913,
      "▁though": 2914,
      "▁TH": 2915,
      "▁No,": 2916,
      "▁Hankey": 2917,
      "upp": 2918,
      "ater": 2919,
      "atic": 2920,
      "▁creat": 2921,
      "▁ear": 2922,
      "▁here!": 2923,
      "▁climb": 2924,
      "▁Kyle,\"Yeah,": 2925,
      "▁road": 2926,
      "]Who": 2927,
      "▁screw": 2928,
      "▁million": 2929,
      "▁7": 2930,
      "▁dep": 2931,
      "▁fil": 2932,
      "▁poss": 2933,
      "▁wel": 2934,
      "▁forth": 2935,
      "▁nearb": 2936,
      "▁sold": 2937,
      "▁thinking": 2938,
      "mercial": 2939,
      "OM": 2940,
      "▁sent": 2941,
      "▁normal": 2942,
      "tance": 2943,
      "▁reach": 2944,
      "▁knock": 2945,
      "▁Father": 2946,
      "▁snow": 2947,
      "▁classroom": 2948,
      "soft": 2949,
      "▁Jennifer": 2950,
      "▁Denver": 2951,
      "cle": 2952,
      "gra": 2953,
      "▁tick": 2954,
      "▁you.\n": 2955,
      "▁Captain": 2956,
      "▁rises": 2957,
      "▁reason": 2958,
      "![Cartman": 2959,
      "els,": 2960,
      "▁deep": 2961,
      "error": 2962,
      "▁Smith": 2963,
      "Did": 2964,
      "light": 2965,
      "▁card": 2966,
      "ir,": 2967,
      "\"\"]\"\n": 2968,
      "▁leaving": 2969,
      "iful": 2970,
      "ugg": 2971,
      "▁answers": 2972,
      "▁hurt": 2973,
      "▁rolls": 2974,
      "Wow": 2975,
      "▁hits": 2976,
      "▁inc": 2977,
      "▁Let": 2978,
      "▁Our": 2979,
      "▁shouldn't": 2980,
      "▁okay.": 2981,
      "▁question": 2982,
      "▁Nelson": 2983,
      "▁pops": 2984,
      "ass,": 2985,
      "▁shirt": 2986,
      "▁NO": 2987,
      "▁guard": 2988,
      "▁You've": 2989,
      "▁no!": 2990,
      "arrator": 2991,
      "▁celebr": 2992,
      "-a": 2993,
      "aut": 2994,
      "m.": 2995,
      "in't": 2996,
      "▁gy": 2997,
      "▁gave": 2998,
      "▁Cartman.": 2999,
      "▁forget": 3000,
      "▁least": 3001,
      "▁boy,": 3002,
      "▁somewhere": 3003,
      "ffect": 3004,
      "▁quite": 3005,
      "▁giant": 3006,
      "bod": 3007,
      "arri": 3008,
      "ity,": 3009,
      "▁I,": 3010,
      "▁Pass": 3011,
      "urch": 3012,
      "ustom": 3013,
      "tands": 3014,
      "hhhh": 3015,
      "▁camp": 3016,
      "▁members": 3017,
      "Wh": 3018,
      "gr": 3019,
      "▁i": 3020,
      "▁fast": 3021,
      "▁lo": 3022,
      "acc": 3023,
      "▁mem": 3024,
      "Kyle's": 3025,
      "ma": 3026,
      "▁grin": 3027,
      "enters": 3028,
      "▁bear": 3029,
      "▁seated": 3030,
      "▁,\"P": 3031,
      "▁Lu": 3032,
      "▁,He": 3033,
      "▁Garrison,\"[": 3034,
      "ized": 3035,
      "▁adults": 3036,
      "ee,": 3037,
      "zy": 3038,
      "▁you?\n": 3039,
      "▁third": 3040,
      "▁aside": 3041,
      "▁soft": 3042,
      "▁Kyle,You": 3043,
      "▁Ex": 3044,
      "▁,B": 3045,
      "▁appl": 3046,
      "▁true": 3047,
      "▁order": 3048,
      "Really": 3049,
      "▁coffee": 3050,
      "-l": 3051,
      "h!": 3052,
      "▁ten": 3053,
      "in,": 3054,
      "ley,": 3055,
      "▁certain": 3056,
      "▁eight": 3057,
      ".[takes": 3058,
      "▁Pl": 3059,
      "▁Res": 3060,
      "▁shoot": 3061,
      "▁several": 3062,
      "There": 3063,
      "▁shoulder": 3064,
      "▁Linda,": 3065,
      "full": 3066,
      "mit": 3067,
      "▁gat": 3068,
      "▁log": 3069,
      "![Stan": 3070,
      "▁smart": 3071,
      "▁pictures": 3072,
      "▁piece": 3073,
      "▁interest": 3074,
      "▁opp": 3075,
      "▁yes": 3076,
      "▁Wait": 3077,
      "▁form": 3078,
      "akov": 3079,
      "▁thousand": 3080,
      "To": 3081,
      "con": 3082,
      "oins": 3083,
      "▁pig": 3084,
      "▁Because": 3085,
      "No.": 3086,
      "▁amaz": 3087,
      "▁eye": 3088,
      "▁arrives": 3089,
      "▁destro": 3090,
      "▁televis": 3091,
      "▁gro": 3092,
      "aybe": 3093,
      "amb": 3094,
      "irth": 3095,
      "▁joke": 3096,
      "▁Dou": 3097,
      "▁Narrator": 3098,
      "▁Or": 3099,
      "rying": 3100,
      "What's": 3101,
      "▁enjoy": 3102,
      "▁Tweek,": 3103,
      "▁huge": 3104,
      "▁Elementary": 3105,
      "On": 3106,
      "ij": 3107,
      "lf": 3108,
      "inal": 3109,
      "▁cream": 3110,
      "▁dist": 3111,
      "▁fur": 3112,
      "▁you!\"\n": 3113,
      "▁lands": 3114,
      "ed.\n": 3115,
      "▁stunn": 3116,
      "▁Les": 3117,
      "There's": 3118,
      "rist": 3119,
      "umes": 3120,
      "▁boys.": 3121,
      "Hey!": 3122,
      "▁America": 3123,
      "-I": 3124,
      "▁&": 3125,
      "▁bast": 3126,
      "▁cuts": 3127,
      "▁mall": 3128,
      "▁yell": 3129,
      "▁god": 3130,
      "▁,Cartman": 3131,
      "▁but...": 3132,
      "▁spl": 3133,
      "eef": 3134,
      "▁death": 3135,
      "▁towel": 3136,
      "▁prop": 3137,
      "▁Eric,": 3138,
      "bor": 3139,
      "▁terror": 3140,
      "▁ain't": 3141,
      "▁hops": 3142,
      "▁cand": 3143,
      "▁lab": 3144,
      "▁it?": 3145,
      "▁With": 3146,
      "▁him.\n": 3147,
      "▁Okay,": 3148,
      "▁back.": 3149,
      "▁using": 3150,
      "▁clot": 3151,
      "astic": 3152,
      "ure,": 3153,
      "▁cheers": 3154,
      "▁Canada": 3155,
      "▁News": 3156,
      "▁slowly": 3157,
      "grabs": 3158,
      "Wow,": 3159,
      "ract": 3160,
      "▁bow": 3161,
      "▁danc": 3162,
      "alt": 3163,
      "▁egg": 3164,
      "▁Rec": 3165,
      ",\"[p": 3166,
      "age,": 3167,
      "▁knows": 3168,
      "▁kids,": 3169,
      "▁She's": 3170,
      "Good": 3171,
      "hood": 3172,
      "▁fist": 3173,
      "▁Kyle.\"\n": 3174,
      ".[t": 3175,
      "▁Dan": 3176,
      ",\"[walks": 3177,
      "▁background": 3178,
      "▁them.\"\n": 3179,
      "ational": 3180,
      "▁evil": 3181,
      "▁Mephesto": 3182,
      "!!\n": 3183,
      "-M": 3184,
      "everyone": 3185,
      "ye": 3186,
      "▁troll": 3187,
      "lex": 3188,
      "▁ep": 3189,
      "rily": 3190,
      "▁Dri": 3191,
      "▁Cartman,\"Well,": 3192,
      "▁Stan,\"No,": 3193,
      "▁too.": 3194,
      "▁couldn't": 3195,
      "ublic": 3196,
      "▁company": 3197,
      "▁arrive": 3198,
      "oly": 3199,
      "vil": 3200,
      "▁Mel": 3201,
      "ashes": 3202,
      "▁Harris": 3203,
      "▁,\"M": 3204,
      "▁sucks": 3205,
      "▁door]\"\n": 3206,
      "hered": 3207,
      "▁office,": 3208,
      "▁Special": 3209,
      "▁,\"Stan's": 3210,
      "fess": 3211,
      "▁ed": 3212,
      ",\"C": 3213,
      "▁Work": 3214,
      "stem": 3215,
      "▁so,": 3216,
      "▁commercial": 3217,
      "▁drop": 3218,
      "▁later,": 3219,
      "▁catch": 3220,
      "▁pissed": 3221,
      "approaches": 3222,
      "AN": 3223,
      "],": 3224,
      "bell": 3225,
      "ates,": 3226,
      "▁hospital": 3227,
      "▁mas": 3228,
      "▁gam": 3229,
      "alm": 3230,
      "aching": 3231,
      "▁anim": 3232,
      "▁van": 3233,
      "Bear": 3234,
      "Because": 3235,
      "Go": 3236,
      "▁yes,": 3237,
      "▁hey": 3238,
      "▁Ar": 3239,
      "▁Adam": 3240,
      "▁Friend": 3241,
      "www": 3242,
      "▁giving": 3243,
      "]Don't": 3244,
      "▁basket": 3245,
      "▁cow": 3246,
      "▁pour": 3247,
      "▁ele": 3248,
      "▁Her": 3249,
      "▁Stan,\"A": 3250,
      "▁space": 3251,
      "aaa": 3252,
      "aaah": 3253,
      "▁tru": 3254,
      "▁way,": 3255,
      "actly": 3256,
      "▁leader": 3257,
      "rat": 3258,
      "▁ve": 3259,
      "▁tree": 3260,
      "▁sense": 3261,
      "▁fact": 3262,
      "▁Mic": 3263,
      "mand": 3264,
      "oney,": 3265,
      "inds": 3266,
      "▁agent": 3267,
      "▁look,": 3268,
      "▁again.\"\n": 3269,
      "▁starting": 3270,
      "▁Anchor": 3271,
      "▁night,": 3272,
      "▁Thank": 3273,
      "000": 3274,
      "▁Brit": 3275,
      "▁Victoria,": 3276,
      "▁White": 3277,
      "▁protect": 3278,
      "▁esc": 3279,
      "[s": 3280,
      "cy": 3281,
      "line": 3282,
      "ering": 3283,
      "▁cop": 3284,
      "▁president": 3285,
      "▁Cr": 3286,
      "▁it?\"\n": 3287,
      "▁that.": 3288,
      "elly": 3289,
      "▁sets": 3290,
      "▁wheel": 3291,
      "▁bill": 3292,
      "▁breat": 3293,
      "▁ma": 3294,
      "▁Pri": 3295,
      "▁up.\"\n": 3296,
      "▁up]\"\n": 3297,
      "▁cannot": 3298,
      "▁chance": 3299,
      "anger": 3300,
      "▁flo": 3301,
      "▁produc": 3302,
      "▁prom": 3303,
      "▁Ike,": 3304,
      "▁Clerk": 3305,
      "▁welcome": 3306,
      "Dud": 3307,
      "aff": 3308,
      "inc": 3309,
      "arc": 3310,
      "ing]\"\n": 3311,
      "▁Cru": 3312,
      "▁Sec": 3313,
      "▁To": 3314,
      "olid": 3315,
      "▁Cartman,You": 3316,
      "▁Farm": 3317,
      "▁away]\n": 3318,
      "▁blue": 3319,
      "▁stopp": 3320,
      "▁moving": 3321,
      "unny": 3322,
      "▁turd": 3323,
      "▁Colorado": 3324,
      "-y": 3325,
      "haps": 3326,
      "▁and,": 3327,
      "▁pans": 3328,
      "▁pleas": 3329,
      "▁lose": 3330,
      "ett": 3331,
      "▁Kyle!": 3332,
      ".[c": 3333,
      "▁Police": 3334,
      "▁Am": 3335,
      "▁Nic": 3336,
      "▁Hey,": 3337,
      "▁save": 3338,
      "▁good,": 3339,
      "▁Driver": 3340,
      ".]\n": 3341,
      "aos": 3342,
      "view": 3343,
      "▁sigh": 3344,
      "▁ble": 3345,
      "▁gentle": 3346,
      "▁pir": 3347,
      "▁Super": 3348,
      "▁Day": 3349,
      "▁over,": 3350,
      "Cartman,": 3351,
      "Hello": 3352,
      "gl": 3353,
      "iving": 3354,
      "mp": 3355,
      "ze": 3356,
      "▁burn": 3357,
      "▁backs": 3358,
      ",\"Uh,": 3359,
      "▁poop": 3360,
      "▁Okay": 3361,
      "▁ext": 3362,
      "▁disc": 3363,
      "ighbor": 3364,
      "▁leads": 3365,
      "▁caf": 3366,
      "▁chicken": 3367,
      "▁reveal": 3368,
      "]Yeah,": 3369,
      "erv": 3370,
      "arch": 3371,
      "▁cars": 3372,
      "▁cup": 3373,
      "▁too,": 3374,
      "orry": 3375,
      "▁la": 3376,
      "▁nin": 3377,
      "▁number": 3378,
      "al,": 3379,
      "▁less": 3380,
      "ular": 3381,
      "▁phot": 3382,
      "▁Scout": 3383,
      "▁Announcer,": 3384,
      "▁hours": 3385,
      "▁Mysterion": 3386,
      "!)\n": 3387,
      "-damn": 3388,
      "bl": 3389,
      "over": 3390,
      "▁mountain": 3391,
      "orge": 3392,
      "▁Min": 3393,
      "▁gold": 3394,
      "▁Dis": 3395,
      "▁Le": 3396,
      "▁Ed": 3397,
      "▁us.": 3398,
      "▁around.": 3399,
      "aughter": 3400,
      "▁closer": 3401,
      "▁restaur": 3402,
      "▁system": 3403,
      "▁gathered": 3404,
      "what": 3405,
      "▁wear": 3406,
      "▁Please": 3407,
      "pper": 3408,
      "▁Cartman,\"No,": 3409,
      "▁Crabt": 3410,
      "▁finds": 3411,
      "uddenly": 3412,
      "vin'": 3413,
      "▁8": 3414,
      "▁sad": 3415,
      "leg": 3416,
      "▁tor": 3417,
      "▁pot": 3418,
      "▁principal": 3419,
      "ashing": 3420,
      "▁it?\n": 3421,
      "▁rush": 3422,
      "▁story": 3423,
      "▁Ab": 3424,
      "irit": 3425,
      "▁right?\"\n": 3426,
      "ation.": 3427,
      "▁putting": 3428,
      "▁realize": 3429,
      "▁Tegridy": 3430,
      "▁fellas": 3431,
      "▁silent": 3432,
      "▁cafeter": 3433,
      "Jimm": 3434,
      "ls": 3435,
      "uses": 3436,
      "oo,": 3437,
      "▁doin'": 3438,
      "▁These": 3439,
      "starts": 3440,
      "▁bod": 3441,
      "▁Other": 3442,
      "▁works": 3443,
      "▁spee": 3444,
      "▁truth": 3445,
      "▁Eric.": 3446,
      "ammad": 3447,
      "▁strong": 3448,
      "▁morning": 3449,
      "▁Boys,": 3450,
      "?\"\"": 3451,
      "lead": 3452,
      "▁Brad": 3453,
      "▁rain": 3454,
      "▁Hu": 3455,
      "oph": 3456,
      "▁Right": 3457,
      "▁Stotch": 3458,
      "▁YOU": 3459,
      "▁concer": 3460,
      "]You're": 3461,
      "appears": 3462,
      "▁reporter": 3463,
      "▁County": 3464,
      "bb": 3465,
      "eed": 3466,
      "▁books": 3467,
      "▁green": 3468,
      "▁you'd": 3469,
      "▁this.": 3470,
      "▁too.\"\n": 3471,
      "▁weeks": 3472,
      "▁Keep": 3473,
      "▁Mexican": 3474,
      "Bo": 3475,
      "]Well": 3476,
      "can": 3477,
      "ray": 3478,
      "rup": 3479,
      "vent": 3480,
      "▁sou": 3481,
      "ar,": 3482,
      "le.": 3483,
      "▁gh": 3484,
      "▁City": 3485,
      "▁low": 3486,
      "▁forg": 3487,
      "▁me.\n": 3488,
      "▁Earth": 3489,
      "▁flash": 3490,
      "rence": 3491,
      "▁keeps": 3492,
      "▁3,": 3493,
      "▁McDaniels,": 3494,
      "▁position": 3495,
      "AS": 3496,
      "Pig": 3497,
      "▁wien": 3498,
      "ers.": 3499,
      "▁mach": 3500,
      "▁I...": 3501,
      "▁late": 3502,
      "▁beaut": 3503,
      "▁do.": 3504,
      "▁short": 3505,
      "elcome": 3506,
      "▁allow": 3507,
      "ains": 3508,
      "▁above": 3509,
      "▁vo": 3510,
      "▁people,": 3511,
      "▁everywhere": 3512,
      "angs": 3513,
      "▁exactly": 3514,
      "ocket": 3515,
      "▁fourth": 3516,
      "▁train": 3517,
      "BearPig": 3518,
      "Are": 3519,
      "Damn": 3520,
      "Out": 3521,
      "]No": 3522,
      "hu": 3523,
      "on.": 3524,
      "▁budd": 3525,
      "▁mir": 3526,
      "▁Crowd": 3527,
      "ald": 3528,
      "Wend": 3529,
      "▁time.\"\n": 3530,
      "▁Sharon,\"": 3531,
      "▁prep": 3532,
      "▁meeting": 3533,
      "▁dinner": 3534,
      "▁battle": 3535,
      "]Dude,": 3536,
      "but": 3537,
      "▁Yeah,": 3538,
      "anch": 3539,
      "▁wish": 3540,
      "ically": 3541,
      "▁Per": 3542,
      "▁Gay": 3543,
      "![Kyle": 3544,
      "▁kne": 3545,
      "olks": 3546,
      "▁places": 3547,
      "▁showing": 3548,
      "ploy": 3549,
      "▁Announcer": 3550,
      "▁raises": 3551,
      "▁touch": 3552,
      "▁completely": 3553,
      "er.\"\n": 3554,
      "▁you!\n": 3555,
      "idence": 3556,
      "irty": 3557,
      "rah": 3558,
      "▁,\"H": 3559,
      "▁right!": 3560,
      "ift": 3561,
      "▁,Stan": 3562,
      "▁Stop": 3563,
      "▁seeing": 3564,
      "?[s": 3565,
      "▁secret": 3566,
      "▁babies": 3567,
      "▁minute": 3568,
      "▁Pete": 3569,
      "y.\n": 3570,
      "▁nose": 3571,
      "▁hist": 3572,
      "▁are,": 3573,
      "▁neck": 3574,
      "Then": 3575,
      "▁ago": 3576,
      "▁Kyle,\"You": 3577,
      "▁\"\"I": 3578,
      "▁Garrison's": 3579,
      "▁watches": 3580,
      "▁Terrance,": 3581,
      "▁perfect": 3582,
      "▁Carol": 3583,
      "▁member": 3584,
      "band": 3585,
      "ges": 3586,
      "enag": 3587,
      "▁Cupid": 3588,
      "▁Tu": 3589,
      "iding": 3590,
      "▁rece": 3591,
      "▁shall": 3592,
      "▁go.": 3593,
      "▁Fl": 3594,
      "▁say,": 3595,
      "▁happens": 3596,
      "▁continue": 3597,
      "▁Conn": 3598,
      "-O": 3599,
      "LL": 3600,
      "]No,": 3601,
      "laugh": 3602,
      "▁fill": 3603,
      "idel": 3604,
      "▁Bri": 3605,
      "rif": 3606,
      "▁,\"D": 3607,
      "▁Frid": 3608,
      "▁but,": 3609,
      "berry": 3610,
      "olly": 3611,
      "avor": 3612,
      "▁plane": 3613,
      "▁asked": 3614,
      "▁Qu": 3615,
      "▁Nichole": 3616,
      "▁speech": 3617,
      "]U": 3618,
      "reaches": 3619,
      "▁pol": 3620,
      "▁Mike": 3621,
      "▁hey,": 3622,
      "▁Ben": 3623,
      "▁star": 3624,
      "▁Nobody": 3625,
      "overed": 3626,
      "▁10": 3627,
      ",\"If": 3628,
      "▁project": 3629,
      "▁crack": 3630,
      "alent": 3631,
      "▁singing": 3632,
      "▁Priest": 3633,
      "▁bri": 3634,
      ",\"This": 3635,
      "▁mass": 3636,
      "▁luck": 3637,
      "ided": 3638,
      "ili": 3639,
      "▁,T": 3640,
      "▁there.\"\n": 3641,
      "▁vagin": 3642,
      "▁Stephen,": 3643,
      "▁Shelly,": 3644,
      "▁basement": 3645,
      "▁month": 3646,
      "ighborhood": 3647,
      "]and": 3648,
      "for": 3649,
      "▁tape": 3650,
      "▁a-": 3651,
      "▁birth": 3652,
      "▁cir": 3653,
      "▁mur": 3654,
      "▁Ske": 3655,
      "▁that?": 3656,
      "▁reg": 3657,
      "▁Dick": 3658,
      "▁Lad": 3659,
      "▁anyway": 3660,
      "▁dude.\"\n": 3661,
      "▁straight": 3662,
      "▁Tuong": 3663,
      "yl": 3664,
      "▁treat": 3665,
      "▁bike": 3666,
      "▁cart": 3667,
      "▁and...": 3668,
      "▁pant": 3669,
      "ed]\"\n": 3670,
      "▁what?": 3671,
      "iling": 3672,
      "emb": 3673,
      "throws": 3674,
      "▁sorry.": 3675,
      "▁,South": 3676,
      "▁imagin": 3677,
      "annel": 3678,
      "▁Obama": 3679,
      "▁television": 3680,
      "▁typ": 3681,
      "ana": 3682,
      "▁sun": 3683,
      ",\"Mr.": 3684,
      "enter,": 3685,
      "orld": 3686,
      "▁on.\"\n": 3687,
      "▁unc": 3688,
      "urg": 3689,
      "▁shop": 3690,
      "ilt": 3691,
      "▁official": 3692,
      "]They": 3693,
      "▁killing": 3694,
      "▁zoom": 3695,
      "▁restaurant": 3696,
      "Ike": 3697,
      "Sc": 3698,
      "ah,": 3699,
      "gest": 3700,
      "top": 3701,
      "▁ban": 3702,
      "▁bomb": 3703,
      "▁mad": 3704,
      "▁rub": 3705,
      "▁rushes": 3706,
      "▁doorbell": 3707,
      "▁flies": 3708,
      "▁exit": 3709,
      ",\"It": 3710,
      "▁write": 3711,
      "▁feeling": 3712,
      "AAAAAAAA": 3713,
      "Sharon": 3714,
      "▁fault": 3715,
      "drops": 3716,
      "atch": 3717,
      "▁Bon": 3718,
      "![h": 3719,
      "enty": 3720,
      "elp": 3721,
      "s.]\"\n": 3722,
      "▁Stan,\"Oh,": 3723,
      "▁Stre": 3724,
      "▁man.": 3725,
      "berg": 3726,
      "rench": 3727,
      "]Do": 3728,
      "▁destroy": 3729,
      "It": 3730,
      "h!\n": 3731,
      "▁sle": 3732,
      "▁mons": 3733,
      "▁roof": 3734,
      "▁Par": 3735,
      "![\"\"": 3736,
      "▁Stan,\"You": 3737,
      "▁agents": 3738,
      "rince": 3739,
      "anket": 3740,
      "▁Inside,": 3741,
      "Butters'": 3742,
      "▁Dad,": 3743,
      "▁locker": 3744,
      "▁football": 3745,
      "▁epis": 3746,
      "ET": 3747,
      "ring": 3748,
      "voice": 3749,
      "yard": 3750,
      "onon": 3751,
      ",\"He": 3752,
      "▁case": 3753,
      "▁crew": 3754,
      "ess,": 3755,
      "▁loc": 3756,
      "ushing": 3757,
      "gh!": 3758,
      ".[f": 3759,
      "▁Cartman,\"H": 3760,
      "rises": 3761,
      "▁sol": 3762,
      "▁Stan,We": 3763,
      "▁her,": 3764,
      "▁worry": 3765,
      "Butters,": 3766,
      "▁good.": 3767,
      "rincess": 3768,
      "▁cons": 3769,
      "closes": 3770,
      "▁dollar": 3771,
      ",\"Now,": 3772,
      "▁priv": 3773,
      "▁Towns": 3774,
      "▁beautiful": 3775,
      "rushes": 3776,
      "itches": 3777,
      "▁Mus": 3778,
      "▁one,": 3779,
      "▁it]\"\n": 3780,
      "▁stor": 3781,
      "▁joins": 3782,
      "▁out.\"\n": 3783,
      "▁level": 3784,
      "▁sub": 3785,
      "▁vol": 3786,
      "ies.": 3787,
      "▁school,": 3788,
      "▁pract": 3789,
      "play": 3790,
      "▁okay?": 3791,
      "Whoa,": 3792,
      "▁protest": 3793,
      "▁Grandpa": 3794,
      "▁George": 3795,
      "▁tosses": 3796,
      "fully": 3797,
      "-n": 3798,
      "ON": 3799,
      "s!\"\n": 3800,
      "tin'": 3801,
      "ane": 3802,
      "▁holid": 3803,
      "▁foc": 3804,
      "▁farts": 3805,
      "▁main": 3806,
      "artment": 3807,
      "edy": 3808,
      "▁Mims": 3809,
      "oops": 3810,
      "alth": 3811,
      "▁round": 3812,
      "chair": 3813,
      "▁out]\"\n": 3814,
      "▁me!\"\n": 3815,
      "▁right?": 3816,
      "▁Kyle,\"A": 3817,
      "▁blows": 3818,
      "▁girlfriend": 3819,
      "]How": 3820,
      "shows": 3821,
      "iously": 3822,
      "▁inside.": 3823,
      "ucks": 3824,
      "]Now": 3825,
      "▁except": 3826,
      "▁words": 3827,
      "▁event": 3828,
      "ientist": 3829,
      "-sh": 3830,
      "]Uh,": 3831,
      "mo": 3832,
      "wear": 3833,
      ",\"Don't": 3834,
      "▁thro": 3835,
      "▁upon": 3836,
      "▁lets": 3837,
      "sees": 3838,
      "▁now.\n": 3839,
      "▁Chaos": 3840,
      "▁wait,": 3841,
      "▁planet": 3842,
      "Huh?\n": 3843,
      "▁douche": 3844,
      ".[hands": 3845,
      "▁instead": 3846,
      "how": 3847,
      "men,": 3848,
      "ine.": 3849,
      "▁chat": 3850,
      "▁folks": 3851,
      "▁mark": 3852,
      "ass.": 3853,
      "▁Boo": 3854,
      "▁rac": 3855,
      "▁Have": 3856,
      "![t": 3857,
      "▁Daw": 3858,
      "▁Cartman,\"Dude,": 3859,
      "▁guest": 3860,
      ",[s": 3861,
      "]God": 3862,
      "▁Guy": 3863,
      "▁Guard": 3864,
      "▁Towelie,": 3865,
      "▁forever": 3866,
      "▁ridic": 3867,
      "▁Russell": 3868,
      "AH": 3869,
      "kins": 3870,
      "lie": 3871,
      "it!": 3872,
      "▁press": 3873,
      "▁Mur": 3874,
      "▁emb": 3875,
      "amily": 3876,
      "▁Hill": 3877,
      "▁up!": 3878,
      "![f": 3879,
      "raig": 3880,
      "▁asleep": 3881,
      "▁Cartman,\"Okay,": 3882,
      "▁church": 3883,
      "▁spread": 3884,
      "▁ourselves": 3885,
      "er,[": 3886,
      "▁prog": 3887,
      "▁somethin'": 3888,
      "▁glad": 3889,
      "▁calling": 3890,
      "▁milk": 3891,
      "]Uh": 3892,
      ",\"Look,": 3893,
      "▁her.": 3894,
      "ache": 3895,
      "▁gotten": 3896,
      "▁comment": 3897,
      "]Hello": 3898,
      "▁turned": 3899,
      "▁following": 3900,
      "▁broke": 3901,
      "▁Kids,": 3902,
      "sych": 3903,
      "S.": 3904,
      "a.\n": 3905,
      "ced": 3906,
      "ise,": 3907,
      "▁cook": 3908,
      "▁custom": 3909,
      "▁dem": 3910,
      "▁lowers": 3911,
      "▁react": 3912,
      "▁repl": 3913,
      "▁upst": 3914,
      "▁boat": 3915,
      "▁Field": 3916,
      "▁spend": 3917,
      "▁exper": 3918,
      "]So": 3919,
      "appy": 3920,
      ".[she": 3921,
      "▁Hankey,": 3922,
      "▁booth": 3923,
      "▁certainly": 3924,
      "▁clothes": 3925,
      "Cause": 3926,
      "ci": 3927,
      "itter": 3928,
      "▁dam": 3929,
      "▁pool": 3930,
      "▁Sch": 3931,
      "edi": 3932,
      "▁Wall": 3933,
      "▁us.\"\n": 3934,
      "▁agre": 3935,
      "ulf": 3936,
      "▁smok": 3937,
      "▁longer": 3938,
      "]There": 3939,
      "▁passes": 3940,
      "!\"\"\"\n": 3941,
      "RE": 3942,
      "ivers": 3943,
      "reidel": 3944,
      "▁hipp": 3945,
      "ity.": 3946,
      "▁Sw": 3947,
      "▁loud": 3948,
      "ached": 3949,
      "man,": 3950,
      ".[M": 3951,
      ".[looks": 3952,
      "ummer": 3953,
      "▁trash": 3954,
      "▁sometimes": 3955,
      "▁Comm": 3956,
      "▁Hallow": 3957,
      "▁corp": 3958,
      "▁nearby": 3959,
      "▁iP": 3960,
      "fessor": 3961,
      "s]\n": 3962,
      "▁hole": 3963,
      "▁cash": 3964,
      "▁fingers": 3965,
      "▁you?": 3966,
      "al.": 3967,
      "▁R.": 3968,
      "▁Jakov": 3969,
      "▁neighborhood": 3970,
      "▁all,": 3971,
      "ored": 3972,
      "▁,Mr.": 3973,
      "▁alarm": 3974,
      "▁becom": 3975,
      "ING": 3976,
      "▁McCorm": 3977,
      "▁film": 3978,
      "Dad,": 3979,
      "gly": 3980,
      "▁tank": 3981,
      "▁ah": 3982,
      "ounce": 3983,
      ",\"Uh": 3984,
      "▁fif": 3985,
      "icop": 3986,
      "using": 3987,
      "▁,\"Kyle's": 3988,
      "▁Kyle,\"Well,": 3989,
      "ulhu": 3990,
      "▁kids.": 3991,
      "thulhu": 3992,
      "▁block": 3993,
      "▁Park.": 3994,
      "▁Another": 3995,
      "lyde": 3996,
      "]Wait": 3997,
      "▁Phil": 3998,
      "▁driving": 3999,
      "▁happening": 4000,
      "oved": 4001,
      "]What's": 4002,
      "▁fatass": 4003,
      "▁Stevens": 4004,
      "oohoo": 4005,
      "▁corner": 4006,
      "▁sandw": 4007,
      "'am": 4008,
      "aven": 4009,
      "gt.": 4010,
      "kn": 4011,
      "ishes": 4012,
      ",\"...": 4013,
      "itar": 4014,
      "▁pod": 4015,
      "▁lap": 4016,
      "asure": 4017,
      "▁that.\"\n": 4018,
      "▁note": 4019,
      "▁now!\"\n": 4020,
      "▁Kenny.": 4021,
      "▁art": 4022,
      "▁outside.": 4023,
      "▁minutes": 4024,
      "arryl": 4025,
      ",M": 4026,
      "11": 4027,
      "IS": 4028,
      "hehe": 4029,
      "arious": 4030,
      "isand": 4031,
      "▁cold": 4032,
      "▁during": 4033,
      "▁farm": 4034,
      "gh,": 4035,
      "▁weed": 4036,
      "▁we'd": 4037,
      "▁self": 4038,
      "ickly": 4039,
      "▁here.\n": 4040,
      "▁clap": 4041,
      "▁spot": 4042,
      "▁God.": 4043,
      "hhh,": 4044,
      "▁worked": 4045,
      "▁tech": 4046,
      "▁Yates,": 4047,
      "▁bigger": 4048,
      "▁final": 4049,
      "▁homeless": 4050,
      "clud": 4051,
      "▁support": 4052,
      "▁calm": 4053,
      "]Here": 4054,
      "Shut": 4055,
      "▁bottle": 4056,
      "▁throat": 4057,
      "Chef": 4058,
      "go": 4059,
      "uy": 4060,
      "uce": 4061,
      "▁'m": 4062,
      ",\"\"\"": 4063,
      "enri": 4064,
      "▁pul": 4065,
      "▁School": 4066,
      "▁los": 4067,
      "otes": 4068,
      "ider": 4069,
      "▁rat": 4070,
      ".[gets": 4071,
      "What?": 4072,
      "What?\n": 4073,
      "▁worse": 4074,
      "▁spirit": 4075,
      "▁school.": 4076,
      "▁brings": 4077,
      "▁coat": 4078,
      "▁Clin": 4079,
      ",\"You're": 4080,
      ".[puts": 4081,
      "▁Ellen": 4082,
      "CK": 4083,
      "[a": 4084,
      "jumps": 4085,
      "wood": 4086,
      "▁ign": 4087,
      "▁waves": 4088,
      "orth": 4089,
      "▁See": 4090,
      "▁King": 4091,
      "▁it![": 4092,
      "▁speaks": 4093,
      "▁everyone,": 4094,
      "]Alright,": 4095,
      "▁ManBearPig": 4096,
      "▁well.": 4097,
      "▁lots": 4098,
      "▁shown,": 4099,
      "▁sir.": 4100,
      "▁emp": 4101,
      "▁respect": 4102,
      "▁Hankey,\"": 4103,
      "▁home,": 4104,
      "▁counter": 4105,
      "Everyone": 4106,
      "e.\"\n": 4107,
      "folk": 4108,
      ",\"Hey": 4109,
      "▁favor": 4110,
      "▁port": 4111,
      "▁Cartman.\"\n": 4112,
      "▁do?\n": 4113,
      "▁me!\n": 4114,
      "▁robot": 4115,
      "▁ord": 4116,
      "▁helicop": 4117,
      "▁friend,": 4118,
      "▁amazing": 4119,
      "▁Friday": 4120,
      "Be": 4121,
      "EN": 4122,
      "ned": 4123,
      "ree,": 4124,
      "ites": 4125,
      "▁Time": 4126,
      "▁stool": 4127,
      "▁Fuck": 4128,
      "ummy": 4129,
      "▁button": 4130,
      "▁agree": 4131,
      "Oh.": 4132,
      "▁alive": 4133,
      "▁Child": 4134,
      "omething": 4135,
      "ship": 4136,
      "▁drives": 4137,
      "▁excuse": 4138,
      "▁excited": 4139,
      "▁crazy": 4140,
      "▁Kids": 4141,
      "iju": 4142,
      "-A": 4143,
      "AM": 4144,
      "IT": 4145,
      "When": 4146,
      "n,": 4147,
      "rick": 4148,
      "▁av": 4149,
      "▁hide": 4150,
      "▁cake": 4151,
      "▁female": 4152,
      "ench": 4153,
      "▁Ser": 4154,
      "▁Sgt.": 4155,
      "ay!\n": 4156,
      "▁in.\"\n": 4157,
      "▁rap": 4158,
      "▁effect": 4159,
      ".[Randy": 4160,
      "ight,": 4161,
      "▁kicks": 4162,
      "urger": 4163,
      "▁ant": 4164,
      "▁Joe": 4165,
      "ility": 4166,
      "▁Stan,You": 4167,
      "▁Stan,\"Well,": 4168,
      "▁vi": 4169,
      "▁again.\n": 4170,
      "▁again]\"\n": 4171,
      "thinks": 4172,
      "▁track": 4173,
      "▁among": 4174,
      ",\"Hello,": 4175,
      "▁respons": 4176,
      "▁ruin": 4177,
      "▁Next,": 4178,
      "▁shooting": 4179,
      "▁costume": 4180,
      "▁zooms": 4181,
      "▁'member": 4182,
      "-uh": 4183,
      "]R": 4184,
      "]Y": 4185,
      "king": 4186,
      "▁base": 4187,
      "▁hop": 4188,
      "orry,": 4189,
      "us,": 4190,
      "▁App": 4191,
      "▁ups": 4192,
      "▁seven": 4193,
      "...]\"\n": 4194,
      "▁him]\n": 4195,
      "▁Cartman,\"M": 4196,
      "▁Nurse": 4197,
      "▁see?": 4198,
      "ucker": 4199,
      ",[p": 4200,
      "▁Butters,\"Well,": 4201,
      "▁breaks": 4202,
      "▁Marsh,": 4203,
      "▁asking": 4204,
      "▁terrible": 4205,
      "-Mart": 4206,
      "For": 4207,
      "cent": 4208,
      "fort": 4209,
      "iod": 4210,
      "ken": 4211,
      "tim": 4212,
      "▁cre": 4213,
      ".[leaves": 4214,
      "![c": 4215,
      "▁Jon": 4216,
      "▁Jared": 4217,
      "▁Cartman,\"S": 4218,
      "▁nothin'": 4219,
      "▁Op": 4220,
      "▁Weather": 4221,
      "▁Hey": 4222,
      "▁,M": 4223,
      "▁worry,": 4224,
      "▁vacc": 4225,
      "ulous": 4226,
      "▁Charl": 4227,
      "▁everybod": 4228,
      "onde": 4229,
      "▁trick": 4230,
      "▁way.": 4231,
      "▁distance": 4232,
      "▁writing": 4233,
      "▁town.": 4234,
      "▁office.": 4235,
      "▁deser": 4236,
      "▁yeah.": 4237,
      "▁angrily": 4238,
      "▁employ": 4239,
      "▁strike": 4240,
      "ergart": 4241,
      "▁possible": 4242,
      "Outside": 4243,
      "do": 4244,
      ",\"U": 4245,
      "▁nat": 4246,
      "as,": 4247,
      "▁stair": 4248,
      ".[The": 4249,
      "▁Darryl": 4250,
      ",\"[in": 4251,
      "▁,\"N": 4252,
      "▁Cartman,\"Hey,": 4253,
      "▁Elderly": 4254,
      "ument": 4255,
      "▁Stan,\"Oh": 4256,
      "▁now!": 4257,
      "▁day.\"\n": 4258,
      "▁Randy,\"Yeah,": 4259,
      "▁oper": 4260,
      "▁Vamp": 4261,
      "▁sidewalk": 4262,
      "▁Blain": 4263,
      "▁fighting": 4264,
      "▁course,": 4265,
      "▁dining": 4266,
      "▁graders": 4267,
      "▁charac": 4268,
      "▁gym": 4269,
      "▁ninj": 4270,
      "]Yes,": 4271,
      "a's": 4272,
      "aul": 4273,
      "gar": 4274,
      "week": 4275,
      "rel": 4276,
      "er.\n": 4277,
      "ary.": 4278,
      "▁bul": 4279,
      "▁bik": 4280,
      "▁fires": 4281,
      "cha": 4282,
      "rig": 4283,
      "▁Dire": 4284,
      "\"\".\"\n": 4285,
      "roud": 4286,
      "▁Kyle,We": 4287,
      "▁here?\n": 4288,
      "▁they've": 4289,
      "▁saf": 4290,
      "▁left,": 4291,
      ",It": 4292,
      "▁cough": 4293,
      "▁feet": 4294,
      "▁said,": 4295,
      ".[sm": 4296,
      ".[pulls": 4297,
      "▁twenty": 4298,
      "▁seriously": 4299,
      "▁paj": 4300,
      "Gerald": 4301,
      "▁tem": 4302,
      "▁host": 4303,
      "ite,": 4304,
      "▁cab": 4305,
      "▁ones": 4306,
      "▁is...": 4307,
      ".[d": 4308,
      "urday": 4309,
      ",\"[f": 4310,
      "▁,\"He": 4311,
      "aked": 4312,
      "▁Est": 4313,
      "ipes": 4314,
      "▁Female": 4315,
      "▁here's": 4316,
      "▁they'll": 4317,
      "▁over.": 4318,
      "▁worth": 4319,
      "iled": 4320,
      "▁boys'": 4321,
      "▁biggest": 4322,
      "▁President,": 4323,
      "▁ends": 4324,
      "▁minute.": 4325,
      "ologram": 4326,
      "▁Thomps": 4327,
      "▁priest": 4328,
      "IDS": 4329,
      "▁holiday": 4330,
      "▁Halloween": 4331,
      "▁McCormick": 4332,
      "WES": 4333,
      "book": 4334,
      "▁tired": 4335,
      "▁caught": 4336,
      "▁ris": 4337,
      "▁elect": 4338,
      "▁that?\"\n": 4339,
      "▁up.\n": 4340,
      "▁area": 4341,
      "▁Jers": 4342,
      "\"\",": 4343,
      "▁,\"Butters'": 4344,
      "▁Like": 4345,
      "▁backyard": 4346,
      "▁Cartman,A": 4347,
      "way,": 4348,
      "▁First": 4349,
      "▁Stan,\"Come": 4350,
      "▁them]\"\n": 4351,
      "▁succ": 4352,
      "▁eng": 4353,
      "▁Any": 4354,
      "▁York": 4355,
      ",\"Good": 4356,
      "▁smiles": 4357,
      "▁Frank": 4358,
      "▁simple": 4359,
      "▁simply": 4360,
      "▁Friends": 4361,
      "▁machine": 4362,
      "▁Brian": 4363,
      "WESOM": 4364,
      "iw": 4365,
      "iers": 4366,
      "hee": 4367,
      "▁Center,": 4368,
      "▁Sold": 4369,
      "▁inform": 4370,
      "▁is.": 4371,
      "▁Budd": 4372,
      ".[\"\"": 4373,
      ".[Butters": 4374,
      "▁Prince": 4375,
      "▁plat": 4376,
      "▁\"\"S": 4377,
      "?[p": 4378,
      "]If": 4379,
      "▁chest": 4380,
      "▁hello": 4381,
      "▁key": 4382,
      "▁laughing": 4383,
      "▁changes": 4384,
      "▁surround": 4385,
      "▁dude!": 4386,
      "▁curtain": 4387,
      "▁Professor": 4388,
      "▁Timmy,Timm": 4389,
      "Wendy": 4390,
      "WESOM-O": 4391,
      ",And": 4392,
      "a!\n": 4393,
      "eal": 4394,
      "ror": 4395,
      "ous.": 4396,
      "▁sat": 4397,
      ",\"No": 4398,
      "▁har": 4399,
      "▁page": 4400,
      "▁Cat": 4401,
      "▁I-": 4402,
      "usp": 4403,
      "▁Mart": 4404,
      "▁Male": 4405,
      "▁stom": 4406,
      "▁Home": 4407,
      "▁sea": 4408,
      "▁notice": 4409,
      "▁French": 4410,
      "ific": 4411,
      "vest": 4412,
      "▁no.": 4413,
      "▁Man,": 4414,
      "▁weren't": 4415,
      "errance": 4416,
      "heads": 4417,
      "]We're": 4418,
      "]My": 4419,
      "Okay.": 4420,
      "▁dancing": 4421,
      "▁basketball": 4422,
      "▁empty": 4423,
      "ding": 4424,
      "lin": 4425,
      "low": 4426,
      "pok": 4427,
      "y!\n": 4428,
      "▁warm": 4429,
      "er's": 4430,
      "▁bench": 4431,
      "▁cult": 4432,
      "enger": 4433,
      "▁poo": 4434,
      "omin": 4435,
      "▁lay": 4436,
      "ica": 4437,
      ".[l": 4438,
      "▁Air": 4439,
      "▁Ry": 4440,
      "▁go.\"\n": 4441,
      "▁this!": 4442,
      "▁Cartman,\"E": 4443,
      "▁here!\"\n": 4444,
      "▁apparent": 4445,
      "▁queef": 4446,
      "ah!": 4447,
      "▁UP": 4448,
      "▁crit": 4449,
      "▁security": 4450,
      "▁breast": 4451,
      "a-a-": 4452,
      "▁catches": 4453,
      "▁parking": 4454,
      "▁hanging": 4455,
      "▁decided": 4456,
      "▁horrible": 4457,
      "▁explain": 4458,
      "▁gasp": 4459,
      "▁Streisand": 4460,
      "▁podium": 4461,
      "Craig": 4462,
      "ext": 4463,
      "hh,": 4464,
      "i.": 4465,
      "oh,": 4466,
      "su": 4467,
      "that": 4468,
      "▁drag": 4469,
      "▁danger": 4470,
      "▁mist": 4471,
      "▁mine": 4472,
      "▁psych": 4473,
      "▁lim": 4474,
      "▁includ": 4475,
      "▁Mill": 4476,
      ".[g": 4477,
      "▁Pe": 4478,
      "▁shad": 4479,
      "▁,Kyle": 4480,
      "▁charge": 4481,
      "itten": 4482,
      "▁Randy,\"I": 4483,
      "anson": 4484,
      "▁Yes,": 4485,
      "]Why": 4486,
      "▁perform": 4487,
      "▁period": 4488,
      "Randy,": 4489,
      ",\"My": 4490,
      "▁morning.": 4491,
      "▁Produc": 4492,
      ",\"Eric,": 4493,
      "▁apolog": 4494,
      "▁ticket": 4495,
      "▁brief": 4496,
      "▁monster": 4497,
      "▁Director": 4498,
      "cher": 4499,
      "hic": 4500,
      "lar": 4501,
      "me": 4502,
      "▁hus": 4503,
      "▁cred": 4504,
      "▁tooth": 4505,
      "▁Cher": 4506,
      "▁health": 4507,
      "▁heaven": 4508,
      "iden": 4509,
      "▁beh": 4510,
      "▁weap": 4511,
      "▁Gi": 4512,
      "▁DO": 4513,
      "▁this?": 4514,
      "raises": 4515,
      "▁,\"In": 4516,
      "ifts": 4517,
      "abs": 4518,
      "▁whis": 4519,
      "quart": 4520,
      "quickly": 4521,
      "▁people.": 4522,
      "▁anywhere": 4523,
      "▁playground": 4524,
      ",\"Alright": 4525,
      "▁brown": 4526,
      "▁Heidi,": 4527,
      "▁Saturday": 4528,
      "OOOO": 4529,
      "rolls": 4530,
      "eption": 4531,
      "▁apart": 4532,
      "▁counsel": 4533,
      "▁cafeteria": 4534,
      "▁Wall-Mart": 4535,
      "AL": 4536,
      "]Mr.": 4537,
      "col": 4538,
      "house": 4539,
      "just": 4540,
      "nn": 4541,
      "tt": 4542,
      "▁talks": 4543,
      "another": 4544,
      "▁cas": 4545,
      "▁puss": 4546,
      "▁thr": 4547,
      "▁station": 4548,
      "▁do.\"\n": 4549,
      "▁me?\n": 4550,
      "aah": 4551,
      "▁scen": 4552,
      "▁head,": 4553,
      "▁table,": 4554,
      "▁table.": 4555,
      "okes": 4556,
      "▁famil": 4557,
      ",What?\n": 4558,
      "]Get": 4559,
      "▁skin": 4560,
      "▁Americans": 4561,
      "▁image": 4562,
      "▁raise": 4563,
      "▁shoots": 4564,
      "!![": 4565,
      "gie": 4566,
      "s!\n": 4567,
      "writ": 4568,
      "▁suddenly": 4569,
      "▁games": 4570,
      "▁Crow": 4571,
      "asp": 4572,
      "otion": 4573,
      "▁Bar": 4574,
      "▁rese": 4575,
      "ell,": 4576,
      "▁Nell": 4577,
      "▁Ned,": 4578,
      "akin'": 4579,
      "▁Head": 4580,
      "?[a": 4581,
      "ure.": 4582,
      "▁20": 4583,
      "▁couch": 4584,
      "▁mean?\n": 4585,
      "▁compet": 4586,
      "▁home.": 4587,
      "▁studio": 4588,
      "ival": 4589,
      "]Now,": 4590,
      "▁huh?": 4591,
      "▁relax": 4592,
      "▁strikes": 4593,
      "▁message": 4594,
      "▁direction": 4595,
      "▁immedi": 4596,
      "▁finished": 4597,
      "▁Cruise": 4598,
      "▁Paris": 4599,
      "--": 4600,
      "Fuck": 4601,
      "ge,": 4602,
      "▁tear": 4603,
      "hel": 4604,
      "hell": 4605,
      "ism": 4606,
      "ised": 4607,
      "▁mis": 4608,
      "▁map": 4609,
      "▁Mor": 4610,
      "▁Aide": 4611,
      "▁jail": 4612,
      "▁notic": 4613,
      "isten": 4614,
      "becc": 4615,
      "▁player": 4616,
      "▁trust": 4617,
      "ensive": 4618,
      "▁Manag": 4619,
      "▁moved": 4620,
      "▁car,": 4621,
      "▁belong": 4622,
      "▁breaking": 4623,
      "▁crying": 4624,
      "▁horse": 4625,
      "screen": 4626,
      "while": 4627,
      "!!\"\n": 4628,
      "BC": 4629,
      "Qu": 4630,
      "eer": 4631,
      "ster": 4632,
      "▁bin": 4633,
      "▁hy": 4634,
      "▁daughter": 4635,
      "esy": 4636,
      "▁oh,": 4637,
      "▁yard": 4638,
      "▁proud": 4639,
      "▁Coll": 4640,
      "▁heav": 4641,
      "ids": 4642,
      "▁Cartman!\"\n": 4643,
      "▁Henri": 4644,
      "▁,P": 4645,
      "ist,": 4646,
      "▁other,": 4647,
      "▁kid,": 4648,
      "▁Randy,\"Oh": 4649,
      "▁guys.\"\n": 4650,
      "▁teeth": 4651,
      "▁compan": 4652,
      "]Sh": 4653,
      "▁sky": 4654,
      "▁Johnson": 4655,
      "▁respond": 4656,
      "▁choice": 4657,
      "▁monitor": 4658,
      "▁bottom": 4659,
      "▁place.": 4660,
      "▁birthday": 4661,
      "▁Skeet": 4662,
      "'kay,": 4663,
      "-e": 4664,
      "??\"\n": 4665,
      "Sp": 4666,
      "Tolkien": 4667,
      "cess": 4668,
      "giving": 4669,
      "ins,": 4670,
      "erman": 4671,
      "istant": 4672,
      "▁public": 4673,
      "▁Sand": 4674,
      "▁Kell": 4675,
      "▁rich": 4676,
      "▁urin": 4677,
      "▁Peter": 4678,
      "![Butters": 4679,
      "▁out!": 4680,
      "▁Don": 4681,
      "unte": 4682,
      "▁this.\"\n": 4683,
      "▁this?\n": 4684,
      "▁Stan,\"Hey,": 4685,
      "▁them.\n": 4686,
      "▁Randy,\"Well,": 4687,
      "▁arrest": 4688,
      "▁dise": 4689,
      "▁4,": 4690,
      "Yes!": 4691,
      "▁Boys": 4692,
      "**": 4693,
      "Family": 4694,
      "LE": 4695,
      "mark": 4696,
      "he's": 4697,
      ",\"D": 4698,
      "lets": 4699,
      "▁pand": 4700,
      "▁Cam": 4701,
      "etwork": 4702,
      "▁one.": 4703,
      "▁state": 4704,
      "▁stairs": 4705,
      ".[b": 4706,
      "osh": 4707,
      "![The": 4708,
      "▁likes": 4709,
      "▁all.": 4710,
      "cend": 4711,
      "▁Face": 4712,
      "▁spec": 4713,
      "ured": 4714,
      "▁wrote": 4715,
      ".[points": 4716,
      "▁burst": 4717,
      "▁further": 4718,
      "▁ghost": 4719,
      "▁wiener": 4720,
      "-ass": 4721,
      ".S.": 4722,
      "]That": 4723,
      "ube": 4724,
      "ous,": 4725,
      "▁wrest": 4726,
      "it.": 4727,
      "ess.": 4728,
      "▁you...": 4729,
      "▁weak": 4730,
      ".[begins": 4731,
      "▁Ha": 4732,
      "os,": 4733,
      "ently": 4734,
      "elt": 4735,
      "holes": 4736,
      "oney.": 4737,
      "▁know.\n": 4738,
      "▁look.": 4739,
      "▁other.": 4740,
      "▁Randy's": 4741,
      "▁checks": 4742,
      "order": 4743,
      "▁disapp": 4744,
      "▁covers": 4745,
      "▁sword": 4746,
      ",\"So": 4747,
      "rrrr": 4748,
      "▁Deck": 4749,
      "▁grade": 4750,
      "▁confused": 4751,
      "▁flying": 4752,
      "▁After": 4753,
      "▁yellow": 4754,
      "▁ma'am": 4755,
      "ek": 4756,
      "of": 4757,
      "▁swe": 4758,
      "▁susp": 4759,
      "▁bed,": 4760,
      "itive": 4761,
      "▁post": 4762,
      "ic,": 4763,
      "▁in]\"\n": 4764,
      "▁Tell": 4765,
      "▁Mall": 4766,
      "▁Muh": 4767,
      "▁World": 4768,
      "▁Gary": 4769,
      "▁Har": 4770,
      "![leaves": 4771,
      "▁Dr": 4772,
      "ion.\"\n": 4773,
      "▁Stan,A": 4774,
      "▁Kyle,\"No,": 4775,
      "▁\"\"H": 4776,
      "No.\n": 4777,
      "▁bright": 4778,
      "izes": 4779,
      "▁adv": 4780,
      "ancis": 4781,
      "unning": 4782,
      "umbles": 4783,
      "▁today.": 4784,
      "▁court": 4785,
      "▁Shelly,\"": 4786,
      "▁grab": 4787,
      "▁mariju": 4788,
      "▁Janet": 4789,
      "▁climbs": 4790,
      "▁oppos": 4791,
      "]K": 4792,
      "]Just": 4793,
      "gu": 4794,
      "y!\"\n": 4795,
      "▁sna": 4796,
      "eron": 4797,
      "▁coll": 4798,
      "▁covered": 4799,
      "▁male": 4800,
      "▁money,": 4801,
      "▁punches": 4802,
      "▁Mitch": 4803,
      ".[goes": 4804,
      "▁that...": 4805,
      "▁me?": 4806,
      "\"\".": 4807,
      ",\"[turns": 4808,
      "▁ass,": 4809,
      "str": 4810,
      "▁Cartman,\"I'm": 4811,
      "▁Butters.\"\n": 4812,
      "aitly": 4813,
      "▁Randy,\"A": 4814,
      "▁smell": 4815,
      "▁doing?\"\n": 4816,
      "▁Phillip,": 4817,
      "ipping": 4818,
      "▁broken": 4819,
      "▁turkey": 4820,
      "▁bastards": 4821,
      "▁Adams": 4822,
      "▁episode": 4823,
      "Now,": 4824,
      "iel": 4825,
      "race": 4826,
      "town": 4827,
      "▁tour": 4828,
      "▁cig": 4829,
      "▁dreidel": 4830,
      "▁fake": 4831,
      "▁mod": 4832,
      "▁gar": 4833,
      "enor": 4834,
      "▁Cthulhu": 4835,
      "omp": 4836,
      "▁Im": 4837,
      "▁nurse": 4838,
      "gh.": 4839,
      "▁Cartman!": 4840,
      "▁rally": 4841,
      "▁equ": 4842,
      "ammer": 4843,
      "▁Hinds": 4844,
      "![M": 4845,
      "▁Jacks": 4846,
      "▁Dep": 4847,
      "▁gettin'": 4848,
      "stru": 4849,
      "▁Cartman,\"All": 4850,
      "▁Heather": 4851,
      "▁whist": 4852,
      "▁Goddamn": 4853,
      "▁talkin'": 4854,
      "▁drum": 4855,
      "▁friends,": 4856,
      "ueer": 4857,
      "imbo": 4858,
      "▁town,": 4859,
      "▁trip": 4860,
      "▁cares": 4861,
      "▁Rein": 4862,
      "▁double": 4863,
      "▁\"Stan,": 4864,
      "▁Human": 4865,
      "▁viole": 4866,
      ",O": 4867,
      "NN": 4868,
      "gen": 4869,
      "rot": 4870,
      "▁to,": 4871,
      "▁fag": 4872,
      "oring": 4873,
      "▁pill": 4874,
      "▁pris": 4875,
      "▁Sea": 4876,
      "▁do?": 4877,
      "▁that!": 4878,
      "▁Goth": 4879,
      "▁shopping": 4880,
      "ustr": 4881,
      "▁anger": 4882,
      "▁Dude,": 4883,
      "ils": 4884,
      "▁,In": 4885,
      "oods": 4886,
      "▁about?\n": 4887,
      "estab": 4888,
      "▁\"\"The": 4889,
      "▁hand.": 4890,
      "▁head.": 4891,
      "▁smoke": 4892,
      "▁something,": 4893,
      "▁sure,": 4894,
      "▁everyone's": 4895,
      ",What's": 4896,
      "▁window.": 4897,
      "▁seats": 4898,
      "]Not": 4899,
      "▁dude!\"\n": 4900,
      "▁Brown": 4901,
      "▁Chinpok": 4902,
      "▁alright,": 4903,
      "▁direct": 4904,
      "softly": 4905,
      "▁breath": 4906,
      "▁Minister": 4907,
      "▁upset": 4908,
      "colate": 4909,
      "Let": 4910,
      "ales": 4911,
      "dd": 4912,
      "vol": 4913,
      "▁talent": 4914,
      "arf": 4915,
      "▁bust": 4916,
      "lent": 4917,
      "▁cows": 4918,
      "▁fix": 4919,
      "orting": 4920,
      "▁Take": 4921,
      "▁staff": 4922,
      "▁Gobb": 4923,
      "▁all.\"\n": 4924,
      "▁,\"F": 4925,
      "▁cancer": 4926,
      "▁Law": 4927,
      "▁guards": 4928,
      "▁here!\n": 4929,
      "▁vict": 4930,
      "▁good.\"\n": 4931,
      "▁carrying": 4932,
      "▁below": 4933,
      "▁Three": 4934,
      "]Huh": 4935,
      "▁children.": 4936,
      "▁Barbra": 4937,
      "ingers,": 4938,
      "notices": 4939,
      "Stop": 4940,
      "▁Boy,": 4941,
      "Jesus,": 4942,
      "▁Look,": 4943,
      "▁Amaz": 4944,
      "▁soul": 4945,
      ",000": 4946,
      "ED": 4947,
      "NA": 4948,
      "NO": 4949,
      "▁sort": 4950,
      "▁gang": 4951,
      "▁general": 4952,
      "▁punch": 4953,
      "▁pocket": 4954,
      "▁Sing": 4955,
      "▁More": 4956,
      "▁Ass": 4957,
      "▁AWESOM-O": 4958,
      "▁House": 4959,
      "▁meant": 4960,
      "ers.\"\n": 4961,
      "ie.": 4962,
      "▁Em": 4963,
      "▁know?": 4964,
      "▁Cartman,I'm": 4965,
      "▁abs": 4966,
      "▁abort": 4967,
      "▁Stan,Oh": 4968,
      "▁us!": 4969,
      "emm": 4970,
      "▁worried": 4971,
      "eeee": 4972,
      "▁Garrison,\"Oh,": 4973,
      "ience,": 4974,
      "▁sheet": 4975,
      "▁stop,": 4976,
      "ressed": 4977,
      "▁laughter": 4978,
      "▁remain": 4979,
      "▁huh?\"\n": 4980,
      "ibly": 4981,
      "▁Only": 4982,
      "▁face.": 4983,
      ",\"Tom,": 4984,
      "▁announce": 4985,
      "▁Patrick": 4986,
      "▁United": 4987,
      "▁load": 4988,
      "▁bowl": 4989,
      ",W": 4990,
      "ler,": 4991,
      "▁sill": 4992,
      "▁cast": 4993,
      "▁calls": 4994,
      "▁fear": 4995,
      "owing": 4996,
      "ases": 4997,
      "ution": 4998,
      "acy": 4999,
      "adio": 5000,
      "▁beer": 5001,
      "▁rif": 5002,
      "▁rise": 5003,
      "▁weight": 5004,
      "▁AIDS": 5005,
      "▁Give": 5006,
      "irts": 5007,
      "▁Hav": 5008,
      "▁out.\n": 5009,
      ",\"[the": 5010,
      "raft": 5011,
      "▁off]\n": 5012,
      "▁Elder": 5013,
      "▁Fire": 5014,
      "▁guitar": 5015,
      "▁Stan,\"Okay,": 5016,
      "▁us.\n": 5017,
      "▁peace": 5018,
      "arsh": 5019,
      "▁\"\"M": 5020,
      "▁hand,": 5021,
      "▁built": 5022,
      "▁finish": 5023,
      "▁sneak": 5024,
      "▁sir,": 5025,
      "▁retard": 5026,
      "▁hangs": 5027,
      "▁Francis": 5028,
      "iggles": 5029,
      "▁Indian": 5030,
      "▁medic": 5031,
      "load": 5032,
      "▁easy": 5033,
      "arrives": 5034,
      "▁Crunch": 5035,
      "▁Clinton": 5036,
      "Every": 5037,
      "]Stan": 5038,
      "ius": 5039,
      "port": 5040,
      "▁hologram": 5041,
      "▁died": 5042,
      "▁fad": 5043,
      "▁pu": 5044,
      "▁Sn": 5045,
      "▁Tim": 5046,
      "▁hears": 5047,
      "acing": 5048,
      "add": 5049,
      "▁elderly": 5050,
      ".[Kenny": 5051,
      ".[opens": 5052,
      "▁Paul": 5053,
      "▁him]": 5054,
      "▁Of": 5055,
      "▁Out": 5056,
      "▁off.\"\n": 5057,
      "▁now?\n": 5058,
      "▁various": 5059,
      "▁people's": 5060,
      "▁handle": 5061,
      "▁God!\n": 5062,
      "▁prof": 5063,
      "ancher": 5064,
      "▁bucks": 5065,
      "]Where": 5066,
      "▁laughs": 5067,
      "▁Howard": 5068,
      ",\"How": 5069,
      "▁accept": 5070,
      "▁Marc": 5071,
      ",\"Now": 5072,
      "▁stunned": 5073,
      "▁Leslie": 5074,
      "Jimmy": 5075,
      "--\"\n": 5076,
      "UT": 5077,
      "WW": 5078,
      "bel": 5079,
      "▁warn": 5080,
      "ate,": 5081,
      "▁cause": 5082,
      "▁gift": 5083,
      "▁race": 5084,
      "▁earth": 5085,
      "▁Stan.\"\n": 5086,
      "▁Hell": 5087,
      ",\"[a": 5088,
      "sticks": 5089,
      "ipe": 5090,
      "▁away.\n": 5091,
      "▁saved": 5092,
      "▁Randy,\"Oh,": 5093,
      "▁doing?\n": 5094,
      "ograp": 5095,
      "▁uh...": 5096,
      ",You're": 5097,
      "▁surv": 5098,
      "▁Comp": 5099,
      "▁lawy": 5100,
      "▁Mephesto,": 5101,
      "▁Trapper": 5102,
      "▁THE": 5103,
      "conom": 5104,
      "egridy": 5105,
      "makes": 5106,
      "▁tac": 5107,
      "▁hung": 5108,
      "▁fet": 5109,
      "▁lying": 5110,
      "ic.": 5111,
      "ety": 5112,
      "▁Tre": 5113,
      "ed!": 5114,
      "▁Mos": 5115,
      "▁hero": 5116,
      "▁stream": 5117,
      "▁Kyle!\"\n": 5118,
      "amond": 5119,
      "urry": 5120,
      "![goes": 5121,
      "▁Jim": 5122,
      "▁social": 5123,
      "▁vot": 5124,
      "▁\"\"W": 5125,
      "▁dear": 5126,
      "▁Show": 5127,
      "▁players": 5128,
      "▁organ": 5129,
      "▁resumes": 5130,
      "▁first,": 5131,
      "▁switch": 5132,
      "▁given": 5133,
      "arrass": 5134,
      "▁strange": 5135,
      "▁Rebecc": 5136,
      "▁,She": 5137,
      "▁Box": 5138,
      "▁ladder": 5139,
      "Thanks,": 5140,
      "reme": 5141,
      "izza": 5142,
      "Box": 5143,
      "ollywood": 5144,
      "ember,": 5145,
      "▁Jersey": 5146,
      "ielberg": 5147,
      "-st": 5148,
      "Very": 5149,
      "]Let's": 5150,
      "aud": 5151,
      "▁tough": 5152,
      "in.": 5153,
      "les,": 5154,
      "▁please,": 5155,
      "ooth": 5156,
      "▁Brid": 5157,
      "▁see.": 5158,
      "▁,\"L": 5159,
      "▁,\"Mr.": 5160,
      "▁Cartman,\"Yes,": 5161,
      "▁Evil": 5162,
      "resent": 5163,
      "▁Butters!": 5164,
      "▁Butters,\"I": 5165,
      "▁Stud": 5166,
      "▁cloud": 5167,
      "ously": 5168,
      "▁\"\"T": 5169,
      "▁more,": 5170,
      "▁work,": 5171,
      "▁okay?\"\n": 5172,
      "▁cool.": 5173,
      "]Okay": 5174,
      "ipped": 5175,
      "▁account": 5176,
      "▁sexual": 5177,
      "comes": 5178,
      "whips": 5179,
      "▁Everything": 5180,
      "▁incred": 5181,
      "▁sandwich": 5182,
      "iwinks": 5183,
      "▁immediately": 5184,
      "10": 5185,
      "o-": 5186,
      "▁sled": 5187,
      "▁hill": 5188,
      "▁hug": 5189,
      "▁it.[": 5190,
      "▁itself": 5191,
      "▁storm": 5192,
      "ame.": 5193,
      "▁Gr": 5194,
      "▁force": 5195,
      "▁Det.": 5196,
      "▁Cartman,Oh": 5197,
      "um,": 5198,
      "▁plant": 5199,
      "▁vote": 5200,
      "que": 5201,
      "▁hasn't": 5202,
      "▁flute": 5203,
      "▁prod": 5204,
      "▁Randy,I": 5205,
      "▁talked": 5206,
      "▁workers": 5207,
      "▁teach": 5208,
      "▁Butters,\"Oh,": 5209,
      "▁mom's": 5210,
      "▁waits": 5211,
      "tered": 5212,
      "▁closet": 5213,
      "▁followed": 5214,
      "▁Scott,": 5215,
      "▁cool,": 5216,
      "▁problems": 5217,
      "▁Billy": 5218,
      "!\"\"]\"\n": 5219,
      ",\"There": 5220,
      "▁missing": 5221,
      "▁hurry": 5222,
      "▁march": 5223,
      "uthor": 5224,
      "▁expect": 5225,
      "▁Robert": 5226,
      "▁jacket": 5227,
      "▁favorite": 5228,
      "▁pajam": 5229,
      "aitlyn": 5230,
      "\",": 5231,
      "Cool": 5232,
      "ere": 5233,
      "ners": 5234,
      "iny": 5235,
      "reak": 5236,
      "▁hun": 5237,
      "it's": 5238,
      "▁cops": 5239,
      "▁cave": 5240,
      "▁toy": 5241,
      "▁fool": 5242,
      "▁ginger": 5243,
      "orks": 5244,
      "▁presses": 5245,
      "▁Carl": 5246,
      "▁lion": 5247,
      "▁Mat": 5248,
      "▁weird": 5249,
      "ama,": 5250,
      "▁Hot": 5251,
      "▁Hand": 5252,
      "ural": 5253,
      "![b": 5254,
      "![takes": 5255,
      "rip": 5256,
      "▁asse": 5257,
      "▁Laur": 5258,
      "▁North": 5259,
      "▁Kyle,A": 5260,
      "▁Cartman,That's": 5261,
      "▁somehow": 5262,
      "▁about,": 5263,
      "▁Star": 5264,
      "ends": 5265,
      "▁19": 5266,
      "▁Cartman,\"[s": 5267,
      "▁cru": 5268,
      "▁activ": 5269,
      "▁screams": 5270,
      ",\"Hello": 5271,
      "ammit": 5272,
      "▁Jewish": 5273,
      "▁Pip,": 5274,
      "▁job,": 5275,
      "▁questions": 5276,
      "▁Jefferson": 5277,
      "▁obv": 5278,
      "▁Worker": 5279,
      "▁pirate": 5280,
      "leads": 5281,
      "▁techn": 5282,
      "KK": 5283,
      "rop": 5284,
      "val": 5285,
      "oun": 5286,
      "rect": 5287,
      "▁born": 5288,
      "▁dig": 5289,
      "▁fir": 5290,
      "▁Turn": 5291,
      "idge": 5292,
      "▁Kyle?\"\n": 5293,
      ".[his": 5294,
      "y,[": 5295,
      "▁shakes": 5296,
      "▁neg": 5297,
      "▁back.\"\n": 5298,
      "▁Cartman,S": 5299,
      "▁down.\"\n": 5300,
      "ongrat": 5301,
      "▁St.": 5302,
      "▁class.": 5303,
      "▁door]\n": 5304,
      "▁Garrison,[": 5305,
      "ation.\"\n": 5306,
      "▁Kenny.\"\n": 5307,
      "▁Mackey's": 5308,
      "isham": 5309,
      "▁descend": 5310,
      "▁swear": 5311,
      "▁changed": 5312,
      "▁snake": 5313,
      "▁together,": 5314,
      "▁listening": 5315,
      "▁sir.\"\n": 5316,
      "]He's": 5317,
      "▁annoy": 5318,
      "▁Josh": 5319,
      "▁Thanksgiving": 5320,
      "▁opposite": 5321,
      "▁cigare": 5322,
      "BI": 5323,
      "Member": 5324,
      "]J": 5325,
      "]No!": 5326,
      "ais": 5327,
      "fic": 5328,
      "iest": 5329,
      "look": 5330,
      "noon": 5331,
      "wait": 5332,
      "zen": 5333,
      "▁er": 5334,
      "▁to...": 5335,
      "▁pair": 5336,
      "▁Center": 5337,
      "▁Sr.": 5338,
      "▁threat": 5339,
      "▁thumb": 5340,
      "▁IT": 5341,
      "tering": 5342,
      "urb": 5343,
      "▁jaw": 5344,
      "▁memor": 5345,
      "ella": 5346,
      "▁lie": 5347,
      "▁lies": 5348,
      "▁him\"\n": 5349,
      "▁just,": 5350,
      "ourth": 5351,
      "▁right.\"\n": 5352,
      "▁Stan,\"Dad,": 5353,
      "▁now?\"\n": 5354,
      "?[Cartman": 5355,
      "]Is": 5356,
      "▁12": 5357,
      "▁tracks": 5358,
      "▁Chef,\"": 5359,
      "ective": 5360,
      "▁carry": 5361,
      "oys,": 5362,
      "▁written": 5363,
      "awn": 5364,
      "ncle": 5365,
      "shit": 5366,
      "▁home.\"\n": 5367,
      "▁window,": 5368,
      "▁removes": 5369,
      "▁afternoon": 5370,
      "▁Spielberg": 5371,
      "▁older": 5372,
      "▁facing": 5373,
      "▁visit": 5374,
      "▁applause": 5375,
      "▁husband": 5376,
      "emmiwinks": 5377,
      "▁Havisham": 5378,
      "ongratul": 5379,
      "Ye": 5380,
      "__": 5381,
      "ai": 5382,
      "ki": 5383,
      "o!": 5384,
      "whis": 5385,
      "xual": 5386,
      "yy": 5387,
      "▁ide": 5388,
      "▁aim": 5389,
      "▁aff": 5390,
      "ished": 5391,
      "▁fest": 5392,
      "▁frog": 5393,
      "omon": 5394,
      "icy": 5395,
      "icing": 5396,
      "etta": 5397,
      "▁Ming": 5398,
      "ased": 5399,
      "▁rabb": 5400,
      "▁stuck": 5401,
      "▁releas": 5402,
      "▁Great": 5403,
      "ental": 5404,
      "▁shove": 5405,
      "▁shitty": 5406,
      "\"\"?\"\n": 5407,
      ",\"[t": 5408,
      "ho,": 5409,
      "pping": 5410,
      "▁Cartman,E": 5411,
      "▁Fr.": 5412,
      "▁nowhere": 5413,
      "▁device": 5414,
      "▁amb": 5415,
      "▁Butters,\"Oh": 5416,
      "▁feels": 5417,
      "▁towns": 5418,
      "▁fine,": 5419,
      "▁Class": 5420,
      "ounces": 5421,
      "▁son.": 5422,
      "▁Woman,": 5423,
      "]Good": 5424,
      "▁cool.\"\n": 5425,
      "▁street.": 5426,
      "▁hallway.": 5427,
      "She's": 5428,
      "▁lifts": 5429,
      "▁surprised": 5430,
      "▁softly": 5431,
      "▁,Back": 5432,
      "ashington": 5433,
      "▁embarrass": 5434,
      "▁Buddha": 5435,
      "▁including": 5436,
      "▁Muhammad": 5437,
      "Dad": 5438,
      "LA": 5439,
      "One": 5440,
      "SA": 5441,
      "h.\n": 5442,
      "▁tun": 5443,
      "▁tub": 5444,
      "▁won": 5445,
      "erd": 5446,
      "▁bed.": 5447,
      "atches": 5448,
      "▁hum": 5449,
      "▁hous": 5450,
      "▁hook": 5451,
      "▁den": 5452,
      "▁dances": 5453,
      "▁po": 5454,
      "▁insp": 5455,
      "▁Kitt": 5456,
      "▁um,": 5457,
      ".[S": 5458,
      ".[to": 5459,
      "▁PS": 5460,
      "▁Pil": 5461,
      "▁Poof": 5462,
      "▁Hollywood": 5463,
      "![gets": 5464,
      "▁share": 5465,
      "▁outside,": 5466,
      "\"\"[": 5467,
      "▁him!": 5468,
      "▁Cartman,\"It's": 5469,
      "▁Old": 5470,
      "▁,N": 5471,
      "▁suff": 5472,
      "▁\"\"C": 5473,
      "▁\"\"F": 5474,
      "▁God-damn": 5475,
      ",\"Aw,": 5476,
      "ference": 5477,
      "▁admit": 5478,
      "▁fine.": 5479,
      "]St": 5480,
      "▁turning": 5481,
      "▁Club": 5482,
      "Kenny,": 5483,
      "opped": 5484,
      "Christ": 5485,
      "▁lady": 5486,
      "▁community": 5487,
      "▁index": 5488,
      "▁life,": 5489,
      "▁magic": 5490,
      "ause,": 5491,
      "▁XBox": 5492,
      "▁NOT": 5493,
      "▁wheelchair": 5494,
      "▁corpor": 5495,
      "Maybe": 5496,
      "gers": 5497,
      "lt": 5498,
      "hes,": 5499,
      "les.": 5500,
      "▁felt": 5501,
      "▁push": 5502,
      "▁Cow": 5503,
      "ome,": 5504,
      "▁Maur": 5505,
      ".[A": 5506,
      "![Kenny": 5507,
      "s,[": 5508,
      "▁Looks": 5509,
      "▁Luc": 5510,
      "▁right.\n": 5511,
      "▁Kyle,\"Oh,": 5512,
      "▁Kyle,\"Hey,": 5513,
      "▁alb": 5514,
      "▁spin": 5515,
      "We've": 5516,
      "?[Stan": 5517,
      "▁deb": 5518,
      "rinks": 5519,
      "▁helping": 5520,
      "▁feed": 5521,
      "▁Scientist": 5522,
      "▁great.": 5523,
      "▁underwear": 5524,
      "▁shit,": 5525,
      "▁street,": 5526,
      "▁trail": 5527,
      "▁bitch!\"\n": 5528,
      "iety": 5529,
      "▁decor": 5530,
      "▁relig": 5531,
      "▁silence": 5532,
      "▁Afric": 5533,
      "▁mask": 5534,
      "▁ridiculous": 5535,
      "▁upstairs": 5536,
      "▁pulled": 5537,
      "▁stomach": 5538,
      "▁Crowe": 5539,
      "▁Collins": 5540,
      "▁prison": 5541,
      "?![the": 5542,
      "Jimbo": 5543,
      "ND": 5544,
      "]'": 5545,
      "bag": 5546,
      "brid": 5547,
      "iber": 5548,
      "nother": 5549,
      "w!": 5550,
      "▁tap": 5551,
      "▁aut": 5552,
      "real": 5553,
      ",\"We're": 5554,
      "ito": 5555,
      "▁filled": 5556,
      "▁guns": 5557,
      "▁Could": 5558,
      "ushed": 5559,
      "▁Testab": 5560,
      "allen": 5561,
      "ke,": 5562,
      "▁Put": 5563,
      "▁Hospital": 5564,
      "▁Roman": 5565,
      "strap": 5566,
      "▁Eng": 5567,
      "▁comin'": 5568,
      "▁speed": 5569,
      "▁around]\"\n": 5570,
      "▁kid.": 5571,
      "ossible": 5572,
      "▁Those": 5573,
      "▁everyone.": 5574,
      "▁opening": 5575,
      "▁coach": 5576,
      "▁shown.": 5577,
      "▁please?\"\n": 5578,
      "▁accident": 5579,
      "▁funny,": 5580,
      "box": 5581,
      "▁From": 5582,
      "▁face,": 5583,
      "▁forest": 5584,
      "▁Kyle,What?\n": 5585,
      "▁Pete,": 5586,
      "▁honor": 5587,
      "▁Protes": 5588,
      "▁Janus": 5589,
      "▁defin": 5590,
      "▁bastard": 5591,
      "▁helicopter": 5592,
      "▁apparently": 5593,
      "▁marijuana": 5594,
      "-oh": 5595,
      "]Look": 5596,
      "cast": 5597,
      "field": 5598,
      "▁author": 5599,
      "returns": 5600,
      "▁buck": 5601,
      ",\"\n": 5602,
      "▁cock": 5603,
      "▁Ces": 5604,
      "▁San": 5605,
      "▁lower": 5606,
      "▁Tamm": 5607,
      "▁Moh": 5608,
      "asaur": 5609,
      "▁on?\n": 5610,
      "▁Back": 5611,
      "keys": 5612,
      "▁row": 5613,
      "▁Wok": 5614,
      "▁Power": 5615,
      "▁Please,": 5616,
      "▁Gueer": 5617,
      "▁Huh": 5618,
      "▁go!": 5619,
      "▁Lab": 5620,
      "▁Native": 5621,
      "▁soc": 5622,
      "▁Kyle,Oh": 5623,
      "▁right!\n": 5624,
      "▁Stan,But": 5625,
      "▁cla": 5626,
      "▁comb": 5627,
      "▁vom": 5628,
      "▁door.\"\n": 5629,
      "▁\"\"B": 5630,
      "▁score": 5631,
      "▁tray": 5632,
      "▁prove": 5633,
      "itely": 5634,
      "▁pray": 5635,
      "▁action": 5636,
      "▁unf": 5637,
      "▁kinda": 5638,
      "]There's": 5639,
      "▁perhaps": 5640,
      "▁Mom,": 5641,
      "▁floor,": 5642,
      "▁floor.": 5643,
      "Yes.\n": 5644,
      "▁Mackey,\"[": 5645,
      "![she": 5646,
      "▁kitchen.": 5647,
      "▁brain": 5648,
      "▁shocked": 5649,
      "▁Att": 5650,
      "▁statue": 5651,
      "▁wonderful": 5652,
      "▁Cheesy": 5653,
      "Really?": 5654,
      "▁terrorists": 5655,
      "▁stopped": 5656,
      "▁mirac": 5657,
      "▁Hindsight": 5658,
      "▁pajamas": 5659,
      "-in": 5660,
      "Clyde": 5661,
      "GH": 5662,
      "Nobody": 5663,
      "cious": 5664,
      "ially": 5665,
      "▁tight": 5666,
      "▁sour": 5667,
      "▁wide": 5668,
      "er!": 5669,
      "ary,\"": 5670,
      "▁bird": 5671,
      "▁craw": 5672,
      "▁orig": 5673,
      "orrow": 5674,
      "▁Sar": 5675,
      "▁IS": 5676,
      "▁nine": 5677,
      "▁online": 5678,
      "gh!\n": 5679,
      "▁Bed": 5680,
      "▁Bigg": 5681,
      "▁rip": 5682,
      "▁emer": 5683,
      ".[moves": 5684,
      ".[holds": 5685,
      "▁Princess": 5686,
      "orer": 5687,
      "▁OC": 5688,
      "aint": 5689,
      "ified": 5690,
      "▁\"\"P": 5691,
      "▁people.\"\n": 5692,
      "ews": 5693,
      "▁blind": 5694,
      "▁exec": 5695,
      "▁Sharon,\"[": 5696,
      "▁U.S.": 5697,
      "▁,They": 5698,
      "next": 5699,
      "▁Principal,": 5700,
      "dammit": 5701,
      "▁McG": 5702,
      "▁kindergart": 5703,
      "mmm": 5704,
      "▁together.": 5705,
      "▁stays": 5706,
      "▁anymore.": 5707,
      "▁poster": 5708,
      "▁Stan,What?\n": 5709,
      "▁legs": 5710,
      "▁colle": 5711,
      "▁Chinstrap": 5712,
      "▁Russian": 5713,
      "▁paid": 5714,
      "▁,\"Park": 5715,
      "▁Reception": 5716,
      "▁Crabtree": 5717,
      "▁massive": 5718,
      "▁circ": 5719,
      "▁Townsman": 5720,
      "▁focus": 5721,
      "▁becomes": 5722,
      "▁Facebook": 5723,
      "▁Amazon": 5724,
      "-you": 5725,
      "EE": 5726,
      "Ke": 5727,
      "OR": 5728,
      "]Yeah": 5729,
      "a!\"\n": 5730,
      "fter": 5731,
      "fast": 5732,
      "lan": 5733,
      "night": 5734,
      "oid": 5735,
      "s?\n": 5736,
      "▁tast": 5737,
      "▁tax": 5738,
      "▁a...": 5739,
      "▁son,": 5740,
      "nder": 5741,
      "▁fan": 5742,
      "▁pow": 5743,
      "▁lit": 5744,
      "▁loves": 5745,
      "▁Mint": 5746,
      "alle": 5747,
      "▁rather": 5748,
      "▁stare": 5749,
      "▁Win": 5750,
      "▁Aunt": 5751,
      "urf": 5752,
      "▁shopp": 5753,
      "▁search": 5754,
      "▁Judge": 5755,
      "▁Dam": 5756,
      "▁Cartman,\"What": 5757,
      "▁suit": 5758,
      "▁there.\n": 5759,
      "▁mans": 5760,
      "er,I": 5761,
      "]I've": 5762,
      "wold": 5763,
      "▁flips": 5764,
      "osexual": 5765,
      "]Are": 5766,
      "▁showed": 5767,
      "▁thing,": 5768,
      "▁Van": 5769,
      "▁work.": 5770,
      "▁drone": 5771,
      "▁Yes": 5772,
      "▁kept": 5773,
      "▁evening.": 5774,
      "▁Christ,": 5775,
      "▁windows": 5776,
      "▁remote": 5777,
      "▁Blanket": 5778,
      "▁woman's": 5779,
      "▁keeping": 5780,
      "▁bad,": 5781,
      "▁Teenag": 5782,
      "▁Canadians": 5783,
      "aaaaaaaa": 5784,
      "-[the": 5785,
      "coho": 5786,
      "otswold": 5787,
      "▁pulling": 5788,
      "▁invol": 5789,
      "▁Record": 5790,
      "▁eleph": 5791,
      "Dude!": 5792,
      "▁Peru": 5793,
      "▁histor": 5794,
      "▁sleigh": 5795,
      "▁success": 5796,
      "▁victim": 5797,
      "▁album": 5798,
      "-we": 5799,
      "inea": 5800,
      "▁side,": 5801,
      "▁wra": 5802,
      "oned": 5803,
      "arium": 5804,
      "isa": 5805,
      ",\"That": 5806,
      "itary": 5807,
      "▁dra": 5808,
      "▁dying": 5809,
      "▁mid": 5810,
      "ened": 5811,
      "▁pump": 5812,
      "▁palm": 5813,
      "▁Cotswold": 5814,
      "▁ly": 5815,
      "ay.": 5816,
      "▁Mong": 5817,
      "ach,": 5818,
      "ace.": 5819,
      "▁Kat": 5820,
      "▁Best": 5821,
      "▁Bik": 5822,
      "▁War": 5823,
      "ame,": 5824,
      "▁Rem": 5825,
      "▁Rock": 5826,
      "▁up]\n": 5827,
      "▁shr": 5828,
      "elve": 5829,
      "▁leans": 5830,
      "...and": 5831,
      "▁Larry": 5832,
      "▁known": 5833,
      "igr": 5834,
      "▁Kyle,I'm": 5835,
      "▁FBI": 5836,
      "▁chin": 5837,
      "▁now!\n": 5838,
      "abble": 5839,
      "ick,": 5840,
      "▁us!\n": 5841,
      "▁looked": 5842,
      "▁\"\"A": 5843,
      "ometimes": 5844,
      "ah!\n": 5845,
      "No!\n": 5846,
      "oint": 5847,
      "▁Ye": 5848,
      "▁Butters,\"Yeah,": 5849,
      "▁carries": 5850,
      "▁bit,": 5851,
      "▁anything.": 5852,
      ",\"Oh.": 5853,
      "▁wrong,": 5854,
      "▁trapped": 5855,
      "!!!\n": 5856,
      "▁continu": 5857,
      "▁yeah!": 5858,
      "▁addict": 5859,
      "▁Davis": 5860,
      "under": 5861,
      "▁drinking": 5862,
      "▁collect": 5863,
      "▁soldiers": 5864,
      "▁enjoying": 5865,
      "▁Britney": 5866,
      "unnybot": 5867,
      "▁Edward": 5868,
      "▁allowed": 5869,
      "▁history": 5870,
      "▁Musl": 5871,
      "▁Murph": 5872,
      "!)\"\n": 5873,
      "?)\n": 5874,
      "IV": 5875,
      "Mom": 5876,
      "With": 5877,
      "fire": 5878,
      "gn": 5879,
      "ually,": 5880,
      "▁Yeah": 5881,
      "onse": 5882,
      "▁boss": 5883,
      ",\"Thank": 5884,
      "leans": 5885,
      "▁fro": 5886,
      "es.\n": 5887,
      "or.": 5888,
      "▁Caitlyn": 5889,
      "▁Tenor": 5890,
      "▁do?\"\n": 5891,
      ".[T": 5892,
      "▁Stan!": 5893,
      "osts": 5894,
      "▁shuts": 5895,
      "rips": 5896,
      "el,": 5897,
      ",\"[d": 5898,
      "ceed": 5899,
      "▁Kyle,But": 5900,
      "▁Kyle,How": 5901,
      "▁Easter": 5902,
      "▁Fil": 5903,
      "toff": 5904,
      "▁whore": 5905,
      "▁exits": 5906,
      "▁Gerald,\"[": 5907,
      "▁girl,": 5908,
      "ubb": 5909,
      "▁assholes": 5910,
      "▁camer": 5911,
      "▁Craig's": 5912,
      "]Wh": 5913,
      "▁greatest": 5914,
      "▁swings": 5915,
      "▁Liane,\"[": 5916,
      "▁Liane,\"Oh,": 5917,
      "▁understand.": 5918,
      "▁Jews": 5919,
      ",\"Wow,": 5920,
      "▁morning,": 5921,
      "▁commun": 5922,
      "▁Grandma": 5923,
      "▁rules": 5924,
      "▁sixth": 5925,
      "▁Travis": 5926,
      "▁Exper": 5927,
      "▁applaud": 5928,
      "▁Aboot": 5929,
      "▁months": 5930,
      "▁Schw": 5931,
      "▁laptop": 5932,
      "▁Blaine": 5933,
      "▁Marcus": 5934,
      ":3": 5935,
      "ging": 5936,
      "la": 5937,
      "miss": 5938,
      "par": 5939,
      "▁ident": 5940,
      "▁si": 5941,
      "▁sal": 5942,
      "▁wakes": 5943,
      "▁bought": 5944,
      "▁hi": 5945,
      "▁honey": 5946,
      "itions": 5947,
      "▁cable": 5948,
      "▁cub": 5949,
      "ing!": 5950,
      "▁pers": 5951,
      "artz": 5952,
      "▁Trent": 5953,
      "eder": 5954,
      "▁Mon": 5955,
      "▁Men": 5956,
      "▁hearing": 5957,
      "▁on!\"\n": 5958,
      "▁iss": 5959,
      "....": 5960,
      "▁Ba": 5961,
      "▁Both": 5962,
      "terday": 5963,
      "▁ur": 5964,
      "▁stares": 5965,
      "▁Stanle": 5966,
      "▁review": 5967,
      "ely,": 5968,
      "raq": 5969,
      "illeg": 5970,
      "▁Randy.": 5971,
      "agon": 5972,
      "ilence": 5973,
      "▁boys.\"\n": 5974,
      "▁man's": 5975,
      "ildren": 5976,
      "▁11": 5977,
      "▁2,[": 5978,
      "▁Chef's": 5979,
      "▁tryin'": 5980,
      "▁Ang": 5981,
      "rade": 5982,
      "▁display": 5983,
      "▁crime": 5984,
      "avior": 5985,
      "▁attend": 5986,
      "▁--": 5987,
      "▁signs": 5988,
      "▁problem,": 5989,
      "▁address": 5990,
      "▁Lorde": 5991,
      "▁butthole": 5992,
      "▁square": 5993,
      "eez,": 5994,
      "▁m'kay?\"\n": 5995,
      "▁gener": 5996,
      "▁edge": 5997,
      "▁Crabtree,": 5998,
      "▁practice": 5999,
      "AMB": 6000,
      "time.": 6001,
      "▁shadow": 6002,
      "▁Jackson": 6003,
      ".)\n": 6004,
      "OV": 6005,
      "Please": 6006,
      "]Can": 6007,
      "uk": 6008,
      "your": 6009,
      "▁hig": 6010,
      "▁horn": 6011,
      "▁coc": 6012,
      "▁don": 6013,
      "▁dry": 6014,
      "▁fold": 6015,
      "▁mob": 6016,
      "▁goo": 6017,
      "▁pink": 6018,
      "▁pole": 6019,
      "▁Sim": 6020,
      "▁Iraq": 6021,
      "▁nuts": 6022,
      "▁named": 6023,
      "▁inn": 6024,
      "ette": 6025,
      "asc": 6026,
      "▁Bab": 6027,
      "▁eh": 6028,
      "▁Pers": 6029,
      "▁Rom": 6030,
      "urs": 6031,
      "▁shield": 6032,
      "▁outf": 6033,
      "▁anal": 6034,
      "▁anchor": 6035,
      "▁lift": 6036,
      "▁Little": 6037,
      "▁Cartman,\"He": 6038,
      "▁Cartman,\"Butters,": 6039,
      "ant,": 6040,
      "▁offer": 6041,
      "▁Even": 6042,
      "▁back!": 6043,
      "▁,D": 6044,
      "aper": 6045,
      "ools": 6046,
      "▁Kenny!\"\n": 6047,
      "▁headquart": 6048,
      "▁Butters,I": 6049,
      "▁teenag": 6050,
      "▁stop.": 6051,
      "▁helm": 6052,
      "▁Cartman,\"[p": 6053,
      "▁drug": 6054,
      "▁slams": 6055,
      "teen": 6056,
      "▁Kenny,[": 6057,
      "▁great,": 6058,
      "▁Garrison,\"Okay,": 6059,
      "]Did": 6060,
      "ails": 6061,
      "▁pretend": 6062,
      "▁Team": 6063,
      "▁situ": 6064,
      "▁excit": 6065,
      ",\"Not": 6066,
      "▁diffic": 6067,
      ",\"Wait": 6068,
      ",\"Okay": 6069,
      "]Timm": 6070,
      "▁honest": 6071,
      "▁rocket": 6072,
      "▁montage": 6073,
      "▁glasses": 6074,
      "▁Play": 6075,
      "▁terrorist": 6076,
      "▁animal": 6077,
      "-year": 6078,
      "▁program": 6079,
      "uys,": 6080,
      "▁dangerous": 6081,
      "idence,": 6082,
      "▁Chinpokomon": 6083,
      "-and": 6084,
      "Eric,": 6085,
      "OD": 6086,
      "Our": 6087,
      "Please,": 6088,
      "cri": 6089,
      "ees": 6090,
      "gust": 6091,
      "oe,": 6092,
      "▁aides": 6093,
      "▁sens": 6094,
      "▁wave": 6095,
      "ern": 6096,
      "ishing": 6097,
      "ature": 6098,
      "▁dial": 6099,
      "▁obs": 6100,
      "▁pause": 6101,
      "▁Sally": 6102,
      "▁nerv": 6103,
      "▁in.\n": 6104,
      "▁invest": 6105,
      "▁Manson": 6106,
      "ooz": 6107,
      "▁ran": 6108,
      "▁stage.": 6109,
      "▁Aw": 6110,
      "▁havin'": 6111,
      "![begins": 6112,
      "▁ju": 6113,
      "▁out]\n": 6114,
      "▁anc": 6115,
      "eline": 6116,
      "oday": 6117,
      "ake,": 6118,
      "▁Kyle,Why": 6119,
      "▁Free": 6120,
      "▁Stan,S": 6121,
      "▁Stan,\"H": 6122,
      "▁here?\"\n": 6123,
      "▁down]\"\n": 6124,
      "▁Kyle,\"S": 6125,
      "▁Kyle,\"What": 6126,
      "▁spent": 6127,
      "▁Chip": 6128,
      "iane": 6129,
      "▁room]\"\n": 6130,
      "▁1,\"[": 6131,
      "▁newsp": 6132,
      "▁Voice": 6133,
      "▁too.\n": 6134,
      "▁something.": 6135,
      "ization": 6136,
      "▁letter": 6137,
      "ighs": 6138,
      "▁Does": 6139,
      "▁acting": 6140,
      "▁children.\"\n": 6141,
      "Who's": 6142,
      "▁restroom": 6143,
      "Kenny's": 6144,
      "▁Teen": 6145,
      "▁presents": 6146,
      "▁causing": 6147,
      "▁chocolate": 6148,
      "▁grader": 6149,
      "▁monkey": 6150,
      "▁kisses": 6151,
      "▁Skyl": 6152,
      "▁faith": 6153,
      "▁finishes": 6154,
      "Dude": 6155,
      "▁Ryan": 6156,
      "AMBLA": 6157,
      "AY": 6158,
      "GG": 6159,
      "ivery": 6160,
      "pa,": 6161,
      "▁illeg": 6162,
      "▁tied": 6163,
      "really": 6164,
      ",\"Yeah.": 6165,
      "▁occ": 6166,
      "▁pin": 6167,
      "▁pun": 6168,
      "▁pound": 6169,
      "▁porn": 6170,
      "▁you?!": 6171,
      "▁non": 6172,
      "▁of...": 6173,
      "▁he'll": 6174,
      "▁earl": 6175,
      ".[B": 6176,
      "opper": 6177,
      "▁Red,": 6178,
      "▁Rog": 6179,
      "▁up!\"\n": 6180,
      "![looks": 6181,
      "▁joy": 6182,
      "▁go!\"\n": 6183,
      "▁me?\"\n": 6184,
      "▁Jack": 6185,
      "ell's": 6186,
      "still": 6187,
      "▁Oper": 6188,
      "▁Kyle,Yeah.": 6189,
      "▁plate": 6190,
      "▁Stan,\"S": 6191,
      "▁Stan,\"We": 6192,
      "ables": 6193,
      "▁sugg": 6194,
      "▁herself": 6195,
      "arely": 6196,
      "▁doorway": 6197,
      "▁man.\"\n": 6198,
      "▁manag": 6199,
      "]I'll": 6200,
      "▁Shake": 6201,
      "▁worker": 6202,
      "ancy": 6203,
      "▁wait.": 6204,
      "wwww": 6205,
      "▁sniff": 6206,
      "▁Marshes": 6207,
      "▁careful": 6208,
      "▁movies": 6209,
      "▁brave": 6210,
      "▁wondering": 6211,
      "▁peeks": 6212,
      "▁selling": 6213,
      "▁,\"Back": 6214,
      "▁motion": 6215,
      "▁soldier": 6216,
      "▁Resear": 6217,
      "▁candy": 6218,
      "▁photo": 6219,
      "▁Keeper": 6220,
      "▁voices": 6221,
      "▁knees": 6222,
      "▁Community": 6223,
      "▁Chertoff": 6224,
      "▁Schwartz": 6225,
      "▁suggest": 6226,
      "]Look,": 6227,
      "yler": 6228,
      "▁ver": 6229,
      "anwhile": 6230,
      "▁bes": 6231,
      "lest": 6232,
      "itiz": 6233,
      "lly": 6234,
      "▁dies": 6235,
      "▁faster": 6236,
      "▁pile": 6237,
      "▁pupp": 6238,
      "▁ST": 6239,
      "▁Music": 6240,
      "aser": 6241,
      "ality": 6242,
      "▁on.\n": 6243,
      "▁Kitty": 6244,
      "▁is.\"\n": 6245,
      "...[the": 6246,
      "▁Bear": 6247,
      ".[L": 6248,
      "▁Would": 6249,
      "▁that.\n": 6250,
      "▁Ah": 6251,
      "▁Goll": 6252,
      "▁Rancher": 6253,
      "![everyone": 6254,
      "ly]\"\n": 6255,
      "▁jar": 6256,
      "▁Jun": 6257,
      "▁DNA": 6258,
      "▁this?\"\n": 6259,
      "▁him?\n": 6260,
      "▁boom": 6261,
      "▁Cartman,\"O": 6262,
      "▁NAMBLA": 6263,
      "▁Os": 6264,
      "▁off.\n": 6265,
      "▁Here's": 6266,
      "▁plastic": 6267,
      "▁States": 6268,
      "▁vamp": 6269,
      "▁Kyle,\"Oh": 6270,
      "▁times,": 6271,
      "▁dev": 6272,
      "▁again]\n": 6273,
      "▁by.": 6274,
      "▁energ": 6275,
      "▁time!": 6276,
      "▁show,": 6277,
      "▁smiling": 6278,
      "▁Randy,What": 6279,
      "▁adult": 6280,
      "]Hello,": 6281,
      "▁homework": 6282,
      "▁resident": 6283,
      "▁Official": 6284,
      "▁closed": 6285,
      "▁Garrison,\"Well,": 6286,
      "▁Blond": 6287,
      "armac": 6288,
      "▁leave]\"\n": 6289,
      "▁world.": 6290,
      "▁huh,": 6291,
      "▁passenger": 6292,
      "▁Satan,": 6293,
      "rosses": 6294,
      "▁today,": 6295,
      "▁bitch!": 6296,
      "▁craz": 6297,
      "▁drawing": 6298,
      "▁parade": 6299,
      "▁Farms,": 6300,
      "▁Deckter": 6301,
      "▁ideas": 6302,
      "▁Tenorman": 6303,
      "-B": 6304,
      "nam": 6305,
      "ros": 6306,
      "uf": 6307,
      "▁tall": 6308,
      "▁ais": 6309,
      "anz": 6310,
      "▁fit": 6311,
      "▁file": 6312,
      "▁mix": 6313,
      "▁pounds": 6314,
      "▁none": 6315,
      "icide": 6316,
      "ician": 6317,
      "▁inside,": 6318,
      "▁Mother": 6319,
      "▁Kany": 6320,
      "▁Kelly": 6321,
      "iment": 6322,
      "kend": 6323,
      "▁rides": 6324,
      "aming": 6325,
      "▁judge": 6326,
      "▁out!\n": 6327,
      "▁outta": 6328,
      "eave": 6329,
      "▁Cartman,\"We": 6330,
      "▁Cartman,\"And": 6331,
      "olute": 6332,
      "▁Frog": 6333,
      "▁,L": 6334,
      "▁Kyle,\"Cartman,": 6335,
      "▁away.\"\n": 6336,
      "▁think,": 6337,
      "▁needed": 6338,
      "▁Kenny!": 6339,
      "▁time.\n": 6340,
      "▁quit": 6341,
      "▁thing.": 6342,
      "▁arg": 6343,
      "s]Oh": 6344,
      "▁Butters,\"H": 6345,
      "▁moon": 6346,
      "neck": 6347,
      "▁Bez": 6348,
      "▁Mayor,": 6349,
      "▁world,": 6350,
      "▁weekend": 6351,
      "▁zomb": 6352,
      "▁freez": 6353,
      "▁Prime": 6354,
      "▁,\"Tegridy": 6355,
      "Really?\n": 6356,
      "▁producer": 6357,
      "▁murder": 6358,
      "▁demon": 6359,
      "▁Thompson": 6360,
      "▁Soldier": 6361,
      "▁Henrietta": 6362,
      "▁incredible": 6363,
      "[turns": 6364,
      "]Yes": 6365,
      "draw": 6366,
      "lph": 6367,
      "s?\"\n": 6368,
      "time": 6369,
      "waves": 6370,
      "▁idi": 6371,
      ",\"Y": 6372,
      "ater,": 6373,
      "▁div": 6374,
      "▁dirty": 6375,
      "▁grap": 6376,
      "▁greet": 6377,
      "▁CD": 6378,
      "▁thirty": 6379,
      "▁lame": 6380,
      "▁nice,": 6381,
      "etic": 6382,
      "▁river": 6383,
      "▁stars": 6384,
      "▁doing,": 6385,
      ".[Mr.": 6386,
      "▁Ree": 6387,
      "urt": 6388,
      "![Randy": 6389,
      "▁separ": 6390,
      "▁goat": 6391,
      ",\"[looks": 6392,
      "▁,\"R": 6393,
      "eaven": 6394,
      "▁Cartman,\"Well": 6395,
      "▁knife": 6396,
      "▁Once": 6397,
      "▁Cartman,H": 6398,
      "umble": 6399,
      "icken": 6400,
      "▁downst": 6401,
      "▁comedy": 6402,
      "▁Kyle,\"H": 6403,
      "ontin": 6404,
      "▁demand": 6405,
      "▁again!\"\n": 6406,
      ",[walks": 6407,
      ",\"In": 6408,
      "▁way!": 6409,
      "▁200": 6410,
      "▁tears": 6411,
      "forest": 6412,
      "▁eyes,": 6413,
      "▁arms]": 6414,
      "reads": 6415,
      "▁Mackey,\"M": 6416,
      "▁Tom,": 6417,
      "▁sorry.\"\n": 6418,
      "▁enough,": 6419,
      "▁response": 6420,
      "-my!": 6421,
      "▁director": 6422,
      "▁#1": 6423,
      "▁military": 6424,
      "▁Squirt": 6425,
      "▁pours": 6426,
      "▁floats": 6427,
      "▁gentlemen,": 6428,
      "▁pirates": 6429,
      "▁discuss": 6430,
      "▁banner": 6431,
      "▁deserve": 6432,
      "▁harass": 6433,
      "▁UPS": 6434,
      "▁research": 6435,
      "▁hybrid": 6436,
      "▁disease": 6437,
      "oolshed": 6438,
      ",But": 6439,
      "A.": 6440,
      "CAR": 6441,
      "OX": 6442,
      "from": 6443,
      "iy": 6444,
      "nect": 6445,
      "ral": 6446,
      "tr": 6447,
      "wl": 6448,
      "▁*": 6449,
      "inally": 6450,
      "▁sim": 6451,
      "▁wake": 6452,
      "▁wild": 6453,
      ",\"Look": 6454,
      "ato": 6455,
      "▁deter": 6456,
      "▁fres": 6457,
      "▁master": 6458,
      "▁money.": 6459,
      "▁pet": 6460,
      "▁pub": 6461,
      "omm": 6462,
      "▁Soph": 6463,
      "▁I-I": 6464,
      "▁Mag": 6465,
      "ace,": 6466,
      "▁Cartman]\"\n": 6467,
      "outh,": 6468,
      "▁Bus": 6469,
      "▁P.": 6470,
      "▁Aud": 6471,
      "▁Alright,": 6472,
      "▁Hello": 6473,
      "ly.\"\n": 6474,
      "ioneer": 6475,
      "▁this!\"\n": 6476,
      "rage": 6477,
      "▁Love": 6478,
      "▁Lex": 6479,
      "▁Lemmiwinks": 6480,
      "▁yourselves": 6481,
      "ila": 6482,
      "▁Cartman,We": 6483,
      "▁Funnybot": 6484,
      "▁val": 6485,
      "▁ago,": 6486,
      "▁alcoho": 6487,
      "▁other]\"\n": 6488,
      "in',": 6489,
      "▁one.\"\n": 6490,
      "uckles": 6491,
      "▁going,": 6492,
      "▁school.\"\n": 6493,
      "▁drugs": 6494,
      "▁They've": 6495,
      "ressive": 6496,
      "osses": 6497,
      "▁Tweak": 6498,
      "▁Christian": 6499,
      "▁busines": 6500,
      "▁swing": 6501,
      ",\"Sir,": 6502,
      "▁study": 6503,
      "▁himself.": 6504,
      "rrr": 6505,
      "ology": 6506,
      "▁Isn't": 6507,
      "▁joined": 6508,
      "▁Smurf": 6509,
      "▁confus": 6510,
      "▁condition": 6511,
      "▁Security": 6512,
      "▁sighs": 6513,
      "venture": 6514,
      "▁volunte": 6515,
      "▁iPad": 6516,
      "writes": 6517,
      "▁townsfolk": 6518,
      "▁Lucas": 6519,
      "▁Cesar": 6520,
      "▁difficult": 6521,
      "'Cause": 6522,
      "FC": 6523,
      "UCK": 6524,
      "aith": 6525,
      "bang": 6526,
      "job": 6527,
      "ns": 6528,
      "▁sen": 6529,
      "▁sister": 6530,
      "▁wit": 6531,
      "▁wed": 6532,
      ",\"K": 6533,
      ",\"Just": 6534,
      "▁captain": 6535,
      "▁du": 6536,
      "▁to.": 6537,
      "en.": 6538,
      "▁you![": 6539,
      "omed": 6540,
      "▁lines": 6541,
      "▁national": 6542,
      "▁network": 6543,
      "▁Toolshed": 6544,
      "▁on]\"\n": 6545,
      "▁is!": 6546,
      ".[sh": 6547,
      "▁are.": 6548,
      "hers": 6549,
      "▁James": 6550,
      "▁what?\"\n": 6551,
      "eph": 6552,
      "▁Kyle,It's": 6553,
      "▁Stan,\"Uh,": 6554,
      "▁here.[": 6555,
      "▁down.\n": 6556,
      "▁whale": 6557,
      "▁Kyle,\"We": 6558,
      "isten,": 6559,
      "▁Channel": 6560,
      "behind": 6561,
      "▁flight": 6562,
      "▁trad": 6563,
      "]Alright": 6564,
      "hh!\n": 6565,
      "▁left.": 6566,
      "▁Gerald,[": 6567,
      "▁drunk": 6568,
      "▁something.\"\n": 6569,
      "▁fucked": 6570,
      "▁buying": 6571,
      "▁parents,": 6572,
      "ww,": 6573,
      "▁leave,": 6574,
      "Whoa": 6575,
      "▁changing": 6576,
      "▁Tech": 6577,
      "▁,\"At": 6578,
      "▁aware": 6579,
      "▁breakfast": 6580,
      "Okay.\n": 6581,
      "▁hallway,": 6582,
      "▁Hall,": 6583,
      "Goddamn": 6584,
      ".[hangs": 6585,
      "▁crosses": 6586,
      "▁sending": 6587,
      "▁surprise": 6588,
      "▁promise": 6589,
      "▁forgot": 6590,
      "▁Service": 6591,
      "▁Oprah": 6592,
      "▁Department": 6593,
      "▁Mohammad": 6594,
      ",D": 6595,
      ",T": 6596,
      "-old": 6597,
      "Excuse": 6598,
      "]Kyle": 6599,
      "aj": 6600,
      "boy": 6601,
      "works": 6602,
      "ye,": 6603,
      "▁tiny": 6604,
      "▁summ": 6605,
      "▁the...": 6606,
      "rey": 6607,
      "erries": 6608,
      "▁harm": 6609,
      "▁Cows": 6610,
      "▁locks": 6611,
      "arter": 6612,
      "▁M'kay": 6613,
      "▁on!\n": 6614,
      "adies": 6615,
      "▁Bea": 6616,
      "▁dolph": 6617,
      "▁Washington": 6618,
      "amera": 6619,
      "![his": 6620,
      "▁lip": 6621,
      "▁ash": 6622,
      "▁bored": 6623,
      "▁Cartman,\"That's": 6624,
      "▁know!": 6625,
      "▁back]\"\n": 6626,
      "▁,Kenny": 6627,
      "▁Stan,\"All": 6628,
      "▁class,": 6629,
      "▁Kyle,\"Come": 6630,
      "▁handic": 6631,
      "▁appre": 6632,
      "▁flat": 6633,
      "▁Wendy's": 6634,
      "▁convers": 6635,
      "▁disgust": 6636,
      ",\"So,": 6637,
      "▁attract": 6638,
      "▁attached": 6639,
      "exc": 6640,
      "]What?\n": 6641,
      "▁mustache": 6642,
      "▁leader,\"": 6643,
      "ivil": 6644,
      "▁match": 6645,
      "▁stuff.": 6646,
      "▁Bron": 6647,
      "▁No!": 6648,
      "▁Redsk": 6649,
      "▁bringing": 6650,
      "▁joint": 6651,
      "▁total": 6652,
      "![points": 6653,
      "▁Someone": 6654,
      "▁Somebody": 6655,
      "▁Denmark": 6656,
      "▁bedroom,": 6657,
      "▁bedroom.": 6658,
      "▁immigr": 6659,
      "▁magaz": 6660,
      "▁aliens": 6661,
      "▁grandpa": 6662,
      "▁Memberberry": 6663,
      "▁detention": 6664,
      "▁proper": 6665,
      "▁animals": 6666,
      "▁circle": 6667,
      "ulfill": 6668,
      "▁Apple": 6669,
      "▁hungry": 6670,
      "▁afford": 6671,
      "▁Operator": 6672,
      ",B": 6673,
      ",That's": 6674,
      "-ch": 6675,
      "Is": 6676,
      "Like": 6677,
      "Will": 6678,
      "cene": 6679,
      "hone": 6680,
      "ier,": 6681,
      "kin": 6682,
      "lowers": 6683,
      "niff": 6684,
      "pre": 6685,
      "ux": 6686,
      "▁ir": 6687,
      "▁aims": 6688,
      "reg": 6689,
      "reaking": 6690,
      "▁by,": 6691,
      ",\"Yeah": 6692,
      ",\"Do": 6693,
      "▁drinks": 6694,
      "▁Cash": 6695,
      "▁Sister": 6696,
      "aced": 6697,
      "▁Kind": 6698,
      "▁it]\n": 6699,
      "▁item": 6700,
      "▁Bark": 6701,
      ".[everyone": 6702,
      "▁Wars": 6703,
      "▁Gen": 6704,
      "▁German": 6705,
      "▁Jooz": 6706,
      ",\"[with": 6707,
      "▁,\"O": 6708,
      "▁NAS": 6709,
      "▁notes": 6710,
      "▁back.\n": 6711,
      "▁Cartman,...": 6712,
      "▁chase": 6713,
      "inking": 6714,
      "▁us!\"\n": 6715,
      "▁them!": 6716,
      "▁sue": 6717,
      "▁Kyle,\"Okay,": 6718,
      "▁want,": 6719,
      "uh.": 6720,
      ",\"Ah,": 6721,
      "ollows": 6722,
      "▁Ugly": 6723,
      "▁Uncle": 6724,
      "▁text": 6725,
      "▁brand": 6726,
      "▁Butters,\"Well": 6727,
      "▁friends.": 6728,
      "▁ass!\"\n": 6729,
      "▁Eric.\"\n": 6730,
      "▁partner": 6731,
      "▁remains": 6732,
      "▁seconds,": 6733,
      "▁setting": 6734,
      "▁famous": 6735,
      "▁TV,": 6736,
      "▁boxes": 6737,
      "▁impossible": 6738,
      "▁minute,": 6739,
      "▁access": 6740,
      "▁anymore.\"\n": 6741,
      "▁imag": 6742,
      "Children": 6743,
      "pares": 6744,
      "▁appears,": 6745,
      "agination": 6746,
      "▁addresses": 6747,
      "▁Marklar": 6748,
      "▁interview": 6749,
      "▁interrup": 6750,
      "▁Cartman,\"Alright,": 6751,
      "Right,": 6752,
      "▁transform": 6753,
      "▁,Chef": 6754,
      "▁logo": 6755,
      "▁grocer": 6756,
      "▁true.": 6757,
      "▁vehic": 6758,
      "▁stopping": 6759,
      "▁vagina": 6760,
      "▁Martin": 6761,
      "▁Gibs": 6762,
      "▁Skeeter,": 6763,
      "▁definitely": 6764,
      "▁frozen": 6765,
      "▁innoc": 6766,
      "Eric": 6767,
      "Give": 6768,
      "]Thank": 6769,
      "cu": 6770,
      "lor": 6771,
      "m...": 6772,
      "pect": 6773,
      "▁ill": 6774,
      "▁est": 6775,
      "▁vers": 6776,
      "▁award": 6777,
      "▁sooo": 6778,
      "▁wif": 6779,
      "onn": 6780,
      "is,": 6781,
      "ision": 6782,
      "▁hood": 6783,
      "▁fudge": 6784,
      "▁o'": 6785,
      "or's": 6786,
      "▁Cond": 6787,
      "oments": 6788,
      "▁Se": 6789,
      "▁So,": 6790,
      "▁Tad": 6791,
      "oo!": 6792,
      "oos": 6793,
      "▁heck": 6794,
      "▁on?\"\n": 6795,
      "▁it?!": 6796,
      "▁rope": 6797,
      "▁ears": 6798,
      ".[P": 6799,
      ".[steps": 6800,
      "▁Whole": 6801,
      "▁AT": 6802,
      "▁Hus": 6803,
      "▁HBC": 6804,
      "▁Rod": 6805,
      "▁Room": 6806,
      "allow": 6807,
      "![d": 6808,
      "▁Jones": 6809,
      ",\"[to": 6810,
      "▁him!\"\n": 6811,
      "▁canc": 6812,
      "▁Lee": 6813,
      "▁Cartman,\"N": 6814,
      "▁Kyle,He": 6815,
      "▁know.\"\n": 6816,
      "▁Cartman,The": 6817,
      "▁Foods": 6818,
      "▁Stan,...": 6819,
      "▁You'll": 6820,
      "icking": 6821,
      "▁her.\"\n": 6822,
      "▁there!": 6823,
      "▁sports": 6824,
      "?[Kyle": 6825,
      "▁man!": 6826,
      "ender": 6827,
      "]Aw": 6828,
      "▁smug": 6829,
      "getting": 6830,
      "▁assistant": 6831,
      ",\"Sh": 6832,
      "▁triang": 6833,
      "▁Class,": 6834,
      "▁heard,": 6835,
      "▁heard.": 6836,
      "▁leading": 6837,
      "▁leader,": 6838,
      "▁Cartman,[s": 6839,
      "ived": 6840,
      "▁seat,": 6841,
      "▁desk,": 6842,
      "▁strugg": 6843,
      "▁crap,": 6844,
      "ologist": 6845,
      "▁emotion": 6846,
      "▁anymore,": 6847,
      "▁paying": 6848,
      "▁Who's": 6849,
      "▁kitchen,": 6850,
      "▁ladies": 6851,
      "▁forehead": 6852,
      "▁sleeping": 6853,
      "▁explos": 6854,
      "[points": 6855,
      "Nothing": 6856,
      "▁place,": 6857,
      "▁Here,": 6858,
      "▁goddamn": 6859,
      "▁true,": 6860,
      "▁Scouts": 6861,
      "▁reaction": 6862,
      "▁everybody.": 6863,
      "▁Producer,\"": 6864,
      "▁absolute": 6865,
      "▁announcement": 6866,
      "▁Abootman": 6867,
      "-r": 6868,
      "-ho": 6869,
      "HAT": 6870,
      "OP": 6871,
      "creen": 6872,
      "gie,": 6873,
      "ked": 6874,
      "s?": 6875,
      "tles": 6876,
      "y?\"\n": 6877,
      "hes.": 6878,
      "an.": 6879,
      "▁sarc": 6880,
      "▁the-": 6881,
      "▁fle": 6882,
      "▁fant": 6883,
      "▁fists": 6884,
      "ening": 6885,
      "▁owe": 6886,
      "orp": 6887,
      "▁Call": 6888,
      "▁nut": 6889,
      "▁nos": 6890,
      "▁naked": 6891,
      "▁Tur": 6892,
      "▁Troll": 6893,
      "▁Middle": 6894,
      "oose": 6895,
      "▁held": 6896,
      "ghan": 6897,
      "▁Cartman?\"\n": 6898,
      "ter.": 6899,
      "▁do.\n": 6900,
      "▁Got": 6901,
      "▁Group": 6902,
      "▁Gary,": 6903,
      "▁Green": 6904,
      "▁Garth": 6905,
      "▁Hold": 6906,
      "▁jud": 6907,
      "▁Jud": 6908,
      "▁lived": 6909,
      "▁neither": 6910,
      "▁Weight": 6911,
      "▁Stan,\"What": 6912,
      "▁Stan,\"Look,": 6913,
      "empt": 6914,
      "▁worst": 6915,
      "istic": 6916,
      "▁whoa,": 6917,
      "▁times.": 6918,
      "?[he": 6919,
      "▁scary": 6920,
      "▁say?\n": 6921,
      "▁blank": 6922,
      "▁1,[": 6923,
      "▁Randy,\"You": 6924,
      "ah.": 6925,
      "▁too!\"\n": 6926,
      "▁night.\"\n": 6927,
      ",Is": 6928,
      "s]You": 6929,
      "▁boyfriend": 6930,
      "▁dispers": 6931,
      "▁bitches": 6932,
      "▁letting": 6933,
      "▁sure.": 6934,
      "apped": 6935,
      "▁service": 6936,
      "▁beginning": 6937,
      "▁accent": 6938,
      "▁song,": 6939,
      "▁ground.": 6940,
      "]Excuse": 6941,
      "▁choir": 6942,
      "velop": 6943,
      "▁moment,": 6944,
      "▁explod": 6945,
      "▁intro": 6946,
      "▁growing": 6947,
      "▁life.": 6948,
      "▁Kevin,": 6949,
      "▁knocking": 6950,
      "▁yesterday": 6951,
      "▁split": 6952,
      "▁principal's": 6953,
      "▁Lady": 6954,
      "▁private": 6955,
      "▁responsib": 6956,
      "▁weapons": 6957,
      "▁competition": 6958,
      "▁product": 6959,
      "looking": 6960,
      "▁NASCAR": 6961,
      "Gu": 6962,
      "hin": 6963,
      "mble": 6964,
      "vian": 6965,
      "▁ah,": 6966,
      "▁sight": 6967,
      "onard": 6968,
      "isf": 6969,
      ",\"Here": 6970,
      "itors": 6971,
      "▁dang": 6972,
      "▁die,": 6973,
      "▁gigg": 6974,
      "▁powers": 6975,
      "▁Cos": 6976,
      "▁Six": 6977,
      "▁IN": 6978,
      "▁Tay": 6979,
      "▁Morm": 6980,
      "ooo,": 6981,
      "▁Kip": 6982,
      "▁it'll": 6983,
      "▁ugly": 6984,
      "▁econom": 6985,
      ".[closes": 6986,
      "▁that?!": 6987,
      "▁Game": 6988,
      "irm": 6989,
      "▁Host": 6990,
      "▁Hans": 6991,
      "▁within": 6992,
      "▁Dem": 6993,
      "rab": 6994,
      "▁,F": 6995,
      "inky": 6996,
      "istr": 6997,
      "▁around.\"\n": 6998,
      "aceX": 6999,
      "through": 7000,
      "beat": 7001,
      "▁enem": 7002,
      "▁Randy,\"No,": 7003,
      "▁more.": 7004,
      "▁guys!\"\n": 7005,
      "▁friend.": 7006,
      "athan,": 7007,
      "▁eyes.": 7008,
      "▁lot,": 7009,
      "▁laugh]\"\n": 7010,
      "▁bread": 7011,
      "▁balls,": 7012,
      "▁dead.": 7013,
      "▁twice": 7014,
      ",\"Get": 7015,
      "▁park,": 7016,
      "▁difference": 7017,
      "▁mind,": 7018,
      "land,": 7019,
      "coming": 7020,
      "ahahahah": 7021,
      "▁Patron": 7022,
      "▁Where's": 7023,
      "▁tonight,": 7024,
      "▁draws": 7025,
      "▁election": 7026,
      "▁rainforest": 7027,
      "▁mirror": 7028,
      "laughs": 7029,
      "▁local": 7030,
      "▁Weatherhead": 7031,
      "▁Charlie": 7032,
      "▁ninjas": 7033,
      ".[smile": 7034,
      "▁elephant": 7035,
      "▁Mongol": 7036,
      ",This": 7037,
      "-4": 7038,
      ".m.": 7039,
      "bout": 7040,
      "eks": 7041,
      "ge.": 7042,
      "o.\n": 7043,
      "het": 7044,
      "heart": 7045,
      "arrow": 7046,
      ",\"J": 7047,
      ",\"Kyle,": 7048,
      "▁hiding": 7049,
      "▁dust": 7050,
      "▁mouth,": 7051,
      "orter,": 7052,
      "ow.": 7053,
      "▁bears": 7054,
      "▁radio": 7055,
      "▁Stanley": 7056,
      "▁that!\n": 7057,
      "▁Prem": 7058,
      "▁rev": 7059,
      "▁Their": 7060,
      "▁meat": 7061,
      ",\"[approaches": 7062,
      "▁liqu": 7063,
      "▁lips": 7064,
      "▁,\"Kyle": 7065,
      "▁not,": 7066,
      "ie.\"\n": 7067,
      "▁sobb": 7068,
      "▁O'": 7069,
      "umbs": 7070,
      "▁Stan,I'm": 7071,
      "▁guinea": 7072,
      "aped": 7073,
      "aren": 7074,
      "▁alone,": 7075,
      "▁scient": 7076,
      "▁played": 7077,
      "bert": 7078,
      "▁Chef.": 7079,
      "▁Cartman,\"[walks": 7080,
      "▁hello,": 7081,
      "▁connect": 7082,
      "▁disappears": 7083,
      "▁crashes": 7084,
      "▁contain": 7085,
      "▁house.\"\n": 7086,
      "▁Principal's": 7087,
      "▁while,": 7088,
      "▁okay.\"\n": 7089,
      "▁suppose": 7090,
      ".\"\"[": 7091,
      "]Go": 7092,
      "▁underp": 7093,
      "SoP": 7094,
      "▁await": 7095,
      "▁fired": 7096,
      "▁entertain": 7097,
      "▁twelve": 7098,
      "brings": 7099,
      ",Are": 7100,
      "▁Santa,": 7101,
      "▁Maxi,": 7102,
      "▁6th": 7103,
      "▁bathroom.": 7104,
      "eezes": 7105,
      "▁media": 7106,
      "▁Coach": 7107,
      "▁screaming": 7108,
      "▁creature": 7109,
      "▁celebrities": 7110,
      "▁interested": 7111,
      "▁game,": 7112,
      "▁game.": 7113,
      "▁gentlemen": 7114,
      "▁lesson": 7115,
      "rific": 7116,
      "▁imaginary": 7117,
      "▁smoking": 7118,
      "▁bullet": 7119,
      "▁engine": 7120,
      "▁Bridon": 7121,
      "▁Handic": 7122,
      "-year-old": 7123,
      "▁Bezos": 7124,
      "M.": 7125,
      "]Kyle,": 7126,
      "ga": 7127,
      "gin": 7128,
      "h.\"\n": 7129,
      "hand": 7130,
      "hops": 7131,
      "horn": 7132,
      "jor": 7133,
      "lad": 7134,
      "uction": 7135,
      "▁till": 7136,
      "▁tong": 7137,
      "heh,": 7138,
      "▁sides": 7139,
      "▁summer": 7140,
      "▁witch": 7141,
      "arry,": 7142,
      "ising": 7143,
      "▁bank": 7144,
      "▁barn": 7145,
      "ate.": 7146,
      "lear": 7147,
      "▁you.[": 7148,
      "ow!": 7149,
      "▁onscreen": 7150,
      "▁Bush": 7151,
      "▁Pand": 7152,
      "▁Princ": 7153,
      "▁Pioneer": 7154,
      "▁Goo": 7155,
      "![g": 7156,
      "ching": 7157,
      "▁Jason": 7158,
      "elling": 7159,
      "▁ligh": 7160,
      "▁,\"Outside": 7161,
      "▁Cartman,\"B": 7162,
      "▁Cartman,\"Yeah": 7163,
      "▁Cartman,\"No": 7164,
      "ude": 7165,
      "▁Kyle,...": 7166,
      "▁,H": 7167,
      "▁,Outside": 7168,
      "▁Stan,H": 7169,
      "▁here?": 7170,
      "▁State": 7171,
      "▁her]\"\n": 7172,
      "▁vir": 7173,
      "▁vill": 7174,
      "▁whose": 7175,
      "▁other]\n": 7176,
      "▁\"\"f": 7177,
      "▁scientist": 7178,
      "]In": 7179,
      "▁blinks": 7180,
      "▁room.\n": 7181,
      "obal": 7182,
      "▁tells": 7183,
      "▁happily": 7184,
      "izing": 7185,
      "▁writ": 7186,
      "athie": 7187,
      "▁controll": 7188,
      "▁results": 7189,
      "▁busy": 7190,
      "▁design": 7191,
      "▁shots": 7192,
      "▁much,": 7193,
      "▁long,": 7194,
      "▁Blood": 7195,
      "▁leave.": 7196,
      "▁minor": 7197,
      "▁Spark": 7198,
      ",\"Hi,": 7199,
      "▁Elementary.": 7200,
      "▁passed": 7201,
      "▁leaves.": 7202,
      "▁grounded": 7203,
      "▁Elon": 7204,
      "▁protes": 7205,
      "▁relation": 7206,
      "▁Columb": 7207,
      "▁cheering": 7208,
      "▁damned": 7209,
      "▁superher": 7210,
      "▁rings.": 7211,
      "▁fishsticks": 7212,
      "after": 7213,
      "▁motor": 7214,
      "▁early": 7215,
      "▁pleased": 7216,
      "▁Disney": 7217,
      "▁Crowd,": 7218,
      "▁losing": 7219,
      "▁vaccin": 7220,
      "▁cabin": 7221,
      "▁families": 7222,
      "▁Receptionist": 7223,
      "▁Joozian": 7224,
      "-se": 7225,
      "/11": 7226,
      "VD": 7227,
      "crap": 7228,
      "iop": 7229,
      "ler,\"": 7230,
      "mon": 7231,
      "this": 7232,
      "was": 7233,
      "▁tamp": 7234,
      "an's": 7235,
      "▁sink": 7236,
      "▁bunny": 7237,
      "ated,": 7238,
      "▁hugs": 7239,
      "▁cries": 7240,
      "▁garb": 7241,
      "▁odd": 7242,
      "▁Crit": 7243,
      "▁Sy": 7244,
      "▁loved": 7245,
      "▁inf": 7246,
      "eto": 7247,
      "▁Bart": 7248,
      "▁stage,": 7249,
      ".[Sharon": 7250,
      "▁really,": 7251,
      "▁AND": 7252,
      "▁Ron": 7253,
      "▁out!\"\n": 7254,
      "▁season": 7255,
      "eling": 7256,
      "▁this!\n": 7257,
      "▁Cartman,It's": 7258,
      "▁Fred": 7259,
      "▁Fort": 7260,
      "▁like...": 7261,
      "▁them]\n": 7262,
      "▁down!": 7263,
      "▁spins": 7264,
      "▁\"\"D": 7265,
      "▁Garrison,\"I": 7266,
      "?[looks": 7267,
      "▁no!\"\n": 7268,
      "▁science": 7269,
      "▁blanket": 7270,
      "▁Kenny,\"[": 7271,
      "▁Chef.\"\n": 7272,
      "▁teaching": 7273,
      "▁nightm": 7274,
      "▁Wendy.": 7275,
      "fficer": 7276,
      "▁great!": 7277,
      "▁closing": 7278,
      "▁glances": 7279,
      "apping": 7280,
      "Three": 7281,
      "ampion": 7282,
      "▁arrived": 7283,
      "]Every": 7284,
      "▁zip": 7285,
      "▁yeah.\"\n": 7286,
      ",\"What's": 7287,
      "Huh?": 7288,
      "▁status": 7289,
      "▁Mysterion,": 7290,
      "▁screwed": 7291,
      "▁Exec": 7292,
      "ambu": 7293,
      "▁Leonard": 7294,
      "▁concert": 7295,
      "▁,\"Hell's": 7296,
      "▁hippies": 7297,
      "▁fifth": 7298,
      "▁everybody,": 7299,
      "▁character": 7300,
      "▁Airsoft": 7301,
      "▁Expert": 7302,
      "anwhile,": 7303,
      "▁aisle": 7304,
      "!)[": 7305,
      ",P": 7306,
      "Trace": 7307,
      "aver": 7308,
      "bian": 7309,
      "last": 7310,
      "lock": 7311,
      "ness,": 7312,
      "son,": 7313,
      "ino": 7314,
      "▁shat": 7315,
      "▁wand": 7316,
      "▁wine": 7317,
      "ara": 7318,
      "ita": 7319,
      "▁code": 7320,
      "▁dump": 7321,
      "▁prin": 7322,
      "▁pudd": 7323,
      "▁Custom": 7324,
      "▁Sund": 7325,
      "▁Something": 7326,
      "▁lake": 7327,
      "icious": 7328,
      "▁TO": 7329,
      "alal": 7330,
      "id,": 7331,
      "▁By": 7332,
      "keep": 7333,
      "▁Kyle?": 7334,
      "▁Stan?\"\n": 7335,
      "▁Ant": 7336,
      "▁Gn": 7337,
      "▁Gord": 7338,
      "▁Hit": 7339,
      "▁Running": 7340,
      "omeone": 7341,
      "omebody": 7342,
      "![B": 7343,
      "![T": 7344,
      "▁Det": 7345,
      "▁Dog": 7346,
      ",\"[enters": 7347,
      "rokes": 7348,
      "▁Cartman,\"Kyle,": 7349,
      "▁loose": 7350,
      "▁National": 7351,
      "ante": 7352,
      "▁OF": 7353,
      "▁Fat": 7354,
      "▁,R": 7355,
      "▁Stan,How": 7356,
      "▁guide": 7357,
      "ark's": 7358,
      "▁Street": 7359,
      "▁over!": 7360,
      "▁people!": 7361,
      "▁Garrison,I": 7362,
      "▁again!": 7363,
      "▁noise": 7364,
      "being": 7365,
      "▁blocks": 7366,
      "▁room.\"\n": 7367,
      "ine!": 7368,
      "▁God.\n": 7369,
      "▁show.": 7370,
      "▁orange": 7371,
      "▁prov": 7372,
      "▁Randy,You": 7373,
      "▁cheese": 7374,
      "▁Butters,\"Hey,": 7375,
      "▁where's": 7376,
      "ogn": 7377,
      "▁Phot": 7378,
      "ooray!\n": 7379,
      "▁Can't": 7380,
      "▁Ike's": 7381,
      "aze": 7382,
      ".\"\"]\"\n": 7383,
      "▁clears": 7384,
      "mm,": 7385,
      "▁stuff,": 7386,
      "]We've": 7387,
      "▁leaves]\"\n": 7388,
      "▁please.\"\n": 7389,
      "▁Mommy": 7390,
      "▁Brother": 7391,
      "▁single": 7392,
      "▁idea,": 7393,
      "▁caused": 7394,
      "▁building,": 7395,
      "oooooooo": 7396,
      "▁air.": 7397,
      "▁Asian": 7398,
      "idden": 7399,
      "▁grun": 7400,
      "▁Stevenson": 7401,
      "▁footage": 7402,
      "▁curb": 7403,
      "▁Conf": 7404,
      "▁color": 7405,
      "▁9/11": 7406,
      "▁#2": 7407,
      "▁m'kay?": 7408,
      "▁costum": 7409,
      "▁steal": 7410,
      "▁detect": 7411,
      "▁road.": 7412,
      "▁float": 7413,
      "▁Cruise,": 7414,
      "▁please.": 7415,
      "▁extra": 7416,
      "▁bodies": 7417,
      "▁Announcer,\"And": 7418,
      "▁racist": 7419,
      "▁information": 7420,
      "▁rifle": 7421,
      "▁profile": 7422,
      "▁Rebecca": 7423,
      "whispers": 7424,
      "▁source": 7425,
      "▁Filmore": 7426,
      ":30": 7427,
      "▁Reeve": 7428,
      "▁Lexus": 7429,
      "C.": 7430,
      "Grand": 7431,
      "J.": 7432,
      "Mom,": 7433,
      "cul": 7434,
      "eh": 7435,
      "know": 7436,
      "nger": 7437,
      "wards": 7438,
      "▁tweet": 7439,
      "▁taps": 7440,
      "▁affect": 7441,
      "▁bless": 7442,
      "▁citiz": 7443,
      "▁fec": 7444,
      "▁fence": 7445,
      "▁grou": 7446,
      "orters": 7447,
      "▁Camp": 7448,
      "▁Supp": 7449,
      "icate": 7450,
      "ase,": 7451,
      "ason,": 7452,
      "imes,": 7453,
      "ada": 7454,
      "▁Buff": 7455,
      "▁beating": 7456,
      "▁do!\n": 7457,
      ".[m": 7458,
      ".[more": 7459,
      ".[shows": 7460,
      "▁Part": 7461,
      "▁requ": 7462,
      "▁Alex": 7463,
      "▁hah": 7464,
      "▁Rabb": 7465,
      "▁semen": 7466,
      "el.": 7467,
      "▁DVD": 7468,
      ",\"[c": 7469,
      ",\"[on": 7470,
      "▁les": 7471,
      "▁libr": 7472,
      "▁this.\n": 7473,
      "▁him!\n": 7474,
      "hoho": 7475,
      "▁Lol": 7476,
      "▁Nut": 7477,
      "▁Kyle,S": 7478,
      "▁Cartman,T": 7479,
      "▁chalk": 7480,
      "▁channel": 7481,
      "▁Stan,\"It's": 7482,
      "▁down]\n": 7483,
      "▁victor": 7484,
      "▁spark": 7485,
      "ee-": 7486,
      "▁\"\"L": 7487,
      "angu": 7488,
      "angrily": 7489,
      "▁play,": 7490,
      "▁flu": 7491,
      "▁14": 7492,
      ",[turns": 7493,
      "]Aw,": 7494,
      "▁Butters,Oh": 7495,
      "ankh": 7496,
      "Stanley,": 7497,
      "▁bridge": 7498,
      "▁convin": 7499,
      "retty": 7500,
      "▁slides": 7501,
      "▁'Cause": 7502,
      "shot": 7503,
      "▁realized": 7504,
      "▁Behind": 7505,
      "▁glares": 7506,
      "▁unless": 7507,
      "▁switches": 7508,
      "utside,": 7509,
      "▁phone.": 7510,
      "▁anything,": 7511,
      "▁matter,": 7512,
      "mmmm": 7513,
      "flips": 7514,
      "▁Dadd": 7515,
      "▁desk.": 7516,
      "▁papers": 7517,
      "▁book,": 7518,
      "▁missed": 7519,
      "DoSoP": 7520,
      "▁dinn": 7521,
      "▁current": 7522,
      "▁later.\"\n": 7523,
      "▁Strut": 7524,
      "▁express": 7525,
      "Right.": 7526,
      "▁Check": 7527,
      "▁instant": 7528,
      "▁McCain": 7529,
      "▁Nothing": 7530,
      "▁figured": 7531,
      "▁Joseph": 7532,
      "▁Douche": 7533,
      "▁Dougie": 7534,
      "▁Musk": 7535,
      "heehee": 7536,
      "▁platform": 7537,
      "▁psychic": 7538,
      "▁whistle": 7539,
      "gency": 7540,
      "▁original": 7541,
      "▁Cotswolds": 7542,
      "▁Muslim": 7543,
      "▁appreci": 7544,
      "▁Gibson": 7545,
      "Red": 7546,
      "]Yeah.": 7547,
      "has": 7548,
      "iant": 7549,
      "lin'": 7550,
      "mile": 7551,
      "ish,": 7552,
      "▁barely": 7553,
      "▁hides": 7554,
      "▁dammit": 7555,
      "▁tob": 7556,
      "▁gate": 7557,
      "▁princess": 7558,
      "etter": 7559,
      "▁Tour": 7560,
      "▁Tony": 7561,
      "▁onst": 7562,
      "▁KFC": 7563,
      "key,": 7564,
      "▁ramp": 7565,
      "▁staring": 7566,
      ".[She": 7567,
      "▁Post": 7568,
      "▁Pope": 7569,
      "▁Hah": 7570,
      "▁Harri": 7571,
      "![S": 7572,
      "▁Job": 7573,
      "▁boy.": 7574,
      "▁what,": 7575,
      "▁Kyle,That's": 7576,
      "▁Kyle,So": 7577,
      "▁knowing": 7578,
      "▁FUCK": 7579,
      "▁Stan,That's": 7580,
      "▁Stan,So": 7581,
      "▁Stan,Why": 7582,
      "▁Stan,\"Cartman,": 7583,
      "abet": 7584,
      "▁clam": 7585,
      "▁clown": 7586,
      "▁click": 7587,
      "alkins": 7588,
      "?[walks": 7589,
      "▁defe": 7590,
      "iance": 7591,
      "three": 7592,
      "]Ah,": 7593,
      "▁really?": 7594,
      "▁ways": 7595,
      "ments": 7596,
      "▁startled": 7597,
      "▁Sharon.": 7598,
      "▁kids.\"\n": 7599,
      "▁work.\"\n": 7600,
      "▁Butters,\"Uh": 7601,
      "▁disp": 7602,
      "▁car.": 7603,
      "▁help.": 7604,
      "▁helped": 7605,
      "▁doing?!\n": 7606,
      "▁Inside": 7607,
      "▁town.\"\n": 7608,
      "▁screen,": 7609,
      "▁Eric!": 7610,
      "▁open,": 7611,
      "▁reality": 7612,
      "▁laugh.": 7613,
      "▁army": 7614,
      "▁second,": 7615,
      "www,": 7616,
      "▁kinds": 7617,
      "▁Liane,\"Eric,": 7618,
      "▁bad.": 7619,
      "▁money.\"\n": 7620,
      "▁fat,": 7621,
      "▁Mom.": 7622,
      "▁prepares": 7623,
      "▁angel": 7624,
      "▁Doctor,": 7625,
      ",\"God": 7626,
      "]Eric,": 7627,
      "![pulls": 7628,
      "▁Grandpa,": 7629,
      "-o-o": 7630,
      "▁bullhorn": 7631,
      "▁asshole!\"\n": 7632,
      "iverse": 7633,
      "]Hey!": 7634,
      "▁Stuart,": 7635,
      "▁homosexual": 7636,
      "▁purch": 7637,
      "▁clearly": 7638,
      "▁Afghan": 7639,
      "entlemen,": 7640,
      "walking": 7641,
      "▁capt": 7642,
      "▁interesting": 7643,
      "▁Secret": 7644,
      "▁cafeteria,": 7645,
      "▁Perhaps": 7646,
      "▁polit": 7647,
      "▁Laden": 7648,
      "▁typing": 7649,
      "▁Townsfolk": 7650,
      "▁Dawkins": 7651,
      "▁damage": 7652,
      "-Americ": 7653,
      "▁baseball": 7654,
      "▁Timmy,Timmih": 7655,
      "▁heavy": 7656,
      "▁violent": 7657,
      "▁ambul": 7658,
      "▁Pilgr": 7659,
      "▁Hospital,": 7660,
      "▁Sarah": 7661,
      "▁sixt": 7662,
      "▁Baile": 7663,
      "▁Osama": 7664,
      "ontinues": 7665,
      "▁absolutely": 7666,
      "▁Confeder": 7667,
      "Ex": 7668,
      "Got": 7669,
      "iam": 7670,
      "long": 7671,
      "tay": 7672,
      "ugh": 7673,
      "ue.": 7674,
      "uzz": 7675,
      "vention": 7676,
      "aning": 7677,
      "▁sch": 7678,
      "rep": 7679,
      "removes": 7680,
      "ison": 7681,
      "istan": 7682,
      "▁border": 7683,
      ",\"Yes.": 7684,
      "▁cri": 7685,
      "▁cris": 7686,
      "▁path": 7687,
      "▁thumbs": 7688,
      "▁lar": 7689,
      "▁lone": 7690,
      "arth,": 7691,
      "▁MC": 7692,
      "▁Mountain": 7693,
      "oo-": 7694,
      "ask": 7695,
      "uten": 7696,
      "acco": 7697,
      "▁Bets": 7698,
      "▁e-m": 7699,
      "▁sticks": 7700,
      "▁Stanley,": 7701,
      "▁Pir": 7702,
      "▁Ak": 7703,
      "irrel": 7704,
      "▁Humm": 7705,
      "▁Run": 7706,
      "![A": 7707,
      "![grabs": 7708,
      "▁anx": 7709,
      "▁Ju": 7710,
      "▁Del": 7711,
      "▁Long": 7712,
      "▁Larry,": 7713,
      "▁frustr": 7714,
      "▁Cartman,\"Come": 7715,
      "▁knee": 7716,
      "arded": 7717,
      "▁Nerd": 7718,
      "oler": 7719,
      "▁Cartman,N": 7720,
      "▁Cartman,How": 7721,
      "▁FOX": 7722,
      "▁Stan,\"But": 7723,
      "abra": 7724,
      "abil": 7725,
      "▁us?\"\n": 7726,
      "▁over.\"\n": 7727,
      "▁command": 7728,
      "▁whips": 7729,
      "eee": 7730,
      "▁Church": 7731,
      "?[turns": 7732,
      "ations,": 7733,
      "▁blast": 7734,
      "▁toward": 7735,
      "▁play.": 7736,
      "▁18": 7737,
      "ostit": 7738,
      "▁Randy,\"Hey,": 7739,
      "▁show.\"\n": 7740,
      "▁news.": 7741,
      "hh!": 7742,
      "▁Randy,Oh": 7743,
      "▁boy!": 7744,
      "▁crotch": 7745,
      "▁doing?!\"\n": 7746,
      "otten": 7747,
      "▁residence": 7748,
      "▁residence,": 7749,
      "▁before,": 7750,
      "▁before.": 7751,
      "▁open.": 7752,
      "▁opened": 7753,
      "▁Blue": 7754,
      "▁understand,": 7755,
      "▁stuff.\"\n": 7756,
      "▁Teacher": 7757,
      "]Ow": 7758,
      "▁cats": 7759,
      "▁pregn": 7760,
      "OOO": 7761,
      ",\"There's": 7762,
      "artha": 7763,
      "▁locked": 7764,
      "▁turkeys": 7765,
      "▁riding": 7766,
      "▁China": 7767,
      "▁falling": 7768,
      "▁Cartman,What?\n": 7769,
      "▁announc": 7770,
      "▁$2": 7771,
      "▁correct": 7772,
      "▁Leader,\"": 7773,
      "▁delivers": 7774,
      "▁wooden": 7775,
      "▁panic": 7776,
      "▁condom": 7777,
      "▁copy": 7778,
      "incol": 7779,
      "▁golden": 7780,
      "▁Disarr": 7781,
      "▁Sharon,\"Randy,": 7782,
      "▁prepared": 7783,
      "▁hippie": 7784,
      "fortun": 7785,
      "▁mistake": 7786,
      "▁credit": 7787,
      "▁behavior": 7788,
      "▁Imagination": 7789,
      "struction": 7790,
      "▁Reiner": 7791,
      "▁Mosqu": 7792,
      "▁assemb": 7793,
      "▁afternoon.": 7794,
      "▁houses": 7795,
      "▁Kitty,": 7796,
      "▁helmet": 7797,
      "▁Gollum": 7798,
      "'T": 7799,
      "-cl": 7800,
      "-uh,": 7801,
      "?\"\"\"\n": 7802,
      "Great": 7803,
      "hands": 7804,
      "o.\"\n": 7805,
      "▁trap": 7806,
      "▁tube": 7807,
      "anic": 7808,
      "▁sil": 7809,
      "▁sudden": 7810,
      "▁theater": 7811,
      "arp": 7812,
      "▁da": 7813,
      "▁fans": 7814,
      "▁mouse": 7815,
      "▁gingers": 7816,
      "▁pizza": 7817,
      "▁Corn": 7818,
      "▁Int": 7819,
      "▁line,": 7820,
      "▁numb": 7821,
      "ay.\n": 7822,
      "▁Tou": 7823,
      "▁Make": 7824,
      "▁Most": 7825,
      "▁it![the": 7826,
      ".[all": 7827,
      ".[cl": 7828,
      ".[starts": 7829,
      "▁Wal": 7830,
      "▁Acc": 7831,
      "![all": 7832,
      "![moves": 7833,
      "▁Jok": 7834,
      ",\"[voice": 7835,
      "raise": 7836,
      "▁Cartman,\"T": 7837,
      "▁Cartman,\"This": 7838,
      "arden": 7839,
      "▁Nat": 7840,
      "rish": 7841,
      "them": 7842,
      "▁sod": 7843,
      "olf": 7844,
      "▁Web": 7845,
      "▁here![": 7846,
      "▁clock": 7847,
      "▁claps": 7848,
      "▁roars": 7849,
      "imming": 7850,
      "ucky": 7851,
      "up,": 7852,
      "▁blond": 7853,
      "▁blame": 7854,
      "▁blonde": 7855,
      "▁flames": 7856,
      ",[f": 7857,
      "▁Val": 7858,
      "AAA": 7859,
      "▁brace": 7860,
      "izard": 7861,
      "▁disbel": 7862,
      "▁asses": 7863,
      "▁Think": 7864,
      "▁slide": 7865,
      "actor": 7866,
      "▁Tolkien.": 7867,
      "ugger": 7868,
      "]Oh.": 7869,
      "]Then": 7870,
      "exits": 7871,
      "oken": 7872,
      "▁repe": 7873,
      "▁rests": 7874,
      "▁matters": 7875,
      ",Your": 7876,
      "▁Dad.\"\n": 7877,
      "arry,\"": 7878,
      "▁leaves,": 7879,
      "▁please!": 7880,
      "▁bitch,": 7881,
      "▁wall,": 7882,
      "▁wall.": 7883,
      "▁forward,": 7884,
      "-five": 7885,
      "▁store,": 7886,
      "▁Stan,What's": 7887,
      "Can't": 7888,
      "▁Grandm": 7889,
      "▁kicked": 7890,
      "▁gasps": 7891,
      "▁Mexicans": 7892,
      "▁everybody!": 7893,
      "▁ahead,": 7894,
      "▁Nelson,": 7895,
      "▁entrance.": 7896,
      "▁Josh,": 7897,
      "▁celebrate": 7898,
      "▁bleed": 7899,
      "▁burning": 7900,
      "embers": 7901,
      "urgers": 7902,
      "▁noticed": 7903,
      "▁cruis": 7904,
      "▁African": 7905,
      "▁Laborer": 7906,
      "▁Damien": 7907,
      "▁Peruvian": 7908,
      "▁higher": 7909,
      "▁situation": 7910,
      "▁earlier": 7911,
      "▁energy": 7912,
      "▁Columbus": 7913,
      "▁disbelief": 7914,
      ")[the": 7915,
      "Alright": 7916,
      "Garrison": 7917,
      "If": 7918,
      "].": 7919,
      "]the": 7920,
      "bow": 7921,
      "bur": 7922,
      "cut": 7923,
      "▁Yeah!": 7924,
      "hears": 7925,
      "▁sings": 7926,
      "▁wrist": 7927,
      "erts": 7928,
      "▁bars": 7929,
      "▁ye": 7930,
      "▁yes.": 7931,
      "▁ped": 7932,
      "▁pian": 7933,
      "▁pushes": 7934,
      "▁Cas": 7935,
      "▁Son": 7936,
      "▁See,": 7937,
      "▁nation": 7938,
      "icip": 7939,
      "▁in]\n": 7940,
      "▁Malt": 7941,
      "▁Malkins": 7942,
      "▁hee": 7943,
      "▁heat": 7944,
      "▁roo": 7945,
      "▁stret": 7946,
      "▁that?!\n": 7947,
      "▁Poo": 7948,
      "▁Pond": 7949,
      "▁Ale": 7950,
      "▁Ah,": 7951,
      "▁Heaven": 7952,
      "opher": 7953,
      "▁Ro": 7954,
      "▁Runs": 7955,
      "![starts": 7956,
      "▁jeal": 7957,
      "▁jokes": 7958,
      "rib": 7959,
      "holic": 7960,
      "▁Lisa": 7961,
      "▁Lincol": 7962,
      "▁frame": 7963,
      "▁Cartman,\"...": 7964,
      "▁Cartman,\"God": 7965,
      "▁not?\n": 7966,
      "▁Cartman,B": 7967,
      "▁chip": 7968,
      "▁Stan,The": 7969,
      "▁Stan,\"...": 7970,
      "▁about.": 7971,
      "▁us?\n": 7972,
      "▁her.\n": 7973,
      "▁Kyle,\"It's": 7974,
      "▁Kyle,\"All": 7975,
      "▁look!": 7976,
      "▁door.\n": 7977,
      "▁did,": 7978,
      "▁again!\n": 7979,
      "▁scrat": 7980,
      "▁hands,": 7981,
      "]Ah": 7982,
      "▁Yel": 7983,
      "▁guy's": 7984,
      "▁walked": 7985,
      "▁mom,": 7986,
      "▁lovely": 7987,
      "▁kills": 7988,
      "▁serv": 7989,
      "ample": 7990,
      "ever,": 7991,
      "▁Daddy": 7992,
      "▁girls'": 7993,
      "▁awful": 7994,
      "▁Brun": 7995,
      "▁songs": 7996,
      "▁learning": 7997,
      "▁Death": 7998,
      "covers": 7999,
      "bye": 8000,
      "▁Adler": 8001,
      "▁crossed": 8002,
      "]Butters,": 8003,
      "▁purp": 8004,
      "▁Girls": 8005,
      ",\"Butters,": 8006,
      "▁throwing": 8007,
      "Timmy": 8008,
      "▁creatures": 8009,
      "Wow!": 8010,
      "▁Resident": 8011,
      "akovasaur": 8012,
      "▁distract": 8013,
      "▁extreme": 8014,
      "▁tort": 8015,
      "▁ghosts": 8016,
      "▁rubs": 8017,
      "▁upstair": 8018,
      "▁fatass!\"\n": 8019,
      "▁ignor": 8020,
      "▁portal": 8021,
      "▁characters": 8022,
      "***": 8023,
      "▁firing": 8024,
      "▁Gueermo": 8025,
      "▁claim": 8026,
      "▁miracle": 8027,
      "▁Romper": 8028,
      "▁Redskins": 8029,
      "▁Gordon": 8030,
      ".J.": 8031,
      "CH": 8032,
      "Does": 8033,
      "Hi": 8034,
      "Woohoo": 8035,
      "bles": 8036,
      "ged": 8037,
      "host": 8038,
      "ier,\"": 8039,
      "ious.": 8040,
      "ja": 8041,
      "joins": 8042,
      "like": 8043,
      "mar": 8044,
      "▁tent": 8045,
      "hey": 8046,
      "in's": 8047,
      "▁wipes": 8048,
      "erc": 8049,
      "▁bal": 8050,
      "▁hobb": 8051,
      "it!\"\n": 8052,
      "▁cent": 8053,
      "▁fund": 8054,
      "▁gn": 8055,
      "es]\"\n": 8056,
      "▁oil": 8057,
      "▁plent": 8058,
      "▁Cal": 8059,
      "▁Sen": 8060,
      "▁nu": 8061,
      "ay!": 8062,
      "icle": 8063,
      "icut": 8064,
      "▁Tooth": 8065,
      "▁Mary": 8066,
      "ase.": 8067,
      "▁Kinc": 8068,
      "▁Kathie": 8069,
      "▁Bund": 8070,
      "▁bend": 8071,
      "▁rips": 8072,
      "▁ech": 8073,
      ".[He": 8074,
      "▁Water": 8075,
      "▁Pant": 8076,
      "▁Public": 8077,
      "▁HA": 8078,
      "▁Harrison": 8079,
      "▁Holl": 8080,
      "▁Ren": 8081,
      "![throws": 8082,
      "Your": 8083,
      "▁Jambu": 8084,
      "rill": 8085,
      "▁Dec": 8086,
      "▁Loo": 8087,
      "▁Lenn": 8088,
      "owntown": 8089,
      "▁Night": 8090,
      "ieve": 8091,
      "▁Older": 8092,
      "▁back!\n": 8093,
      "▁Fre": 8094,
      "▁Helen": 8095,
      "▁,On": 8096,
      "▁chain": 8097,
      "▁Stan,\"Kyle,": 8098,
      "▁want?\n": 8099,
      "▁Shitty": 8100,
      "▁plays.": 8101,
      "▁13": 8102,
      "ment,": 8103,
      "▁Veron": 8104,
      "▁shel": 8105,
      "▁Chef,\"[": 8106,
      "▁Chef,\"Well,": 8107,
      "▁UAA": 8108,
      "▁stops,": 8109,
      "▁Cartman,\"[turns": 8110,
      "▁molest": 8111,
      "▁walkie": 8112,
      "aw,": 8113,
      "▁phone,": 8114,
      "▁Twitter": 8115,
      "]Wow,": 8116,
      "▁resume": 8117,
      "▁Before": 8118,
      "▁men,": 8119,
      ",\"Your": 8120,
      "▁listens": 8121,
      "▁Marsh.": 8122,
      "azz": 8123,
      "▁hard,": 8124,
      "▁passing": 8125,
      "▁nothing.": 8126,
      "▁done.": 8127,
      "▁dead,": 8128,
      "▁ground,": 8129,
      "▁evidence": 8130,
      "▁Michael,": 8131,
      "▁screen.": 8132,
      "▁dealing": 8133,
      "▁common": 8134,
      "▁speaking": 8135,
      ",\"[stands": 8136,
      "▁Que": 8137,
      "▁lawn": 8138,
      "▁treasure": 8139,
      "▁sends": 8140,
      "▁Coon,": 8141,
      "Wait,": 8142,
      "▁popular": 8143,
      "▁tickets": 8144,
      "▁,Cartman's": 8145,
      "▁Danish": 8146,
      "▁fact,": 8147,
      "▁Mickey": 8148,
      "▁floating": 8149,
      "▁prepare": 8150,
      "▁guests": 8151,
      "▁becoming": 8152,
      "▁ignore": 8153,
      "▁employees": 8154,
      "▁apologize": 8155,
      "▁DOI": 8156,
      "▁garage": 8157,
      "▁Gobbles": 8158,
      "▁Patrick's": 8159,
      "▁fetus": 8160,
      "▁Mingie": 8161,
      "▁Poofs": 8162,
      "▁shoppers": 8163,
      "▁Remember": 8164,
      "▁illegal": 8165,
      "▁Magic": 8166,
      "precha": 8167,
      "▁Handicar": 8168,
      "▁tongue": 8169,
      "▁relationship": 8170,
      "-to": 8171,
      "I've": 8172,
      "Of": 8173,
      "Put": 8174,
      "RR": 8175,
      "UR": 8176,
      "Welcome": 8177,
      "]Jesus": 8178,
      "case": 8179,
      "craft": 8180,
      "down": 8181,
      "eing": 8182,
      "gre": 8183,
      "iot": 8184,
      "kind": 8185,
      "nie": 8186,
      "rub": 8187,
      "tte": 8188,
      "ule": 8189,
      "▁ske": 8190,
      "▁sire": 8191
    },
    "merges": [
      "▁ t",
      "h e",
      "▁ a",
      "i n",
      "a n",
      "o u",
      "▁ s",
      "▁t he",
      "r e",
      "▁ w",
      "e r",
      "o n",
      "a r",
      "i s",
      "▁ b",
      ", \"",
      "\" \n",
      "n d",
      "a t",
      "l e",
      "▁ h",
      "i t",
      "▁ c",
      "in g",
      "l l",
      "▁ d",
      "▁t o",
      "▁ f",
      "▁ m",
      "▁ g",
      "e s",
      "e n",
      "▁ o",
      "▁ y",
      "▁a nd",
      "o r",
      "▁ p",
      "▁y ou",
      "▁ C",
      "o m",
      "o w",
      "▁ S",
      "▁t h",
      "▁ I",
      "▁ l",
      "' s",
      "▁ n",
      "a y",
      ". \"\n",
      "ar t",
      "▁o f",
      "i c",
      "▁ in",
      "u s",
      "e t",
      "▁ T",
      "e d",
      "▁ M",
      "o o",
      "a s",
      "v e",
      "a l",
      "o t",
      "▁ he",
      "u t",
      "i d",
      "a c",
      "m an",
      "▁ on",
      "▁ K",
      "g h",
      "▁ is",
      "i m",
      "art man",
      "▁ it",
      ". .",
      "t an",
      "▁C artman",
      "a d",
      ". \n",
      "ou t",
      "▁ B",
      "▁b e",
      "k e",
      "t er",
      "▁ r",
      "h at",
      "▁ u",
      "▁w e",
      "y le",
      "▁ e",
      "▁s t",
      "v er",
      "' t",
      "▁d o",
      "gh t",
      "▁K yle",
      ". [",
      "▁S tan",
      "l d",
      "k s",
      "▁ W",
      "▁th at",
      "▁ P",
      "an d",
      "a m",
      "▁ re",
      "▁ A",
      "▁ G",
      "e ,",
      "i ght",
      "▁ k",
      "▁h is",
      "i r",
      "y ,",
      "▁ H",
      "o p",
      "▁h a",
      "it h",
      "! \n",
      "▁ R",
      "▁w ith",
      "om e",
      "u r",
      "a ll",
      "! \"\n",
      "] \"\n",
      "▁f or",
      "▁u p",
      "o s",
      "! [",
      "▁a re",
      "en t",
      "c h",
      "l y",
      "▁ j",
      "s ,",
      "▁s h",
      "▁T he",
      "▁a t",
      "h ,",
      "us t",
      "he r",
      "▁ out",
      "Y ou",
      "▁s e",
      "▁a n",
      "▁g o",
      "▁m e",
      "▁ J",
      "e ll",
      "? \n",
      "r i",
      "e l",
      "▁ D",
      "\" \"",
      "▁ha ve",
      ",\" [",
      "u n",
      "r .",
      "ac k",
      "i on",
      "▁ le",
      "i ll",
      "' re",
      "▁l i",
      "s .",
      "▁n e",
      "r o",
      "▁a ll",
      ".. .",
      "▁th is",
      "▁I '",
      "r a",
      "▁ ,\"",
      "? \"\n",
      "▁h im",
      "▁c an",
      "▁B ut",
      "e a",
      "h o",
      "p p",
      "r ou",
      "▁a s",
      "▁g et",
      "▁ L",
      "▁j ust",
      "T he",
      "s t",
      "▁b o",
      "on 't",
      "▁you r",
      "▁m y",
      "on e",
      "▁f r",
      "▁Cartman ,\"",
      "c k",
      "ter s",
      "▁w hat",
      "▁l oo",
      "▁k n",
      "er s",
      "ow n",
      "ar d",
      "▁ N",
      "e p",
      "▁M r.",
      "y s",
      "r is",
      "i l",
      "i g",
      "in d",
      "▁n ot",
      "ou r",
      "o re",
      "an t",
      "s e",
      "i e",
      "▁R and",
      "a k",
      "t he",
      "▁s o",
      "▁ O",
      "u d",
      "a in",
      "o d",
      "c t",
      "a ke",
      "▁of f",
      "ou ld",
      "c e",
      "o l",
      "y ,\"",
      "n a",
      "ver y",
      "▁W e",
      "▁Kyle ,",
      "a g",
      "r y",
      "▁r ight",
      "▁ E",
      "▁kn ow",
      "▁b ack",
      "▁I' m",
      "▁Cartman ,",
      "▁d on't",
      "w ay",
      "i p",
      "▁a b",
      "▁ F",
      "i f",
      "▁H e",
      "▁ ,",
      "u m",
      "en n",
      "▁c h",
      "t o",
      "] \n",
      "▁b ut",
      "n 't",
      "▁Stan ,",
      "▁p l",
      "▁w as",
      "▁the n",
      "▁fr om",
      "id e",
      "▁g u",
      "h ing",
      "▁ You",
      "▁li ke",
      "all y",
      "▁Stan ,\"",
      "▁n ow",
      "ur n",
      "re s",
      "▁s ome",
      "H e",
      "rou nd",
      "v es",
      "t 's",
      "a b",
      "in k",
      "W hat",
      "oo d",
      "ar k",
      "▁But ters",
      "ic k",
      "▁he re",
      "Y ea",
      "▁ab out",
      "o ,",
      "▁ us",
      "▁the m",
      "n t",
      "▁d own",
      "▁the y",
      "on g",
      "▁S t",
      "▁s u",
      "▁c l",
      "e m",
      "al ks",
      "▁he r",
      "▁o ver",
      "f f",
      "e .",
      "▁g ot",
      "▁c om",
      "▁w or",
      "▁p e",
      "k ay",
      "▁the re",
      "a p",
      "▁ v",
      "▁a g",
      "op le",
      "▁K enn",
      "▁w h",
      "▁Kyle ,\"",
      "O h",
      "▁r o",
      "it t",
      "es t",
      "t her",
      "a re",
      "he n",
      "on na",
      "▁a l",
      "▁in to",
      "al k",
      "ar ris",
      "▁g onna",
      "q u",
      "▁loo k",
      "▁s p",
      "▁a way",
      "ar s",
      "▁do or",
      "▁ our",
      "he s",
      "u l",
      "ic e",
      "e e",
      "is t",
      "i le",
      "▁bo ys",
      "▁a round",
      "arris on",
      "ou s",
      "▁w ho",
      "im m",
      "▁th ink",
      "▁o ther",
      "▁ \"\"",
      "▁pe ople",
      "▁C h",
      "in '",
      "on t",
      "▁G arrison",
      "W ell",
      "▁h as",
      "▁t im",
      "▁d ay",
      "▁on e",
      "oo l",
      "as t",
      "i ve",
      "▁w ant",
      "▁k id",
      "W e",
      "▁se e",
      "▁it 's",
      "▁an y",
      "? [",
      "▁e very",
      "as s",
      "▁d e",
      "r ow",
      "u ck",
      "urn s",
      "▁d id",
      "▁the ir",
      "he re",
      "a a",
      "▁m an",
      "er ,",
      "us e",
      "▁ag ain",
      "▁n o",
      "▁s c",
      "ac e",
      "] I",
      "an g",
      "out h",
      "i an",
      "▁b y",
      "e nd",
      "e w",
      "O h,",
      "h is",
      "es s",
      "v en",
      "ak es",
      "▁loo ks",
      "u re",
      "t s",
      "▁s ay",
      "at e",
      "on d",
      "i en",
      "le s",
      "es ,",
      "at ion",
      "t h",
      "itt le",
      "▁w alks",
      "b e",
      "▁S h",
      "a ,",
      "▁can 't",
      "tan d",
      "v ing",
      "w o",
      "u p",
      "▁b l",
      "▁ne ed",
      "▁h and",
      "▁s a",
      "f t",
      "▁a pp",
      "▁to w",
      "▁pl ay",
      "▁go ing",
      "▁Kenn y",
      "r in",
      "' ve",
      "hat 's",
      "▁l ittle",
      "▁f l",
      "u ll",
      "▁S he",
      "▁P ark",
      "o ve",
      "a use",
      "▁ro om",
      "ot her",
      "oo k",
      "am e",
      "ter s,",
      "▁e x",
      "▁c ome",
      "▁ if",
      "▁he ad",
      "op s",
      "i ld",
      "▁ 1",
      "i es",
      "in s",
      "o b",
      "a it",
      "▁ en",
      "▁t r",
      "y .",
      "in e",
      "▁you 're",
      ", [",
      "B ut",
      "ac h",
      "os e",
      ".[ the",
      "re e",
      "] A",
      "os t",
      ",\" I",
      "b le",
      "er al",
      "Yea h",
      "▁tim e",
      "▁m ake",
      "▁w ill",
      "om et",
      "▁Rand y,\"",
      "▁m ore",
      "en s",
      "ic h",
      "▁re ally",
      "u h",
      "Well ,",
      "▁o p",
      "' m",
      "▁G od",
      "e c",
      "t ing",
      "▁sh ow",
      "Yea h,",
      "▁t ake",
      "▁w ay",
      "m ent",
      ",\" A",
      "ar on",
      "he f",
      "b er",
      "▁ qu",
      "![ the",
      "i re",
      "▁st art",
      "' ll",
      "e ar",
      "▁s m",
      "a ve",
      "x t",
      "▁th ing",
      "a h",
      "▁o r",
      "▁a r",
      "▁ne w",
      "s ide",
      "▁h ow",
      "▁p ro",
      "s el",
      "ch ool",
      "re at",
      "le d",
      "ri end",
      "▁But ters,",
      "▁that 's",
      "▁be en",
      "▁s omet",
      "▁Rand y",
      "▁ V",
      "▁ 2",
      "▁s he",
      "h h",
      "▁to o",
      "ir l",
      "ic t",
      "g e",
      "a u",
      "▁A nd",
      "▁Sh aron",
      "o ll",
      "o ld",
      "▁kid s",
      "? !",
      "ou nd",
      "▁gu ys",
      "an s",
      "▁w at",
      "o ck",
      "▁g ood",
      "▁C hef",
      "A A",
      "▁do es",
      "f e",
      "▁I t's",
      "▁t wo",
      "▁day .",
      "▁sh ould",
      "▁M ac",
      "kay ,",
      "▁,\" The",
      "an k",
      "▁s chool",
      "eral d",
      "an ce",
      "S tan",
      "▁Rand y,",
      "▁w ould",
      "▁Mac ke",
      "a ir",
      "r ic",
      "▁t alk",
      "▁wor k",
      "ag e",
      "▁ U",
      "it y",
      "▁t ry",
      "N o",
      "▁p ut",
      "om an",
      "as e",
      "o in",
      "C artman",
      "▁A n",
      "rin c",
      "t hing",
      "is s",
      "▁r un",
      "▁le ft",
      "rou gh",
      "od y",
      "▁t e",
      "▁c ould",
      "g et",
      "ou se",
      "▁b r",
      "▁n ight",
      "▁J imm",
      ", I",
      "▁st op",
      "▁he l",
      "t urns",
      "▁Cartman ,\"[",
      "▁M an",
      "▁c he",
      "i al",
      "▁w hen",
      "ab le",
      "▁a m",
      "▁G erald",
      "re n",
      "re d",
      "or t",
      "▁d r",
      "▁we re",
      "▁ Y",
      "s ]",
      "▁be g",
      "▁th rough",
      "▁be c",
      "▁somet hing",
      "▁t ell",
      "it e",
      "▁gu y",
      "▁The y",
      "▁we 're",
      "it s",
      "▁Butters ,\"",
      "▁c ou",
      "r ight",
      "ud e,",
      "es us",
      "▁Ch ris",
      "▁u nd",
      "▁b et",
      "m er",
      "▁ha pp",
      "▁m o",
      "ol k",
      "r ad",
      "▁We nd",
      "e ct",
      "? !\n",
      "res s",
      "▁s tand",
      "w e",
      "▁g irl",
      "er .",
      "▁on ,",
      "▁f riend",
      "rinc ip",
      "▁he ll",
      "K yle",
      "p s",
      "os s",
      "rincip al",
      "u e",
      "▁bo y",
      "▁w alk",
      "ing ,",
      "h ind",
      "▁it ,",
      "▁c on",
      "▁W hat",
      "or d",
      "▁C ra",
      "h y",
      "i z",
      "▁d is",
      "▁fr ont",
      "ing .",
      "▁m om",
      "au gh",
      "▁me an",
      "▁you ,",
      "▁c ar",
      "im b",
      "▁ne xt",
      "at her",
      "id ent",
      "an na",
      "sel f",
      "▁c r",
      "u b",
      "▁as s",
      "er ,\"",
      "▁a d",
      "o y",
      "ard s",
      "▁hel p",
      "▁ch ild",
      "▁f e",
      "an c",
      "▁w here",
      "▁re ad",
      "▁p r",
      "w alks",
      "olk ien",
      "▁h ad",
      "▁t urns",
      "t y",
      "b ody",
      "▁do ing",
      "o c",
      "▁w ait",
      "▁c am",
      "▁w anna",
      "T hat's",
      "▁go es",
      "▁,\" S",
      "t a",
      "▁b it",
      "ow ,",
      "▁st ill",
      "▁le t",
      "ak ing",
      "▁com p",
      "▁f uck",
      "▁w r",
      "▁se c",
      "at h",
      "▁b ig",
      "▁ ke",
      "▁be hind",
      "p er",
      "N o,",
      "or n",
      "f ore",
      "a w",
      "is h",
      "▁on ly",
      "▁c ont",
      "er r",
      "ed ,",
      "▁su re",
      "▁h ouse",
      "▁right ,",
      "▁b u",
      "▁he 's",
      "▁M ay",
      "▁, The",
      "ar b",
      "e ars",
      "▁be l",
      "He y,",
      "▁T h",
      "ir st",
      "ct or",
      "n e",
      "re t",
      "▁p h",
      "es .",
      "ot t",
      "▁I n",
      "▁P rincipal",
      "▁s l",
      "ac t",
      "▁tow n",
      "▁Cra ig",
      "or m",
      "o g",
      "▁T olkien",
      "▁it .",
      "ad e",
      "a ves",
      "s .\"\n",
      "▁S c",
      "t e",
      "▁ '",
      "ly d",
      "] You",
      "▁f ind",
      "▁get s",
      "T his",
      "i gh",
      "▁T w",
      "n c",
      "▁a f",
      "▁f ace",
      "▁sa id",
      "are nt",
      "p l",
      "▁l at",
      "▁e ven",
      "a v",
      "▁t akes",
      "▁did n't",
      "▁S outh",
      "▁every one",
      "▁J esus",
      "row d",
      "c hes",
      "r s.",
      "u ff",
      "▁I t",
      "▁we ll",
      "ous e,",
      "▁I' ve",
      "] H",
      "ou gh",
      "ent s",
      "ep hen",
      "] W",
      "He y",
      "▁D o",
      "▁wat ch",
      "▁ very",
      "▁be ing",
      "▁I' ll",
      "▁e y",
      "▁f in",
      "▁an other",
      "▁bec ause",
      "ow s",
      "up id",
      "s h",
      "ff ic",
      "▁th an",
      "▁a ct",
      "all s",
      "] S",
      "? !\"\n",
      "▁h ome",
      ",\" Oh,",
      "u g",
      "un n",
      "▁sc re",
      "▁e ach",
      "ac hes",
      "▁St ephen",
      "▁P h",
      "ig n",
      "▁Chris t",
      "im p",
      "▁re s",
      "▁E ric",
      "▁L ian",
      "▁h old",
      "er a",
      "O kay,",
      "l right",
      "i ous",
      "▁be fore",
      "▁h ouse,",
      "▁s or",
      "res ident",
      "▁f irst",
      "o h",
      "ing s",
      "u ch",
      "▁T his",
      "ed .",
      "▁Kenn y,",
      "▁M rs.",
      "▁a c",
      "ee k",
      "▁p art",
      "ra p",
      "▁b us",
      "▁She il",
      "▁J imb",
      "ro om",
      "o or",
      "el s",
      "D ude,",
      "▁w ind",
      "▁op en",
      "oo ks",
      "▁C lyd",
      "▁ne ver",
      "d am",
      "▁g reat",
      "▁l ot",
      "g er",
      "▁re al",
      "▁off ic",
      "d ay",
      "▁d es",
      "▁sh ot",
      "▁g ive",
      "▁B e",
      "▁wh y",
      "▁t urn",
      "▁t able",
      "ep s",
      "at es",
      "▁l augh",
      "▁ar m",
      "re 's",
      "i ly",
      "▁O ffic",
      "▁re m",
      "et 's",
      "▁cl os",
      "ar y",
      "▁the se",
      "▁d ri",
      "ic ks",
      "op e",
      "ull s",
      "▁l ove",
      "le ase",
      "▁m uch",
      "on s",
      "C ome",
      "▁Garrison ,\"",
      "▁,\"S outh",
      "▁g l",
      "a pp",
      "▁c o",
      "w n",
      "▁y ea",
      "▁c rowd",
      ". ]\"\n",
      "▁wh ile",
      "he d",
      "on ,",
      "▁l ong",
      "▁child ren",
      "▁f oll",
      "▁c all",
      "▁bet ter",
      "▁s ide",
      "] Oh",
      "▁does n't",
      "ot h",
      "▁u n",
      "▁o kay",
      "▁sec ond",
      "▁bel ie",
      "i a",
      "▁C an",
      "▁is n't",
      "▁B l",
      "▁s w",
      "ou ght",
      "a le",
      "one y",
      "as h",
      "▁know ,",
      "▁p arent",
      "▁cam era",
      "w w",
      "oo t",
      ",\" S",
      "b s",
      "▁there 's",
      "▁t ri",
      "▁I ke",
      "▁fe el",
      "▁tow ards",
      "▁beg ins",
      "at ing",
      "▁com es",
      "▁M c",
      "at ed",
      "▁got ta",
      "▁d ud",
      "▁op ens",
      "▁May or",
      "M r.",
      "em ber",
      "▁f ew",
      "▁Tw eek",
      "▁happ en",
      "o v",
      "▁m ay",
      "▁le t's",
      "id i",
      "▁sh own",
      "▁th ose",
      "' d",
      "▁ 3",
      "A nd",
      "▁T imm",
      "▁k ind",
      "] The",
      "ar m",
      "▁M s.",
      ",\" Well,",
      "▁in side",
      "I 'm",
      "▁at t",
      "▁m ade",
      "ar n",
      "▁af ter",
      "▁b re",
      "un ch",
      "▁m e,",
      "▁A ll",
      "▁le ave",
      "ut s",
      "▁B arb",
      "▁P C",
      "▁th ree",
      "T h",
      "▁m en",
      "e x",
      "] What",
      "y 's",
      "▁wor ld",
      "▁st ud",
      "▁P resident",
      "▁D r.",
      "▁look ing",
      "▁C l",
      "▁m ust",
      "▁he ard",
      "▁e nd",
      "▁o wn",
      "▁ph one",
      "▁H ow",
      "▁belie ve",
      "▁k ill",
      "▁w oman",
      "o k",
      "▁b ed",
      "us ic",
      "▁st upid",
      ",\" You",
      "▁m in",
      "W ho",
      "▁l ist",
      "▁e ver",
      "▁up ,",
      "▁ke ep",
      "▁Lian e",
      "ou nc",
      "▁b ad",
      "▁ch ang",
      "▁g i",
      "▁get ting",
      "▁h u",
      "▁p ict",
      "w ard",
      "▁s et",
      "▁re p",
      "▁wh ich",
      "▁l ast",
      "ill ip",
      "▁He 's",
      "at or",
      "▁s n",
      "um b",
      "▁S p",
      "▁cl ass",
      "▁T err",
      "▁s on",
      "U h",
      "▁M ars",
      "ers tand",
      "o on",
      "▁app ro",
      "▁night .",
      "▁th ought",
      ",\" H",
      "▁f am",
      "▁re st",
      ", What",
      "- \"\n",
      "mer ic",
      "▁Offic er",
      "r y,",
      "▁le ad",
      "▁any thing",
      "u c",
      "▁St e",
      "▁und erstand",
      "▁wind ow",
      "▁s er",
      "L ook",
      "c l",
      "▁e l",
      "▁T hat's",
      "y !",
      "ac ks",
      "▁they 're",
      "▁c are",
      "▁su pp",
      "▁Ph illip",
      "▁try ing",
      "▁hand s",
      "ers on",
      "is e",
      ".[ s",
      "ou nt",
      "▁thing s",
      "▁now ,",
      "i e,",
      "▁parent s",
      "▁We 're",
      "] D",
      "a z",
      "t ain",
      "▁You 're",
      "re et",
      "re ad",
      "le ment",
      "▁p er",
      "y .\"\n",
      "r and",
      "▁ 4",
      "But ters",
      "▁f our",
      "ho le",
      "▁ -",
      "▁Cartman, [",
      "▁Barb rad",
      "▁He idi",
      "Y es,",
      "▁W oman",
      "re am",
      "▁I f",
      ". \"\"",
      "r id",
      "ac es",
      "▁Stan ,\"[",
      "▁c al",
      "a x",
      "▁b ab",
      "i ke",
      "▁m oney",
      "▁se en",
      "i v",
      "m ore",
      "▁m at",
      "I t's",
      "ar ing",
      "▁Macke y,\"",
      "le as",
      "▁An n",
      ",\" Oh",
      ".. .\n",
      "i k",
      ".[ a",
      "▁T om",
      "▁out side",
      "▁E lement",
      "] G",
      "▁c le",
      "ea k",
      "he ad",
      "am p",
      "▁ey es",
      "▁und er",
      "get her",
      "m m",
      "very one",
      "▁run s",
      "▁f at",
      "▁st ops",
      "s o",
      "▁pl an",
      "v in",
      "▁l ight",
      "▁app ears",
      "▁wr ong",
      "▁to ld",
      "▁m usic",
      "▁Jimb o",
      "a il",
      "u ally",
      "▁f ight",
      "▁him self",
      "ud d",
      "▁s k",
      "or k",
      "▁u h",
      "▁A meric",
      "▁what 's",
      "▁pl ace",
      "▁Sheil a",
      "un s",
      "ble m",
      "s w",
      "Yeah .",
      "0 0",
      "lright ,",
      "▁start s",
      "K enn",
      "▁O h",
      "▁h ard",
      "▁se at",
      "▁sh it",
      "▁foll ow",
      "l ooks",
      "▁st uff",
      "▁every thing",
      "▁Sc ott",
      "▁p ulls",
      "ip s",
      "▁T V",
      "▁it !",
      "e ver",
      "▁m ove",
      ".. .\"\n",
      "▁c ool",
      "▁it s",
      "] Oh,",
      "▁sor ry",
      "▁s ign",
      "▁pro blem",
      "f l",
      "▁p ret",
      "en ,",
      "▁re c",
      ", You",
      "▁T e",
      "▁o ld",
      "ing er",
      "▁talk ing",
      "o ice",
      "▁to gether",
      "▁D ad",
      "rou p",
      "S o",
      "n g",
      "les s",
      "▁m ight",
      "The y",
      "H ow",
      "ion s",
      "s s",
      "▁s it",
      ".[ p",
      "am m",
      "i x",
      "▁ ent",
      "ec ial",
      "] We",
      "m as",
      "id e,",
      "▁do ll",
      "ol ice",
      "] O",
      "T hat",
      "▁u h,",
      "▁gu ess",
      "ict or",
      "we et",
      "▁p ass",
      "ar y,",
      "ie w",
      "▁qu ick",
      "ar r",
      "] M",
      "▁girl s",
      "] N",
      "▁L ind",
      ") \n",
      "▁Can ad",
      "▁el se",
      "m b",
      "it c",
      "▁le aves",
      "▁li ving",
      "▁bo x",
      "▁play ing",
      "▁,\" A",
      "um p",
      "▁S at",
      "U h,",
      "▁Kyle ,\"[",
      "▁s ound",
      "in es",
      "▁b est",
      "▁p lease",
      "im e",
      "▁pict ure",
      "f ul",
      "▁s ur",
      "a .",
      "▁s its",
      "us s",
      "▁a w",
      "in ks",
      "ver s",
      "ap s",
      "ul t",
      "r oss",
      "▁dud e",
      "a -",
      "▁p oin",
      "▁him .",
      "▁as k",
      "ien ce",
      "▁Terr ance",
      "o es",
      "▁Garrison ,",
      "▁Kenny, (",
      "▁N ow",
      "▁beg in",
      "▁C ome",
      "▁n ame",
      "▁c at",
      "▁it .\"\n",
      "e ad",
      "h .",
      "▁st reet",
      "▁not hing",
      "et er",
      "ie ld",
      "▁room .",
      "▁cou nt",
      "▁M om",
      "am n",
      "ow er",
      "▁B r",
      "▁H an",
      "AA AA",
      "▁fl oor",
      "▁ imp",
      "ke y",
      "▁Clyd e",
      "▁min ut",
      "s .\n",
      "▁p re",
      "▁st ay",
      "▁ha ll",
      "▁here ,",
      "is es",
      "▁Jimm y",
      "v ed",
      "l ing",
      "t on",
      ",\" Yeah,",
      "▁d one",
      "and s",
      "▁N ew",
      "▁t ra",
      "▁Cartman 's",
      "▁to day",
      "▁L et's",
      "▁en ough",
      "R and",
      "▁b all",
      "▁B ill",
      "ter ,",
      "▁guy s,",
      "▁T hat",
      "▁A l",
      "row s",
      "oh n",
      "o ves",
      "▁an sw",
      "▁V ictor",
      "d er",
      "▁f ire",
      "▁p erson",
      "▁list en",
      "d y",
      "▁an g",
      "A ll",
      "i pp",
      "w here",
      ".. .[",
      "▁God ,",
      "? ![",
      "▁sm all",
      "O O",
      "▁w on't",
      "▁ex c",
      "▁bit ch",
      "▁Ann ounc",
      "Y es",
      "▁ id",
      "▁m akes",
      "▁ac c",
      "an ks",
      "▁li fe",
      "i et",
      "n er",
      "os ed",
      "▁de ad",
      "▁he ar",
      "▁who le",
      "▁pret ty",
      "c ks",
      "▁h uh",
      "▁m ost",
      "! !",
      "a el",
      "▁W ell",
      "e ople",
      "i b",
      "▁fam ily",
      "▁s ing",
      "▁s ong",
      "▁g roup",
      "tan t",
      "▁cont in",
      "r r",
      "▁f un",
      "aa aa",
      "ich ael",
      "▁stand s",
      "▁c our",
      "▁him ,",
      "way s",
      "▁may be",
      "▁n o,",
      "ct ion",
      "▁se em",
      "ro ll",
      "▁g round",
      "▁M ar",
      "▁li ve",
      "W hy",
      "n ing",
      "▁mo ves",
      "i ,",
      "▁id ea",
      ",\" N",
      "▁p res",
      "▁She ll",
      "▁lat er.",
      "▁N o",
      "▁v ide",
      "▁act ually",
      "c he",
      "ow el",
      "▁us e",
      "▁Christ mas",
      "▁M y",
      "! \"\"",
      "an ,",
      "▁c a",
      "▁G u",
      "op p",
      "▁ch air",
      "re nt",
      "▁s ir",
      "▁Do ctor",
      "▁des k",
      "l y,",
      "o le",
      "▁S o",
      "▁J ew",
      "ic es",
      "▁st r",
      "▁com ing",
      "u es",
      "▁d ad",
      "▁le arn",
      "re st",
      "▁b as",
      "▁e at",
      "▁R e",
      "ell o",
      "p le",
      "▁b ro",
      "▁g ay",
      "▁we e",
      "]A nd",
      "- b",
      "an i",
      ",\" M",
      "▁g ra",
      "ter n",
      "▁ha ving",
      "▁, S",
      "s k",
      "s p",
      "▁se es",
      "ri es",
      "▁wor d",
      "▁bu ild",
      "ra w",
      "▁right .",
      "▁mean ,",
      ",\" The",
      "▁J ohn",
      "nt il",
      "▁you .",
      "▁n ice",
      "▁g un",
      "▁Kyle, [",
      "▁away .",
      "D on't",
      "▁bl ack",
      "a ur",
      "b all",
      "t akes",
      "▁e v",
      "ant s",
      "▁M ichael",
      "▁Macke y",
      "▁friend s",
      "▁m aking",
      "▁J ust",
      "le ep",
      "us h",
      "▁on to",
      "We 're",
      "oo oo",
      "are d",
      "▁1 ,",
      "▁put s",
      "▁d if",
      "oc ks",
      "▁W hy",
      "▁Wend y",
      "▁Wend y,",
      "▁there ,",
      "▁al ong",
      "?[ the",
      "▁Jimm y,\"",
      "▁a ud",
      "i ent",
      "y ou",
      "▁we 've",
      "▁en ter",
      "▁ar ri",
      "▁p ap",
      "v is",
      "en e",
      "▁b ook",
      "▁W h",
      "▁cal led",
      "it ch",
      "▁me et",
      "▁room ,",
      "▁Mc D",
      "f orm",
      "m or",
      "▁R ed",
      "▁t w",
      "▁c rap",
      "▁read y",
      "n ot",
      "it ion",
      "or ter",
      "▁say s",
      "▁Mars h",
      "- [",
      "▁you 've",
      "▁The re's",
      "▁re t",
      ",\"A nd",
      ",\" W",
      "ent ion",
      "ol og",
      "i er",
      ",\" O",
      "▁m outh",
      "▁u ntil",
      "um ps",
      "Kenn y",
      "p h",
      "s ]\"\n",
      "get s",
      "y ing",
      "ro l",
      "▁Randy ,\"[",
      "▁scre en",
      "▁a ir",
      "▁se x",
      "▁en ters",
      "▁f ound",
      "▁b oth",
      ",\" G",
      "▁de al",
      "]I 'm",
      "J ust",
      "or s",
      "▁d ress",
      "▁E l",
      "u al",
      "▁e m",
      "i ble",
      "on e,",
      "id es",
      "▁re d",
      "▁any more",
      "n ce",
      "am a",
      "▁al ways",
      "▁br ing",
      "m y",
      "▁w all",
      "▁that ,",
      "ep t",
      "ac her",
      "▁show s",
      "S t",
      "us hes",
      "▁T owel",
      "] E",
      "g g",
      "▁ ...",
      "▁say ing",
      "ec ause",
      "r u",
      "▁P ip",
      "▁w in",
      "▁m iss",
      "itt ing",
      "ar ge",
      "▁st eps",
      "▁fuck ing",
      "▁supp osed",
      "▁f unn",
      "oo p",
      "▁up .",
      "▁well ,",
      "] T",
      "b r",
      "▁for ward",
      "il led",
      "▁Element ary,",
      "▁2 ,",
      "Look ,",
      "D o",
      "b o",
      "▁me .",
      "▁McD ani",
      "] He",
      "▁b ar",
      "▁are n't",
      "w ,",
      "▁h ur",
      "▁Jimm y,",
      "▁D on't",
      "▁p ark",
      "▁Stan, [",
      "▁m ar",
      "▁A s",
      "▁ro ll",
      "re en",
      "▁I s",
      ".[ turns",
      "▁R ep",
      "No !",
      "i ed",
      "▁p ast",
      "ir d",
      "▁j oin",
      "▁again st",
      "▁h ang",
      "▁p olice",
      "▁C oon",
      "art s",
      "▁res p",
      "▁you .\"\n",
      "ir t",
[...]
